/**
  ******************************************************************************
  * @file    network_data.c
  * @author  AST Embedded Analytics Research Platform
  * @date    2025-12-26T18:10:28+0000
  * @brief   AI Tool Automatic Code Generator for Embedded NN computing
  ******************************************************************************
  * Copyright (c) 2025 STMicroelectronics.
  * All rights reserved.
  *
  * This software is licensed under terms that can be found in the LICENSE file
  * in the root directory of this software component.
  * If no LICENSE file comes with this software, it is provided AS-IS.
  ******************************************************************************
  */

#include "network_data.h"
STAI_ALIGNED(8)
const uint64_t g_network_gemm_0_weights_array[350] = {
  0x3d6a4ff2ba84a935U, 0xbf4d87d3bd0ac764U, 0x3eb1f38cbb2ce02cU, 0xbdc86142be8bd99fU,
  0x3dff77713e2dafacU, 0x3e325db9bf53190cU, 0x3e265a483e703ef5U, 0x3d70f7fcbcc20d19U,
  0xbe1321d7bd407384U, 0x3e8cc385bfe68dddU, 0x3e5cb4afbfa52fbcU, 0xbf06fff5be5d687eU,
  0xbd837ae6bd7d249aU, 0x3fa5cafc3ea003f0U, 0x3d6968e63e8000d4U, 0xbcc6b7d0bf6c3d18U,
  0x3e966feb3e9e1114U, 0x3dfd4fccbd9beba1U, 0xbc3a05403dbc791fU, 0x3e86b31fbf4a8870U,
  0x3e65b0303e2b7affU, 0xbd0b8582bde1e734U, 0xbd562fe0becf2852U, 0xbf255aa1bef510d4U,
  0x3df0050dbf15f60fU, 0xbe6100a8be7f7d60U, 0x3e8ff251bf1fc725U, 0xbf01ddec3ee50babU,
  0xbe81397cbcd7bdc4U, 0x3d4c50a4be91d1adU, 0x3f1bcb28be8705faU, 0xbd8c23b4beb1cc69U,
  0x3dbb9b1abe63b019U, 0x3cf31d783e4c01ccU, 0x3e223087be02f923U, 0x3e7953bfbc0dd8c0U,
  0x3e6cb32fbe9bd6b8U, 0xbdf90512be3264deU, 0x3e241260bf357f96U, 0xbdbce9bbbe981badU,
  0xbe3d2dcebef866eeU, 0x3f4c0b873f0e6954U, 0x3ce9a41d3c80b786U, 0x3ecbc9033c3549b0U,
  0xbf22ed0dbf739398U, 0x3d09642abf38eaacU, 0x3ec708923c9b733aU, 0x3eec45e0beb8fc69U,
  0xbeababa1be8fc975U, 0x3e157a663ca5479fU, 0xbf37a645be4a38baU, 0x3e9184683d92bd53U,
  0xbe4ffd96bea1a397U, 0xbbdae120be406aaaU, 0xbe82538b3e55dc73U, 0x3d293322be4d5e14U,
  0x3d91236cbcbe38e4U, 0xbd6ccb46bf259d24U, 0xbf12dbf03ea50341U, 0xbd512e123f315aecU,
  0x3da26ef53e49d770U, 0xbc969756be88740cU, 0x3faa77603deadc8dU, 0xbe853fcb3dd06a32U,
  0xbf288588be321480U, 0x3f4ff898bee4b96eU, 0x3ed403d33e4de0abU, 0xbeb4e2a83bb087c9U,
  0xbe07231d3ebc8344U, 0x3f31ac9d3ab8bfd3U, 0xbdb372b43c07fbfdU, 0x3ea40275bded886fU,
  0xbe72f448be6ef7feU, 0x3cbd639abf12e59fU, 0xbf21ce26bebfcd2aU, 0xbb8b39273ed275e1U,
  0xbf3b35c3bd8773c6U, 0x3d4be5adbd8b854fU, 0xbeb1eb13bf19d1c7U, 0x3e546e2f3d91d3bfU,
  0x3b01ba60be124400U, 0x3e5315743ea541b4U, 0xc003fc87be5647f9U, 0x3ebcef863de401cfU,
  0xbe21cb463dfcc8caU, 0xbd0c60673d3787ecU, 0xbd8bc3583ec41601U, 0x3ed928063e6aff40U,
  0x3b0750d83f3ae90bU, 0xbe1af9353ea5a07bU, 0xbce8592e3ea83808U, 0x3e01e5733d6e6707U,
  0xbeffca3fbe79a402U, 0xbf760c833f30368cU, 0xbf0dd949bd733ca2U, 0x3ecca0be3f25a84eU,
  0xbdecd011be012611U, 0x3de576b33da2ad69U, 0xbe9e7ecf3e2f440cU, 0xbe94347fbedc5a33U,
  0x3dd5203ebde1f3e1U, 0x3ea983403f10b0b9U, 0x3e407046be4c2bd0U, 0xbf22da2c3eb3c961U,
  0xbcd904923e6b8630U, 0xbf87e580bd962d07U, 0x3df201263e87101bU, 0x3e9009653d73c877U,
  0xbe96ec00be9d74ddU, 0xbe93c1d93ee05221U, 0x3e090cad3f19c99eU, 0x3f2679d7bdd90dbbU,
  0xbe3306033e875e77U, 0x3f6976d13e32c50eU, 0xbe13cd463da2922fU, 0xbeedf6d63cbb58b6U,
  0x3f351bbe3f13e1faU, 0x3d8e08c8be70143aU, 0xbf0e760c3d97bfd4U, 0x3e728d36bec215d8U,
  0x3e674ff1bebfe7d5U, 0xbf2296b2bda2d551U, 0xbe47eefebc6206edU, 0xbf4466c23ecbc584U,
  0x3e8c1bf73f1685bfU, 0xbef2cd5bbe96f781U, 0xbeef80e5bcd75da5U, 0xbe9f53953d444fdeU,
  0x3f321ffcbdaa7f9fU, 0xbe11bb023de45af2U, 0x3bd9ed683e3830deU, 0xbf898cb1be0f0285U,
  0xbf5ce0453ec7aaaaU, 0xbda2cfd5bcc088adU, 0x3e6be3433e9f5374U, 0xbf4fae643f0ff947U,
  0x3b7597603e706f8aU, 0xbbb30b393ca78b98U, 0xbdb3cfb6bd407ee5U, 0xbffe4ee83c3d7c5aU,
  0x3e1584c4bc39baf7U, 0x3d436ccb3d7ff7b8U, 0xbe1123c03e969665U, 0xbd3c71843e28fa63U,
  0x3dd3b49a3e8aea25U, 0xbf0f2800bed33120U, 0x3ed9bc2c3f189f45U, 0xbcdfbd073c986e89U,
  0xbebc1e9c3f27d242U, 0x3e5e9bdb3e89db40U, 0x3c92b41ebd93e6fbU, 0xbdcec4bdbe026d50U,
  0xbd4d6612bf17501dU, 0xbf2d394dbf38c64aU, 0xbe85c01d3ec9ddc0U, 0xbe66ec3ebce7e0d0U,
  0x3e932e3ebc3187d4U, 0x3d006ceabf17d1fbU, 0x3d5b6a14bf41e703U, 0xbee25aac3e836070U,
  0xbf04492a3eaf1ac6U, 0x3c44a0de3e772410U, 0xbf18524fbd2c1a94U, 0xbeca8a9f3f31f265U,
  0xbde394103ee9539aU, 0x3f076bee3e606c84U, 0x3eb7fe92bf1d7e78U, 0xbf2563ac3e7faff7U,
  0x3e19c1273abedca3U, 0x3db479503d0e141aU, 0xbe17750b3c722834U, 0xbd9452e0bfbd8625U,
  0x3dacc0fe3e9620ceU, 0xbf3afeeabe762d4fU, 0xbf02e4f9be8e7648U, 0x3e6e1ef4bd537a84U,
  0x3ea9d7c6bda37e61U, 0xbe7cf16b3f3b9645U, 0x3d5f10073f9065beU, 0x3f177850bcae3103U,
  0xbf0a5ac3bed39ed0U, 0x3c209a443f0bf6f3U, 0x3dc625613d627b5cU, 0x3eaff6743d89c234U,
  0xbd2ec3ecbf1f51d5U, 0x3f7b5d70bc608909U, 0x3dda022ebdf34b21U, 0x3d10004cbdbf57beU,
  0xbd1e72bdbd7f959eU, 0xbe4ae3383e9c10a3U, 0x3e8e14da3e811fbcU, 0xbeebc8b9bf6d4e3bU,
  0xbeb689e83f0baa6dU, 0xbde322e83ebd83b0U, 0xbea820443e11efeaU, 0x3d295e783e0e0ae8U,
  0x3d780690bc35d668U, 0xbf0fddb03d2a940aU, 0x3f359981be4b20c1U, 0xbe6178c8bf03c4b1U,
  0xbe5656c63e989d31U, 0x3e70b46abec5beaaU, 0x3f4cfe013efe0820U, 0xbf194e183ee802d0U,
  0x3f16c8173e809ba1U, 0xbf1fb3213d427250U, 0xbb66eac3bed46a09U, 0x3e2f1c973d0fab59U,
  0xbf836381bee605b7U, 0xbef4467abece1e6cU, 0x3e82521bbe2b511dU, 0x3e3925af3d85fe6fU,
  0xbe2b865b3ee8e850U, 0x3dc26f443f341522U, 0xbefea89e3e81903fU, 0x3ea05d59bdbe7022U,
  0x3e945792bd40ff55U, 0xbe3b4a223e00d0d1U, 0xbde2c29cbf4ffbcbU, 0x3f10c73abeb8a575U,
  0xbdb06643becd962fU, 0xbda92079be1eee1dU, 0xbf3584523e662755U, 0xbe2c54833e913561U,
  0x3df5a81ebceebe0cU, 0x3dddeacb3e5fe113U, 0xbfaf172f3efa5c59U, 0xbe875c81bd86d6c9U,
  0x3ef4b1023f1be780U, 0x3e2aa804befe06d1U, 0x3dfc46573e002d42U, 0x3f18ea11bee32c5fU,
  0x3e3ce1aa3ec7ec51U, 0xbe8c054abec42b68U, 0x3f8313743f1cd6d0U, 0x3de24fb13c8a9b3eU,
  0xbd91a4b93ebd515eU, 0xbe72b332be51107fU, 0xbe8d1ff7be838d48U, 0x3e9356fd3dfa0926U,
  0x3ea7664bbe92ab96U, 0xbe18afdf3e096d4fU, 0x3e26a3f23ec73df8U, 0xbdae2874bf43bf1fU,
  0x3d9f783f3ee08442U, 0x3d7d4539bce2af1bU, 0xbebef5923f0ad31cU, 0x3edc58b6be81dcc4U,
  0xbc22b9323f7064e7U, 0x3bd93b7a3d8cb54bU, 0xc00e73d73e572bc2U, 0xbe3282d03ec372dfU,
  0xbde7d0eb3d909d77U, 0x3f0dd051bf1ece1cU, 0xbec3849b3e8fef94U, 0xbbf2afc0be466ae0U,
  0xbef8f3e7bebebd7fU, 0xbf762a8a3edeac58U, 0xbd1294e0bd11d864U, 0x3ea5bac5bcf978c3U,
  0x3e863342bdd88835U, 0xbf04eb3a3ea02ea9U, 0xbcc2352abc397c30U, 0xbf2e70f53ec8c22eU,
  0xbc6d7a34beaaaef8U, 0x3dbc9ac03e989f67U, 0x3f06a3a53f172647U, 0xbe9adf9e3ec84674U,
  0x3d8c338abe169a4cU, 0xbca94848bf05c431U, 0x3e14984b3e98e68cU, 0x3ebb76f33e367189U,
  0x3f030e5abf50f537U, 0xbc479d2e3ad2dc6cU, 0xbe2f14393ce233ffU, 0xbe4fde1b3f12edcbU,
  0xbe13ba963f56efbbU, 0x3e96e2603e8e8b99U, 0x3e6998febf448c87U, 0xbf73e4e2be675934U,
  0xbc68b271bea324a6U, 0x3f2f87c03e789606U, 0xbf13bef13d053919U, 0xbe61e2e7be0f8aaeU,
  0xbb491e7b3ef5f5d2U, 0x3e5013c73d5e69ecU, 0x3e36bc3abbdd61a3U, 0xbf1468223d1c9f7aU,
  0xbe339c563e958954U, 0xbf318979bf5e686bU, 0xbd8425febe1b3189U, 0x3d9e3793bea21750U,
  0xbde6c9843e897d43U, 0xbdb7508dbe999019U, 0xbebcc7603e2017cbU, 0x3dc834cfbec6ffc3U,
  0x3e9bb14abe12596eU, 0x3f0da728becf43f2U, 0x3f0833a03c678b7eU, 0xbdc400c53e5f0e9dU,
  0xbe89e8683e2bef8aU, 0xbd6af8343e59e0acU, 0x3d09a139bcf6ee9fU, 0xbde6b8c73f0b3c7bU,
  0x3ed1e88c3efd3e92U, 0xbea730a4be8b6465U, 0xbecab4e93e425e81U, 0xbe6a8df6be0459f8U,
  0x3f0ae9c13f72672cU, 0x3e2e3aec3ef137acU, 0xbdedbc203cc588a2U, 0xbbd1fe4a3de10552U,
  0x3eab16363ecf5400U, 0x3e29586ebf25f2abU, 0x3cdff4003e71ab23U, 0x3e4f4d833de6f917U,
  0x3edc6acbbf2e43acU, 0xbe992c29be0e6280U, 0xbcda96243f3cafd4U, 0x3e8c9b853edd186eU,
  0x3e2d4629bf49d5a1U, 0xbeb7e5c6be0e0026U, 0x3f6f2ea4be3f1e9bU, 0x3e2534eabf060e96U,
  0x3c71aeafbe44efbeU, 0xbe934a44bea37a8dU, 0x3e57edd8bd173885U, 0xbf8ec79a3dfbbdd6U,
  0x3ea17b053efb70a9U, 0xbeb863393df429c9U, 0xbe0cf34a3e6da54aU, 0x3ea1bc04bf01676fU,
  0xbd189ba1bea613daU, 0xbf08d817bd138329U, 0xbeae1e7d3e997484U, 0xbf8cd753bd8eaa17U,
  0x3c38a66ebd957e33U, 0xbe33ead53dbaa273U, 0xbf9e95cebd0d54beU, 0x3df7260e3ead16e4U,
  0xbe27b2a1be761be4U, 0xbe8e328a3e9e77f1U, 0x3ee70a15bde2a8e1U, 0xbe23ace13c1bfab1U,
  0x3ea89156be893b73U, 0xbf390ee5bd77feeeU, 0x3e0d6e97bf86a34cU, 0xbdb7745fbdbffddbU,
  0xbe8779adbeda9f4aU, 0x3f953f263f265fe1U,
};

STAI_ALIGNED(8)
const uint64_t g_network_gemm_0_bias_array[50] = {
  0xbe80ee47be8a3393U, 0xbcf9f42a3d36bc86U, 0xbe09ff07be3c095eU, 0xbe060757beb59923U,
  0xbd918369bd5edc53U, 0xbdf781c03e097349U, 0x3dadc5733e0e21d5U, 0xbdf9b7d2be5c6581U,
  0xbd689c8cbe91daf9U, 0x3e080592be88a696U, 0xbe3d1dcd3dbcd4adU, 0x3d7ba56dbec05f88U,
  0xbf005462bc9b980fU, 0xbd746a77be9bb998U, 0xbe0ab300be99eec8U, 0xbdf28d18bed86c49U,
  0x3d6f9398bf746daaU, 0xbd5dd5ebbea6ba6eU, 0x3db721d1be270bbcU, 0x3e71f99d3de2a520U,
  0x3d0c62db3c73796aU, 0xbece91733e892983U, 0xbe2fa5c73e4f7f07U, 0x3e01175e3c2ab242U,
  0x3cfbde753e9bfb90U, 0x3e7824ac3e4c9874U, 0x3d3daaea3d722e4aU, 0xbd521d333c807466U,
  0xbe4b21303d3eff0fU, 0xbe615226bedc6924U, 0xbd5dd9793d4606f1U, 0xbe92d653be91c545U,
  0x3d19d5993c016fb5U, 0xbe990edfbd4986b2U, 0xbdc1e3ff3d0fec39U, 0x3d39aa3a3de0af34U,
  0xbe8e66343dcb5820U, 0xbe5af39d3e54a1fdU, 0x3e31d622bebc1ac9U, 0xbe14f640bdcc1d80U,
  0x3e04b8b3be53d3a4U, 0xbd1898f5bebd7fa6U, 0xbf6c04c3bd022870U, 0x3e3e2ac93d7406cbU,
  0x3e147e6bbfcfaedcU, 0xbd880dcc3caa5253U, 0xbddcc759be005117U, 0xbb187123bdc0b971U,
  0xbdcbf3f4bea5faa0U, 0xbd5756e6bd5bd52fU,
};

STAI_ALIGNED(8)
const uint64_t g_network_gemm_1_weights_array[5000] = {
  0xbea17a87be7facabU, 0xbeb5a9d8U, 0xbf90a86ebe49d928U, 0xbe9ac016bdbc6448U,
  0x3c574e093d217a87U, 0xbe574e09bda17a87U, 0xbe64c2ea3e9405a6U, 0xbc574e093cd74e09U,
  0x3d217a873e7facabU, 0x3dbc6448beb5a9d8U, 0x3e7facab3ea17a87U, 0xbea17a87beaeef67U,
  0xbda17a873e2eef67U, 0x3d574e093cd74e09U, 0x3e49d928bf2eef67U, 0x3e9405a63ea17a87U,
  0x3c574e09be9ac016U, 0x3e9405a63effacabU, 0xbebc64483c574e09U, 0xbd574e09be217a87U,
  0x3d574e093e2eef67U, 0xbdbc64483c574e09U, 0x3ebc6448bdf237caU, 0xbdd74e09bfd59f6dU,
  0x3e9405a6bd217a87U, 0x3dbc64483dd74e09U, 0x3cd74e093dd74e09U, 0x3d574e093e574e09U,
  0x3ed74e09beeb7d5aU, 0x3e64c2ea3da17a87U, 0xbf1405a63e49d928U, 0xbc574e09bfd3f0d1U,
  0x3e1405a63dbc6448U, 0x3e3c64483ea834f7U, 0xbc574e0900000000U, 0xbea17a873e8690c6U,
  0x3e3c64483ede0879U, 0xbf2834f7be0690c6U, 0x3e2eef673d8690c6U, 0xbd217a87be8690c6U,
  0x3ec31eb8be49d928U, 0x3dd74e093da17a87U, 0xbd217a873eeb7d5aU, 0xbd8690c63e7facabU,
  0xbede0879be1405a6U, 0x3df237ca3df237caU, 0xbc574e09bf2b922fU, 0xbd574e093e64c2eaU,
  0x3dd74e09bda17a87U, 0xbe574e093ea834f7U, 0xbf834fadbf3c0cf7U, 0x3eefed3c3f04eeafU,
  0x3e8ea8bcbed5fd1aU, 0x3d9ba0cdbe2898deU, 0xbe4289003e5c7922U, 0x3f1524c4bf4f8111U,
  0xbde971333ea21cd5U, 0xbe9ba0cdbfcde20fU, 0x3f01b0abbe2898deU, 0x3e3590ef3c4f8111U,
  0x3ec28900bde97133U, 0x3ec905083ea898deU, 0xbe0ea8bcbd9ba0cdU, 0x3e8ea8bcbedc7922U,
  0xbdb590efbdcf8111U, 0x3d81b0ab3d81b0abU, 0xbde97133be2898deU, 0xbef66944bf9385c2U,
  0x3e9ba0cdbebc0cf7U, 0xbe1ba0cdbd81b0abU, 0x3f01b0ab3d1ba0cdU, 0x3db590efbe1ba0cdU,
  0x3f01b0abbe1ba0cdU, 0x3d81b0ab3e0ea8bcU, 0x3e9ba0cdbf6fed3cU, 0x3eaf14e63dcf8111U,
  0xbde971333e5c7922U, 0xbebc0cf73d81b0abU, 0x3d1ba0cdbf7ce54dU, 0x3de97133beb590efU,
  0xbe2898de3db590efU, 0x3e3590ef3f2bd6e2U, 0x3e3590efbea21cd5U, 0xbebc0cf73e697133U,
  0xbf5fb7263ccf8111U, 0x3f2bd6e23e9ba0cdU, 0xbe4f8111bf01b0abU, 0x3db590ef3d4f8111U,
  0x3e1ba0cd3eaf14e6U, 0x3ee97133bccf8111U, 0x3e2898debde97133U, 0xbec90508bea898deU,
  0xbccf8111be1ba0cdU, 0xbe01b0ab3d4f8111U, 0x3e5c79223e428900U, 0xbea21cd53f1524c4U,
  0x3ebc0cf73d4f8111U, 0x3e4f81113e81b0abU, 0x3de97133be428900U, 0x3efce54dbe0ea8bcU,
  0xbeb2adf4bf49fc4bU, 0xbdba72bcbdd985dbU, 0xbe690f6abd7898faU, 0xbeba72bcbe87f3a9U,
  0x3cf898fa3e423783U, 0xbe614aa33e0bd60dU, 0xbcf898fabe139ad4U, 0x3ed985db3df898faU,
  0x3d7898fabc7898faU, 0x3d1b5f9cbf002ee1U, 0x3f0220133d7898faU, 0xbe690f6a3e139ad4U,
  0xbd7898fa3d5985dbU, 0xbdd985dbbf060277U, 0xbde90f6abe9b5f9cU, 0x3e690f6abcf898faU,
  0xbe51c1133e7898faU, 0xbd3a72bcbcf898faU, 0x3e139ad43d5985dbU, 0x3e802ee13df898faU,
  0x3eb2adf43dc9fc4bU, 0xbf4428b53d1b5f9cU, 0x3e8fb871bdc9fc4bU, 0x3e139ad4be841145U,
  0x3e9f42003eba72bcU, 0x3d1b5f9c3ed1c113U, 0xbd3a72bc3e1b5f9cU, 0xbdaae92cbf2ecb90U,
  0x3e32adf43bf898faU, 0x3e4237833e3a72bcU, 0x3e3a72bc3eaecb90U, 0xbd3a72bc3ee14aa3U,
  0xbebe551fU, 0xbdaae92cbbf898faU, 0xbe49fc4b3e9b5f9cU, 0xbe9b5f9cbe041145U,
  0x3ec619e73d7898faU, 0x3e2324643e9f4200U, 0xbdba72bcbebe551fU, 0xbf76a7c83c7898faU,
  0x3e5985dbbd3a72bcU, 0x3e041145bf232464U, 0xbe51c113bbf898faU, 0xbbf898fabd8bd60dU,
  0x3e041145bf2ae92cU, 0xbd9b5f9c3de90f6aU, 0xbe0bd60dbe49fc4bU, 0xbe232464bd5985dbU,
  0x3e139ad4bc7898faU, 0xbcf898fabf1f4200U, 0xbd41c02dbf375f06U, 0xbdcf970bbecf970bU,
  0xbe5d6dea3e6b44c9U, 0xbdb3e94ebea29cb8U, 0x3d791ba73f322e72U, 0xbe115022bdcf970bU,
  0x3e2cfddfbca61270U, 0xbe33e94ebe6b44c9U, 0xbdb3e94ebe8dda6aU, 0x3dc1c02dbf5bb30eU,
  0xbd983b913dc1c02dU, 0xbdb3e94ebeb75f06U, 0x3d0a64b23db3e94eU, 0x3d2612703ea61270U,
  0x3e261270bf1bb149U, 0x3e037943bedd6deaU, 0xbe3ad4bd3dcf970bU, 0xbd5d6deaU,
  0x3d41c02d3d983b91U, 0x3e2612703c5d6deaU, 0x3e0379433bdd6deaU, 0xbebad4bdbdeb44c9U,
  0xbe9150223e915022U, 0xbe80038bbe2cfddfU, 0x3d5d6dea3ec8ab9cU, 0x3e0a64b23e0a64b2U,
  0xbe6b44c9be4f970bU, 0x3dc1c02d3da61270U, 0x3e8dda6a3d5d6deaU, 0x3dc1c02d3e1f2700U,
  0x3dc1c02d3d41c02dU, 0xbd2612703e3ad4bdU, 0xbe8379433e56827bU, 0xbd791ba73d5d6deaU,
  0x3db3e94e3e183b91U, 0xbe33e94ebdeb44c9U, 0xbee0e3a23da61270U, 0xbe41c02d3df91ba7U,
  0x3ea61270bbdd6deaU, 0xbe8dda6abe915022U, 0x3dcf970b00000000U, 0xbcdd6deabee45959U,
  0x3ee7cf11U, 0x3d0a64b2bd261270U, 0xbe6b44c9bea29cb8U, 0xbea988273c5d6deaU,
  0x3f1d6c243ef5a5f0U, 0xbef23038bd8a64b2U, 0x3e037943bcdd6deaU, 0xbe26127000000000U,
  0x3f0878273f5877f8U, 0x3e96963dbf11e18bU, 0x3e03c3753eeb4abfU, 0xbec5a530be8d2cd9U,
  0x3e8d2cd9bf7968d5U, 0xbde1e15cbf3c3bccU, 0x3c96963dbeb2d268U, 0x3de1e15c3e74b423U,
  0x3d61e15cbe03c375U, 0x3e74b4233d61e15cU, 0x3e16963dbe3c3bccU, 0xbec5a530be83c375U,
  0x3e96963d3e61e15cU, 0x3e2969053f03c375U, 0xbd16963d3e296905U, 0xbe9fffa1bd96963dU,
  0xbec5a530U, 0xbf66960dbf0d2cd9U, 0xbe4f0e94U, 0xc0130eb83ebc3bccU,
  0xbe16963d3de1e15cU, 0x3d61e15c3e16963dU, 0xbef4b423befe1d87U, 0xbf0878273e4f0e94U,
  0xbd61e15cbfa96905U, 0xbd96963d3d96963dU, 0x3e296905be3c3bccU, 0xbe3c3bccbc96963dU,
  0xbe2969053de1e15cU, 0x3d96963d3dbc3bccU, 0x3d61e15c3e296905U, 0xbe2969053e296905U,
  0x3e83c3753d61e15cU, 0x3de1e15cbde1e15cU, 0xbd16963d00000000U, 0xc01569113e74b423U,
  0x3d96963dbc96963dU, 0xbdbc3bcc3e03c375U, 0x3dbc3bcc3e03c375U, 0x3eeb4abf3ebc3bccU,
  0xbd16963dbe296905U, 0x3efe1d873ecf0e94U, 0x3d16963dbc96963dU, 0x3de1e15c3e03c375U,
  0xbd61e15cbe96963dU, 0x3eb2d268bd96963dU, 0xbea96905be3c3bccU, 0xbde1e15cbeb2d268U,
  0x3e83c3753ecf0e94U, 0xbd16963dbf087827U, 0x3dcb03dd3f646458U, 0x3ebfbc89bd0757e8U,
  0x3eba18e03e8757e8U, 0x3d0757e83e347536U, 0x3d6192843e4b03ddU, 0x3e6192843df8212aU,
  0xbf01b43fbe8757e8U, 0x3df8212a3e8cfb92U, 0x3df8212a3e129f3cU, 0x3e129f3c3e8757e8U,
  0x3df8212a3d9de68fU, 0xbe4b03dd3f3a18e0U, 0x3e4b03ddbe8757e8U, 0xbeb475363e347536U,
  0xbe1de68f3e9842e6U, 0xbe129f3cbe8cfb92U, 0xbf0cfb92bdcb03ddU, 0x3d619284bdb47536U,
  0x3d0757e8be0757e8U, 0xbf048614bea92de3U, 0x3cb475363cb47536U, 0x3f53795bbf78212aU,
  0xbe3fbc89U, 0x3c3475363c347536U, 0xbdf8212abe292de3U, 0xbf37470b3eaed18cU,
  0xbea92de33f048614U, 0x3e347536be1de68fU, 0xbe1de68f3e619284U, 0x3ecb03dd3e0757e8U,
  0x3d9de68f3de19284U, 0x3e9842e63cb47536U, 0xbf7af2ff3e0757e8U, 0xbd619284bfb30c4cU,
  0xbe8757e8be3fbc89U, 0xbe347536bee7362dU, 0x3ea38a393e8757e8U, 0x3d619284bd619284U,
  0xbe564b30bec56033U, 0x3db475363e619284U, 0xbd9de68f3db47536U, 0x3de192843f3ceab5U,
  0xbf1842e63e619284U, 0x3e8cfb92bd619284U, 0xbcb475363d619284U, 0xbdf8212a3e9de68fU,
  0xbec56033bf6a0802U, 0x3e3fbc893db47536U, 0x3df8212a3ea92de3U, 0x3eba18e03e347536U,
  0x3eb08fed3e81d33dU, 0x3dbaf2bebf0c360fU, 0x3ec55590bea0fbb2U, 0x3eab5e84bea62d1bU,
  0xbee9af6e3ebaf2beU, 0x3df943a8bca62d1bU, 0x3df943a8bec55590U, 0xbd7943a8bc262d1bU,
  0x3e4fb862bd7943a8U, 0xbf9698e03ef943a8U, 0xbde47e05be4fb862U, 0x3e262d1bbde47e05U,
  0xbf94002cbe8704a6U, 0x3e81d33dbde47e05U, 0xbebaf2bebdf943a8U, 0x3e5a1b33bf7bdc5dU,
  0xbe0704a6bfa4e0c1U, 0xbf5f4c9cbc262d1bU, 0x3e81d33d3d262d1bU, 0x3f455590bea0fbb2U,
  0x3e1bca49bdf943a8U, 0xbe647e053d262d1bU, 0xbf647e053e3af2beU, 0x3eb08fed3d4fb862U,
  0x3ea0fbb23ee9af6eU, 0x3e647e05bd916778U, 0x3e116778beab5e84U, 0x3eab5e84bd262d1bU,
  0x3efe75113ec55590U, 0xbdcfb8623e116778U, 0x3c262d1b3dbaf2beU, 0xbe308fedbea0fbb2U,
  0x3e81d33dbe1bca49U, 0xbe308fedU, 0x3ebaf2bebe81d33dU, 0xbf046bf23da62d1bU,
  0xbe9698e0bf0704a6U, 0xbe9698e03e6ee0d7U, 0x3e3af2bebc262d1bU, 0x3e5a1b33bdbaf2beU,
  0x3e5a1b33bdf943a8U, 0xbeda1b33bf099d5aU, 0xbef41240be5a1b33U, 0xbecfb862be455590U,
  0x3ef41240be116778U, 0x3e5a1b33beda1b33U, 0xbeca86f9bf116778U, 0xbe8704a6be455590U,
  0xbee9af6ebf3328a1U, 0x3e5a1b33bfa0fbb2U, 0x3d8bf7603db7e097U, 0xbda4aa8fbaafa4ddU,
  0x3d5093c6bca4aa8fU, 0x3cf182b0bd668862U, 0x3bafa4dd3bafa4ddU, 0xbd3a9f2b3d4b16a0U,
  0xbcd093c6bdc59979U, 0x3d401c523d5093c6U, 0xbda76923bdc2dae5U, 0x3dc5997900000000U,
  0x3d3a9f2bbd96f1aeU, 0xbd76ffd7bdb52204U, 0xbdd093c6bd99b041U, 0xbdaa27b63d5093c6U,
  0xbd80fd12bdcdd533U, 0xbd668862bcdb8e14U, 0xbdb7e097bdec0589U, 0xbda4aa8fbcfc7cfeU,
  0xbd3522043ca4aa8fU, 0xbd5610ed3d2fa4ddU, 0xbdc01c523daa27b6U, 0x3b2fa4dd3bafa4ddU,
  0xbd6688623c83bba6U, 0xbcba9f2bbde946f6U, 0x3bafa4dd3ca4aa8fU, 0x3da1ebfc3ca4aa8fU,
  0xbd80fd12bdb7e097U, 0xbb83bba6bdbd5dbeU, 0xbca4aa8fbe2e4593U, 0xbc459979bca4aa8fU,
  0xbd14331abcdb8e14U, 0x3cafa4ddbde68862U, 0xbd867a39bdd610edU, 0xbc8eb5f4bdb7e097U,
  0x3d0eb5f400000000U, 0xbdd8cf813b2fa4ddU, 0x3d5b8e14bd5610edU, 0x3dc2dae53d1f2d68U,
  0x3d5093c6bc8eb5f4U, 0x3d2a27b6bda1ebfcU, 0x3d83bba6bdb7e097U, 0xbe276923bdec0589U,
  0xbd19b041bd0938cdU, 0xbcc59979bd8eb5f4U, 0xbc7182b03d5610edU, 0xbde68862U,
  0x3d5093c63db52204U, 0xbe1dce1fbe00fd12U, 0xbc03bba63d4b16a0U, 0x3d6c0589be1dce1fU,
  0x3ec1102cbed83b13U, 0x3e1a7357bff530b3U, 0xbe771ef1be9a7357U, 0xbe92ba5f3ee7ad02U,
  0x0U, 0xbe48c9243e8b0168U, 0x3e29e5463e29e546U, 0xbe395735bec1102cU,
  0x3ea9e5463e29e546U, 0xbd9a7357bf6f65f9U, 0xbe583b133d395735U, 0xbe29e5463e0b0168U,
  0xbc771ef1bd771ef1U, 0xbed83b13be8b0168U, 0x3e771ef1bed83b13U, 0x3d395735bf1e4fd2U,
  0x3e48c924be834870U, 0x3f0348703ed0821bU, 0xbf222c4ebf034870U, 0x3e583b133e0b0168U,
  0x3e0b01683d9a7357U, 0xbe0b01683cf71ef1U, 0xbf0724ecbe834870U, 0xbcf71ef13e0b0168U,
  0xbd771ef13ea22c4eU, 0xbdd83b133ea22c4eU, 0xbdf71ef13e583b13U, 0x3ea9e546bd771ef1U,
  0x3d771ef1be834870U, 0xbdf71ef1bdb95735U, 0x3dd83b133db95735U, 0xbea9e546bf5ff40aU,
  0x3e29e5463e8b0168U, 0x3cf71ef1beb95735U, 0xbd3957353c771ef1U, 0xbfb38c7b3e8b0168U,
  0xbe0b01683ea22c4eU, 0xbea22c4e3ec8c924U, 0x3ee7ad02be395735U, 0x3d3957353e0b0168U,
  0x3ed0821b3e0b0168U, 0x3db95735bd771ef1U, 0xbd395735be48c924U, 0xbdf71ef1bcf71ef1U,
  0x3ec8c924be834870U, 0xbe583b133e8b0168U, 0xbee7ad02be29e546U, 0xbdd83b13be8b0168U,
  0xbdd83b13beb19e3dU, 0xbdb957353d771ef1U, 0xbf0ee00fc00dc24fU, 0x3e0ee00f3e0ee00fU,
  0x3d565016be7a081aU, 0xbe85f20e3ea0bc11U, 0xbe97ce10U, 0x3d0ee00f3c8ee00fU,
  0x3d0ee00f3ecd6216U, 0x3e682c18bf0ee00fU, 0x3e5650163ea9aa12U, 0xbec47415bf97ce10U,
  0xbdb2981300000000U, 0x3e20bc1100000000U, 0xbf75911abd8ee00fU, 0xbdb298133f3b8614U,
  0xbf017b0e3e329813U, 0xbf3b86143e329813U, 0xbec47415bed65016U, 0x3e5650163e7a081aU,
  0xbe0ee00fbe0ee00fU, 0xbe4474153e20bc11U, 0xbf017b0ebe447415U, 0x3f1c4510be8ee00fU,
  0xbe7a081a3c8ee00fU, 0xbf4d62163ea9aa12U, 0x3ea9aa123dd65016U, 0xbea0bc1100000000U,
  0xbf5ac717bd0ee00fU, 0x3e329813bdb29813U, 0xbea0bc11bf3ffd14U, 0x3f05f20ebf682c18U,
  0x3e3298133e329813U, 0x3e20bc11bf0ee00fU, 0xbf5f3e173efa081aU, 0xbf9c45103e20bc11U,
  0xbf817b0ebd8ee00fU, 0x3edf3e17be565016U, 0xbea0bc113d8ee00fU, 0x3e20bc113dfa081aU,
  0x3e97ce1000000000U, 0xbf83b68e3e97ce10U, 0xbe7a081abe0ee00fU, 0xbc8ee00f3f017b0eU,
  0xbe85f20ebe8ee00fU, 0xbd0ee00f3d8ee00fU, 0xbf0ee00fbeb29813U, 0xbf25331100000000U,
  0x3e3298133f63b518U, 0x3d5650163c8ee00fU, 0x3f48eb15U, 0xbd8ee00f3e20bc11U,
  0xbdb81a84bea11734U, 0xbe91bfa83e8a13e3U, 0xbe381a84be91bfa8U, 0x3e47720fbe196b6eU,
  0x3d996b6e3e47720fU, 0x3e47720fbea8c2f9U, 0x3d381a84be196b6eU, 0x3ec7720fbf196b6eU,
  0xbf063e00bede7560U, 0xbec7720f3e28c2f9U, 0x3e8a13e3be28c2f9U, 0xbf2c98dc3df578b0U,
  0xbd7578b03e47720fU, 0x3cf578b0bf211734U, 0xbd7578b03d7578b0U, 0xbe28c2f93f82681eU,
  0xbdf578b03c7578b0U, 0xbf0a13e33e196b6eU, 0x3e7578b03f02681eU, 0x3d381a84bec7720fU,
  0x3ede7560bd7578b0U, 0x3d7578b0bcf578b0U, 0x3ea8c2f93e28c2f9U, 0xbdb81a84bea8c2f9U,
  0xbcf578b000000000U, 0x3eedcceabefd2476U, 0xbea11734bc7578b0U, 0x3eedcceabea8c2f9U,
  0x3d381a843e662125U, 0x3e28c2f93ebfc64aU, 0xbefd2476bdf578b0U, 0x3e56c99abe381a84U,
  0xbeb06ebebf84530fU, 0xbdd6c99a3d996b6eU, 0x3db81a843e662125U, 0x3efd24763e28c2f9U,
  0x3e47720fbe28c2f9U, 0xbf4b47f2bf381a84U, 0xbfac98dcbe8a13e3U, 0xbff38dbfbeb81a84U,
  0x3d7578b0be91bfa8U, 0x3df578b03e662125U, 0xbd381a843e381a84U, 0xbdf578b03cf578b0U,
  0xbf5a9f7dbebfc64aU, 0xbf8a13e3bfa4ed16U, 0x3ea117343ee62125U, 0xbe82681e3c7578b0U,
  0x3cf578b0be196b6eU, 0x3e7578b0becf1dd4U, 0x3db2ebb5bf813874U, 0x3d9f0a68be3cdc5cU,
  0xbe50bda83cee8f9cU, 0xbf0630c8bd46cd02U, 0x3d1f0a68be013874U, 0xbe013874bc9f0a68U,
  0x3e0138743d9f0a68U, 0x3e1519c2be9a1215U, 0x3e6e8f9c3e50bda8U, 0x3e649ef6bf9dcc53U,
  0x3ec6cd023cee8f9cU, 0x3d8b291b3dee8f9cU, 0x3e0138743c9f0a68U, 0xbd1f0a683d8b291bU,
  0x3e90216ebd1f0a68U, 0xbdc6cd02be013874U, 0xbe8630c83e90216eU, 0xbedfa6a23e28fb0eU,
  0xbe013874bdb2ebb5U, 0x3e3cdc5c3ea402bbU, 0x3cee8f9c3d1f0a68U, 0x3e1519c2bdee8f9cU,
  0xbe46cd023d6e8f9cU, 0xbe788042bdee8f9cU, 0x3eb7e4083d6e8f9cU, 0xbd8b291b3e1f0a68U,
  0x3e0138743d9f0a68U, 0x3e46cd02bcee8f9cU, 0xbddaae4fbe90216eU, 0x3e9519c23e90216eU,
  0xbc9f0a68bd1f0a68U, 0x3d6e8f9c3d46cd02U, 0xbe6e8f9c3c1f0a68U, 0x3dc6cd023d1f0a68U,
  0xbd9f0a683c9f0a68U, 0xbf218692be0b291bU, 0x3d8b291b3db2ebb5U, 0xbeb7e4083e46cd02U,
  0x3dc6cd02be013874U, 0xbf1a1215bd46cd02U, 0x3c1f0a683e50bda8U, 0xbc9f0a68beb2ebb5U,
  0x3eb7e4083c1f0a68U, 0xbd1f0a683ddaae4fU, 0xbeee8f9c3cee8f9cU, 0xbf32ebb5bd9f0a68U,
  0xbea8fb0e3d1f0a68U, 0x3d8b291bbe50bda8U, 0x3db2ebb53ee99749U, 0x3d1f0a68be46cd02U,
  0x3f7ad5c43f20dc91U, 0xbee505f6be82ded6U, 0x3f2e7e72be5a1e0eU, 0xbe98aea43e444e40U,
  0x3d5a1e0ebf6505f6U, 0xbe4f3627bf4f3627U, 0x3ee505f6be4f3627U, 0x3d2e7e72bf4f3627U,
  0x3eae7e72bec44e40U, 0xbdda1e0e3ee505f6U, 0xbcae7e72bf576415U, 0xbeefeddd3e7ad5c4U,
  0xbe02ded63e8852c9U, 0x3f0852c93e23968bU, 0xbdc44e40U, 0xbedf9202bc2e7e72U,
  0x3eae7e723e5a1e0eU, 0xbe6505f6be5a1e0eU, 0xbdefeddd3ea3968bU, 0xbc2e7e723e9e2297U,
  0xbea3968b3e0dc6bdU, 0x3fad21753e933ab0U, 0xbe4f3627beb96659U, 0x3e8dc6bd3e98aea4U,
  0x3dda1e0ebe02ded6U, 0x3dae7e72bcae7e72U, 0x3d5a1e0ebeefedddU, 0xbeae7e72be82ded6U,
  0xbe0dc6bdbea3968bU, 0xbe82ded63dda1e0eU, 0xbe4f3627be02ded6U, 0x3d82ded6bec44e40U,
  0x3ef561d03eb3f266U, 0xbdda1e0ebcae7e72U, 0x3eb96659be6fedddU, 0xbf781bca3e4f3627U,
  0x3dc44e40bf15f4aaU, 0xbd5a1e0e3cae7e72U, 0x3cae7e72be5a1e0eU, 0x3f0852c93ec44e40U,
  0xbe82ded63e23968bU, 0x3dda1e0ebdae7e72U, 0xbc2e7e72beea79e9U, 0xbeb966593c2e7e72U,
  0x3e8dc6bd3dda1e0eU, 0x3f0b0cc3bfa7ad82U, 0x3e6505f6be6fedddU, 0xbf1080b6be98aea4U,
  0xbd98aea43eefedddU, 0xbe18aea4bec9c234U, 0x3f39f29d3ec3bc03U, 0x3ee11837c01b5d3cU,
  0xbf350de93ee11837U, 0xbec3bc033d1c9669U, 0xbdc3bc03be574ed0U, 0xbe3029363dc3bc03U,
  0x3e9c9669be43bc03U, 0x3deae19ebf0de84fU, 0xbdeae19e3deae19eU, 0x3d6ae19e3e1c9669U,
  0xbef4ab043d1c9669U, 0x3e1c9669be302936U, 0x3e1c9669bd9c9669U, 0x3d9c9669befe746bU,
  0xbdc3bc033e6ae19eU, 0xbecd856abf217b1cU, 0xbe7e746bbe9c9669U, 0x3f0de84fbd9c9669U,
  0xbe92cd02be92cd02U, 0x3e09039c3e574ed0U, 0xbe9c96693c9c9669U, 0xbf041ee93e7e746bU,
  0xbf7e746b3d1c9669U, 0xbc9c9669bd9c9669U, 0xbc9c96693d1c9669U, 0x3e92cd02bd1c9669U,
  0x3dc3bc033d1c9669U, 0xbdc3bc033dc3bc03U, 0xbe92cd023e43bc03U, 0xbe7e746bbeb9f29dU,
  0x3d1c9669be89039cU, 0xbd6ae19e3e09039cU, 0xbd6ae19e3deae19eU, 0x3d6ae19e3e43bc03U,
  0xbea65fd0be7e746bU, 0xbec3bc033c9c9669U, 0x3d6ae19e3d6ae19eU, 0xbecd856a3eb9f29dU,
  0x3e43bc03bd6ae19eU, 0xbe1c96693d6ae19eU, 0xbd6ae19ebe1c9669U, 0xbdeae19ebe7e746bU,
  0xbe09039cbe89039cU, 0x3e92cd023d1c9669U, 0x3d6ae19ebecd856aU, 0xbe89039c3e574ed0U,
  0xbed74ed0bd9c9669U, 0xbf350de9bd6ae19eU, 0x3e302936be1c9669U, 0x3e89039cbf350de9U,
  0xbf43a93cbf702127U, 0x3ea0161abfad6d47U, 0xbea0161a3eb1dfabU, 0xbf3ac474bf20161aU,
  0x3e31dfabU, 0x3e8e4c89bdd572ceU, 0xbe31dfabbf0e4c89U, 0x3dd572cebec3a93cU,
  0x3dd572ce00000000U, 0xbe7905f0bee73c5fU, 0xbee73c5fbe5572ceU, 0xbe5572cebf5e5796U,
  0x3d0e4c89bd8e4c89U, 0xbe5572ce3e0e4c89U, 0xbf43a93cbd8e4c89U, 0xbe5572ce00000000U,
  0xbfde5796bf80f55cU, 0xbe0e4c893e7905f0U, 0xbe7905f03f0e4c89U, 0xc08d2ff03e5572ceU,
  0xbd0e4c89U, 0xbf702127be7905f0U, 0xbe5572ce3d0e4c89U, 0xbf3ac4743d0e4c89U,
  0xbe8e4c89bfc3a93cU, 0x3d0e4c893eb1dfabU, 0xbe31dfabbeb1dfabU, 0x3ec3a93cbed572ceU,
  0x3eb1dfab3d0e4c89U, 0x3e5572ce3e7905f0U, 0x3e7905f03e5572ceU, 0xbe8e4c89bd8e4c89U,
  0xbf4c8e053ed572ceU, 0xbed572ceU, 0xbf31dfab3e5572ceU, 0xbf8e4c893d8e4c89U,
  0xbe5572ce3e5572ceU, 0x3e8e4c893ea0161aU, 0x3dd572ce3ee73c5fU, 0xbf673c5f3e0e4c89U,
  0x3ea0161abf31dfabU, 0x3e0e4c893e0e4c89U, 0xbf4c8e053d0e4c89U, 0x3e0e4c89bd8e4c89U,
  0xbef905f0U, 0xbd0e4c893ea0161aU, 0x3d0e4c893e8e4c89U, 0xbf0567c0bd8e4c89U,
  0xbe31dfab3f20161aU, 0x3e8e4c89bf31dfabU, 0xbe281f663ec1fcd8U, 0x3cceeb913e01533bU,
  0x3db50e1f3ee251a7U, 0x3e94b950bf1e6c5bU, 0x3eb50e1fbf9e6c5bU, 0xbd81533bbf07ca97U,
  0xbd4eeb913e1b30adU, 0xbd81533b3e281f66U, 0x3d1b30adbe94b950U, 0x3ea81f66be4eeb91U,
  0xbe87ca97be4eeb91U, 0x3e94b9503db50e1fU, 0x3d4eeb913e0e41f4U, 0x3dceeb913e281f66U,
  0xbd9b30ad3e01533bU, 0xbe4eeb91bd4eeb91U, 0x3d9b30ad3ef5b7bcU, 0xbf07ca97bfcd4dbaU,
  0xbe68c9033d81533bU, 0xbc4eeb913e4eeb91U, 0xbcceeb91bd1b30adU, 0x3ed562ee3e281f66U,
  0xbe8e41f43e350e1fU, 0x3e281f663dceeb91U, 0x3db50e1fbe75b7bcU, 0x3d4eeb913d81533bU,
  0x3d1b30ad3e94b950U, 0xbf7c2f193dceeb91U, 0xbf727c0ebd81533bU, 0x3ea81f66bee8c903U,
  0xbe75b7bc3d4eeb91U, 0xbea81f66be5bda4aU, 0xbd81533bbe01533bU, 0x3d9b30ad3d9b30adU,
  0xbdceeb913e68c903U, 0xbe41fcd83db50e1fU, 0x3d9b30adbe41fcd8U, 0x3dceeb913e281f66U,
  0xbd1b30ad00000000U, 0xbe01533bbd4eeb91U, 0xbe4eeb91bea1a809U, 0x3e281f663ed562eeU,
  0x3e94b950bd81533bU, 0x3eceeb913e75b7bcU, 0x3d9b30ad3ebb857bU, 0x3d4eeb91U,
  0xbe350e1f3dceeb91U, 0xbef5b7bcbe94b950U, 0x3f048ee93edbda4aU, 0xbe01533bbde8c903U,
  0xbe7c2743bf85f4dcU, 0x3cfc2743bfdca25bU, 0xbdbd1d723ebd1d72U, 0xbeec64cf3e5ca25bU,
  0xbe3d1d72U, 0xbd7c2743beccdfe6U, 0x3e9d988abf0dd616U, 0xbead5afeU,
  0xbcfc27433eccdfe6U, 0xbcfc2743bf6c64cfU, 0x3ead5afebe9d988aU, 0xbf1d988a3d7c2743U,
  0x3e5ca25b3e5ca25bU, 0x3e5ca25b3e8dd616U, 0xbdfc27433e8dd616U, 0x3d7c2743bf91c6b3U,
  0x3f2d5afebf15b750U, 0x3f2d5afebeccdfe6U, 0xbf2579c4bf353c38U, 0xc07a2ef43e7c2743U,
  0xbe9d988a00000000U, 0x3e3d1d723e8dd616U, 0xbf6c64cfbe1d988aU, 0x3e7c27433e7c2743U,
  0xbf1d988abf54c121U, 0xbdbd1d723ead5afeU, 0x3cfc2743be5ca25bU, 0x3edca25bbe7c2743U,
  0x3e1d988abf2d5afeU, 0x3dbd1d72bead5afeU, 0x3e3d1d723e7c2743U, 0x3f353c383eec64cfU,
  0xbdfc2743bd7c2743U, 0x3cfc2743bf2d5afeU, 0xbead5afe3d7c2743U, 0xbf8dd616bcfc2743U,
  0x3f44feac3e7c2743U, 0x3efc27433dfc2743U, 0x3dbd1d72bd7c2743U, 0xbf1d988a3dbd1d72U,
  0x3edca25bbf2579c4U, 0x3e3d1d723e1d988aU, 0xbd7c2743bdbd1d72U, 0x3d7c27433d7c2743U,
  0x3d7c2743befc2743U, 0xbeec64cf3ebd1d72U, 0xbf2d5afe3e7c2743U, 0xbead5afe3e1d988aU,
  0x3d7c27433eec64cfU, 0xbe1d988abf4cdfe6U, 0x3e722db23ebfb982U, 0x3ca173ccbed3e7fcU,
  0x3e2173ccbeddff38U, 0x3eb5a246bf032e16U, 0xbe0d45523e5dff38U, 0x3e35a246bdc9d0bfU,
  0x3e2173ccbf8fcb22U, 0xbe0d4552bec9d0bfU, 0x3ef22db2be8d4552U, 0xbee816753f49d0bfU,
  0xbeb5a246bea173ccU, 0xbda173ccbefc44efU, 0x3d722db23ca173ccU, 0x3eab8b09bf175c8fU,
  0xbe5dff383dc9d0bfU, 0xbda173ccbd722db2U, 0x3ebfb9823e49d0bfU, 0xbf35a246bf175c8fU,
  0x3d722db23ebfb982U, 0xbea173ccbe35a246U, 0x3e5dff38bd2173ccU, 0x3e35a2463e975c8fU,
  0xbda173ccbe8d4552U, 0x3e722db23e0d4552U, 0x3df22db23d2173ccU, 0x3ea173cc3e35a246U,
  0xbf7c44ef3e0d4552U, 0x3d2173ccbf3096a7U, 0x3ca173cc3e722db2U, 0xbe0d45523e722db2U,
  0xbd722db23e49d0bfU, 0xbeab8b09be832e16U, 0x3f0d4552bf2173ccU, 0xbee816753f0d4552U,
  0x3e8d45523e0d4552U, 0xbefc44ef3e832e16U, 0xbe35a246beddff38U, 0xbee81675bdf22db2U,
  0xbe49d0bfc02030e4U, 0x3f1c682e3e2173ccU, 0x3e975c8f3e5dff38U, 0xbe832e16bf032e16U,
  0xbca173cc3e722db2U, 0xbed3e7fcbe8d4552U, 0x3ea173ccbf1250f1U, 0x3e832e16beb5a246U,
  0xbd2173cc3e49d0bfU, 0xbe8d4552bd722db2U, 0xbda173ccbf175c8fU, 0x3eab8b09bf99e25eU,
  0x3d6231c2bdbc7ecdU, 0x3de231c2bce231c2U, 0x3de231c23df50b3dU, 0x3e16cbd73da9a552U,
  0x3e03f25c3df50b3dU, 0x3da9a552bc16cbd7U, 0xbe203894bebc7ecdU, 0x3f121578be3c7ecdU,
  0x3e45eb8abe4f5848U, 0xbe16cbd7be16cbd7U, 0x3e33120fbe203894U, 0xbe0d5f1a3d3c7ecdU,
  0xbedd7b64bdcf5848U, 0xbe203894be750b3dU, 0xbec5eb8abe750b3dU, 0xbe29a5523e33120fU,
  0xbf274a233d6231c2U, 0x3e6b9e803e03f25cU, 0x3e750b3dU, 0xbe6b9e803e45eb8aU,
  0xbe0d5f1abebc7ecdU, 0x3ecaa1e9bd16cbd7U, 0xbe33120f3c16cbd7U, 0xbd83f25c3d16cbd7U,
  0xbda9a552bc16cbd7U, 0xbe4f58483d16cbd7U, 0xbe9b8236bd96cbd7U, 0x3e45eb8abf959e3fU,
  0xbce231c23d16cbd7U, 0xbde231c2bea9a552U, 0x3df50b3d3e03f25cU, 0x3e4f58483e3c7ecdU,
  0xbeae5bb1bf03f25cU, 0xbe8d5f1a3dcf5848U, 0x3d3c7ecd3e7e77fbU, 0xbe750b3dbe88a8bbU,
  0xbdbc7ecd00000000U, 0x3dbc7ecd00000000U, 0x3d83f25cbc16cbd7U, 0xbf24eef33df50b3dU,
  0x3e33120fbe96cbd7U, 0x3e88a8bbbf29a552U, 0xbd83f25c3d96cbd7U, 0x3e33120fbe6b9e80U,
  0xbc16cbd7be0d5f1aU, 0xbeeb9e80bda9a552U, 0x3d3c7ecdbe6231c2U, 0x3e0d5f1abf7c1ccbU,
  0x3ce231c2bdf50b3dU, 0x3e203894bf24eef3U, 0x3ecf6d93bf1a3dc9U, 0x3ec4ca6bbf52165dU,
  0xbe5f6250bdd4bf28U, 0xbef4a8a1bd94ec35U, 0x3e14ec353d2a3286U, 0x3f0cf1d7bcaa3286U,
  0x3e84f779beef570cU, 0x3f04f779be14ec35U, 0xbe9f8f5ebd94ec35U, 0xbef9fa35be5f6250U,
  0x3d94ec353d7f4bc9U, 0xbf2f841abebf78d7U, 0x3e1f8f5ebdea0578U, 0xbe0a490dbf4cc4c9U,
  0xbeba2743bdbf78d7U, 0x3dbf78d73f2f841aU, 0xbe7f4bc9be94ec35U, 0x3e8f9aa13e14ec35U,
  0xbe2a32863eda10bcU, 0xbee4b3e43eff4bc9U, 0x3e84f779beca1bffU, 0xbeea0578bc2a3286U,
  0x3e14ec35bf0f9aa1U, 0xbe54bf283e6a0578U, 0xbe8a490dbef9fa35U, 0xbe34d5ae3e14ec35U,
  0xbe9f8f5ebeba2743U, 0x3e2a3286bef4a8a1U, 0x3e9a3dc9bd2a3286U, 0xbeda10bc3eaa3286U,
  0xbe34d5ae3dff4bc9U, 0x3e2a3286be0a490dU, 0xbea4e0f23dbf78d7U, 0xbf7ca2ffbeef570cU,
  0x3ee4b3e43e6a0578U, 0xbfa8de21bd94ec35U, 0x3edf62503eca1bffU, 0x3e2a32863e14ec35U,
  0x3dea0578beff4bc9U, 0x3e9a3dc93d54bf28U, 0xbcaa32863f12436bU, 0x3eba27433e5f6250U,
  0xbf34d5aebea4e0f2U, 0xbe84f779bebf78d7U, 0xbe14ec35bf223828U, 0x3dbf78d7be34d5aeU,
  0xbd94ec35be3f78d7U, 0xbe54bf28be1f8f5eU, 0xbdbf78d7bf92436bU, 0x3f0f9aa13ebf78d7U,
  0xbd944853bdcbe372U, 0x3e1d8cd8be429eedU, 0xbe8b03ce3cde6c7cU, 0x3e0b03ce3eb4b825U,
  0xbe1d8cd8be144853U, 0x3cde6c7c3eec5344U, 0xbf18ea963eab73a0U, 0x3e9448533ed527f7U,
  0xbe3015e33e4be372U, 0xbcde6c7c3ef0f587U, 0xbf395a683eec5344U, 0xbe9d8cd83e98ea96U,
  0x3eb95a68be26d15dU, 0xbefedc4fbf169974U, 0xbe0b03ce00000000U, 0x3e01bf49bd5e6c7cU,
  0xbf931fc2be1d8cd8U, 0xbe98ea963f06618bU, 0xbed9ca3abd395a68U, 0x3df0f587be1d8cd8U,
  0x3e5527f7bc144853U, 0xbf404dccbf06618bU, 0xbe4be3723ee30ebfU, 0xbf655fe0be67b102U,
  0xbe3015e33e8b03ceU, 0xbe67b1023e3015e3U, 0xbdb95a683dcbe372U, 0xbc144853U,
  0x3f3015e3be5527f7U, 0xbe67b102bd944853U, 0x3eb015e33d395a68U, 0xbdde6c7cbe8fa610U,
  0xbeb4b8253e01bf49U, 0x3da6d15dbe5527f7U, 0xbe86618bbc944853U, 0xbd81bf49bf06618bU,
  0x3e3015e33cde6c7cU, 0x3e7a3a0c3eab73a0U, 0x3d5e6c7c3dcbe372U, 0xbf04106abd5e6c7cU,
  0x3ebdfcaa00000000U, 0x3e0b03ce3e0b03ceU, 0x3e5527f7bd81bf49U, 0x3eec5344bd144853U,
  0xbeb95a683c944853U, 0xbee30ebf3e98ea96U, 0xbe1d8cd83ed085b5U, 0xbee30ebf3f01bf49U,
  0x3df0f5873da6d15dU, 0x3d9448533ede6c7cU, 0x3c9488d6bb9488d6U, 0xbdc9ea03bdf15e5cU,
  0xbd5584b43d992d1dU, 0x3d5a28fa3d8b4049U, 0xbda96c14bd992d1dU, 0xbc8b4049bd6cba15U,
  0x3bdecd413cb0627eU, 0xbd4797e0bdbe4f52U, 0x3d9236b3bdc797e0U, 0x3c2719f1bdb2b4a1U,
  0x3ca719f1bd2275aaU, 0xbd30627e3c8b4049U, 0xbd81f7bbbd39ab0cU, 0x3cb9ab0cbd0fe48fU,
  0xbd4c3c26bd8b4049U, 0x3bdecd41bc1488d6U, 0x3d81f7bb3d96daf9U, 0x3a9488d6bb5ecd41U,
  0xbd7aa6e9bd42f399U, 0xbda02387bcb0627eU, 0xbccc3c26bd6cba15U, 0xbe08ee25bd4797e0U,
  0xbc715e5c3d069c02U, 0x3d01f7bbbe01f7bbU, 0x3c4c3c263c81f7bbU, 0x3d3506c5be0b4049U,
  0xbe135fc4bb9488d6U, 0xbdc545bcbcd584b4U, 0x3d2719f1bdc797e0U, 0x3b5ecd413d2275aaU,
  0x3d9b7f40bd96daf9U, 0xbe0449dfbdd7d6d7U, 0x3d9dd163bd7602a2U, 0xbd9488d6bd5584b4U,
  0x3c715e5c3d8449dfU, 0x3d6cba153c39ab0cU, 0x3da719f1bd39ab0cU, 0x3d5ecd41bdbbfd2fU,
  0xbdea67f2bc9dd163U, 0xbd2bbe37bcf15e5cU, 0xbd192d1d3c9dd163U, 0xbe0a17373a9488d6U,
  0xbd9b7f403dc797e0U, 0xbc715e5cbddc7b1eU, 0xbcf15e5cbdf3b07fU, 0x3da4c7cd3d01f7bbU,
  0xbdbe4f52bd4797e0U, 0xbdcc3c26bd3506c5U, 0xbdea67f2bce815ceU, 0xbde815ce3a9488d6U,
  0xbf33667ebf754196U, 0xbc1156463ef54196U, 0xbecc6152be50ec05U, 0x3e9a6baa3e115646U,
  0x3e2c96733e1a6baaU, 0xbebec13cbd115646U, 0xbe0840e23dda0169U, 0x3e115646beac9673U,
  0xbeba368abda3810fU, 0xbe3ec13cbe83b62fU, 0x3da3810fbe47d6a0U, 0xbc9156463e1a6baaU,
  0xbecc61523e754196U, 0xbeb5abd83c915646U, 0xbf53315e3dfe56faU, 0xbc9156463f459147U,
  0xbdda0169be915646U, 0x3d1156463d115646U, 0x3d9156463e35abd8U, 0x3eda0169bf0a863bU,
  0x3ea3810f3e35abd8U, 0xbed0ec05bcda0169U, 0x3e8840e23db5abd8U, 0xbd115646be9a6baaU,
  0xbe7e56fa3ed0ec05U, 0xbd115646bd7e56faU, 0xbefe56fa3c115646U, 0x3d35abd8bdb5abd8U,
  0xbe115646bdfe56faU, 0xbeec2c323d915646U, 0x3e9a6baa3e5a0169U, 0xbe8840e23c915646U,
  0xbe2c9673bf15e0f8U, 0xbf3c7be3bf903399U, 0xbef9cc483eba368aU, 0x3f4ea6acbc115646U,
  0xbdda01693eac9673U, 0x3f0a863bbe7e56faU, 0xbf410695be9a6baaU, 0xbee7a180bed576b7U,
  0x3e0840e2be7e56faU, 0x3dc7d6a03e2c9673U, 0xbe8840e23d7e56faU, 0x3e23810f3d7e56faU,
  0xbef9cc48be915646U, 0xbf655c263e9a6baaU, 0x3ede8c1bbec34beeU, 0xbda3810f3e8840e2U,
  0x3c115646bf2c9673U, 0xbe50ec05U, 0x3edafcf23f0133f5U, 0xbe0c27013d9dabe1U,
  0x3ee8209abe2f30c1U, 0xbe266e513daf30c1U, 0xbd9dabe1be94e971U, 0x3e0364913e40b5a1U,
  0x3e266e51bd754442U, 0xbe8c27013e523a82U, 0x3e9dabe13d0c2701U, 0xbf05952d3eaacf89U,
  0xbe8c27013e40b5a1U, 0x3e63bf62bee3bf62U, 0xbe266e513c8c2701U, 0x3e6c81d23f8b0eb3U,
  0x3d2f30c1bec516d9U, 0xbe4978113e523a82U, 0x3edf5e2a3cd23a82U, 0xbe7e06b2beaf30c1U,
  0x3d9dabe1be9dabe1U, 0x3d8c27013e497811U, 0xbf7e06b2bde3bf62U, 0x3f5009e53e8c2701U,
  0x3d9dabe1be266e51U, 0x3df544423e63bf62U, 0x3ea66e513e497811U, 0x3e266e513e2f30c1U,
  0xbe523a82be497811U, 0xbe9dabe1bdaf30c1U, 0x3ec516d9be2f30c1U, 0x3e8c27013d8c2701U,
  0xbd2f30c1U, 0x3e497811be9dabe1U, 0xbd523a823d9dabe1U, 0xbe0364913eb391f9U,
  0x3ea66e51be37f331U, 0xbe523a823e036491U, 0xbf1dabe1bf523a82U, 0xbe7e06b23e8c2701U,
  0x3e754442be036491U, 0x3ee8209a3f036491U, 0x3d7544423e036491U, 0xbd9dabe1bd523a82U,
  0xbe036491beaf30c1U, 0xbec516d9be523a82U, 0xbd8c2701be994aa9U, 0x3f266e51bf1fdc7dU,
  0xbde3bf62be40b5a1U, 0xbeb391f93df54442U, 0xbe1dabe13dd23a82U, 0x3c8c2701be14e971U,
  0x3e3922a83d539552U, 0x3dd395523ebfbf52U, 0x3e843d53bcd39552U, 0xbd5395523e6e07fcU,
  0xbe7b4151be6e07fcU, 0x3db922a8bd9eaffeU, 0xbe465bfd3e843d53U, 0x3d9eaffe3e043d53U,
  0x3e9eaffe3ed39552U, 0xbe2be953bdee07fcU, 0xbd9eaffe3e043d53U, 0x3ec65bfd3e2be953U,
  0xbfccf8a7be843d53U, 0x3e9176a83ed39552U, 0xbcd395523d9eaffeU, 0xbf8e2853bee76b52U,
  0xbd539552be3922a8U, 0x3dd395523e8ad9feU, 0x3e043d53be465bfdU, 0xbd1eaffebe9eaffeU,
  0x3d843d53bf043d53U, 0x3e043d53be8ad9feU, 0xbf539552bcd39552U, 0xbcd395523e043d53U,
  0x3e6e07fcbc539552U, 0xbe465bfd00000000U, 0xbe8ad9febeabe953U, 0xbc539552bf21fe53U,
  0x3d9eaffe3e1176a8U, 0x3e5395523f9eaffeU, 0x3e1176a8bcd39552U, 0xbe60cea700000000U,
  0xbcd395523d539552U, 0xbfd1ee273f181353U, 0x3dd39552be981353U, 0x3e7b4151bc539552U,
  0x3e043d53U, 0x3d5395523dd39552U, 0xbfc80328U, 0x3ed395523e6e07fcU,
  0xbcd39552bfa89afdU, 0xbe9eaffebf3922a8U, 0xbe843d53be2be953U, 0x3e1eaffebe8ad9feU,
  0x3dee07fcbf0ad9feU, 0x3e1eaffe3e8ad9feU, 0x3db922a8bf181353U, 0x3cd39552bf2f37a8U,
  0x3d1eaffe00000000U, 0x3e2be9533d1eaffeU, 0x3e9ea532be063d02U, 0xbeb70d60bea4bf3dU,
  0xbe863d023e8c570eU, 0xbcc341783e4f7590U, 0x3e4f75903daad949U, 0xbe370d6000000000U,
  0x3e2ad949bf528295U, 0xbecf7590U, 0x3e12711a3eb70d60U, 0xbe1ea532bdaad949U,
  0xbd434178bfade64fU, 0xbdc34178U, 0x3d7411d63d7411d6U, 0x3f2de64fbd7411d6U,
  0xbebd276cbef411d6U, 0x3eb70d603ea4bf3dU, 0x3ef411d6bd434178U, 0x3e7411d63e7411d6U,
  0xbddba9a7be67ddbeU, 0xbf464e7e3e8022f7U, 0x3ec34178bcc34178U, 0xbd4341783d12711aU,
  0xbf1b982cbeb0f355U, 0x3e7411d6bf24bf3dU, 0xbf188b26be4f7590U, 0xbddba9a73e2ad949U,
  0xbf894a08be1ea532U, 0x3ef411d63cc34178U, 0x3e370d603d7411d6U, 0xbe9ea532be8c570eU,
  0x3e2ad9493e8c570eU, 0x3d92711abd12711aU, 0x3ed58f9bbddba9a7U, 0xbf032ffd3f032ffdU,
  0x3efa2be23dc34178U, 0xbcc341783df411d6U, 0xbe7411d6bee1c3b3U, 0x3eb0f355be1ea532U,
  0x3d7411d6be12711aU, 0x3ea4bf3d3e9ea532U, 0x3e988b263e8c570eU, 0x3ddba9a7bddba9a7U,
  0xbe8c570ebe8022f7U, 0xbfc1baf5be370d60U, 0x3e92711abd434178U, 0x3cc34178be1ea532U,
  0x3ebd276c3f094a08U, 0xbe988b26be67ddbeU, 0xbc4341783daad949U, 0xbec34178be434178U,
  0xbdec4898bea8c623U, 0xbd8704e93e5b67fbU, 0xbea8c6233e8704e9U, 0xbf13ad5f3ea8c623U,
  0x3e97e586beec4898U, 0xbe28c6233e0704e9U, 0x3e17e5863ed2f7acU, 0x3f0704e93efd2935U,
  0x3dca875e3efd2935U, 0x3da8c623bf3ddee8U, 0xbe8704e93e5b67fbU, 0xbf464f363f52f7acU,
  0xbf0704e93e39a6c0U, 0xbf02ccc23e7d2935U, 0xbf4ebf85bd0704e9U, 0x3ef4b8e63ea8c623U,
  0x3eb13672be17e586U, 0x3f0704e9bd4a875eU, 0xbefd2935bdca875eU, 0xbe39a6c03ea8c623U,
  0xbee3d8493e7d2935U, 0x3f4ebf85bf2cfe4bU, 0x3ea055d5beca875eU, 0xbf95c97200000000U,
  0xbea055d5bdca875eU, 0xc005f6df3f02ccc2U, 0xbd4a875ebc8704e9U, 0xbeca875e3c8704e9U,
  0xbeb9a6c0bf9a019aU, 0xbf0b3d10bda8c623U, 0x3e97e5863ee3d849U, 0xbe17e5863e4a875eU,
  0xbe39a6c03e0704e9U, 0xbdca875e3e6c4898U, 0xbeca875ebe5b67fbU, 0x3da8c623bf39a6c0U,
  0x3e8f75383f0f7538U, 0x3f6810703eca875eU, 0x3eb9a6c0be17e586U, 0xbf0b3d103da8c623U,
  0xbd4a875ebd0704e9U, 0x3e8704e93e7d2935U, 0xbe39a6c0be97e586U, 0x3dec48983e8f7538U,
  0xbf356e99bec2170fU, 0xbe6c48983e4a875eU, 0xbd4a875e3ea055d5U, 0x3c8704e93eb13672U,
  0x3da8c623be39a6c0U, 0xbedb67fb3e8704e9U, 0x3d9c6b81bf4869bdU, 0xbdeaa1423ee0da89U,
  0xbe88de11be438661U, 0xbe92a4c93c1c6b81U, 0x3d9c6b81beaff8f1U, 0xbd438661beeaa142U,
  0x3e12a4c9be2ff8f1U, 0x3e6aa142bf3ea305U, 0x3d1c6b813ceaa142U, 0x3e08de11bebea305U,
  0xbe438661be6aa142U, 0xbdeaa142bef467faU, 0xbe39bfa93ceaa142U, 0xbd9c6b81beaff8f1U,
  0xbd4386613c9c6b81U, 0xbf82c1de3f08de11U, 0x3d9c6b81be12a4c9U, 0xbf71f64c3daff8f1U,
  0x3d88de113e83fab5U, 0x3e5713d13e08de11U, 0xbf4869bd3d438661U, 0xbe4d4d193e263239U,
  0x3eb4dc4dbdc38661U, 0x3e4d4d193e08de11U, 0xbd6aa142bdaff8f1U, 0x3e4d4d19bceaa142U,
  0xbc9c6b813d438661U, 0xbd6aa142bea14eddU, 0xbe12a4c9be7467faU, 0xbdfe2eb23e4d4d19U,
  0xbeaff8f1be88de11U, 0xbdc38661be1c6b81U, 0x3e263239bdc38661U, 0x3ceaa142be978825U,
  0x3e2632393e4d4d19U, 0xbf214edd3e978825U, 0xbe7e2eb2bdfe2eb2U, 0xbf9b32aabeb4dc4dU,
  0xbe4d4d193d9c6b81U, 0xbd4386613e6aa142U, 0x3c1c6b81bdd713d1U, 0x3e12a4c93d9c6b81U,
  0x3daff8f1be1c6b81U, 0x3dc38661bd1c6b81U, 0x3e1c6b81bf28a3e7U, 0xbef94b56bf066c63U,
  0x3c1c6b813e83fab5U, 0x3dfe2eb2U, 0x3e1c6b813e7467faU, 0xbe9c6b81be6aa142U,
  0xbeb82c7a3f2d1f92U, 0xbf60b1243f00ebefU, 0xbd30ce8abd30ce8aU, 0xbdb0ce8abf3f8a6bU,
  0x3c6bbe0d3ed5a43cU, 0xbebf8a6b3e849ae7U, 0xbe6bbe0d00000000U, 0xbf1705c0bea97099U,
  0xbebf8a6b3ebf8a6bU, 0xbe30ce8a3ea212a9U, 0x3e1356c83d30ce8aU, 0x3efa79eebd6bbe0dU,
  0x3cebbe0dbe8bf8d8U, 0xbd30ce8abed5a43cU, 0x3e849ae7bf4e464bU, 0xbf2d1f923e6bbe0dU,
  0xbdebbe0dbea97099U, 0x3eebbe0dbe849ae7U, 0x3eebbe0d3f1ab4b9U, 0x3e30ce8abe6bbe0dU,
  0x3e7a79eebdb0ce8aU, 0xbf30ce8a3e2212a9U, 0x3db0ce8a3eb0ce8aU, 0xbdb0ce8abe7a79eeU,
  0x3ebf8a6b3e1356c8U, 0x3f0bf8d8bfded9a8U, 0x3d6bbe0d3e4e464bU, 0x3ee4601d3c6bbe0dU,
  0xbe9356c83eb0ce8aU, 0xbea212a9be9ab4b9U, 0x3e9356c8bf9705c0U, 0xbed5a43c3d9356c8U,
  0xbe5d022cbea212a9U, 0xbd6bbe0d3f3f8a6bU, 0xbef31bfd3e9ab4b9U, 0x3eb0ce8a3e2212a9U,
  0xbfe9e6913e049ae7U, 0x3c6bbe0d3d9356c8U, 0x3e5d022c3dce464bU, 0xbf1ab4b9bf76caf6U,
  0xbe8bf8d8bc6bbe0dU, 0xbcebbe0dbf382c7aU, 0xbe30ce8a3eb82c7aU, 0x3e4e464bbefa79eeU,
  0x3e849ae7bee4601dU, 0xbe049ae7bf0bf8d8U, 0xbf1705c03e849ae7U, 0x3e7a79ee3d6bbe0dU,
  0xbebf8a6bbd9356c8U, 0xbdce464bbc6bbe0dU, 0x3f4c907e3f9e8995U, 0xbe9603903dbeed43U,
  0x3e886054bdf57a31U, 0x3dbeed4300000000U, 0xbe8860543d23a6ccU, 0xbe314a07be5a33baU,
  0x3d23a6ccbee10558U, 0xbe0860543f04f785U, 0x3e23a6ccbe086054U, 0xbec5bee13f0f31f2U,
  0xbe3eed43beb14a07U, 0x3e1603903e23a6ccU, 0xbe5a33babf04f785U, 0x3f3eed433ec5bee1U,
  0xbfd87f53bd886054U, 0x3f196c5fbf196c5fU, 0x3ef57a31bed3621cU, 0xbeb81ba5be314a07U,
  0x3ed3621cbdbeed43U, 0x3df57a31bf196c5fU, 0x3e818eb6be4c907eU, 0x3f53621c3e160390U,
  0xbf018eb6bf4c907eU, 0x3eda33ba3da3a6ccU, 0x3ea3a6cc3d5a33baU, 0x3e757a31be9cd52eU,
  0xbe67d6f63c5a33baU, 0x3e23a6ccbf646e27U, 0x3e9603903e67d6f6U, 0x3f425612bf270f9aU,
  0xbe314a073dda33baU, 0xbd23a6ccbeaa7869U, 0x3f018eb63e4c907eU, 0xbf0bc9233ebeed43U,
  0x3f196c5fbd23a6ccU, 0x3eb14a073e4c907eU, 0xbe23a6ccbf67d6f6U, 0x3df57a3100000000U,
  0xbe757a31bea3a6ccU, 0x3f886054bd886054U, 0x3e818eb6bf23a6ccU, 0xbe8f31f2bc5a33baU,
  0xbe8f31f2be8f31f2U, 0xbf646e27bf53621cU, 0x3ea3a6ccbd23a6ccU, 0x3f314a07bf129ac1U,
  0x3eb81ba5be3eed43U, 0xbe960390bf610558U, 0xbe8860543eda33baU, 0x3e160390bd886054U,
  0xbe51540fbf2f7767U, 0xbdc503d23d7644c6U, 0x3ea0131b3e8d9abfU, 0xbe8d9abfbea63b39U,
  0xbdac6358bc4503d2U, 0xbf577c2e3e0772a0U, 0x3dac63583e7644c6U, 0x3ea63b393ddda44cU,
  0x3d13c2debdc503d2U, 0xbe2c6358bf2c6358U, 0x3e0772a03d13c2deU, 0xbe13c2debe2c6358U,
  0xbc4503d2bf20131bU, 0x3f3edbb33ea0131bU, 0x3dac6358bd13c2deU, 0xbd4503d2be13c2deU,
  0xbd13c2de3f19eafcU, 0x3ed77c2ebe13c2deU, 0x3e2c6358be814a82U, 0xbdac6358bdc503d2U,
  0x3e2c6358bea63b39U, 0xbe8d9abfbf20131bU, 0xbdac6358beb28b76U, 0xbf014a823d93c2deU,
  0xbcc503d23c4503d2U, 0xbf1cff0b3dac6358U, 0xbef01ca8bea63b39U, 0x3e7644c6bfc379caU,
  0xbeb8b395bf0d9abfU, 0x3dac6358bea0131bU, 0x3ebedbb33e2c6358U, 0x3eac63583eac6358U,
  0x3ec503d2be20131bU, 0xbf9cff0b3f359f86U, 0x3d13c2de3d4503d2U, 0xbe13c2debe8d9abfU,
  0x3e69f489bcc503d2U, 0x3f16d6ed3e814a82U, 0x3e2c6358bf10aeceU, 0x3e20131bbd7644c6U,
  0x3dac6358bf10aeceU, 0x3ddda44cbe814a82U, 0x3d7644c6be69f489U, 0xbdc503d2be0772a0U,
  0x3dc503d23ec503d2U, 0x3eb28b763e99eafcU, 0x3e2c63583ef644c6U, 0x3e2c63583e2c6358U,
  0xbe38b395bcc503d2U, 0xbed77c2ebe814a82U, 0xbea04aa6bff2587bU, 0xbec674cebe18a89eU,
  0xbed5b8dd3df440fdU, 0x3d98a89e3f01c286U, 0x3df440fd3d7440fdU, 0xbeb730be3e4674ceU,
  0x3dd5b8dd3e64fcedU, 0x3ebed2c6bee4fcedU, 0xbee4fcedbe18a89eU, 0x3e81c286bf781201U,
  0xbf18a89e00000000U, 0xbdb730bebf89648eU, 0xbe98a89e3cf440fdU, 0x3ec674cebe89648eU,
  0xbefbe305be64fcedU, 0x3e81c2863e27ecaeU, 0xbe27ecaebfada634U, 0x3e3730be3ea04aa6U,
  0x3e3730be3e09648eU, 0x3f01c286bd7440fdU, 0xbf5989e1bd98a89eU, 0x3ebed2c6be27ecaeU,
  0xbebed2c63e7440fdU, 0xbed5b8dd3e27ecaeU, 0x3ea7ecae3ed5b8ddU, 0xbcf440fdbe4674ceU,
  0x3e3730bebec674ceU, 0x3ec674cebea7ecaeU, 0xbf241baabedd5ae5U, 0x3e910696bf05938aU,
  0x3eaf8eb6bdd5b8ddU, 0xbd98a89ebf6c9ef5U, 0xbf6c9ef53ec674ceU, 0xbebed2c6bcf440fdU,
  0xbf6c9ef53c7440fdU, 0xbf3ed2c6be81c286U, 0xbf6c9ef53eb730beU, 0x3d98a89e3e3730beU,
  0x3d3730bebd98a89eU, 0x3e98a89ebe18a89eU, 0xbdf440fdbebed2c6U, 0x3dd5b8dd3ea04aa6U,
  0xbf85938abe98a89eU, 0x3e89648e3d3730beU, 0xbea7ecaebf204aa6U, 0xbf1c79a23e64fcedU,
  0x3e18a89e3f27ecaeU, 0x3d98a89ebea04aa6U, 0xbe3730be3f01c286U, 0xbf1106963e7440fdU,
  0xbcce16123ce1b6a6U, 0xbda948fcbd4445c8U, 0xbcf5573a3d09640cU, 0xbd75573abd133456U,
  0x3d3a757ebc1d04a0U, 0x3d1d04a0bdf5573aU, 0xbd358d593d847be7U, 0xbc30a5343d26d4eaU,
  0xbc89640cbd8bd81eU, 0x3d5cce813d4e1612U, 0xbdb8016cbe10c044U, 0x3c4445c8U,
  0x3b9d04a0bd047be7U, 0x3d30a534bdabbd0fU, 0x3c1d04a0bd9f78b2U, 0xbd669ecbbdc92dedU,
  0xbd4e1612bd492dedU, 0xbdc6b9dabc89640cU, 0x3c09640c3d8e4c31U, 0x3d669ecbbb9d04a0U,
  0xbd1d04a03d61b6a6U, 0xbd09640cbd492dedU, 0xbd89640c3d89640cU, 0xbd90c044bdb0a534U,
  0x3d1334563d358d59U, 0xbe1bca97bdc445c8U, 0x3cd7e65cbc4445c8U, 0x3b1d04a03d133456U,
  0x3d8bd81e3d358d59U, 0xbdba757ebdd7e65cU, 0x3c4445c8bdf5573aU, 0xbdbce990bdeb86f0U,
  0xbdf5573a3db31946U, 0xbbc445c83ca6d4eaU, 0x3c6b86f03cf5573aU, 0xbd0e4c31be0a9e15U,
  0xbdabbd0fbcb0a534U, 0xbc6b86f0be09640cU, 0x3da1ecc5bca6d4eaU, 0x3b9d04a0bb6b86f0U,
  0x3c57e65cbe195684U, 0xbdb58d59bce1b6a6U, 0xbde1b6a6bd75573aU, 0xbdbce990bc57e65cU,
  0xbdf06f15bd0e4c31U, 0xbd26d4ea3d0e4c31U, 0x3d6b86f0be00cdcbU, 0xbdf06f153d4445c8U,
  0xbd4e1612bd75573aU, 0x3b9d04a0bd7a3f5fU, 0x3f0a78ae3f4b1766U, 0xbe5452a5bf0f164eU,
  0x3e793fa0bed8f044U, 0xbddd8de4be13b3edU, 0xbd813d6f3eaac80aU, 0xbec679c63e4b1766U,
  0x3eaac80abecb1766U, 0xbddd8de43e813d6fU, 0xbe4b1766be700461U, 0xbedd8de4bef00461U,
  0xbf5203d5be0a78aeU, 0xbebd3e88bea18ccbU, 0xbd5d8de43e0a78aeU, 0x3dcb17663e8f164eU,
  0x3db8a0e8becfb505U, 0x3e8a78aebf66c922U, 0x3e2f65a9bc93b3edU, 0xbddd8de4bed8f044U,
  0xbe41dc27bd38a0e8U, 0xbc13b3ed3df00461U, 0xbe793fa0bc13b3edU, 0x3e013d6f3e8f164eU,
  0xbe0a78aebe013d6fU, 0x3e98518c3ec1dc27U, 0xbcdd8de43e4b1766U, 0x3df004613ed452a5U,
  0xbe85db0f3d13b3edU, 0x3e8f164ebe813d6fU, 0x3ecb1766bcdd8de4U, 0xbe13b3edbd93b3edU,
  0x3c13b3ed3eaac80aU, 0x3da62a6bbf442af7U, 0x3e4b17663f3aefb8U, 0xbe4b1766bda62a6bU,
  0x3e5452a53df00461U, 0xbf928c853e013d6fU, 0xbf41dc27be98518cU, 0x3c93b3ed3ea62a6bU,
  0x3ee6c922bd13b3edU, 0x3e5d8de43d93b3edU, 0x3f013d6f3e013d6fU, 0x3c93b3edbe0a78aeU,
  0xbe1cef2cbe13b3edU, 0xbf23db9b3c93b3edU, 0x3e1cef2cbedd8de4U, 0x3efddd3fbf1602bdU,
  0xbcdd8de4be013d6fU, 0xbf4fb505be0a78aeU, 0xbd5d8de43e262a6bU, 0xbe41dc27bf18518cU,
  0xbf564350bee2641aU, 0xbed238623f461797U, 0xbdc20ca9bed23862U, 0xbe728fd33e62641aU,
  0xbc815dc6bf0d7e91U, 0xbde2641a3e62641aU, 0xbe015dc63e999f5bU, 0x3de2641a3d815dc6U,
  0x3e015dc63f420ca9U, 0x3e999f5bc0005b0aU, 0xbf29cb14bc815dc6U, 0x3f31e0f03e815dc6U,
  0x3e999f5bbe91897fU, 0x3e5238623f0d7e91U, 0xbe8973a23ea1b538U, 0x3d015dc63e728fd3U,
  0x3da1b538bf5a4e3eU, 0x3f11897f3dc20ca9U, 0x3f15946dbe728fd3U, 0x3d015dc6be91897fU,
  0x3e11897fbe21b538U, 0x3f2dd602bd420ca9U, 0xbe420ca9beb9f6cdU, 0xbeb1e0f0bd015dc6U,
  0x3e91897f3c815dc6U, 0x3ea9cb14bf2dd602U, 0xbe11897f3e21b538U, 0xbe999f5b00000000U,
  0xbf461797bd815dc6U, 0x3de2641abeb9f6cdU, 0xbe21b538bed23862U, 0xbeb1e0f0bff69ac1U,
  0x3de2641abe91897fU, 0xbd420ca93e8973a2U, 0xbe728fd33e015dc6U, 0x3f0d7e913e11897fU,
  0xbe728fd3bdc20ca9U, 0xbe62641abd420ca9U, 0x3de2641a3e62641aU, 0xbf666f09bc815dc6U,
  0xbed238623de2641aU, 0x3d420ca93d815dc6U, 0xbf31e0f03c815dc6U, 0x3d015dc6beda4e3eU,
  0xbde2641abe999f5bU, 0xbec20ca93e62641aU, 0x3d420ca93f4e2d74U, 0xbe015dc600000000U,
  0xbe21b5383e999f5bU, 0xbef28fd3bec20ca9U, 0x3e70ed57bd2799faU, 0xbe82f04bbe082d1bU,
  0x3d92a6bb3dfb66f7U, 0xbf2a38623e5bfa18U, 0x3da799fabe518078U, 0xbec706d9be082d1bU,
  0x3ef0ed57be32139aU, 0xbe92a6bb3ecc43a9U, 0x3e082d1b3dd18078U, 0x3e5bfa18bfa64ac6U,
  0xbeacd6cabcfb66f7U, 0x3dbc8d39bf0051e3U, 0xbcfb66f73dbc8d39U, 0xbca799fa3de673b8U,
  0xbe7b66f7beb2139aU, 0x3ee673b8be97e38bU, 0x3da799fa3de673b8U, 0x3e4706d93c2799faU,
  0xbe82f04bbe2799faU, 0xbcfb66f73eebb088U, 0xbc2799fa3d92a6bbU, 0x3f3750693e082d1bU,
  0xbe82f04bbe32139aU, 0x3e082d1b3e2799faU, 0x3ea799fa3e1d205aU, 0xbed6bd483ef0ed57U,
  0xbe2799fabe12a6bbU, 0x3e7b66f7bed18078U, 0x3ecc43a9bedbfa18U, 0x3eebb0883e6673b8U,
  0xbd2799fa3ed6bd48U, 0x3c2799fabf969457U, 0xbda799fa3ee136e8U, 0xbdbc8d39be518078U,
  0x3eacd6cabe3c8d39U, 0xbf78c88fbdd18078U, 0xbf6136e8be518078U, 0x3e92a6bb3e70ed57U,
  0xbca799fabde673b8U, 0x3f6673b8bdbc8d39U, 0x3ea25d2a3e2799faU, 0x3dfb66f7bca799faU,
  0x3dd18078be7b66f7U, 0xbdd180783de673b8U, 0x3d518078bdbc8d39U, 0x3e4706d9be4706d9U,
  0x3de673b8be882d1bU, 0xbf375069bf49a541U, 0xbeb750693e4706d9U, 0xbe5bfa183dd18078U,
  0x3d61c3cebf955584U, 0xbce1c3ce3df4941fU, 0xbe9b369d3e9b369dU, 0xbeae06eebe8d1a60U,
  0x3d61c3cebd61c3ceU, 0xbdcef37cbe0d1a60U, 0x3ce1c3ce3dbc232bU, 0x3e91ce75bf32bb03U,
  0xbebc232bU, 0x3e74941fbf18dc93U, 0x3e6b2bf63d968289U, 0xbd168289bf0d1a60U,
  0xbd968289bce1c3ceU, 0x3e2952dabef94833U, 0x3d968289bf0ac056U, 0x3de1c3cebc168289U,
  0xbe1682893e83b238U, 0x3da952da3e458b54U, 0x3dbc232bbd3c232bU, 0x3ed3a7913e03b238U,
  0x3e6b2bf63c968289U, 0xbe9b369d3e2952daU, 0x3e585ba5be3c232bU, 0xbde1c3cebde1c3ceU,
  0x3c9682893d83b238U, 0x3e1682893e8d1a60U, 0xbe9b369d3e74941fU, 0x3e74941fbdf4941fU,
  0x3e2952da3da952daU, 0x3e74941f3e03b238U, 0xbe74941f3e0d1a60U, 0x3da952dabd968289U,
  0x3dbc232bbdcef37cU, 0xbda952da3d3c232bU, 0x3ce1c3ce3e88664cU, 0xbee677e2bc168289U,
  0x3d3c232bbc168289U, 0xbf168289bd168289U, 0xbe168289be8d1a60U, 0xbe3c232b00000000U,
  0x3d3c232b3e03b238U, 0x3e83b2383c968289U, 0xbe168289bda952daU, 0x3e1feab2bde1c3ceU,
  0xbe32bb03beefe00aU, 0xbf0d1a60bd3c232bU, 0x3c168289bd83b238U, 0x3e3c232bbdf4941fU,
  0x3dbc232b3df4941fU, 0xbd83b238be91ce75U, 0xbf466e6dbed4cf78U, 0x3d0a0a09bf6bd124U,
  0xbecf0f0d3e2c8c8bU, 0xbf23ebea3f2f6cc0U, 0x3e2c8c8bbf1b4b4aU, 0xbe438e37bd380d61U,
  0x3e0a0a09bdcf0f0dU, 0x3d6610b9beb24cf6U, 0xbcb80d613f85b9b8U, 0x3c380d61bf352d2bU,
  0x3e438e373dcf0f0dU, 0xbfb69d463ec94ea2U, 0xbec38e373e210bb5U, 0xbefd12653f68f0efU,
  0xbe2c8c8b3e0a0a09U, 0xbeb24cf63f438e37U, 0xbd380d61be380d61U, 0x3ea6cc203f4c2ed8U,
  0xbf7a3230be7d1265U, 0xbe9b4b4a3ea6cc20U, 0xbea10bb53d0a0a09U, 0x3ee0504ebe158adfU,
  0x3f0a0a093d6610b9U, 0x3e84499eU, 0xbeac8c8bbe8a0a09U, 0xbe5a8fe3bd8a0a09U,
  0xbe380d61beb24cf6U, 0xbe84499e3e7d1265U, 0x3e9b4b4abf7471c5U, 0xbf8b7a243ea10bb5U,
  0x3f186b14be2c8c8bU, 0xbf5d7019bef751faU, 0x3d0a0a093f0729d3U, 0x3da10bb5beda8fe3U,
  0xbf2f6cc0be84499eU, 0xbf324cf6bd8a0a09U, 0xbd6610b93ebdcdccU, 0x3f466e6d3e0a0a09U,
  0x3e210bb53e2c8c8bU, 0x3e0a0a093ed4cf78U, 0xbec38e37be84499eU, 0x3dcf0f0d3cb80d61U,
  0x3da10bb53d380d61U, 0x3dfd12653de610b9U, 0xbec94ea23d0a0a09U, 0x3cb80d613d380d61U,
  0xbf5a8fe33f438e37U, 0xbdcf0f0d3dfd1265U, 0x3dfd12653eda8fe3U, 0xbf1b4b4a3ec94ea2U,
  0x3cda24ad3e239b82U, 0x3e8856ec3e8f2812U, 0xbf56bc1abc5a24adU, 0x3d8856ec3e8185c7U,
  0xbd5a24ad3e756943U, 0x3ec5b13d3d239b82U, 0xbf7c3a68bf34a65fU, 0x3ee0f5d2bdda24adU,
  0xbe3ee0173eb13dcdU, 0xbe9cca5c3f2032efU, 0x3e8185c7bd8856ecU, 0xbf90dc5b3f5a24adU,
  0x3e8f2812be9cca5cU, 0x3f04ee59bf3ee017U, 0xbdda24ad3ec5b13dU, 0xbf8856ecbf4248aaU,
  0xbd5a24adbd5a24adU, 0x3efc3a683f4919cfU, 0xbda39b823e756943U, 0x3d239b82bf67c6f8U,
  0xbf04ee593ecc8262U, 0xbdda24adbfb13dcdU, 0xbf34a65f3d239b82U, 0xbf313dcdbe5a24adU,
  0xbe3ee0173d8856ecU, 0xbfbee017be95f937U, 0x3da39b82bdbee017U, 0x3e8185c7bf2a6ca7U,
  0x3e5a24adbe0856ecU, 0xbeb80ef23e313dcdU, 0x3d239b823e313dcdU, 0xbd8856ec3f0f2812U,
  0xbdda24adbfbb7785U, 0x3eda24ad3ee0f5d2U, 0x3d239b82be239b82U, 0xbeda24adbfd87064U,
  0x3e8185c73da39b82U, 0x3f2a6ca7beaa6ca7U, 0xbf8d73c83e5a24adU, 0xbe313dcdbd8856ecU,
  0x3cda24adbe0856ecU, 0xbd5a24adbf2a6ca7U, 0xbd8856ec00000000U, 0x3e239b82be0856ecU,
  0xbf9961ca3e3ee017U, 0xbf2032efbcda24adU, 0x3dbee0173e313dcdU, 0x3ef56943be756943U,
  0xbe756943be4c8262U, 0x3e4c8262be239b82U, 0x3d83d116be71a9feU, 0x3e5bb1d0bfc03b96U,
  0xbf403b96bef1a9feU, 0xbf2fc1733cafc173U, 0xbddbb1d0bd83d116U, 0xbe2fc1733e83d116U,
  0xbe99c945bcafc173U, 0x3e19c9453e83d116U, 0x3dafc1733d2fc173U, 0x3e8ecd2d3e19c945U,
  0xbf2a4367bcafc173U, 0xbe45b9a1be71a9feU, 0x3e5bb1d0be03d116U, 0xbe45b9a1befca615U,
  0xbe03d1163f03d116U, 0xbcafc173befca615U, 0xbef1a9febe71a9feU, 0xbf19c9453e03d116U,
  0xbf094f223e5bb1d0U, 0xc02e61f03e2fc173U, 0x3e19c9453e71a9feU, 0xbe45b9a1be99c945U,
  0xbddbb1d0beafc173U, 0xbfbd7c90bcafc173U, 0xbe45b9a1bef1a9feU, 0xbeafc1733ef1a9feU,
  0x3e45b9a1U, 0x3d83d116be99c945U, 0xbddbb1d0be03d116U, 0xbe19c94500000000U,
  0x3dafc1733e2fc173U, 0x3e2fc173bebabd8aU, 0x3d2fc1733e03d116U, 0x3d83d116bdafc173U,
  0x3f353f7f3e2fc173U, 0xbed0b5b900000000U, 0x3ed0b5b93d83d116U, 0x3ddbb1d03edbb1d0U,
  0x3e71a9febe19c945U, 0xbf86901cbe03d116U, 0x3ef1a9febeafc173U, 0x3d2fc1733f094f22U,
  0x3d83d116be8ecd2dU, 0x3e19c9453e03d116U, 0xbe8ecd2dbe8ecd2dU, 0xbe03d1163e45b9a1U,
  0xbeafc173bdafc173U, 0xbfa4c55cbf71a9feU, 0x3d2fc1733ebabd8aU, 0x3e5bb1d0be19c945U,
  0xbdbc2fab00000000U, 0xbf46a4183e3c2fabU, 0xbea746d1bebc2fabU, 0xbf910f69be07e98aU,
  0xbe5b8cf2bd511885U, 0xbf4941333e7aea3aU, 0xbebc2fab3e07e98aU, 0xbe46a418bde6015fU,
  0x3d7aea3abdfaea3aU, 0xbe7aea3abf784d1eU, 0xbeeb3b96bec169e2U, 0x3dbc2fab3e31bb3eU,
  0xbd925df7be125df7U, 0x3f399290be511885U, 0xbd7aea3abf4e7b6aU, 0x3ee6015f3f6b3b96U,
  0x3f0fc0dcbe1cd264U, 0x3f2f1e233e87e98aU, 0x3ea20c9a3c2746d1U, 0xbca746d13e46a418U,
  0x3e82af53bc2746d1U, 0xbf46a418bf1f6f7fU, 0x3e125df7bf784d1eU, 0xbeeb3b96bfa5f843U,
  0xbe125df73e3c2fabU, 0xbf3458593e8d23c0U, 0xbec169e23e1cd264U, 0x3d5118853d7aea3aU,
  0x3edb8cf23e2746d1U, 0xbe125df7be2746d1U, 0xbdbc2fab3e2746d1U, 0x3ee6015fU,
  0x3eb1bb3e3e7075ccU, 0xbe5118853f36f575U, 0xbc2746d1bdd11885U, 0x3eb1bb3ebe125df7U,
  0xbf8a86a5bde6015fU, 0x3e97982d3e9cd264U, 0x3e3c2fabbd925df7U, 0x3ea20c9abe66015fU,
  0x3e87e98a3e66015fU, 0xbc2746d1bdbc2fabU, 0xbef075cc3d511885U, 0xbf869afcbebc2fabU,
  0xbda746d1becbde4fU, 0x3e31bb3eU, 0xbd2746d13f02af53U, 0x3e31bb3ebf0a86a5U,
  0xbf02af53be46a418U, 0xbf1cd264bea746d1U, 0x3dd2bbae3e0778a7U, 0xbf1a4969U,
  0x3e8eff5b3e70d67eU, 0x3ebc2792bd70d67eU, 0xbe2593773ec3ae46U, 0x3e43ae463ea59377U,
  0xbe52bbae3eb4a0deU, 0x3e2593773e70d67eU, 0xbf0b3c013e43ae46U, 0x3cf0d67ebd96860fU,
  0x3e61c916bd34a0deU, 0xbf4b34fabe43ae46U, 0x3e7fe3e6be34a0deU, 0xbf0778a7bdb4a0deU,
  0x3e34a0deU, 0xbdb4a0debf30dd85U, 0xbe34a0debdb4a0deU, 0x3e7fe3e600000000U,
  0xbdf0d67ebe61c916U, 0x3e0778a7be61c916U, 0xbcf0d67ebe0778a7U, 0xbee1c916bdb4a0deU,
  0xbf2593773e96860fU, 0x3d70d67ebe43ae46U, 0x3db4a0de3e8778a7U, 0xbe7fe3e63cf0d67eU,
  0x3e8778a73e0778a7U, 0xbc70d67ebe34a0deU, 0x3cf0d67e3e9e0cc3U, 0xbf6d1324be96860fU,
  0x3db4a0debe43ae46U, 0x3ef0d67ebe9e0cc3U, 0xbe16860fbdf0d67eU, 0x3db4a0debdd2bbaeU,
  0xbec3ae46bdb4a0deU, 0xbf8b3c01bf5e05bcU, 0x3f1e0cc33ebc2792U, 0xbdd2bbae3db4a0deU,
  0xbd34a0de3e52bbaeU, 0x3cf0d67ebdb4a0deU, 0x3e0778a7bd34a0deU, 0xbd34a0debfeef4d1U,
  0x3c70d67e3ec3ae46U, 0x3e0778a7be34a0deU, 0x3e0778a7bc70d67eU, 0xbeb4a0debe16860fU,
  0xbe0778a73e16860fU, 0xbd96860fbec3ae46U, 0xbe34a0debf94a462U, 0x3dd2bbaebd34a0deU,
  0xbf59fb9bbf85b236U, 0x3d0b824fbf889a43U, 0x3d6883d93e45a345U, 0xbef4240a3ef4240aU,
  0x3e172280becb735eU, 0x3c3a0314bdd14376U, 0x3e0b824fbe3a0314U, 0x3cba0314bd3a0314U,
  0x3e7fc43c3f2892caU, 0x3e2e62e3bf6883d9U, 0xbcba0314bc3a0314U, 0x3e8b824f3d6883d9U,
  0xbeba03143e172280U, 0xbef9f4233ee2b3c0U, 0x3e45a3453ecb735eU, 0xbe22c2b2bf889a43U,
  0xbedce3a8bf2e62e3U, 0xbc3a03143e972280U, 0xbf8a0e49beb432fbU, 0xbfb88f0e3e2e62e3U,
  0xbf1a0a8dbc3a0314U, 0x3e5ce3a8bdffc43cU, 0xbed7138fbe2e62e3U, 0xbef4240a3c3a0314U,
  0x3cba0314be915268U, 0x3d6883d93eb432fbU, 0xbd0b824f3ef4240aU, 0x3eba03143ea892caU,
  0x3ee2b3c0bf9fdaa5U, 0x3f05b236be9cf299U, 0x3e6883d93d0b824fU, 0x3f089a43be22c2b2U,
  0xbf45a3453de883d9U, 0xbeee53f2becb735eU, 0xbf4e5b6a3dffc43cU, 0x3d6883d93e3a0314U,
  0xbe1722803d8b824fU, 0x3e2e62e33e45a345U, 0x3e0b824fbf4b735eU, 0xbf314aefbd0b824fU,
  0x3dba0314be74240aU, 0x3e2e62e33f0b824fU, 0xbe45a345be5ce3a8U, 0x3da2c2b2U,
  0xbd8b824fbeae62e3U, 0x3e6883d93eba0314U, 0x3f1722803e514376U, 0xbe22c2b23ecb735eU,
  0xbc3a03143ef9f423U, 0x3d6883d9bf3fd32dU, 0x3e11e67e3d91e67eU, 0xbf80ad0f3da21c8cU,
  0xbe32529a3f05bdf4U, 0xbe4aa3af3e6b0fcbU, 0xbe4288a8be01b070U, 0xbeff535c3e91e67eU,
  0xbeba6da13d62f4c4U, 0x3eef1d4ebe1a0185U, 0xbe5ad9bd3ee70248U, 0xbea21c8c3e2a3793U,
  0xbe6b0fcb3df32ad2U, 0xbe89cb773f07c4b5U, 0x3ee70248bf15f402U, 0x3e8dd8fa3ec6962cU,
  0x3dc288a8bcc288a8U, 0x3d221c8cbf2a3793U, 0x3e95f402bc81b070U, 0x3f304bd83e8dd8faU,
  0x3e01b070bcc288a8U, 0x3e7b45d93e4288a8U, 0xbef73856beb6601eU, 0x3f05bdf4be2a3793U,
  0xbecaa3afbe7b45d9U, 0xbe01b070be4288a8U, 0x3e89cb773e52beb6U, 0xbf5ad9bd3e01b070U,
  0xbe32529abe32529aU, 0x3df32ad2bf670248U, 0x3edee7403e09cb77U, 0xbe732ad2bf03b732U,
  0x3e4aa3af3c81b070U, 0xbe732ad23eae4516U, 0xbed6cc3abe01b070U, 0xbd81b0703dd2beb6U,
  0x3e6b0fcbbe5ad9bdU, 0xbeceb132bf7f535cU, 0xbe91e67e3e4288a8U, 0x3d81b0703ed6cc3aU,
  0x3e32529abe4aa3afU, 0x3d62f4c43e9e0f08U, 0x3eaa3793bdb2529aU, 0xbe11e67ebe732ad2U,
  0xbdb2529abe95f402U, 0xbedad9bdbf15f402U, 0xbdf32ad2bf0dd8faU, 0xbedee7403c81b070U,
  0xbea21c8c3f05bdf4U, 0x3e8dd8fabea62a10U, 0xbf221c8c3eaa3793U, 0xbf80ad0f3d221c8cU,
  0xbf88673ebe5a3ecaU, 0x3e6c6eb0c0105c33U, 0xbeec6eb03ed126d6U, 0xbed126d63eda3ecaU,
  0x3e917f31be480ee3U, 0x3e23af17U, 0x3efe9e96bec80ee3U, 0xbd117f31bdfe9e96U,
  0xbdda3eca3f117f31U, 0x3e117f31bea3af17U, 0xbeacc70abdb5defdU, 0xbe9a9724be9a9724U,
  0x3e5a3eca3d917f31U, 0xbdda3ecabdda3ecaU, 0x3d5a3eca3f08673eU, 0x3c917f31bea3af17U,
  0x3e6c6eb000000000U, 0xbe117f313f23af17U, 0xbf7586a3befe9e96U, 0xbdfe9e963e6c6eb0U,
  0xbc917f313db5defdU, 0xbf8cf3373ea3af17U, 0xbeacc70abc917f31U, 0xbd917f31bdfe9e96U,
  0xbc917f313e5a3ecaU, 0x3e480ee3U, 0x3e35defdbdda3ecaU, 0x3eb5defdbe23af17U,
  0xbe6c6eb0bebef6f0U, 0xbeda3ecabf160b2bU, 0x3db5defd3e117f31U, 0xbdb5defd3dda3ecaU,
  0x3e117f31bdda3ecaU, 0xbe23af17bd5a3ecaU, 0xbeacc70a3d117f31U, 0xbf8cf33700000000U,
  0x3dfe9e96bd5a3ecaU, 0x3e7e9e963e480ee3U, 0x3dda3eca3dda3ecaU, 0xbd117f313e480ee3U,
  0x3e917f3100000000U, 0x3d117f31be9a9724U, 0x3d917f313db5defdU, 0xbd5a3eca3db5defdU,
  0x3e117f31bd917f31U, 0xbe917f313d917f31U, 0xbe88673e3dfe9e96U, 0xbf7e9e96bec80ee3U,
  0xbe23af17bf03db44U, 0x3e6c6eb0bf8cf337U, 0x3e1b05ab3e8b851aU, 0xbcf809113c780911U,
  0x3e8b851a3d3a06cdU, 0xbdba06cd3ee0c837U, 0xbe3a06cd00000000U, 0xbdd907ef3e0b851aU,
  0xbe9345623ea2c5f3U, 0x3dba06cd3cf80911U, 0xbd9b05ab3ec1c715U, 0xbdd907ef3d780911U,
  0x3e9b05ab3dd907efU, 0xbe49875e3eba06cdU, 0xbed907efbec1c715U, 0xbd9b05ab3eba06cdU,
  0xbcf80911bdf80911U, 0xbff618ffbf3a06cdU, 0xbef048c8bf7048c8U, 0x3eba06cd3e688880U,
  0x3dba06cdbdf80911U, 0x3e3a06cd3c780911U, 0x3cf809113dba06cdU, 0x3e688880bfbfd703U,
  0xbeffc95abe688880U, 0xbe68888000000000U, 0x3dd907ef3cf80911U, 0xbf8d752cbe9b05abU,
  0x3df809113d780911U, 0xbc7809113d9b05abU, 0x3e0b851abc780911U, 0x3c780911bd3a06cdU,
  0x3e2a863cbeb24684U, 0xbd7809113dd907efU, 0xbe49875e3f22c5f3U, 0xbe5907efbe9b05abU,
  0x3e9b05abbf1ee5cfU, 0xbef048c8bfba06cdU, 0x3f3626a83e5907efU, 0x3e6888803dba06cdU,
  0x3e0b851abe2a863cU, 0x3ea2c5f3be780911U, 0xbe5907efbdd907efU, 0xbe49875ebe1b05abU,
  0xbeba06cd00000000U, 0x3e934562be3a06cdU, 0x3e5907efbe0b851aU, 0x3f5527cb3e2a863cU,
  0xbe68888000000000U, 0x3e3a06cdbe1b05abU, 0x3e0b851a3ef048c8U, 0x3eb24684U,
  0x3f2d94e53fea8515U, 0xbf9ecf083f3c5ac3U, 0x3e13baa3be93baa3U, 0x3eb8a94bbe400c3aU,
  0xbe8c57b43e04f4c6U, 0xbe31465d3dec5dd1U, 0xbdb1465d3eec5dd1U, 0xbe5d97f43f04f4c6U,
  0xbe04f4c6be4ed217U, 0xbe93baa33f52838eU, 0xbf81434e3d6c5dd1U, 0x3ed635053efb23aeU,
  0xbdced217be8c57b4U, 0x3f0c57b43d6c5dd1U, 0xbc6c5dd1be4ed217U, 0x3e5d97f43ea28080U,
  0x3cec5dd1be13baa3U, 0xbf08a63dbf3c5ac3U, 0x3f1ecf083eb1465dU, 0x3ec76f28bf38a94bU,
  0x3f43bdb1bf04f4c6U, 0xbcec5dd13cec5dd1U, 0x3d93baa3bd6c5dd1U, 0xbcec5dd1bd31465dU,
  0x3ec76f283e4ed217U, 0x3e5d97f4bf2631f7U, 0xbd93baa3bdced217U, 0x3db1465dbe9b1d91U,
  0xbd93baa33f176c1aU, 0x3dec5dd1bdec5dd1U, 0xbed63505beced217U, 0xbec76f28bfc3bdb1U,
  0x3ee4fae2be4ed217U, 0x3e2280803f1ecf08U, 0x3f1ecf08bc6c5dd1U, 0x3f08a63dbdb1465dU,
  0xbf81434ebec00c3aU, 0xbec00c3abe9b1d91U, 0xbe31465dbf01434eU, 0xbd31465dbee4fae2U,
  0x3dced217bcec5dd1U, 0xbe13baa3be5d97f4U, 0xbe2280803db1465dU, 0x3e7b23aebf1ecf08U,
  0x3ea28080bf10092bU, 0x3e400c3abf0c57b4U, 0x3dec5dd1bd31465dU, 0xbec00c3a3dec5dd1U,
  0xbeec5dd1bf2631f7U, 0xbdb1465d3d31465dU, 0x3e97b2753f235db9U, 0xbde96152be13ceb4U,
  0x3c78f0573cbab441U, 0x3dbab4413e805bedU, 0xbd59d24cbdd9d24cU, 0xbdbab441be1b9636U,
  0x3ebab441be59d24cU, 0xbdbab4413e9b9636U, 0xbe0c07313e843faeU, 0xbef128d43ef128d4U,
  0xbdbab441bea7417aU, 0xbe93ceb43ea35db9U, 0x3eab253cbe1b9636U, 0x3eca43473eaf08fdU,
  0x3ed20ac93d9b9636U, 0x3f11dcd33e696152U, 0xbcf8f0573e0c0731U, 0x3ebe98033e93ceb4U,
  0xbcf8f057be8c0731U, 0xbece2708bebe9803U, 0x3e78f057bf485166U, 0x3ee57d90bf17b275U,
  0xbbf8f057bef128d4U, 0xbdca43473d59d24cU, 0x3de96152be8feaf2U, 0xbf0feaf2bea7417aU,
  0xbe520ac9be2b253cU, 0x3de96152bea7417aU, 0x3ece27083d3ab441U, 0x3ec27bc4bdca4347U,
  0x3d8c07313cbab441U, 0x3ed9d24c3f043faeU, 0xbcbab4413eb2ecbfU, 0xbe1b96363e13ceb4U,
  0x3e427bc4beb2ecbfU, 0x3cbab441bf0df912U, 0x3d9b9636be520ac9U, 0x3f13ceb4be882370U,
  0xbe1b963600000000U, 0x3f0df912bcbab441U, 0xbd3ab4413d1b9636U, 0xbeaf08fd3ebe9803U,
  0x3d78f057be0c0731U, 0xbf4089e3bf76fe76U, 0xbcbab441be6199cfU, 0x3df8f057be4a4347U,
  0x3e235db9bdbab441U, 0xbd59d24c3d3ab441U, 0x3df8f0573e8feaf2U, 0xbdd9d24cbcbab441U,
  0x3e6f84d13f0aebc1U, 0x3ec467ca3e8aebc1U, 0x3e9e1519bf2ed946U, 0x3e8fb6173d194ac3U,
  0x3e194ac33e815715U, 0x3eeaba7bbe3f9d74U, 0x3d994ac3be8aebc1U, 0x3d65f0243e65f024U,
  0x3d86216bbd3f9d74U, 0xbe8aebc13f4467caU, 0x3e8157153e6f84d1U, 0x3de5f0243eac741bU,
  0xbf25449a3e2c741bU, 0xbefde3d3bd65f024U, 0xbe3f9d743e8fb617U, 0xbe8157153f638af9U,
  0xbf6125ce3c194ac3U, 0x3d86216b3ea7a9c5U, 0xbe2c741b3e06216bU, 0xbea7a9c5U,
  0x3ce5f024be8aebc1U, 0x3de5f024bd65f024U, 0x3f3608c83e815715U, 0xbed791223dbf9d74U,
  0xbe52c6ccbeb608c8U, 0x3eeaba7bbed2c6ccU, 0x3e194ac3be3f9d74U, 0x3e994ac33ed2c6ccU,
  0x3e86216bbe06216bU, 0x3e3608c83ebf9d74U, 0xbedc5b783e86216bU, 0xbef44f273e8aebc1U,
  0xbf0aebc1bf33a39dU, 0x3e0fb617bed79122U, 0x3ce5f0243e994ac3U, 0x3e94806d3e5c5b78U,
  0x3e06216b3e3f9d74U, 0xbe5c5b78bf98182dU, 0xbf6aba7b3f015715U, 0xbec932203e9e1519U,
  0xbe194ac3be9e1519U, 0x3d3f9d743e6f84d1U, 0xbc194ac33ed79122U, 0x3e22df6f3e0fb617U,
  0xbef9197dbdf9197dU, 0x3ea7a9c5bec93220U, 0x3e8fb617bf1bafeeU, 0x3e06216b3e65f024U,
  0x3e3608c8bea2df6fU, 0x3ecdfc76be79197dU, 0xbe7d17e8bf913db8U, 0xbf016c3a3ec95304U,
  0xbd381163bef196d2U, 0x3d8a0d0a3dcf138fU, 0x3e8fcd95be8a0d0aU, 0xbf23ef7c3da10f37U,
  0xbd0a0d0a3da10f37U, 0x3e9b4eacbee615bcU, 0xbf7ff82ebe439279U, 0xbe7d17e8bf85bca2U,
  0xbd3811633e5a94a6U, 0xbf0ced50beda94a6U, 0xbea6cfc23e4f138fU, 0x3eac904dbfa10f37U,
  0xbd381163bf0fcd95U, 0x3dcf138f3f605531U, 0x3ed4d41abf0fcd95U, 0xbf2f70923f26cfc2U,
  0x3ee055313e2c904dU, 0x3e2c904d3e7196d2U, 0xbf99de89bd381163U, 0x3e6615bcbcb81163U,
  0x3ed4d41abe439279U, 0x3d8a0d0abeebd647U, 0xbe439279bc381163U, 0xbd6615bc3e0a0d0aU,
  0xbef196d2bd6615bcU, 0x3de615bcbe381163U, 0xbeebd6473e0a0d0aU, 0x3e210f37bd381163U,
  0xbda10f373e844c7fU, 0x3da10f373cb81163U, 0xbd0a0d0abc381163U, 0xbd8a0d0a3f2c904dU,
  0xbf210f373e7d17e8U, 0xbe210f37be381163U, 0xbe0a0d0abe7196d2U, 0x3ebdd1eebde615bcU,
  0xbde615bc3e381163U, 0xbcb811633e381163U, 0x3db811633e7d17e8U, 0x3ea6cfc23f044c7fU,
  0xbe7196d2be381163U, 0x3ea6cfc23da10f37U, 0xbf4672bfbf3250d8U, 0x3ec95304be4f138fU,
  0x3d6615bcbd0a0d0aU, 0xbd8a0d0a3e381163U, 0x3ed4d41aU, 0xbfb6a140bdb81163U,
  0x3f8582853fa98eb8U, 0x3caae4813f4aef59U, 0xbe2036393deafa31U, 0x3e8ad9a9beb592c9U,
  0x3e2ae481be802b61U, 0xbeb03ba5be2ae481U, 0xbc2ae4813caae481U, 0x3d802b61bd9587f1U,
  0x3e2ae481bf4843c7U, 0x3e604be93f3ae9edU, 0xbf7dab2f00000000U, 0x3efaff9dbe1587f1U,
  0x3e9adf15be6afa31U, 0x3ef5a879be3592c9U, 0x3e559da1beeafa31U, 0xbe4aef59be4aef59U,
  0x3deafa31be858285U, 0xbf78540bbd002b61U, 0x3f0582853ea58d5dU, 0xbea03639be002b61U,
  0xbd002b61U, 0x3ec598353e75a879U, 0x3e404111be404111U, 0x3d2ae481be6afa31U,
  0x3e2ae4813d9587f1U, 0x3eb592c9be002b61U, 0xbd9587f13e6afa31U, 0x3d559da100000000U,
  0x3e3592c93daae481U, 0xbe9587f1be8ad9a9U, 0xbe0ad9a9be4aef59U, 0x3caae481be9030cdU,
  0xbd2ae481bebae9edU, 0xbd802b61be3592c9U, 0x3f0d853b3d802b61U, 0x3f303ba53e9030cdU,
  0xbdaae481bf684e9fU, 0x3e4aef593dd59da1U, 0x3e203639bc2ae481U, 0x3e858285bc2ae481U,
  0xbe404111bf0d853bU, 0x3caae481bec04111U, 0xbe9adf15bf002b61U, 0x3e75a879bd9587f1U,
  0xbee5a30dU, 0xbea036393e6afa31U, 0x3e559da13e604be9U, 0xbf9c34de3e404111U,
  0x3eb03ba5bea58d5dU, 0xbee5a30dU, 0xbec58396bfa0cbf2U, 0xbd4a9416bec58396U,
  0x3cf3181bbe221012U, 0x3e221012be221012U, 0xbdca94163e54b518U, 0xbe88bd8f3ea72093U,
  0x3d4a9416bca21012U, 0x3e4a9416bec07315U, 0xbd4a9416be407315U, 0x3ca21012bf314194U,
  0x3d8dce10bd4a9416U, 0xbe0dce103da21012U, 0x3da21012be0dce10U, 0x3c221012bdca9416U,
  0xbcf3181bbea21012U, 0x3e365214bee8f71aU, 0xbe4073153d221012U, 0xbe03ad0f3e4a9416U,
  0xbd4a9416be73181bU, 0x3ee3e699be17ef11U, 0xbdb652143df3181bU, 0xbed4b518bd221012U,
  0xbf1f87d23e4a9416U, 0xbdf3181bbe92de90U, 0xbca210123eb14194U, 0x3ca210123df3181bU,
  0x3da210123d4a9416U, 0x3e68f71abd4a9416U, 0xbda21012bdded619U, 0x3e365214be68f71aU,
  0xbcf3181b3e97ef11U, 0xbd221012be03ad0fU, 0xbdded619be8dce10U, 0xbe2c3113be73181bU,
  0xbe88bd8f3d8dce10U, 0xbf0124cebe54b518U, 0xbe54b518be88bd8fU, 0xbeca94163e17ef11U,
  0x3ca210123dded619U, 0xbe9cff91bd4a9416U, 0x3eac3113bef8289cU, 0x3d4a9416bca21012U,
  0xbea21012bd73181bU, 0xbe221012bdded619U, 0xbdb65214bebb6295U, 0x3ca210123da21012U,
  0x3ea210123e7d391cU, 0xbe88bd8fbe9cff91U, 0x3df3181bbe68f71aU, 0xbd8dce10bebb6295U,
  0xbed37ec800000000U, 0xbea4e5043eac105dU, 0xbec192693e7aed33U, 0x3d810c46bd9db9abU,
  0x3d2c105d3e48bdc2U, 0xbe24e5043ea4e504U, 0x3c656b27bd2c105dU, 0x3d2c105dbeb6d163U,
  0xbf112dcfbf168e52U, 0x3d48bdc2bedaaa21U, 0x3e8bcd4c3dba6710U, 0xbf4528163d810c46U,
  0xbd2c105d3dd71475U, 0x3ed37ec83de56b27U, 0xbe5e3fcebe1db9abU, 0xbe24e5043e92f8a5U,
  0xbd48bdc2be2c105dU, 0x3ee1d57a3e0f62f8U, 0x3e9db9ab3f08379fU, 0x3e92f8a53d810c46U,
  0xbf3fc793bcac105dU, 0x3eb6d163bdf3c1d9U, 0x3e48bdc23ee1d57aU, 0xbe08379f3e73c1d9U,
  0xbea87ab13e24e504U, 0xbe6c9680bede3fceU, 0x3e08379fbe3a6710U, 0x3eafa60abdd71475U,
  0xbed37ec8be08379fU, 0xbde56b27be4fe91bU, 0x3de56b27be010c46U, 0xbcac105d3ecc536fU,
  0xbf3c31e63d810c46U, 0x3cac105dbea14f57U, 0xbea87ab1bc656b27U, 0xbf4fe91bbe48bdc2U,
  0xbe48bdc23ed71475U, 0x3eec9680bd0f62f8U, 0xbee1d57abecfe91bU, 0xbf389c39bea4e504U,
  0xbdd71475be88379fU, 0x3e4192693d8f62f8U, 0xbeba67103e92f8a5U, 0x3f0a02753e8bcd4cU,
  0xbea4e504bf63a051U, 0xbf61d57abee1d57aU, 0x3eb33bb6bd0f62f8U, 0x3f0f62f8bcac105dU,
  0x3e3a6710bea4e504U, 0xbe7aed333d48bdc2U, 0xbc12801cbf396a23U, 0xbe12801c3ddbc02aU,
  0xbf0dec1b3cdbc02aU, 0x3e64e82cbefbcc30U, 0x3e4048253cdbc02aU, 0x3ddbc02a3d372023U,
  0x3d5bc02a3dc97026U, 0x3e003018bf404825U, 0xbe2df821bf195e1dU, 0xbe003018bd12801cU,
  0xbe3720233f09581aU, 0x3e6e102ebcdbc02aU, 0xbe4970263db72023U, 0xbec04825bf396a23U,
  0x3d12801cbea4d020U, 0x3e89581abdc97026U, 0xbed72c293d5bc02aU, 0xbf74ee2fbe9ba81eU,
  0xbe92801c3e529828U, 0x3ebbb424be8dec1bU, 0x3e84c419bd372023U, 0xbf629e2b3e2df821U,
  0x3f0dec1b3e803018U, 0xbe92801cbec04825U, 0x3e5298283e529828U, 0x3f070e1a3dc97026U,
  0x3dc970263e09581aU, 0xbc12801c3e92801cU, 0x3e529828bd372023U, 0x3da4d020bed72c29U,
  0xbe92801c3e497026U, 0x3ec4dc263d12801cU, 0x3e5bc02abea4d020U, 0xbea4d020bdb72023U,
  0x3e2df8213ee0542bU, 0xbe5298283e497026U, 0xbe497026bd803018U, 0xbd803018be803018U,
  0xbeb72023bf915b1cU, 0xbf504e28be529828U, 0x3da4d020befbcc30U, 0x3e372023bdc97026U,
  0xbf2964203e003018U, 0xbcdbc02a3da4d020U, 0xbd12801cbcdbc02aU, 0xbee4e82cbf10361cU,
  0x3f2964203ec97026U, 0xbe497026bd372023U, 0x3e404825bea96420U, 0x3e803018bec4dc26U,
  0x3efa8f3e3f001053U, 0x3e8b3323bf02d907U, 0xbf34f5adbedeb837U, 0xbf1eb00e3e270a29U,
  0x3e9be75abe322cf9U, 0xbeb7be61be85a1bbU, 0xbdf4fdd6bd05a1bbU, 0x3ec2e1303e5eb837U,
  0xbe5eb837be9be75aU, 0x3d322cf9bf191ea6U, 0x3e9655f23d85a1bbU, 0xbe85a1bb3dc87298U,
  0xbd85a1bb3ddeb837U, 0x3f3a8715bf05a1bbU, 0xbd85a1bbbdb22cf9U, 0xbd322cf93f086a6fU,
  0x3e5eb8373df4fdd6U, 0xbf322cf93ee9db07U, 0xbe4872983e85a1bbU, 0xbf1eb00e3edeb837U,
  0xbf0dfbd6bd85a1bbU, 0x3d05a1bb3d85a1bbU, 0x3ed39568be9655f2U, 0xbed39568be74fdd6U,
  0xbefa8f3ebfb0c89fU, 0x3c322cf93ddeb837U, 0xbe69db07bd9be75aU, 0xbe1be75a00000000U,
  0x3d9be75abe8b3323U, 0x3cb22cf93d5eb837U, 0xbea70a293db22cf9U, 0xbebd4fc9bea70a29U,
  0x3e5eb837bc322cf9U, 0xbe5eb8373ed39568U, 0x3e90c48a3eb22cf9U, 0xbef4fdd63e322cf9U,
  0x3ec872983e69db07U, 0xbe74fdd6bd85a1bbU, 0x3d05a1bbbf487298U, 0x3f1be75a3c322cf9U,
  0xbe69db07be539568U, 0x3f05a1bb3ec87298U, 0xbd322cf9bd05a1bbU, 0x3e270a293dc87298U,
  0xbf4e0400be10c48aU, 0xbe539568bd05a1bbU, 0x3e8010533e3d4fc9U, 0x3e3d4fc93e322cf9U,
  0x3eac9b91bcb22cf9U, 0xbe9be75a3dc87298U, 0xbe883fb5bf278c9dU, 0xbe644f143e4e36e9U,
  0x3ec6d985be0bee67U, 0x3e55944dbe4e36e9U, 0xbe134bcb3d4e36e9U, 0xbc6bac783e80e252U,
  0xbe2206923e934bcbU, 0xbda206923c6bac78U, 0xbe30c15abd934bcbU, 0xbed942ffbeb4700cU,
  0x3d8491043d134bcbU, 0xbe1aa92fbd134bcbU, 0xbda20692bd934bcbU, 0x3d8491043f152324U,
  0xbee0a0623d934bcbU, 0xbf6277bbbf152324U, 0xbe46d9853e5cf1b0U, 0x3c6bac78be2963f6U,
  0x3e644f14bdce36e9U, 0x3ece36e9bdce36e9U, 0x3bebac78bdb0c15aU, 0xbe46d985be934bcbU,
  0xbf0a170e3e4e36e9U, 0xbeca88373d134bcbU, 0x3e6bac783f202f3aU, 0xbe934bcbbe9e57e1U,
  0x3dce36e9bdfa6740U, 0x3c6bac78be55944dU, 0xbe934bcbbdce36e9U, 0x3e7a6740bdfa6740U,
  0x3cb0c15abe220692U, 0x3e3f7c22bea5b544U, 0xbcb0c15a3bebac78U, 0xbeebac783ed1e59bU,
  0xbe30c15abd134bcbU, 0xbf202f3abee7fdc6U, 0x3e46d9853e9e57e1U, 0xbe9e57e13e644f14U,
  0x3d6bac78bcb0c15aU, 0xbe049104bd849104U, 0xbd134bcb3ddcf1b0U, 0x3d134bcbbf69d51fU,
  0x3e0491043e849104U, 0x3e134bcbbe381ebeU, 0x3e55944d3d134bcbU, 0x3eca8837be049104U,
  0xbdfa67403ed942ffU, 0x3e381ebebebf7c22U, 0xbe049104be934bcbU, 0xbd6bac783eb0c15aU,
  0x3d7868a6bda59b19U, 0x3e868e043dba4e7cU, 0xbeba4e7c3e6e0ef4U, 0xbf10e7b6bd4f01dfU,
  0xbda59b19bee8e21bU, 0xbe1b4167bdf868a6U, 0xbde3b542be1b4167U, 0x3e9b41673e63b542U,
  0x3ef868a63dba4e7cU, 0x3e259b19bf10e7b6U, 0xbf137e22bdba4e7cU, 0x3ef33bcdbec4a82eU,
  0xbc259b19be63b542U, 0x3e2ff4cbbe2ff4cbU, 0xbe7868a6be81612cU, 0xbee8e21bbf137e22U,
  0xbf092471bf1b4167U, 0xbf37b8103ca59b19U, 0x3eaac7f2be1b4167U, 0xbfa44fe33e4f01dfU,
  0x3e81612cbec4a82eU, 0xbf01612c3c259b19U, 0xbed42eb8be4f01dfU, 0xbede886a3e44a82eU,
  0xbdf868a6bebf7b55U, 0x3e2ff4cb3e90e7b6U, 0xbdf868a6bf01612cU, 0x3e10e7b6becf01dfU,
  0x3e81612cbde3b542U, 0xbebf7b55be81612cU, 0x3ebf7b5500000000U, 0xbee3b5423dba4e7cU,
  0x3e8bbaddbc259b19U, 0xbede886a3ee8e21bU, 0x3ea06e40be9b4167U, 0x3ee8e21b3df868a6U,
  0xbea59b193e259b19U, 0x3efd957e3e1b4167U, 0x3eba4e7c3e3a4e7cU, 0x3da59b193ee3b542U,
  0xbd259b19bf49d506U, 0x3da59b19bf3f7b55U, 0xbe90e7b6bd7868a6U, 0x3cf868a6be2ff4cbU,
  0x3ea06e403e259b19U, 0x3d4f01df3e9b4167U, 0xbdcf01df3e63b542U, 0xbee8e21bbf2304adU,
  0x3ea59b193e595b91U, 0x3e96148fbea59b19U, 0x3e05e1e83f902e5cU, 0xbf67b8393f772ae8U,
  0x3ecdf916be9a7ad1U, 0x3e4df916bef72ae8U, 0xbd772ae8bd24c745U, 0x3df72ae8be4df916U,
  0x3eb9602ebebe8668U, 0xbde291ffbd902e5cU, 0xbe39602ebf2f13b9U, 0xbe9a7ad13f0d9b3fU,
  0xbeb439f3bf772ae8U, 0x3e6cde733ec3aca2U, 0xbe2f13b9bd24c745U, 0x3f3e8668bc24c745U,
  0xbe58458bbde291ffU, 0x3f275a62bf05e1e8U, 0x3f102e5c3e2f13b9U, 0xbeb439f3bf17e7b4U,
  0x3e8b0822bda4c745U, 0x3e102e5cbe102e5cU, 0xbdf72ae83da4c745U, 0x3f463fbf3ec8d2dcU,
  0xbf6a4b56bf0b0822U, 0x3ecdf9163eb9602eU, 0x3e8b08223e102e5cU, 0x3eb439f3bea4c745U,
  0xbd24c745beb9602eU, 0x3e2f13b9be80bbaeU, 0x3e85e1e83e24c745U, 0x3e6291ffbec3aca2U,
  0xbf034ecb3da4c745U, 0xbe43aca2bf087505U, 0x3ed31f50bdb9602eU, 0x3e05e1e83e6cde73U,
  0x3e43aca23cf72ae8U, 0xbe772ae83e955497U, 0xbefc5122bfa37db6U, 0xbec3aca2bda4c745U,
  0x3db9602ebdf72ae8U, 0x3e772ae8bda4c745U, 0x3e58458b3df72ae8U, 0xbe9fa10b3d4df916U,
  0xbe24c745bf1fa10bU, 0xbe902e5cbdcdf916U, 0x3ee7b839bca4c745U, 0x3f12c179bf8b0822U,
  0x3e2f13b9bf1fa10bU, 0xbf102e5cbf05e1e8U, 0xbe1a7ad1be4df916U, 0xbeb439f3be9fa10bU,
  0x3d488f763dc88f76U, 0x3eb5c203bf852f44U, 0xbe09e2a1bc488f76U, 0xbe166b98be9cb014U,
  0x3dc88f76be7ab354U, 0xbee7e5e0be839e25U, 0x3e90271dbfc6fe57U, 0x3d966b983ebc067fU,
  0x3e09e2a1be2f7d87U, 0xbe3c067f3e9cb014U, 0xbf8b73c0be89e2a1U, 0xbe61a165be90271dU,
  0xbdc88f763dc88f76U, 0x3f1fd252be9cb014U, 0xbea9390cbef46ed8U, 0x3e2f7d873f8b73c0U,
  0x3ec24afabdaf7d87U, 0x3e55186dbe09e2a1U, 0xbcc88f763ea2f490U, 0xbeee2a5cbdfab354U,
  0x3f007be8bd488f76U, 0xbf13495b3e7ab354U, 0x3ea2f490bf5e7f27U, 0xbeb5c203bed5186dU,
  0xbe839e25bf424afaU, 0x3dc88f76bcc88f76U, 0xbf09e2a100000000U, 0x3e966b98bf714c9aU,
  0x3ebc067fbe966b98U, 0xbe55186dbeced3f2U, 0x3eced3f23e839e25U, 0x3e488f76bdaf7d87U,
  0x3e2f7d87be55186dU, 0xbe966b983edb5ce9U, 0x3e9cb0143d966b98U, 0xbe7ab3543e89e2a1U,
  0xbf779116bde1a165U, 0x3f2c5b49bdaf7d87U, 0xbf488f763d7ab354U, 0x3f22f4903d488f76U,
  0x3e55186dbeee2a5cU, 0x3d166b983d488f76U, 0xbeced3f2be839e25U, 0xbfa2f490be09e2a1U,
  0xbe7ab354U, 0x3ee7e5e03e61a165U, 0x3ef46ed83ef46ed8U, 0xbd166b983edb5ce9U,
  0xbf29390cbf779116U, 0x3d7ab354bf64c3a3U, 0x3ed399d63fba9ec9U, 0x3da494183da49418U,
  0x3eb6363f3e9eb360U, 0x3f0a20dd3e5f5b45U, 0xbd8d11393e0d1139U, 0x3e76de24be014fcaU,
  0xbd8d1139bf41f7afU, 0xbe014fca3f7cbedcU, 0xbe47d8663d8d1139U, 0x3d0d11393f7cbedcU,
  0x3da49418be3c16f7U, 0xbec7d8663f100195U, 0xbe3c16f7bc3c16f7U, 0x3dbc16f73ebc16f7U,
  0x3e8d11393ebc16f7U, 0x3e5f5b453f12f1f1U, 0xbd8d113900000000U, 0x3c3c16f73eaa74d0U,
  0xbdd399d63e305588U, 0xbe873082bf653bfdU, 0x3d0d1139bea49418U, 0x3ef0fd6cbf1bc305U,
  0x3f0a20dd3e47d866U, 0xbeb6363f3e18d2a9U, 0xbd8d1139bf0d1139U, 0xbe814fcabf12f1f1U,
  0xbdeb1cb53da49418U, 0x3e18d2a93d3c16f7U, 0x3e5399d63d6b1cb5U, 0x3e47d8663f5399d6U,
  0xbdd399d6U, 0x3eaa74d03f0d1139U, 0x3e76de24bf79ce80U, 0x3e6b1cb53ef6de24U,
  0x3eb05588bd3c16f7U, 0xbf073082bf278474U, 0xbd6b1cb5be8d1139U, 0x3f014fcabf0a20ddU,
  0xbf568a32bf12f1f1U, 0x3dbc16f73cbc16f7U, 0x3d6b1cb5bf568a32U, 0xbe0d11393e98d2a9U,
  0xbe5399d6bd6b1cb5U, 0xbd8d11393e014fcaU, 0x3d6b1cb5bf7cbedcU, 0xbda49418bec1f7afU,
  0x3e9eb360bf014fcaU, 0x3deb1cb53ec7d866U, 0xbe249418be814fcaU, 0x3deb1cb5be5f5b45U,
  0x3d736330bed4f6caU, 0xbdb68a643e88e7cbU, 0x3c7363303d736330U, 0xbe54f6ca3e736330U,
  0x3e181dfe3e368a64U, 0xbf051a3e3e368a64U, 0xbf2386a43e814cb2U, 0x3e54f6ca3e181dfeU,
  0xbe9082e43c736330U, 0xbedc91e4befafe4aU, 0x3e642cfdbdd4f6caU, 0xbe814cb23e08e7cbU,
  0xbf1082e4becd5bb0U, 0x3efafe4a3ecd5bb0U, 0xbf1fb918be275431U, 0xbefafe4a3f45c097U,
  0xbf1beb8bbd736330U, 0x3ed4f6ca3cf36330U, 0x3e642cfdbcf36330U, 0x3f2386a4bedc91e4U,
  0x3d368a64bf368a64U, 0x3edc91e4bff17c6aU, 0x3e45c0973d981dfeU, 0xbeebc8163cf36330U,
  0x3c7363303eb68a64U, 0xbfab21bebe181dfeU, 0x3e642cfdbe45c097U, 0x3f08e7cbbe54f6caU,
  0x3d736330be275431U, 0xbe08e7cbbe814cb2U, 0xbdd4f6cabcf36330U, 0xbe981dfebe275431U,
  0x3ecd5bb0bcf36330U, 0xbf7730bd3c736330U, 0x3df36330U, 0xbd368a64bfbe257eU,
  0x3e368a643e08e7cbU, 0x3edc91e4bd368a64U, 0xbe368a64bf2eef4aU, 0xbdf363303cf36330U,
  0x3e642cfdbf8e9c1eU, 0x3e814cb23f9082e4U, 0xbf014cb23e275431U, 0x3d368a64bebe257eU,
  0xbd736330bf3a57f1U, 0x3e181dfebcf36330U, 0xbe08e7cbbe368a64U, 0x3e88e7cbbcf36330U,
  0x3d7363303ec5c097U, 0xbebe257e3e981dfeU, 0x3eac3d453ee1b163U, 0xbfbc92873f767afdU,
  0x3d3e0ea4bea05c5aU, 0x3dd5d078bf4ce7c9U, 0x3e322dba3dd5d078U, 0xbf5bc0ee00000000U,
  0x3d6d924d3dbe0ea4U, 0x3d8e8afb3f2c3d45U, 0xbdbe0ea43da64cd0U, 0xbecfe003bf3525f4U,
  0xbed5d078bd6d924dU, 0x3e1a6be5bed5d078U, 0x3da64cd03e264cd0U, 0x3e82aa113f235495U,
  0x3d6d924dbe61b163U, 0xbdd5d078bec3ff19U, 0x3e797337bda64cd0U, 0xbef382c2beb22dbaU,
  0x3f0b92c03e55d078U, 0xbf118336U, 0xbcbe0ea43e264cd0U, 0xbf92ff533eb81e2fU,
  0x3d0e8afbbda64cd0U, 0x3e49ef8ebef382c2U, 0x3f2c3d453d3e0ea4U, 0x3ef97337bdbe0ea4U,
  0xbe947b703d3e0ea4U, 0x3e49ef8ebe264cd0U, 0x3ec3ff193eac3d45U, 0x3c3e0ea4beb81e2fU,
  0x3ea64cd03e49ef8eU, 0xbd3e0ea4bf0b92c0U, 0x3e55d078bf46f754U, 0xbe61b1633e947b70U,
  0x3e947b703eb81e2fU, 0x3e264cd03eac3d45U, 0xbec9ef8ebf46f754U, 0x3dbe0ea43e322dbaU,
  0xbd0e8afbU, 0xbe3e0ea4beed924dU, 0x3e55d078be6d924dU, 0xbe947b70bef382c2U,
  0xbea05c5abe8e8afbU, 0xbee1b163bd6d924dU, 0xbd3e0ea4beb22dbaU, 0x3da64cd0bd0e8afbU,
  0x3e0e8afbbe3e0ea4U, 0xbc3e0ea43e947b70U, 0x3c3e0ea4bf708a88U, 0xbf0e8afbbe889a86U,
  0xbe9d5e90bfd02fc3U, 0xbedef0a13f09b2beU, 0xbeaa7bc6be9d5e90U, 0x3db798fdbec4b633U,
  0xbe0324223f066b70U, 0xbe3798fd3eaa7bc6U, 0x3dd1d36a3e792b0eU, 0x3d51d36abf51d36aU,
  0xbf1a1742bf032422U, 0xbf2a7bc6bf51d36aU, 0xbe8324223c51d36aU, 0x3c51d36abdd1d36aU,
  0x3e5ef0a1bdec0dd7U, 0xbd1d5e90bf8e9db2U, 0xbeaa7bc6be9d5e90U, 0xbc51d36a3d51d36aU,
  0xbeec0dd7bef92b0eU, 0xbd51d36a3dd1d36aU, 0x3e9d5e903eb798fdU, 0x3f23ed2bbdd1d36aU,
  0x3cd1d36abe104159U, 0xbf3451af3cd1d36aU, 0x3d1d5e903ec4b633U, 0xbe904159be89b2beU,
  0x3e5ef0a13ee57f3cU, 0x3e51d36abf104159U, 0xbf3ae04abe904159U, 0x3edef0a1bd51d36aU,
  0x3e9d5e903ebe2798U, 0x3e9d5e90bed1d36aU, 0xbf3e2798be96cff4U, 0x3ef29c73bee57f3cU,
  0xbf832422be51d36aU, 0xbebe2798bd51d36aU, 0xbe5ef0a13e89b2beU, 0x3d51d36abe6c0dd7U,
  0xbdd1d36a3e104159U, 0xbfa3ed2bbe44b633U, 0xbd9d5e90bf6c0dd7U, 0xbf68c68abe2a7bc6U,
  0x3d832422bf3ae04aU, 0x3e0324223d1d5e90U, 0xbf6237ee3e44b633U, 0x3dec0dd7bdb798fdU,
  0xbe792b0ebecb44cfU, 0xbfc7fd81bf586205U, 0x3eb10a613f3451afU, 0x3e44b6333d1d5e90U,
  0xbef92b0ebed1d36aU, 0xbcd1d36a3ebe2798U, 0xbc0ef4dbbf8dd6f1U, 0xbeb729b93e06058dU,
  0xbe684de4bec90854U, 0x3dfa2c7fbcd66f48U, 0xbdd66f48be06058dU, 0xbdc490ad3e17e429U,
  0xbe4d7ffbbc0ef4dbU, 0x3d8ef4dbbf39658cU, 0x3e818de6beae3a6bU, 0x3eae3a6b3eb729b9U,
  0xbe86058d3db2b212U, 0xbe8ef4dbbec01906U, 0x3c0ef4db3dd66f48U, 0x3d566f48be97e429U,
  0x3dc490adbeb2b212U, 0x3de84de43dd66f48U, 0x3db2b212bdc490adU, 0xbe9c5bd0bcd66f48U,
  0x3e7a2c7fbe0ef4dbU, 0x3ea0d376be20d376U, 0xbd7a2c7f3cd66f48U, 0xbe4d7ffb3eb729b9U,
  0x3f254b1d00000000U, 0xbe17e429be06058dU, 0x3e9c5bd03e0ef4dbU, 0x3de84de43c0ef4dbU,
  0xbe4d7ffb00000000U, 0x3dfa2c7f3c0ef4dbU, 0xbeb2b2123e29c2c4U, 0xbdb2b212bda0d376U,
  0xbf8dd6f13d566f48U, 0xbe29c2c4bf566f48U, 0x3efa2c7f3cd66f48U, 0xbea0d3763e97e429U,
  0xbe29c2c43ea54b1dU, 0xbee3d63d3e20d376U, 0xbf2786f1bf0a7d34U, 0xbf895f4abe818de6U,
  0xbe0ef4dbbe0ef4dbU, 0x3e684de43e684de4U, 0x3e8a7d34bd0ef4dbU, 0x3e20d3763da0d376U,
  0x3e06058dbc8ef4dbU, 0xbd566f483c0ef4dbU, 0xbe3ba15fbd32b212U, 0xbe97e429bf2786f1U,
  0x3e0ef4db3f018de6U, 0x3e29c2c43ec01906U, 0xbc0ef4db3d566f48U, 0xbe32b212be4490adU,
  0xbcbba862bda2116cU, 0x3db0fed13c7fe59dU, 0x3ce64ea7bca2116cU, 0x3caa9914bd4cb7b1U,
  0x3c3ba862bd553f58U, 0x3d22116cbdd0fb85U, 0xbdca95c7bdf75df6U, 0xbd8cbe4abcddc700U,
  0xbb4cb7b1bd7fe59dU, 0x3d86588cba887a76U, 0x3d7fe59dbdacbafdU, 0x3d44300abbeed64eU,
  0xbd8ee034bdeed64eU, 0xbdacbafdbdccb7b1U, 0xbd6a927bbc1989c5U, 0x3d9767dbbd9989c5U,
  0x3d3fec36bdb7648fU, 0xbd11021d3d3320bbU, 0xbd4873dd3c2a9914U, 0xbdd9832c3cd53f58U,
  0xbdced99bbdb98678U, 0xbd22116cbd50fb85U, 0x3db7648fbddfe8eaU, 0xbdea927b3d5dc700U,
  0x3d1dcd983c4cb7b1U, 0xbc7fe59dbcddc700U, 0xbd731a22bdd76142U, 0xbdc651f33d91021dU,
  0xbd731a22bdca95c7U, 0xbd1989c5bd9babafU, 0x3d8ee034be076981U, 0xbc4cb7b1bd9dcd98U,
  0x3d664ea7bcc4300aU, 0xbdc651f3bd2a9914U, 0xbd2a99143d50fb85U, 0x3c9989c53c3ba862U,
  0x3d6ed64e3d91021dU, 0x3baa99143c9989c5U, 0x3d8214b8bda8772aU, 0x3d44300a3c6ed64eU,
  0x3d4cb7b1bd8a9c60U, 0xbc887a76bd9989c5U, 0x3db542a53cddc700U, 0xbd6a927bbdf53c0cU,
  0xbdc873ddbc7fe59dU, 0x3c7fe59dbdc873ddU, 0xbe0214b8bdc20e20U, 0xbdced99bbdc20e20U,
  0x3cbba8623c087a76U, 0xbdbba862bd7fe59dU, 0x3e168f4f3f4b4177U, 0x3dd2c8a2be52c8a2U,
  0x3ee1d6f63e259da4U, 0x3ec3ba4dbe34abf8U, 0x3c70e54b3ecb4177U, 0x3e8780fabe61d6f6U,
  0xbfbff6b8U, 0xbd34abf83f0f0825U, 0x3e968f4f3d968f4fU, 0xbead24ce3f3ff6b8U,
  0xbdf0e54bbed2c8a2U, 0x3cf0e54bbcf0e54bU, 0xbea59da43e8780faU, 0xbe70e54b3db4abf8U,
  0xbdb4abf83e9e1679U, 0xbeda4fcc3f0f0825U, 0xbf3c3323bf03bd65U, 0x3e168f4fbcf0e54bU,
  0x3e43ba4d3efff3a0U, 0xbfef0380be70e54bU, 0x3ea59da43df0e54bU, 0xbea59da43db4abf8U,
  0x3e43ba4dbdd2c8a2U, 0xbe259da43e34abf8U, 0xbe9e1679bf9c34afU, 0x3eda4fccbd34abf8U,
  0x3df0e54bbef0e54bU, 0x3dd2c8a23e0780faU, 0x3ea59da43eb4abf8U, 0xbcf0e54b3f296139U,
  0x3e168f4f3e0780faU, 0x3d34abf83ea59da4U, 0xbe43ba4dbf9c34afU, 0xbee95e21bee95e21U,
  0x3e70e54bU, 0xbed2c8a23eb4abf8U, 0xbec3ba4dbcf0e54bU, 0x3e7ff3a0bef0e54bU,
  0xbed2c8a2bf968f4fU, 0xbf29613900000000U, 0x3d968f4f3e259da4U, 0xbe52c8a2befff3a0U,
  0xbecb41773db4abf8U, 0xbe52c8a23db4abf8U, 0x3e8780fabf968f4fU, 0x3e34abf8bef0e54bU,
  0x3e34abf8be34abf8U, 0x3dd2c8a23e259da4U, 0xbe61d6f6bf6d21b6U, 0x3ef86c75bf5a4fccU,
  0x3ef938893fac043dU, 0xbd82073c3c2d5efbU, 0x3ea7f4033e0cdd2cU, 0x3ef938893ea2890bU,
  0xbdee62993d02073cU, 0x3e9d1e13bd58b6baU, 0xbd02073cbf6e6299U, 0x3f45c056U,
  0xbe02073c3e924824U, 0xbe22890b3f68f7a1U, 0x3e877234bdd8b6baU, 0xbea7f4033f3d9fe3U,
  0xbf253e87be4de0caU, 0xbd97b31c3e8cdd2cU, 0xbe2d5efb3ea2890bU, 0xbf0f92a83ecde0caU,
  0xbdd8b6babea7f403U, 0x3d97b31c3dd8b6baU, 0x3d02073c3e17b31cU, 0xbd82073cbf877234U,
  0xbe2d5efbbebd9fe3U, 0x3f0a27b0be9d1e13U, 0xbcad5efbbe430adaU, 0x3dd8b6ba3e02073cU,
  0xbcad5efbbe02073cU, 0xbf253e87bf27f403U, 0xbd82073cbf124824U, 0x3d02073c3c2d5efbU,
  0x3f0f92a83e4de0caU, 0x3d58b6ba3f8f92a8U, 0x3d82073cbcad5efbU, 0xbe0cdd2c3efea381U,
  0xbdc30adabf7bee05U, 0x3f253e87be02073cU, 0x3eee6299bebd9fe3U, 0xbe638ca9bf40555eU,
  0x3d82073cbdd8b6baU, 0x3f124824be9d1e13U, 0xbf73cd91be4de0caU, 0x3ef3cd913e02073cU,
  0xbe22890bbe4de0caU, 0xbd58b6ba3e02073cU, 0xbe877234bcad5efbU, 0xbe3834ebbe97b31cU,
  0x3d02073cbecde0caU, 0x3d58b6babe3834ebU, 0xbe0cdd2cbf8e37eaU, 0x3e0cdd2c3d82073cU,
  0xbd02073cbe22890bU, 0x3e02073cbd2d5efbU, 0x3e17e3073efd250bU, 0x3edd806abf01bc96U,
  0x3e7d250b3ee3d48aU, 0xbc4a84093e9e3727U, 0x3e918ee63dca8409U, 0xbcca8409beaadf68U,
  0xbdca8409beaadf68U, 0x3dca84093ee3d48aU, 0x3e918ee63e248b47U, 0x3d17e3073edd806aU,
  0xbd7d250b3db13388U, 0xbe3133883ed0d829U, 0xbdb133883d97e307U, 0xbe918ee63e84e6a6U,
  0x3e17e30700000000U, 0xbe63d48a3f66fe9aU, 0xbf9323efbeb13388U, 0xbed72c4a3e7d250bU,
  0xbeb787a83cca8409U, 0xbfc8ef013e97e307U, 0x3f04e6a63de3d48aU, 0x3eb13388bd17e307U,
  0x3efd250b3e8b3ac6U, 0xbf66fe9abe572c4aU, 0xbe918ee6bf7d250bU, 0x3e4a8409bdca8409U,
  0xbd17e3073de3d48aU, 0x3d7d250b3e8b3ac6U, 0x3e248b473cca8409U, 0x3f01bc96U,
  0x3e8b3ac6bd17e307U, 0xbcca8409bde3d48aU, 0xbf27b5573e572c4aU, 0x3e707ccbbe313388U,
  0xbe17e3073dca8409U, 0xbefd250b3db13388U, 0xbd97e307bc4a8409U, 0x3edd806abe84e6a6U,
  0xbd4a8409bcca8409U, 0xbe572c4a3eaadf68U, 0xbcca8409bf04e6a6U, 0x3ea48b473eb787a8U,
  0xbe17e3073d4a8409U, 0x3eb787a83e313388U, 0xbe918ee6bf0810b6U, 0x3e3133883de3d48aU,
  0x3e0b3ac63cca8409U, 0xbe84e6a63e4a8409U, 0x3d17e3073eb13388U, 0x3e97e3073e0b3ac6U,
  0x3f1c4eed3f35eebfU, 0x3d75fe4ebd8f7f03U, 0x3e6bbe61bef0de58U, 0xbe617e733efb1e45U,
  0x3e6bbe61bf0a5f0cU, 0x3c23fedfbe99bef1U, 0x3e19bef13e0f7f03U, 0x3da3fedf3f0a5f0cU,
  0x3ea3fedf3e853f15U, 0x3ea3fedfbf19bef1U, 0xbdf5fe4ebca3fedfU, 0xbc23fedf3ea91ed6U,
  0xbed21e8e3dccfe97U, 0xbf001f1e3e8f7f03U, 0x3de17e73bf1edee8U, 0xbe053f153e6bbe61U,
  0xbe42bea9bf120effU, 0xbca3fedf3ed21e8eU, 0xbd4cfe973e801f1eU, 0xbe8f7f033de17e73U,
  0x3e617e733e42bea9U, 0x3fa2b6e13c23fedfU, 0xbea3fedfbea91ed6U, 0xbdccfe97beae3ecdU,
  0xbe387ebbbe387ebbU, 0x3de17e733d75fe4eU, 0x3d8f7f033da3fedfU, 0x3d75fe4e3dccfe97U,
  0x3e573e85bee69e6aU, 0xbdb87ebb3ec7dea0U, 0xbd8f7f03be19bef1U, 0xbe4cfe97bf617e73U,
  0xbf35eebf3e853f15U, 0x3d4cfe97bed21e8eU, 0x3e0f7f03be053f15U, 0x3e8f7f033e99bef1U,
  0xbdf5fe4ebe949efaU, 0x3e0f7f033e19bef1U, 0x3e8f7f033e42bea9U, 0x3e9edee83ca3fedfU,
  0xbeae3ecd3e2e3ecdU, 0x3ca3fedfbebd9eb2U, 0xbe75fe4ebedc5e7cU, 0xbe053f15bc23fedfU,
  0xbe19bef1bd75fe4eU, 0x3ca3fedf3e4cfe97U, 0x3da3fedf3db87ebbU, 0xbed21e8ebe053f15U,
  0xbe801f1e3e573e85U, 0x3ea3fedf3e573e85U, 0x3eaf44fd3f4dc04aU, 0x3edcfdf13ecdc04aU,
  0xbc73da6bbec62177U, 0x3e36e3d0be186883U, 0x3e1868833e649cc4U, 0x3db6e3d0be27a62aU,
  0x3db6e3d0bf555f1eU, 0x3e36e3d03edcfdf1U, 0xbe092adcbe186883U, 0xbc73da6b3ecdc04aU,
  0xbe73da6bbe27a62aU, 0xbe27a62a3e818c09U, 0xbef3da6b3c73da6bU, 0x3e818c09bf0cfa46U,
  0xbe90c9b0bdb6e3d0U, 0xbe649cc43e462177U, 0x3eb6e3d0bdd55f1eU, 0xbf36e3d0bd73da6bU,
  0x3e555f1e3ecdc04aU, 0x3e186883bf331467U, 0x3e90c9b0bdd55f1eU, 0xbe73da6b3d36e3d0U,
  0x3edcfdf1be092adcU, 0x3f092adcbe892adcU, 0x3d986883be649cc4U, 0x3eb6e3d0be649cc4U,
  0xbdf3da6bbcf3da6bU, 0x3ebe82a43e555f1eU, 0x3f0cfa463e36e3d0U, 0xbebe82a4bf018c09U,
  0x0U, 0x3c73da6b3c73da6bU, 0x3f2b7593bff1f2b6U, 0xbee49cc4bd986883U,
  0x3f3ab33a3ebe82a4U, 0x3e90c9b03db6e3d0U, 0x3e36e3d03cf3da6bU, 0x3d36e3d0bef3da6bU,
  0xbf686c2ebd986883U, 0x3ec62177bea00756U, 0xbdb6e3d0bf3e82a4U, 0x3e555f1ebed55f1eU,
  0xbcf3da6b3e892adcU, 0x3d73da6bbdf3da6bU, 0x3e186883be462177U, 0x3d36e3d03ea00756U,
  0xbe462177be186883U, 0xbe818c093e27a62aU, 0x3f23d6c0bf5cfdf1U, 0x3eb6e3d0bf27a62aU,
  0x3e294fcc3f008d2eU, 0x3e09f52b3eeb27b8U, 0x3e2f951fbc48aa6dU, 0xbcc8aa6d3ed857beU,
  0xbdd53514be3c1fc6U, 0x3e5535143c48aa6dU, 0xbe89f52b3eac7276U, 0x3e83afd83e42651aU,
  0xbd48aa6d3e553514U, 0x3dd535143eb5da73U, 0x3dbc1fc63e86d281U, 0xbe3c1fc63e8d17d5U,
  0xbf294fccbe7ad508U, 0xbe03afd83e935d28U, 0xbea94fcc3d48aa6dU, 0xbf3db11bbe903a7eU,
  0xbf167fd2bf471918U, 0xbe808d2e3d2f951fU, 0xbd61bfbb3e1cc525U, 0x3ea30a79bf312674U,
  0xbee8050ebda30a79U, 0x3e808d2ebf3c1fc6U, 0xbe2f951f3ed2126aU, 0x3e230a793e2f951fU,
  0x3c48aa6d3e808d2eU, 0x3dbc1fc6bf11cbd3U, 0x3e167fd23cc8aa6dU, 0xbbc8aa6d3eaf951fU,
  0x3e03afd8be294fccU, 0x3e167fd2be553514U, 0x3e09f52bbd89f52bU, 0xbe48aa6dbebf4270U,
  0xbea94fccbf03afd8U, 0xbbc8aa6dbf167fd2U, 0x3e09f52b3daf951fU, 0x3ed2126abf135d28U,
  0xbbc8aa6d3e230a79U, 0xbe09f52bbe1cc525U, 0xbe9cc5253ed857beU, 0xbee1bfbb3c48aa6dU,
  0xbe61bfbbbd7ad508U, 0x3e2f951f3ec8aa6dU, 0xbe5b7a673d89f52bU, 0x3ea94fccbda30a79U,
  0x3e230a79be967fd2U, 0x3d167fd23e3c1fc6U, 0xbd7ad5083bc8aa6dU, 0x3e294fcc3ec587c3U,
  0x3da30a79becbcd17U, 0x3dc8aa6dbbc8aa6dU, 0x3ef3eb3e3ee98a15U, 0xbf6c225f3e06ef12U,
  0xbd791bd2bde45980U, 0xbf91503a3d26128cU, 0xbe645980beab4320U, 0xbf9004153dcf972fU,
  0xbea0e1f8be26128cU, 0x3d4f972f3eca669bU, 0x3d91503a3e3073b5U, 0xbecf972fbfa4c667U,
  0xbe91503abf191919U, 0xbca6128c3e86ef12U, 0xbc26128c3de45980U, 0x3f06ef12bdcf972fU,
  0xbd4f972fbf6ebaa9U, 0x3ef3eb3ebecf972fU, 0x3f883b37bd91503aU, 0x3f0eb7f03eb073b5U,
  0x3da6128cbebad4deU, 0xbe3ad4debe9680cfU, 0x3e3ad4debeb5a449U, 0xbf383c93bf3d6d28U,
  0x3e81be7dbf768388U, 0x3de45980bf0456c8U, 0x3d91503abd91503aU, 0xbf4f972f3d26128cU,
  0xbd4f972fbd91503aU, 0x3ec00572be3ad4deU, 0x3eca669b3d4f972fU, 0xbeca669bbd791bd2U,
  0xbda6128c3df91bd2U, 0xbde45980bf66f1cbU, 0x3e8c1fa6be26128cU, 0xbe9680cf3f4f972fU,
  0x3e91503abe3ad4deU, 0xbe91503abefe4c66U, 0xbf11503abf0456c8U, 0x3efe4c66bd4f972fU,
  0xbca6128c00000000U, 0x3ed9f85800000000U, 0x3e6459803f768388U, 0xbe8c1fa6bf8d6bcbU,
  0xbf20e1f8bf522f79U, 0xbf89875cbf26128cU, 0x3d4f972fbf0456c8U, 0x3e645980bd91503aU,
  0xbdbad4de3e9bb163U, 0xbde4598000000000U, 0xbf1680cfbea0e1f8U, 0xbf0eb7f0be86ef12U,
  0x3e091a82be5239b7U, 0xbcdb5d9ebe36ce03U, 0x3e76c951bed239b7U, 0x3e96d05cbe248636U,
  0x3c123e69be2daa1dU, 0x3e8dac763e091a82U, 0x3e891a82bf091a82U, 0xbe648184be5239b7U,
  0x3db6ce033e76c951U, 0xbf323c103f811b19U, 0xbe6da56b3e5239b7U, 0x3c923e69bd7fed38U,
  0x3d923e69bd7fed38U, 0xbe123e69bdffed38U, 0x3e091a82bd5b5d9eU, 0xbf76c9513c923e69U,
  0x3da48636bdeda56bU, 0x3d36ce03bee48184U, 0xbe648184becda7c4U, 0x3eb6ce033deda56bU,
  0xbebb5ff7bd36ce03U, 0x3ec483dd3ea48636U, 0xbe891a823db6ce03U, 0x3ea486363d5b5d9eU,
  0x3e2486363e7fed38U, 0x3eadaa1dbe1b6250U, 0xbe123e693e3ff1eaU, 0xbe891a82be248636U,
  0xbe6da56bbef6c951U, 0xbebb5ff7be5239b7U, 0x3e4915d0bd36ce03U, 0xbd923e693ed6cbaaU,
  0xbe5b5d9ebdeda56bU, 0xbd123e693d7fed38U, 0x3e36ce03be9ff443U, 0xbf9119ec3e7fed38U,
  0xbebff1eabf023f96U, 0x3d5b5d9e3e1b6250U, 0x3e091a823e3ff1eaU, 0x3e5b5d9e3eadaa1dU,
  0x3e091a82bda48636U, 0xbdffed383dffed38U, 0xbe091a82bed239b7U, 0xbddb5d9ebeb6ce03U,
  0x3d36ce03bec915d0U, 0x3e091a823e2daa1dU, 0xbe923e693cdb5d9eU, 0xbf1b62503e3ff1eaU,
  0xbe891a82bf023f96U, 0xbf1dab49U, 0xbe9bc66abe9bc66aU, 0xbf0794fd3eb2da54U,
  0x3f04b280be4fb338U, 0x3e4fb338beb2da54U, 0xbee10227bf6c8c1cU, 0x3c389f4e3d389f4eU,
  0x3e16016fbdb89f4eU, 0x3dfddb0b3d66c722U, 0x3de6c7223e218b64U, 0x3ea7505f3d66c722U,
  0xbf4fb338bea18b64U, 0xbe389f4ebe725116U, 0x3dcfb338U, 0x3f4fb3383e389f4eU,
  0x3d8a777a3e5b3d2dU, 0x3f3b81cbbf103c75U, 0x3ed57832bec9ee3dU, 0x3ec9ee3dbee6c722U,
  0x3e2d1559bf131ef2U, 0x3ed57832be725116U, 0x3e389f4e3e0a777aU, 0x3e2d15593e66c722U,
  0xbf6f6e99bde6c722U, 0x3ef816113f0a777aU, 0x3ec9ee3d3ea7505fU, 0x3e0a777abc389f4eU,
  0xbd8a777abf01d003U, 0x3dcfb338bef25116U, 0xbde6c722bd0a777aU, 0xbcb89f4ebfb72e0fU,
  0x3e66c7223de6c722U, 0xbec42943bf4cd0bbU, 0x3eb89f4ebde6c722U, 0xbefddb0b3ee6c722U,
  0x3da18b64bf0d59f8U, 0xbf7816113e2d1559U, 0xbedb3d2dbea18b64U, 0x3c389f4e3ea18b64U,
  0x3e7ddb0bbf04b280U, 0xbe442943be442943U, 0x3e2d1559bfaff7d6U, 0xbef25116bdfddb0bU,
  0xbf131ef2bf27505fU, 0xbe16016f3e725116U, 0x3f1bc66abee10227U, 0x3db89f4e3e5b3d2dU,
  0xbe96016f3e218b64U, 0xbc389f4ebedb3d2dU, 0xbe8a777abdfddb0bU, 0xbd8a777abef25116U,
  0xbf1526b9bfa8311dU, 0xbd7ddfdfbe18531fU, 0x3e18531fbe4b197fU, 0xbf021c553ebe67e7U,
  0x3de47caf3d7ddfdfU, 0x3e2504b7U, 0xbdcb197f00000000U, 0x3d4b197fbeab5d83U,
  0x3eb1b64f3c4b197fU, 0x3dcb197fbf86deeeU, 0x3ccb197f3e31b64fU, 0x3e712e473d4b197fU,
  0x3e8548bb3e712e47U, 0xbf99e9523f021c55U, 0xbd98531f00000000U, 0xbe0ba187be4b197fU,
  0xbfc9834c3de47cafU, 0x3e57cb17bdfddfdfU, 0xbe712e47be18531fU, 0xbe18531f3e4b197fU,
  0x3e31b64f3e9eabebU, 0x3f0ba187bf0548bbU, 0x3ed1724bU, 0xbf98531f3ea504b7U,
  0xbe3e67e73e4b197fU, 0xbe18531f3eb1b64fU, 0x3ea504b7U, 0xbef787133d98531fU,
  0xbe7ddfdfbf1526b9U, 0xbe8548bbbdcb197fU, 0xbd98531fU, 0xbe3e67e7bf8ecdedU,
  0xbf9b7f853ea504b7U, 0x3d4b197fbf0ecdedU, 0xbf0548bb3db1b64fU, 0x3d4b197fbde47cafU,
  0xbde47caf3eab5d83U, 0xbe3e67e73e91fa53U, 0x3e91fa533dcb197fU, 0xbf34e2b53e91fa53U,
  0xbdb1b64fbccb197fU, 0x3e0ba187be31b64fU, 0x3ecb197f3e31b64fU, 0x3d98531f3e91fa53U,
  0xbe91fa53beb1b64fU, 0x3d4b197f3ebe67e7U, 0xbeead57b3ef78713U, 0x3e8ba187bebe67e7U,
  0x3c4b197f3e7ddfdfU, 0xbd18531fbdb1b64fU, 0xbe106d2c3eca3271U, 0x3e409190bead4fcfU,
  0x3ec56201be8b9cbcU, 0x3e906d2c3e9a0e0dU, 0xbe4a32713e1a0e0dU, 0x3ec5620100000000U,
  0x3ec091903ce71514U, 0xbdd3d352be23aeeeU, 0xbf3e2958bdfa56d5U, 0xbf0e04f43f42f9c8U,
  0xbdad4fcf3e36f0afU, 0xbeca32713efa56d5U, 0xbf98d9f13e53d352U, 0xbea87f5e3ed3d352U,
  0xbe23aeee3ecf02e1U, 0x3de715143dd3d352U, 0xbc9a0e0dbe5d7433U, 0xbed8a3c23f0e04f4U,
  0xbf01fbdbbe06cc4bU, 0x3e2d4fcf3d9a0e0dU, 0xbe9ede7dbd1a0e0dU, 0x3f17a5d53d86cc4bU,
  0xbdfa56d53e86cc4bU, 0xbe9a0e0d3f01fbdbU, 0x3e106d2c3d1a0e0dU, 0x3de71514bf81fbdbU,
  0x3de71514bf2fb807U, 0xbe06cc4b3e06cc4bU, 0x3d86cc4bbeebe584U, 0x3eff2746bd671514U,
  0xbd671514bf846413U, 0xbecf02e13e671514U, 0xbeebe5843f01fbdbU, 0xbdad4fcf3e7a56d5U,
  0xbeca3271bf47ca39U, 0xbf6e4dbcbe409190U, 0x3e86cc4b3d671514U, 0xbe06cc4bbd86cc4bU,
  0xbe2d4fcf3e2d4fcfU, 0xbe9ede7dbe8b9cbcU, 0xbf516b1a3d86cc4bU, 0xbde715143f0b9cbcU,
  0xbdfa56d53e5d7433U, 0x3e4091903e06cc4bU, 0xbd409190bc1a0e0dU, 0x3f01fbdbbeff2746U,
  0xbe106d2c3f832ff7U, 0xbe106d2c3e8b9cbcU, 0xbe4091903e906d2cU, 0x3d86cc4b3ea3aeeeU,
  0xbda2af4cbf61f378U, 0xbc909bd23ed464dcU, 0xbe2bb909bf56a74cU, 0x3d7d10b0be109bd2U,
  0xbe6afd353d7d10b0U, 0x3c909bd23cd8e9bbU, 0xbd34c2c63e9e2a6eU, 0x3e19a58fbf054fa6U,
  0xbe8c16f33dc6d641U, 0xbe58e9bbbedd6e9aU, 0xbc909bd23d109bd2U, 0x3ed464dc00000000U,
  0xbf3dcc84bef406f2U, 0xbda2af4cbe079215U, 0xbd34c2c6bdeafd35U, 0xbee1f378be079215U,
  0xbec6d641U, 0xbe9e2a6ebe7406f2U, 0x3ea2af4c3ec6d641U, 0x3e4fdffebdb4c2c6U,
  0xbf109bd2be109bd2U, 0x3c109bd2bd109bd2U, 0xbc109bd23e19a58fU, 0xbd34c2c6bc909bd2U,
  0x3ed8e9bb3dfd10b0U, 0x3e19a58f3d34c2c6U, 0xbe58e9bb3e22af4cU, 0x3d58e9bb3d109bd2U,
  0xbec25162be830d36U, 0x3ee1f378be99a58fU, 0xbd109bd2be830d36U, 0x3d7d10b0becfdffeU,
  0xbdeafd353e079215U, 0xbedd6e9a3e4fdffeU, 0xbe9e2a6e3e61f378U, 0x3e7d10b0be109bd2U,
  0xbea7342bbeb947a5U, 0xbf8f7a9abe3dcc84U, 0x3e2bb909bda2af4cU, 0x3e19a58f3d7d10b0U,
  0xbe909bd2becb5b1fU, 0x3c109bd23ecb5b1fU, 0xbdc6d641bcd8e9bbU, 0x3e46d641be8c16f3U,
  0xbea7342bbeb03de8U, 0xbda2af4c3e109bd2U, 0x3d109bd23d34c2c6U, 0xbc909bd23e99a58fU,
  0xbd7d10b03ea7342bU, 0xbe109bd2bdd8e9bbU, 0xbed8a8d6bfa7bc84U, 0xbe0bc7c4bf1d40bcU,
  0x3e27bc84be99c224U, 0x3e35b6e53e6da066U, 0xbe27bc84be5fa606U, 0x3cdfa6063cdfa606U,
  0xbc5fa606beeda066U, 0x3eb5b6e5bf014bfbU, 0xbe19c2243d27bc84U, 0xbf0f465cU,
  0xbddfa606bd8bc7c4U, 0xbee6a336bd27bc84U, 0xbe7b9ac7be19c224U, 0x3d8bc7c4bea0bf54U,
  0xbf12c4f4be6da066U, 0xbed1aba6bd8bc7c4U, 0xbf8a087800000000U, 0x3dfb9ac73ed1aba6U,
  0xbe51aba63eeda066U, 0x3dc3b145bf51aba6U, 0x3e5fa6063c5fa606U, 0xbf08492c3e43b145U,
  0xbeaeb9b53f014bfbU, 0xbeb5b6e5bddfa606U, 0x3d27bc843e35b6e5U, 0x3ddfa606bdc3b145U,
  0x3ecaae75be92c4f4U, 0x3ea7bc84beb5b6e5U, 0x3e0bc7c43e5fa606U, 0xbf5c276e3e7b9ac7U,
  0x3ddfa606bdfb9ac7U, 0xbe8bc7c4bf8f465cU, 0xbe99c224bef49d97U, 0xbddfa606bebcb415U,
  0xbf4aae753e19c224U, 0xbf1d40bc3d5fa606U, 0xbe8bc7c43e35b6e5U, 0xbefb9ac73e84ca94U,
  0xbf2eb9b53e99c224U, 0xbfdde6babeb5b6e5U, 0x3cdfa606be92c4f4U, 0x3e5fa606be84ca94U,
  0x3e43b145be51aba6U, 0x3d5fa6063e27bc84U, 0x3ecaae753e43b145U, 0xbe51aba6bee6a336U,
  0x3ec3b1453e6da066U, 0xbc5fa606bea0bf54U, 0xbf781c2f3d8bc7c4U, 0x3ddfa606befb9ac7U,
  0x3eda78aebe0582a3U, 0xbd72befabeda78aeU, 0x3f088b6dbf088b6dU, 0xbe360f3c3e1dc8f0U,
  0xbd11a5ca3e91a5caU, 0x3d4232623dda78aeU, 0x3e4e5588bd423262U, 0x3e360f3c3e11a5caU,
  0x3da9ec163dc23262U, 0xbf11a5cabe669bd4U, 0xbdf2befa3d11a5caU, 0xbe9dc8f0bc423262U,
  0xbf7bd9573dc23262U, 0x3e4e55883ec843f5U, 0xbdda78aebdc23262U, 0xbd72befa3ea9ec16U,
  0xbf088b6dbeb60f3cU, 0x3ec843f53e91a5caU, 0xbe8b94363e669bd4U, 0xbe29ec16bd91a5caU,
  0x3dda78aebf1dc8f0U, 0x3f669bd43d423262U, 0x3cc232623c423262U, 0x3da9ec163e7ee221U,
  0x3e29ec16bdf2befaU, 0xbe669bd4be29ec16U, 0xbf20d1b9bee69bd4U, 0x3f4843f5be8b9436U,
  0x3efee221bdda78aeU, 0x3ec232623f20d1b9U, 0xbe4e5588bcc23262U, 0xbdda78aebf1ac026U,
  0x3e11a5ca3e97b75dU, 0xbe91a5cabee08a41U, 0x3ee08a413dda78aeU, 0xbfc0adfd00000000U,
  0xbea9ec163dda78aeU, 0x3ec23262bea9ec16U, 0xbcc23262bf4b4cbfU, 0x3e8582a33e97b75dU,
  0xbda9ec16bf78d08eU, 0x3e0582a33f0582a3U, 0xbd11a5cabcc23262U, 0x3d72befabe1dc8f0U,
  0x3e1dc8f0bf63930bU, 0x3ebc20cfbe29ec16U, 0x3e29ec16bcc23262U, 0x3d11a5caU,
  0xbe7ee2213f11a5caU, 0x3e11a5ca3ec23262U, 0x3eb6b73f3f3b862cU, 0x3ea37b89bedd2eaaU,
  0x3e7a083b3ec9f2f4U, 0xbdc0551abec9f2f4U, 0x3e2d196400000000U, 0x3e66cc85bed390cfU,
  0xbe7a083bbf5390cfU, 0x3e19ddaebd66cc85U, 0x3dc0551abe5390cfU, 0xbd19ddae3f2d1964U,
  0xbe7a083bbead1964U, 0xbd19ddaebd66cc85U, 0xbea37b893e2d1964U, 0x3ea37b89bef06a60U,
  0xbeb6b73f3e66cc85U, 0xbf3b862c3ec9f2f4U, 0xbe2d1964be40551aU, 0xbf103fd3bf06a1f8U,
  0x3e06a1f83e7a083bU, 0xc018a9f3be19ddaeU, 0x3e19ddae3d19ddaeU, 0xbde6cc853e19ddaeU,
  0xbc99ddaebe19ddaeU, 0xbd19ddae3e06a1f8U, 0x3d66cc85bfc52407U, 0x3e7a083bbd19ddaeU,
  0x3e2d1964be99ddaeU, 0x3dc0551abe40551aU, 0xbeb6b73f3ed390cfU, 0x3dc0551a3e40551aU,
  0x3e06a1f83d99ddaeU, 0xbf19ddae3dc0551aU, 0xbe66cc85bf284a76U, 0x3ef06a60bd99ddaeU,
  0x3e99ddae3dc0551aU, 0xbea37b893ead1964U, 0xbea37b89bd66cc85U, 0x3de6cc85be5390cfU,
  0xbea37b893ef06a60U, 0x3f0b70e6be66cc85U, 0xbd99ddae3e40551aU, 0xbe86a1f8U,
  0x0U, 0x3d99ddae3dc0551aU, 0xbde6cc85bfc9f2f4U, 0x3f150ec13e19ddaeU,
  0x3e99ddaebe66cc85U, 0x3dc0551a3d19ddaeU, 0x3ea37b893e06a1f8U, 0x3ee6cc85bf40551aU,
  0x3e2408963f5bf43eU, 0x3dd0c51cbd6e9820U, 0x3e32f2183dee9820U, 0x3e50c51c3e41db9aU,
  0x3dee9820bd6e9820U, 0x3e863592bcee9820U, 0xbeee9820bf50c51cU, 0x3db2f2183f0daa53U,
  0xbc6e98203e951f14U, 0xbee7235f3f2f37b8U, 0x3ec1db9abe5fae9eU, 0xbd951f143f18d974U,
  0xbd32f218be41db9aU, 0xbc6e9820bd951f14U, 0xbcee98203e6e9820U, 0xbe2408963e6e9820U,
  0xbe5fae9e3e32f218U, 0x3f27c2f63dd0c51cU, 0x3db2f2183e7d81a2U, 0x3dd0c51cbfa5e5c6U,
  0x3ed839ddbe50c51cU, 0x3cee9820bf547f7cU, 0x3e9c93d5be5fae9eU, 0xbe6e9820bd6e9820U,
  0x3d32f218bc6e9820U, 0xbf36ac78be863592U, 0xbf3e213abf49505bU, 0xbd32f218bfecbaf0U,
  0x3e8daa533e50c51cU, 0xbd32f2183e240896U, 0x3e240896be50c51cU, 0xbe41db9a3f4d0abcU,
  0x3c6e9820bfa9a027U, 0xbe6e98203c6e9820U, 0x3eab7d57be41db9aU, 0xbf027b32bf7d81a2U,
  0x3e41db9a3c6e9820U, 0x3f79c742bd6e9820U, 0xbf0daa53bc6e9820U, 0x3eb2f218bc6e9820U,
  0xbd951f14bd6e9820U, 0xbe240896U, 0xbd6e98203e240896U, 0xbcee9820bf50c51cU,
  0xbcee9820bdee9820U, 0x3ee7235f3e32f218U, 0xbea408963ee7235fU, 0x3e951f14be151f14U,
  0xbdb2f218be863592U, 0x3e063592beb2f218U, 0x3f256eac3f96121cU, 0x3f06b58cbe596ce2U,
  0x3e0dcc933e2a28b1U, 0x3ea0b4a7bdcff8d8U, 0xbebd10c43df5c8ffU, 0x3f0dcc93be89128eU,
  0x3ce2e0ecbf3d10c4U, 0xbde2e0ec3f1e57a4U, 0x3e9286983dcff8d8U, 0x3e0458893f75c8ffU,
  0x3e17409dbe2a28b1U, 0x3e8458893eec54f5U, 0xbea56eacbdcff8d8U, 0x3ecff8d83e2a28b1U,
  0xbde2e0ec3ecff8d8U, 0xbefa8304bec684ceU, 0x3daa28b1bdbd10c4U, 0xbf62e0ecbe4ff8d8U,
  0x3e339cba3d3d10c4U, 0xbf928698bf3856bfU, 0x3ed96ce23d97409dU, 0xbdaa28b1bd17409dU,
  0x3ed96ce23e339cbaU, 0x3d3d10c43e2a28b1U, 0x3de2e0ecbeff3d09U, 0x3e4ff8d8be62e0ecU,
  0x3ce2e0ecbeff3d09U, 0xbdcff8d8bea56eacU, 0x3d17409d3e89128eU, 0xbde2e0ec3de2e0ecU,
  0xbd3d10c4bed96ce2U, 0x3e62e0ec3f2311a9U, 0x3f27cbaebf710efaU, 0xbf2ee2b63f17409dU,
  0x3ee79af0beaee2b6U, 0xbde2e0ec3df5c8ffU, 0x3eb39cbabde2e0ecU, 0x3e0dcc93bce2e0ecU,
  0xbe0dcc933d62e0ecU, 0x3f62e0ecbd17409dU, 0xbe9bfaa2bed96ce2U, 0xbed4b2ddbf80cd06U,
  0xbf35f9bd3ecb3ed3U, 0x3e0458893dbd10c4U, 0x3eaa28b13ce2e0ecU, 0x3f2311a9bd62e0ecU,
  0xbe89128ebeb856bfU, 0xbe0dcc93beb856bfU, 0x3d845889bede26e7U, 0x3f01fb87bf2a28b1U,
  0xbef9a3cb3f4c7248U, 0xbe09bb793f103043U, 0x3e2c2a57bee41e80U, 0x3eb4c60fbdac2a57U,
  0xbd4e99363e856d9dU, 0x3dac2a573e4e9936U, 0x3e2c2a57U, 0x3e1257313f07948bU,
  0xbece9936beecba38U, 0xbf34c60f3eac2a57U, 0xbe34c60f3df10814U, 0x3eecba383eb913ebU,
  0xbf0be267bdf10814U, 0xbee41e80be2c2a57U, 0xbf16a50c3d9af2e8U, 0xbe686c5c3e5fd0a5U,
  0x3e011fc1bf0e0955U, 0x3d710814be011fc1U, 0x3eca4b5a3e856d9dU, 0x3ee41e80be925731U,
  0x3efdf1a7beb913ebU, 0xbeca4b5a3d2c2a57U, 0x3e89bb793e3d61c6U, 0x3e09bb79bd09bb79U,
  0x3e9af2e83e925731U, 0x3e1af2e8bf7df1a7U, 0xbf7df1a7be125731U, 0x3ec1afa2be96a50cU,
  0xbd89bb793f103043U, 0x3e9f40c4bf056d9dU, 0x3dbd61c6bef10814U, 0xbef10814beb913ebU,
  0x3ef555f0beb4c60fU, 0xbf88a802bf6ee126U, 0x3c89bb79bd2c2a57U, 0x3f16a50c3c89bb79U,
  0xbdbd61c63d710814U, 0x3ebd61c6be4e9936U, 0xbef10814be9af2e8U, 0xbe5734edbe89bb79U,
  0x3df10814bea7dc7bU, 0x3d9af2e83e89bb79U, 0xbefdf1a73e238ea0U, 0xbe856d9dbf2e5145U,
  0x3dce9936bf34c60fU, 0x3e238ea0beecba38U, 0xbe5fd0a53e710814U, 0xbd89bb79bdac2a57U,
  0x3eb913ebbed2e711U, 0x3d09bb79bc89bb79U, 0x3d610c19bee8147aU, 0x3e0ca7903f4bf2f7U,
  0xbce10c19befd2d9cU, 0xbd610c19be36d9d4U, 0xbda8c9133de10c19U, 0x3c610c19bf102bc0U,
  0xbe36d9d4bce10c19U, 0x3e0ca790beafd174U, 0x3dc4ea96bec4ea96U, 0xbd610c19be6f1cdbU,
  0xbe0ca790be6f1cdbU, 0x3e8ca790bed2fb57U, 0x3d610c193e36d9d4U, 0xbd610c19bf09235fU,
  0xbe44ea96bea1c0b2U, 0xbe859f2fbe1ab851U, 0xbea1c0b23ce10c19U, 0xbfdf4a01bdfd2d9cU,
  0x3eb6d9d43e93aff0U, 0xbe0ca790be9ab851U, 0x3ec4ea963d610c19U, 0xbe93aff03ea8c913U,
  0x3e1ab851U, 0x3dc4ea963e28c913U, 0xbde10c193ce10c19U, 0x3ebde235be1ab851U,
  0x3e9ab851bea8c913U, 0x3e1ab851be610c19U, 0x3e1ab851U, 0xbe44ea96beafd174U,
  0xbe36d9d43e44ea96U, 0xbe8ca790bf76253bU, 0xbd8ca790bda8c913U, 0xbea8c913U,
  0x3de10c193ed2fb57U, 0x3e28c9133e1ab851U, 0xbc610c19bf09235fU, 0xbf5d87e9be28c913U,
  0xbe0ca7903da8c913U, 0xbec4ea963c610c19U, 0xbe93aff0U, 0x3d8ca7903da8c913U,
  0x3e7d2d9cbebde235U, 0x3c610c193dfd2d9cU, 0x3e44ea96be36d9d4U, 0xbda8c913bf0ca790U,
  0x3d8ca790bf876147U, 0xbea8c913befd2d9cU, 0x3dfd2d9cbe36d9d4U, 0x3e6f1cdb3d8ca790U,
  0xbeba258bbf4b9910U, 0xbe3a258b3ea2e0daU, 0xbea2e0da3f22e0daU, 0xbea2e0da3ef45146U,
  0xbe3a258bbde8aeeeU, 0xbe973e813eba258bU, 0xbf4b99103ec5c7e4U, 0x3e68aeee3de8aeeeU,
  0xbee8aeee3f3a258bU, 0x3d8b9c28bf7ff39fU, 0xbe22e0da3d3a258bU, 0xbe22e0da3f5d0c95U,
  0x3f1d0fadbedd0c95U, 0xbf173e81bde8aeeeU, 0x3e516a3c3de8aeeeU, 0x3e516a3cbd3a258bU,
  0xbe68aeee3e0b9c28U, 0x3f3ff6b73edd0c95U, 0x3e7ff39fbef45146U, 0x3e8b9c28be0b9c28U,
  0xbe22e0dabde8aeeeU, 0x3d8b9c28bfa8b206U, 0xbf116d55be7ff39fU, 0xbf7451463de8aeeeU,
  0x3e22e0da3ea2e0daU, 0xbfba258b00000000U, 0xbeae83323e3a258bU, 0xbdba258bbedd0c95U,
  0xbe22e0da3d8b9c28U, 0xbe68aeeebf116d55U, 0x3e973e81bcba258bU, 0xbeae83323f22e0daU,
