/**
  ******************************************************************************
  * @file    network_data.c
  * @author  AST Embedded Analytics Research Platform
  * @date    2025-12-31T12:36:00+0000
  * @brief   AI Tool Automatic Code Generator for Embedded NN computing
  ******************************************************************************
  * Copyright (c) 2025 STMicroelectronics.
  * All rights reserved.
  *
  * This software is licensed under terms that can be found in the LICENSE file
  * in the root directory of this software component.
  * If no LICENSE file comes with this software, it is provided AS-IS.
  ******************************************************************************
  */

#include "network_data.h"
STAI_ALIGNED(8)
const uint64_t g_network_conv2d_1_weights_array[27] = {
  0x12e5ee5cf75a311aU, 0x31cc432c3acffbc7U, 0x461a6af41d322206U, 0xf2c631d8047f5c18U,
  0xec18617fe8f1e10cU, 0x3b0e26410cfe3214U, 0xeb3c1926cc0e3837U, 0x7f7b6c51f23c136aU,
  0x4502fb2815e24959U, 0xba2b82150e51a4bfU, 0x2129706bf57f65e3U, 0x3263f5002663c4a2U,
  0xfad3a2f43137fb2bU, 0x95818ee14b40d0bfU, 0x84a5e255f37bad34U, 0xb1044e525c5abff3U,
  0xef4374c0671b6156U, 0x8704f1cf87d90543U, 0x1608d1b7f24227f9U, 0x2aca81bb0ad1f140U,
  0xc1428d6381454c1U, 0x46f900ee4817f115U, 0xf2dc0f027f386731U, 0x54087fde133d0b2cU,
  0xe1f8402cf64722beU, 0xe2512140080be11cU, 0x4d4806361dcb311dU,
};

STAI_ALIGNED(8)
const uint64_t g_network_conv2d_1_bias_array[4] = {
  0x10cb00001870U, 0xfffff579000020f5U, 0x47e4fffff6d2U, 0xfffff69bfffff03aU,
};

STAI_ALIGNED(8)
const uint64_t g_network_conv2d_2_weights_array[9] = {
  0xa2b3dfe72892a98bU, 0x6e081b2238c1081U, 0x7f0e82e2d12531bcU, 0xcb57d334f7c7ac08U,
  0x70eb37fdf73b801U, 0x81af60c27fd72dU, 0xd94fca6a12414a04U, 0x98ffae6f815b7f06U,
  0xd64fe335a932531bU,
};

STAI_ALIGNED(8)
const uint64_t g_network_conv2d_2_bias_array[4] = {
  0xa9000008c0U, 0xfffffe3300000835U, 0x3fefffffb02U, 0xfffffa3e00000b0fU,
};

STAI_ALIGNED(8)
const uint64_t g_network_conv2d_3_weights_array[16] = {
  0x9d9f38aba7f6e081U, 0x4014357fc6f659dfU, 0x7fc062002bb253c8U, 0x810621f554a6c4deU,
  0x20de147f2f61fc65U, 0x7f9339f704439cebU, 0x7dd61a270a7de581U, 0xce1e512dc17f2febU,
  0x1365381e598ebdeU, 0x3d46cb28e90c3a7fU, 0x70e66b5c59815710U, 0xe4dc7f14b75ce8e1U,
  0xf5b68c7f79b2b017U, 0xea3e7feddbf4eb48U, 0x939c722f814b2da3U, 0x2eb924b360107ffdU,
};

STAI_ALIGNED(8)
const uint64_t g_network_conv2d_3_bias_array[8] = {
  0x48d000008ceU, 0x61000001086U, 0xb780000026fU, 0xffffff9d00000349U,
  0x400000fb2U, 0x99e000012acU, 0xdfcffffff80U, 0xb4b0000061aU,
};

STAI_ALIGNED(8)
const uint64_t g_network_conv2d_4_weights_array[18] = {
  0x549602b4ea26c7feU, 0x84549efd47b6efe2U, 0x69c1d7c5bb7f813bU, 0x8116849d425985faU,
  0x29ed9bd9f255a906U, 0xa1b7d0b31e4381d0U, 0xcf2b81817f220793U, 0x927fa4e4ae7f2bc7U,
  0x4ccff34e3568c5c9U, 0xd9218181a94ef2a7U, 0x98a0723eaa1f2d18U, 0x1028b687e63332bbU,
  0x19201b40240e522eU, 0xc80399f28e40f302U, 0x3d7fb3e73de90f13U, 0x1595b5bf8148f17fU,
  0x815c10ccecbe077fU, 0x302d4b9394cfb27U,
};

STAI_ALIGNED(8)
const uint64_t g_network_conv2d_4_bias_array[8] = {
  0x16fffffc21U, 0xfffffc5b00000024U, 0xfffffedafffffe45U, 0x3d00000420U,
  0xfffffe62fffffe63U, 0x31a000000a8U, 0xfffffa33000003bfU, 0xfffffda8fffffda3U,
};

STAI_ALIGNED(8)
const uint64_t g_network_conv2d_5_weights_array[64] = {
  0xcbe2bf8131561a04U, 0x12d9e6061d2afee4U, 0xf815ebec2f07e9b2U, 0xf333dc404d518129U,
  0xc68e07e4f5ded5b8U, 0xd4e6ddc7c8241181U, 0xe9df7f5aa792fb3cU, 0x2d9c3ac4eedcbad5U,
  0x8154418c2ebf24e1U, 0x69547bed3ace5f14U, 0xbd9ee9a411710ed4U, 0x270bfc1ced91f281U,
  0x481fd94e2d02f881U, 0xe6404ea2a63ab47dU, 0xccd1017ff70d3623U, 0xdfa115c9bb676af3U,
  0x20c8c4f357fdf1e2U, 0x33fe4ce77fefe097U, 0x262ed6eb81465adfU, 0xd6cda9ed48faad09U,
  0x7606febbce96c107U, 0xeb0e0c7fccfb4196U, 0xdd5c667f2bab0101U, 0x402907ef24e0c5ecU,
  0xe30439cc9ac4b96dU, 0xf79658cf37c9b481U, 0xba64e024bf8ea136U, 0x2c7fb2eda7567ef4U,
  0x9f4b36c2de577ff9U, 0xb5e920ac3812e941U, 0x5ee2bc564b0e4651U, 0x2e2ebe40c1c7f74U,
  0xe5d002dfe281c12bU, 0x6df841d4a7011e3eU, 0x26a6f0252d4fa01aU, 0xb7c1814704365ceaU,
  0x33967fed00d84f1eU, 0x1bbb1ffbce7c19eaU, 0xcef5c806ba17f851U, 0xb5c9ed49117fd53fU,
  0x9e20450edf528137U, 0xc753170646a6a5a5U, 0x7fc566c32fa6cfe4U, 0x1862eab4331acdfdU,
  0xd102e24d0a1c36ebU, 0x910fc1f040fd7f1aU, 0x2d5ef4cc7fe1e817U, 0x7e1739b914d35a2dU,
  0x7715e5c54c392ac6U, 0x41ab1a81d0f488ddU, 0xd3b17fdcfff675c1U, 0xf4e11b04d4cc1ab3U,
  0xd5972ff50daa1f3U, 0xb140811ae642c5e9U, 0x31ad421e01d709a0U, 0x7f58ce7981757685U,
  0x67e2b7493b32ec81U, 0xc5f10dbb2302f320U, 0x7fbc11d8fefd9046U, 0x6c3704f56f07612bU,
  0xf0121d21f5c818c5U, 0x2181e810f6272760U, 0x174f911125417f02U, 0x98bfbd2803f8fe01U,
};

STAI_ALIGNED(8)
const uint64_t g_network_conv2d_5_bias_array[16] = {
  0xfffff8e8fffffb23U, 0x1109ffffec0dU, 0x5110000236cU, 0x755fffff2ceU,
  0xfffff2aa00000f3cU, 0xfb9000011e5U, 0xfffff795ffffff7dU, 0x905fffff417U,
  0xfffff54c00001204U, 0xfffff6d700000caeU, 0xfffff79bffffec75U, 0x11f0fffffe0cU,
  0xcebfffff0d1U, 0x1eafffffec52U, 0x1388ffffee8eU, 0xfffff824000013ceU,
};

STAI_ALIGNED(8)
const uint64_t g_network_conv2d_6_weights_array[36] = {
  0xeb8183b21da20260U, 0x47f87fcb74cb105U, 0xd22ef0a67f8117aeU, 0xc9078181a745e748U,
  0xd2e87f815cbafcaeU, 0xe7acbfd8f27f6f81U, 0x71ee9156ca30069aU, 0x887f4de4817f5600U,
  0xbe2abe009fb60a81U, 0x1204a5172c9cd7baU, 0x52e8ff914e79307U, 0x2298b1b2ac390363U,
  0xc5c95bc9997f4e46U, 0x81a6355714977f58U, 0x4881c7cb1793a418U, 0xa5cccb63c18172U,
  0x4e5cef3381c97f40U, 0x39ed7f512d3a1450U, 0x7f467f2be27f9ebcU, 0x81ead6bfbcb63b16U,
  0xf7e5a7fe78eebf07U, 0xcfa6e77f04ae15f7U, 0x5fcc081e41ebf19U, 0xdbb0201f110a012bU,
  0x7fef0ace33e1f572U, 0xf521f7ed119bfaf2U, 0x38d8cbe937221bcaU, 0xb14126aabab3115aU,
  0x5b1b0ce9f607b3dfU, 0xf156c960817b3ed5U, 0xdce82192d2dddc81U, 0x6cb5963fb0161402U,
  0x5f5421ca4814f942U, 0xeb136540105538c7U, 0xa0d4fdf906ec7fe8U, 0x67f9f88f37c40b81U,
};

STAI_ALIGNED(8)
const uint64_t g_network_conv2d_6_bias_array[16] = {
  0x2e0fffff8ebU, 0x4fcfffffe7eU, 0xf800000251U, 0xfffffc0100000644U,
  0xffffff06ffffffffU, 0xfffffb62ffffff8bU, 0x35afffffe73U, 0x4a5fffffb88U,
  0xfffffd28fffffcc0U, 0xfffffe9e0000018aU, 0xfffff838000008c6U, 0xfffffa4b00000216U,
  0x1d5ffffffb5U, 0xfffff9f9fffffe03U, 0xfffffcce00000430U, 0x557000000e6U,
};

STAI_ALIGNED(8)
const uint64_t g_network_conv2d_7_weights_array[128] = {
  0xd47f41f5dfe72ad6U, 0x28cd0b6bd7141eb1U, 0xf6ec17d2330dfda5U, 0x3ad83dece4d41000U,
  0x9fb3f35e47fe24aU, 0xfc1c34d34a0ab52fU, 0xe2080cd23ae1eb5cU, 0x80edbbb1a0a2b15U,
  0x29bd7f06f338e602U, 0xd6ef06233d29f6e1U, 0x1714dd155e1cd8b3U, 0xffdb51dee71e1bbcU,
  0x91a590464e533f3U, 0xef7f38f1d761a212U, 0xf646011ae0f1d42dU, 0x4de13b2fd45d31d7U,
  0x575dc778418112eeU, 0x22550e11e393491dU, 0x6f20f8cae9264139U, 0xeff93ce4234022f3U,
  0x40e60cca814af7ceU, 0x7c6fedf4faf2d311U, 0x2446d63cef4e7fe1U, 0xfd26e2ddee36ba1eU,
  0x11ec1a1121bb8dd9U, 0xee079915a240eae6U, 0xede8c7183126b675U, 0x8fbb811b225b6089U,
  0xe5a591153d49974bU, 0xdbbbef8fda462cecU, 0x1762cdd9c2aed72dU, 0xecc0ec2d396b81f8U,
  0xf6d2e424471a96cbU, 0x270500a47bcf8e66U, 0x237f3d018bd54657U, 0x49460b5ef519bd2fU,
  0x6fc8a10f9ed0de0bU, 0xaf4b6b95148e419U, 0xbfef264fdf7f0b35U, 0x3642411cb3e43623U,
  0xf141e1cfe451e1f2U, 0xed35347f2fc4d1beU, 0xfedeb8a737ba214fU, 0x18b102e72c2f18b2U,
  0x4fac34e3cfd8cbf4U, 0xe0e703360a170781U, 0x28d5f503e00a39d3U, 0xee084fe417c8f20aU,
  0x302e36f8dbb2f9eaU, 0xca21d6e6ce90062cU, 0x8e05dbee812dac2cU, 0x13f83fe2107248baU,
  0xe5ea0e0bb1c2bf9cU, 0xe242b23681ae3652U, 0xed70d0056005cdc5U, 0x7de09612b5af0f7U,
  0xefb2292fe228162fU, 0xb5b914c4d433fe31U, 0xda2226d83b02e619U, 0xa381c8fa00d25914U,
  0x1bcc32a2013e7c5cU, 0x226661b35ec9d3ceU, 0x1d28e65613037f23U, 0x97e119363da6a4b3U,
  0xd0bac4375e1bc181U, 0xf61bf6cdde43e909U, 0x2a41c031c2d053f6U, 0x67e3142420e62918U,
  0xe4ba4d9ffe352313U, 0xddfa3ad381cef7d0U, 0x4916fec737a912cbU, 0xf347a544dee72343U,
  0xab33220a09cee8ffU, 0xef254dbbef0a11d3U, 0xa5056937c018d92cU, 0xc97facf1a058bd03U,
  0xde56583584efeec8U, 0x1323223eefe288fbU, 0xdc5309b0de3069f9U, 0x3716c781f1fcafb6U,
  0x81fce7d4dbebbe0aU, 0x98ffa13f34aa1fedU, 0x101b0d2a0eaa3d4cU, 0xeb4e0d083722d03bU,
  0xc23a21fe08d74855U, 0xb0ead21602e4407fU, 0x5f703f1a4be1d329U, 0x5f0d1597b8d3f62fU,
  0xb20441fc3e2b3bfdU, 0x28a39143e182885U, 0x8147aecbb52ee8d9U, 0x9fe5cd49c6de30a5U,
  0xf23ae00c0d1512d2U, 0x230e2b3bb61edb19U, 0xc3140300f4e7b7ebU, 0xf6e8fe11340b81f2U,
  0x1d2cf228cd34b6d6U, 0xb3f16e3a03207f07U, 0xe9d70bf4ab514639U, 0x7d6ebb536eccd195U,
  0x68632922594847d6U, 0x3107068b1be64af8U, 0xd73a0afdc5d8077fU, 0xe309e8cc73f10046U,
  0x4bcff7d4be170e0bU, 0x2c3ec37f280cfae5U, 0x551605005a01ec00U, 0xa648fe06ab35123dU,
  0x924ef90ee7810353U, 0x890c1d8acbef4a87U, 0xde8bc503dbc3123dU, 0xb6ad38b30701e38aU,
  0x469d58b0b93b1b31U, 0x2f05b3edf2db3c52U, 0xc79a1b39fe4e0738U, 0x987f1fdf5f08e01aU,
  0xfae626c3affaae38U, 0xdc81e41927272e36U, 0x35d7eb22cb2209d1U, 0xf896b80ee9013a40U,
  0x1be7387f032439f9U, 0xa9e7fbde4cda1492U, 0xf5b5d53fc0930a1aU, 0x48e6b427da29d5a7U,
  0xcbb81681980dd121U, 0x233c7a081ed7c1b3U, 0xce608d1ee5e84c28U, 0xf01111cbe7bb4e43U,
};

STAI_ALIGNED(8)
const uint64_t g_network_conv2d_7_bias_array[16] = {
  0x1899ffffed81U, 0xfc7fffff663U, 0x45400000976U, 0xfc4fffff9e2U,
  0x1114000030baU, 0xfffffa5e000004eaU, 0xfffffad700000771U, 0x1c05fffffa8fU,
  0xffffeb8b00001457U, 0xede00000590U, 0xfffff36f00001032U, 0x4b1fffff22eU,
  0x13de000011f6U, 0x962ffffeba6U, 0xffffded600000835U, 0xa7500000362U,
};

STAI_ALIGNED(8)
const uint64_t g_network_conv2d_8_weights_array[36] = {
  0xb5783f61ce24077fU, 0x75f247f0d5e81ddU, 0x426bea1419322481U, 0xbf687fa1d1537f7fU,
  0x7f077fce35057fabU, 0x70819ee67fdb70b4U, 0xbf2ae6c95beadae6U, 0x6c4202f081aa5a43U,
  0xa8952c030a60d25eU, 0x51b64b37f567d7a6U, 0x9e1874e9cf373e16U, 0x4dfe14389204f941U,
  0x777d0b7fecd79cb2U, 0xd83223b1e2496fa3U, 0x32815cd7dd813abeU, 0x3bb5aa209ae10785U,
  0x967f51f08cfbaf36U, 0xe1f72e1f5faa43b3U, 0xdb98818d2ea630c9U, 0x7f3fb50d1e3b1724U,
  0x1aab21bac5e34f3cU, 0xaf1da6011681d867U, 0x964b07942b1c32cdU, 0x3565c045ca7ff493U,
  0x1d8b2a1081e9cd9dU, 0xdaca76d3cebae10fU, 0x817d20a2dca7d744U, 0x67febeb53491541U,
  0xe87f100fe581ced7U, 0x27d0284f3452e67fU, 0x60031d8181ea81f6U, 0xccb2fe81e19b0ec5U,
  0x7156fce2f71506fcU, 0x7f3a7fdd33260505U, 0x7530301334ea0c31U, 0x30272e42e80413ceU,
};

STAI_ALIGNED(8)
const uint64_t g_network_conv2d_8_bias_array[16] = {
  0x6afffffdb5U, 0xfffffa7ffffffe10U, 0xffffffb9ffffff04U, 0x25afffffdb0U,
  0x33ffffffcf9U, 0xfffffe39ffffff6bU, 0x55b0000009eU, 0xfffffff20000028fU,
  0xffffffc6000002dbU, 0xffffffa5000000beU, 0x520000012cU, 0x11600000366U,
  0x2a10000010bU, 0xfffffed3ffffff6aU, 0xffffffa10000016bU, 0xfffffcbe00000114U,
};

STAI_ALIGNED(8)
const uint64_t g_network_conv2d_9_weights_array[256] = {
  0xf63334162ed31d9eU, 0xf9a45afc30565681U, 0xf0ecde28a4bccfbfU, 0x200b22ba7f9de1d2U,
  0xccc6033e51f40d6eU, 0x594eb31f256c7dd1U, 0xad9f357fd6cf3c8eU, 0x17c11bddda5b710bU,
  0x20c2c192bcd0c11U, 0x7f59234e3c162fc3U, 0xb8f9270a15461e3dU, 0x40ef56d9ddf65ebeU,
  0xbf4d9a9bfb1e999U, 0xda407fb60507953cU, 0xb072def576210557U, 0x6a9419f6c317f012U,
  0xc604082dcb34e8eaU, 0x517d73a625f7276eU, 0x4b314308fe024094U, 0x4a10e6c281d6e250U,
  0xda31d5d0d3142e27U, 0xcde821c2c7202d42U, 0x30e241f602cd106aU, 0x7fc2b246ef4a190dU,
  0x1649832df9fcf6deU, 0x9d7f0190f292ff30U, 0xd0a7ebe22f1328e6U, 0x3db7f3d8ec031dc8U,
  0x66452a03d1fc2ad7U, 0x74e10404041df3fU, 0x26cc89c6cb48fb7fU, 0xc0b97ead5f51d32U,
  0x34906c087ec13805U, 0x1f351b50d795ecdcU, 0x53b9d1cdae32cfd6U, 0xe12081f3f9bdf13dU,
  0xea01fc08f41b68dfU, 0x31b82f5a8f30e7fU, 0xf1b74e09c9f063d5U, 0x2796e281028318f9U,
  0x3e09e02a2f0dbf0aU, 0xbc32d165191b42eU, 0xdc37b817d9f40379U, 0xdbd1ecfacf7f39bcU,
  0xd33aa5faf51001f6U, 0xc8b329b22c280079U, 0x78c5b831aef263c8U, 0xb01d000702dc8157U,
  0x35f7094decaae496U, 0xb1da1bf624ed83f8U, 0x7a2c1a34e536e912U, 0xd67b9c237f125862U,
  0xfbd9c8e9cbd4e41aU, 0x151f3305dcf42344U, 0xbbc4d633d6f2fb4eU, 0xf48106ae4bca240aU,
  0xf2813af59c623d4bU, 0xd2ac5224b424b0e3U, 0xc3a5c044ed29ee13U, 0x23f354e5013d309U,
  0xecef811abed4f613U, 0x12b9969b352e3cfeU, 0xb3b59361248eac13U, 0xbd091ee908855319U,
  0xd5ec16dfe712f52cU, 0xe6f526daf80c9cb4U, 0x29fa1cb51704fa1dU, 0x7e38e6a1167fc10aU,
  0xed9c066fa490fcaU, 0x11ce19dd153744f4U, 0xd30266713a504f00U, 0x81bb3614d15cf8d2U,
  0x23508c98c3c2abfU, 0x4e14b2bad1637fe5U, 0x242ce13c7ceeda93U, 0x16c5a1f8829c98a8U,
  0x15100653eb0c953bU, 0x791e54b8fb1dc4U, 0x4892e9f5c21781e9U, 0xe11fb3dfe30031c2U,
  0x4061d07fb4252cefU, 0x59b527dfa8f29b1dU, 0xb9013028afe4fa2cU, 0x26dd892eda18664eU,
  0x10d0ea34f79731e0U, 0x1111910aefd7e1ecU, 0x8e5e009300370919U, 0x813c091937f1b644U,
  0xd5291513e8aa7f19U, 0xd3dcff00c0c74b0bU, 0x37de54f5b11726e7U, 0xc80dd3af34d52c2cU,
  0xcf8255bfaf3e1d05U, 0xcda13413032381b0U, 0x30ef86bc61a107c8U, 0xe7aa5c15c4323f9fU,
  0x90e64fd8b6c329c9U, 0x2e102d2fbdeb041fU, 0x2502120101c8d0daU, 0x27108108f31ca617U,
  0x51429a96ec0f175aU, 0x9f1c9eedead9d7bdU, 0xbdba0eeab91d4d43U, 0xbae7b6e5f78139e7U,
  0x437d61f57bc6d54U, 0x13e732d97fc53d25U, 0x99ab05d507db06b3U, 0x3c339a2c3c321225U,
  0x960126d03e315ddaU, 0xf721b9b48126af06U, 0xa7e02f330adb05b2U, 0xb3d611fec718dc4fU,
  0xb91ce1152033f2f5U, 0xf403d13fc081c1e1U, 0x4105e524e2f8cddcU, 0xf52c1907043af9e3U,
  0xf2d9b493020eedaU, 0xdb11f9bb1dee110fU, 0xff5d16b7ed162546U, 0xc52b057f0de9ea2fU,
  0xff08c10977ee28f5U, 0x91b0be102dc1025U, 0x425d3719f0564be2U, 0xf97fdc4be4191b5dU,
  0xde646ceddc521deU, 0xe15410b483025222U, 0x34f02e30331f434dU, 0x2c8e393f0201c281U,
  0xcde881bdd32ee014U, 0xa2e20efe32182f22U, 0x646fb96b3b0cbc05U, 0x28cb72063fa7e9f3U,
  0x136ed78a2ebe517U, 0xa275ebdb3f3627a9U, 0xefc88d03ed3e4bc3U, 0x81d5fe0e17673b3eU,
  0xa7f0fdf9d827f3afU, 0x27c386a9a4be995eU, 0xfddf2181954b3b96U, 0x9d231fd1bbc93da6U,
  0x40c6fe27e97d3958U, 0xbce2ef3cc80be0fbU, 0x3054cdd0cbfc42ebU, 0xd62ddb84f1e8ff81U,
  0xcbe515c21230b5edU, 0x228111f4d2d8245dU, 0x1e5b170fb6020de8U, 0xee2d92f682ed6ccU,
  0x44b02e93e40ee67dU, 0x81fe352705c7f49fU, 0x59930cd53d1be128U, 0x6f1cf16856dfac40U,
  0xcdc901f9d902a555U, 0xe35cdb0fdafa21eaU, 0x3c253beb30f681e6U, 0xecfbc6dd14faf4e5U,
  0xe13511bf089f322dU, 0xc21f12ddf6dff019U, 0x7f7d3c2ce7fe453U, 0x15a316f73dc7e8c4U,
  0xc889e52a2155bef8U, 0x5abab742fa475342U, 0xe53ac03281c52150U, 0xa21eec151f0b0fecU,
  0xce8121123c94fb11U, 0xbdefc3b5f736f64aU, 0x35ed5f3715ed2514U, 0x52da43042141148U,
  0xded73260b2169067U, 0xe4be0eef7fca39e9U, 0xc310562c2ba33c9fU, 0xe84cedec2cc52f01U,
  0x38c5f239f2d9f017U, 0x9fbdb6f658dd500aU, 0x42f50a850a5b48bcU, 0x56ed95117f0af43dU,
  0xb40281cb20b8adbbU, 0xdabd28aaf7fee156U, 0x23d4a3f5e0f0311cU, 0xfca16d6f5fd73dfU,
  0x711cf1feee5c220fU, 0xbbd6017fd9cde49bU, 0x75a40e3eb6359ad2U, 0xef04fcf37e2a263dU,
  0x423fbead7ffb01ddU, 0x7e00b7722ef6b2d6U, 0x47dfe0261442a7e1U, 0x1df6972a1cf3e800U,
  0xf8ebd4c60417d815U, 0xbb100ea62cd854deU, 0xdd04c31205237fc9U, 0x26a9314ed138bba4U,
  0xfba5b60e55a875b7U, 0xf84a5ca5bed256d8U, 0x66df38fbb6375f2eU, 0xb3012a123afc7ffaU,
  0x60dd671334196462U, 0x3558f6e5a77d7f5eU, 0x10d940daeffcb871U, 0xdcc535b791302fe1U,
  0x76be31c7c1f81526U, 0xff37ced2db04e2caU, 0x1947d87fee3c29abU, 0xb805f6e52aa5c54fU,
  0x85e51f267f0610dcU, 0xeb0217eda9fec1d8U, 0x46f6bc17cc6d1ef7U, 0xd302081dc538aba7U,
  0xe6ca290f1f42c3c4U, 0x1e1e56da29c90d35U, 0x814e8deb5efd6d1U, 0x7f2f1c1f0a910895U,
  0xe0f60daf95d15a49U, 0x22c28ef2c4179dd8U, 0xf4e419a29d19f11dU, 0xdf810d52842db71fU,
  0xf3fefddc15bbc5e5U, 0x150e32db23d4d3f8U, 0x774ebbe477fa344U, 0x7250838151d2dbdU,
  0x4ec606c110c0b51fU, 0xcd1e374ef9bf1e40U, 0xb6ec9180821d806U, 0xe42a15e3fe8134e7U,
  0x176681ee3502d339U, 0x8cc01836e4cc4310U, 0xf711addb9eefeb0fU, 0xd3015739b804ecf4U,
  0x2d0e7f36eec4271fU, 0xc93ff9f2c32ef3afU, 0x231340d2053d44e9U, 0x24ea1059adb0c4f6U,
  0x74e797c215f3ff7fU, 0x1e411e48432943d4U, 0x28172a58f9c7bd29U, 0xe1912a4cf133301bU,
  0x3d0824f7c526fd05U, 0xcffe3ef725e4a73U, 0xedb1004307db01b5U, 0x3d36fa7fa7c90671U,
  0xf61ffc15fedaf120U, 0xae19166738cc3db4U, 0xe2e01357da58d2f9U, 0x558141bf53f4db95U,
  0x221b2981393dd7fbU, 0x5ea20b4ae9542239U, 0xf4f63210204cc563U, 0xc3225f2fd5a2b114U,
  0x3a8f5674fd501c3U, 0xace47b3c53332a00U, 0x7f0df3e1060b2144U, 0xe9110b4ddfef1d1bU,
  0xbdae33316f093fb3U, 0x4912130981d4e21bU, 0xdd3d44a4b717b911U, 0xd11efbb24406030fU,
};

STAI_ALIGNED(8)
const uint64_t g_network_conv2d_9_bias_array[32] = {
  0xffffe60bfffff952U, 0x5d6ffffdebcU, 0xfffffa2cffffd8adU, 0xfffff0cd000009c8U,
  0x5f800000326U, 0x209a00000ffaU, 0x1a33fffffff2U, 0xd1800001e63U,
  0x1721ffffedccU, 0xfffff696fffff19bU, 0x1002ffffe7afU, 0xffffebe8fffffc8eU,
  0x1bb8fffff68fU, 0x175cffffe3d9U, 0x101200001125U, 0x21ad000005a7U,
  0xfffff73b00002a5fU, 0x64affffffd0U, 0xc690000199fU, 0x285c0000062bU,
  0x112d00001966U, 0xfffff3e2ffffd407U, 0xe7400001742U, 0x1a9200001aecU,
  0xfffffaa200000e2eU, 0x2c0f00001a2cU, 0x2b6ffffee04U, 0xaf900000343U,
  0xffffe61200001b7aU, 0xffffe26600000b59U, 0x1af600001b84U, 0x6e6fffff7e0U,
};

STAI_ALIGNED(8)
const uint64_t g_network_conv2d_10_weights_array[72] = {
  0x9cdd21335000f51dU, 0xedf17ffe0e32c90eU, 0x44305818c0817fb5U, 0xdb148d9ab068098fU,
  0x5747e5dfd400bf65U, 0x6e387fc1ce00a7efU, 0x3c8150813210f2b3U, 0xd6819c6326740fd3U,
  0x7f355181de817fU, 0x637fe59455fd3165U, 0xdc92457f5fbd2086U, 0x295551de7f3fab14U,
  0x7fe1169d413557adU, 0xab02c9031954b3c2U, 0x8135f1073db71de2U, 0xc6a306d57ffc2e81U,
  0xdac9e481e627f12eU, 0xaf9228138cf9f3deU, 0xed63811c3d22048cU, 0x7f04c4441340e8e7U,
  0xe20cb7344d219017U, 0x7fcf574c1c6f1fdbU, 0xbfcbc405e3e181e7U, 0x7f3b5985d07fd2a0U,
  0xf7cd252db20bff05U, 0x248121c9fb9b18dU, 0xbcefd6f0af2d4adU, 0x3eb1bf7f44b7677fU,
  0xbbf77f43d2abaa81U, 0xb4fb1e4081e317c4U, 0x2b76812fe7817af4U, 0x4c2b88a1ea04295fU,
  0x5bf9f75514b20524U, 0x7f173f817f518181U, 0x874b4f263c514838U, 0xba81c8cf3b817fb4U,
  0xce3ef97f3742d09aU, 0xd27fe4e07848fc7fU, 0x8484ad6813b5265U, 0x5f61681ebf87f05U,
  0xe44396dedc6bd9dcU, 0xedf22186fcb0f05U, 0x1af825ad52405402U, 0xb7398101ece20921U,
  0xe181f7be1445e594U, 0x15e093a9b07f31e5U, 0x75972fcb22f22ee1U, 0x5ee108cebbd8634aU,
  0x811f4346a4d44a10U, 0xc75b202b4381f806U, 0x4f813cc09df53c81U, 0x99fcd81b83241ff1U,
  0xf3d304b6dfc0b409U, 0x264dad2be013b48U, 0x9a20991403d4cf7fU, 0xf4e46420454e9409U,
  0xf7ce7fd6447f3442U, 0xd540316607a2e6ecU, 0x535736d1f31fe1f6U, 0x2310f24b5c1eb8afU,
  0xc711994c7f819322U, 0x2ce92a81ea33c0c2U, 0x435814d3e9030bc5U, 0xa20aba33bf8d5bf9U,
  0xdb7b495bb83c3227U, 0x8b1462cdece54264U, 0x81c13bef81135514U, 0x3f4820f719ad0529U,
  0x32f942b2156381afU, 0xa052f53a04f1813dU, 0xe70acf2c30416adeU, 0x25ec7f2fa10324bdU,
};

STAI_ALIGNED(8)
const uint64_t g_network_conv2d_10_bias_array[32] = {
  0xfffffec6000004dcU, 0xfffffa47fffffe54U, 0xffffffe8000001fcU, 0xb8ffffffbaU,
  0xfffffd83fffffeecU, 0x6180000020cU, 0xfffffdc8fffffed9U, 0xfffffaf3fffffce7U,
  0xfffffc90ffffffaeU, 0x73000005deU, 0x770000003b8U, 0xffffff25fffffd8aU,
  0xfffffca4000004bcU, 0xffffff33fffffda7U, 0xffffff110000015dU, 0xffffff9b0000042bU,
  0x1660000020fU, 0xfffffb4bffffff5bU, 0xab00000259U, 0x272000001f6U,
  0xfffff706fffffedaU, 0xfffffcd900000166U, 0x59f0000000dU, 0xfffffad7fffffe1eU,
  0x12b000002feU, 0xfffffda1fffffda8U, 0xfffffd8800000065U, 0xfffffee500000088U,
  0xfffffeb9000000b2U, 0xffffffd9fffffaffU, 0xfffffef1000002a0U, 0xfffffd08ffffffa8U,
};

STAI_ALIGNED(8)
const uint64_t g_network_conv2d_11_weights_array[512] = {
  0xfe8e224f12827ddU, 0x41251a3033dbffe5U, 0x7f0fff2747100f4eU, 0xd218320416ecc803U,
  0x12ebe2f52316cdfcU, 0xe126f4f214cdfc12U, 0xe5e2cf2114f534f6U, 0x28040ed0df10f5f7U,
  0xeaee2649da345526U, 0x205c93a7fe4f3cfU, 0xa5ecf5e7fe151508U, 0xfb41ef14464b0cb8U,
  0x2ce444ed232c42dbU, 0xca2bbcb5fdae24e4U, 0x1cbd2bf3ea18ebf2U, 0x4e22690d42d31fc3U,
  0x12d51d75f5d698f2U, 0x12500fcbed38250dU, 0xfea6e81d34f35926U, 0xa3414ae8fafcd5abU,
  0xfb423e18cfcb210eU, 0x6837f1d52c565fa0U, 0xd542941720ecdf5U, 0xb3272da920810e83U,
  0xa7bec50817f885c6U, 0x1f4bf1daec4beef9U, 0x205e0e3cd4bfe4ceU, 0x79ee06e65eb50cacU,
  0xeafff9a800a931a9U, 0xf6ca3ae4e106dfc2U, 0xd7fa2d422c0229dfU, 0x13e0cb7f2a281b45U,
  0x2031070d19053714U, 0x39593e18c20afdabU, 0x956f797fffd2d07U, 0xf065d83fd3ea6533U,
  0x97c2fd563225faf8U, 0x51101732aed43f7fU, 0x20e304e583e338acU, 0xe0ddfeec000b5d26U,
  0x293a15fbfd41eeU, 0x2b0f326f8d0c4f6U, 0xd7c32c48ff3c0daU, 0xf081a6f9bfa203dbU,
  0xcdb2203db253eeaeU, 0xf5ece9c51fe1f52fU, 0x190603e94604f5fbU, 0x462ecc08e6e90939U,
  0x2e7dde3eaae9c8b6U, 0xb4a3d60de4d837d0U, 0x3a27dae8492de9e7U, 0x3310251dc704e906U,
  0x2d3881ccda2835faU, 0x4e16c1ac43cec259U, 0x115cb5eaf1443fe2U, 0xc01a1ffc92bbeb2cU,
  0x2cd569076426d0b7U, 0x4021f34ef5a7db52U, 0xf003f18122b01354U, 0x55333bf1b545ace0U,
  0x239d11222bd2dca7U, 0xceead0c73839e4eaU, 0xbb05ce517752f625U, 0xe953bbb1e29a6b9U,
  0xbed0ec38eee90d56U, 0xdbe3f8d913867e53U, 0xfeac0821021c7104U, 0x2f19a400ea4dfb2fU,
  0x22ff05d78924d012U, 0xf7281655cdca3c05U, 0xd8f41f7fbc73101eU, 0x90d246f7efe42024U,
  0x35ca03263ef3293cU, 0x410cfd09cf7fe111U, 0xfc07e9b945e7cd23U, 0xf4d8f9f99b0f0be5U,
  0xecea11285ff005dcU, 0xfbff340e4be2e82fU, 0xff25590d1aa9fa28U, 0x31e955f3bf0cdce6U,
  0xf7c3db9911a30f41U, 0xdc254de20ce9b41aU, 0x222dd23cde3f696U, 0xc9322f201132da0eU,
  0xfc145c8121dbd8e0U, 0x2f99fa046b0d0d06U, 0xcc7c4ac54d32e269U, 0xed1e1ecebee0f6b5U,
  0x161a22033beed201U, 0xe5f92e451eebe90fU, 0x2bc7ba16d224f0e8U, 0xc152e97fef300324U,
  0x3c3a08df26b5103fU, 0xea2944eafdf0f309U, 0x1ccc12e5fc1802fbU, 0x133ed191024d948U,
  0x37e90a1ce82c33d0U, 0xda384a29d343efbeU, 0xf2c0ed0f361f927fU, 0xf5264243dfe3a314U,
  0xd476e1d0e376e9U, 0xfdfdffee26ead0caU, 0x4c13f5e22f2cd2c0U, 0xd11d2ff4a6bebfc6U,
  0x552df01a2910bf04U, 0x35319bb15115f67fU, 0xbe7eae1b45d12cbfU, 0x3af22310cc1f30eaU,
  0xebfc2ff228591caeU, 0xfcfd15f1c5f208cfU, 0xe82ce117130f13dcU, 0xf4027a9a35cb1c28U,
  0xedddd3d0201922b4U, 0xe004fd27da1712efU, 0xdd0a2bf7df1cba30U, 0x3cecfa3e0ec1381U,
  0x170350f3d8e406e2U, 0xd04e4303a5edcecbU, 0xd7e213ddbbb3ed0cU, 0xe23b064c26f731b6U,
  0x5a0ccacaf2d981eaU, 0x4a02902e1bdfe2b8U, 0x309f761db429ac40U, 0xf62ab7d2ab60ad16U,
  0x981306e02430230aU, 0xe69ce848fa592982U, 0x3a504f1e70542497U, 0xec419e680431d9b5U,
  0x4100bafda781df48U, 0x55c5d1c7b8352902U, 0xae27c60519d82e36U, 0x5cbfb33601dad7f4U,
  0x6a1022f2241c2be5U, 0xb71856a4c8d3efe1U, 0x5d511021f7f211f5U, 0x26b0ef3131161132U,
  0x25cff8b64da75a27U, 0xe31daf0dbd42f081U, 0xf514aa345decdce3U, 0x9e1d0225a28a14deU,
  0x19ecddd82c070041U, 0x7f1f0fe3ff40f423U, 0xf9d3e8190107d9d4U, 0xe9f640cd1b24db06U,
  0x6180ffd0918feffU, 0xd4ef2d133cbde9d3U, 0x4ff824b31c193606U, 0x1b00d4c2d93ad932U,
  0xe6c1bf6c6d5fd08U, 0x1441cadd30bd0dd8U, 0xfb38f264f1e81881U, 0xff081b32d8daff00U,
  0x4d1fe617245dc3e3U, 0x7ff415bb0d0b0a1dU, 0xfdf4283b825d45f3U, 0xe32023df342d98caU,
  0x1dbed7bfd4eb43ddU, 0x3e103183c8f10712U, 0x41becfe2bb5f0ee6U, 0x5f5df4aedac1d7a8U,
  0xd0b0f722b9eedce3U, 0xd381e7e8f7f3f0U, 0x70afbcf174e4a9cU, 0x23f8dad72861c80aU,
  0x42b33ff7523503e6U, 0xeca1c9bff41a3ae4U, 0xd9cc2d1405f0c6f0U, 0x34ccfb23cbdf70f9U,
  0x1028dee18f50e212U, 0xdc23a6c6a6fe982dU, 0x871150d26b3095aU, 0xe0dfe2d9c1f17f1aU,
  0x1ce94507391f9627U, 0xaee244e4efd0ee2U, 0xa93051b104c843dcU, 0xd01c2180608d5edU,
  0xee26f1450ecc0ebaU, 0xbb283dec8341e6f3U, 0x2ab4cdcc090e6a11U, 0x5aac1fdc0cf41a6fU,
  0xecc0311ab9f504fbU, 0x1a3ee8cdd62ff5bfU, 0xa0dc9093fd85c2bU, 0x37fa1eefc83edd7fU,
  0x13be5d3549f1f33eU, 0x7f2ae556d71b363eU, 0xea00bfff4b38f5fbU, 0x313342fcc2360b38U,
  0x3bf430b347073ee9U, 0xeb5bcc58aefc2e34U, 0xe6b11c29305404e7U, 0xebce30d9052fa2b9U,
  0x23e9f225382bdbceU, 0xd6edc8efefca93e4U, 0x18fcd86224d0522cU, 0xb5ec25e60dd0e9d1U,
  0x9d1ccc440a3827e4U, 0xe8d3cf60d5efafffU, 0xee5136f8ae42d200U, 0x1e2f36e33cdf7f2bU,
  0xf024e65251de0d20U, 0x39dbb39dc0f708c5U, 0x18ea02fe34e36f31U, 0x96bbdabe0ae0384cU,
  0xcfe0453a71e7d131U, 0x5bbdcef1c1be64d2U, 0x244b31dc03670350U, 0x277f35e34115b17bU,
  0xa1458c4da03ea36U, 0xe8c43dc804fa04ecU, 0xde34cf6ef47dfc4U, 0xad4b61c34c533f16U,
  0xf720bb4b9918f626U, 0x3003e8ce2a7fccfaU, 0x9b051115e03739c3U, 0xd9c8b5e391002cdeU,
  0xfce291fab8081709U, 0xe2e0cc5c24bef234U, 0x47dc3b88f4c52fdeU, 0x8e63909f3d02e33U,
  0xcfb9bb0e5f24fecbU, 0xd4da722f2011f0c6U, 0xb13c353f0e7f1bc7U, 0x1a56229b24bd3bcaU,
  0xc12312963dcdfefeU, 0x260e071d10bed320U, 0x99d0af99b3433a5U, 0xf5c1eeed050ad51fU,
  0x3924edfba2b7c0cdU, 0xd503cd1b0cd9b17fU, 0x5b1ba535e822fc1eU, 0x22d4f019f232633cU,
  0x51a4e916aafb34ccU, 0xe8250af1ba944f24U, 0xd5e6ba482c9bd5d0U, 0xfa272ecae9d31651U,
  0xeaaecb198134bfcaU, 0x1f0407f305a53316U, 0x4e3fe6b31e0b5d40U, 0x381ca4f798d4c92fU,
  0xfa58f6d12d9b00aeU, 0x1c3419a800177f06U, 0x1ff821dc2130b615U, 0xa617ebd64506c1e5U,
  0x6402f69de4fd0f1bU, 0x3bf32c2faad61e1cU, 0xdd99352da1cf21f9U, 0xedcfbeccdc6613faU,
  0xc21012bd2cd4e414U, 0x303e81e8b23735d5U, 0x15f7dac707bb30f2U, 0xc12561ff2b1e03cbU,
  0xc92907243ad6dfcfU, 0x1dd9831daf9fcddU, 0x9bfd11251eb8ff46U, 0xf8f8e2cc0b0ef1f4U,
  0xfed51dde25600fbeU, 0x441dcdc101628859U, 0x597fd4f9335df104U, 0xeee996aef6e61df2U,
  0xd124270f34f9b799U, 0x3ee2a148c80b600eU, 0x2b0ae43fda975ccU, 0x5ba9281edd038ed0U,
  0x4a97fe04b503e9f0U, 0x141de664ca2098aaU, 0x371a9ccd2fce070eU, 0x3081300c9505395eU,
  0xc51910f301fb5c1fU, 0x264c2d354cdd329aU, 0x6f803e10d2ce500U, 0x40153aede3d3f808U,
  0xdbd8e5c2f0e11132U, 0x2d2301221e6e877U, 0xe01bd0d31b28ebc4U, 0xf80d080375ced4f0U,
  0x9e73e14bbb181aU, 0xb0982d3119e5cad3U, 0xd4fd46fc7f2dc60aU, 0x4a2e2b51020ac90fU,
  0x50d4bfc523faf93eU, 0x29e05b3ad16501bdU, 0xd0262d307f04d412U, 0xcefb54fd17f3db88U,
  0x1894f8fbcfc5344dU, 0xf0e49c40415c30faU, 0x3d8e4931394a3703U, 0x39393a33a3ef2b47U,
  0x26b2382a497ff4a8U, 0xf2be30d4054bc7a0U, 0x3b4319b832248a02U, 0xa5baf639a8e21046U,
  0xe81274e121664633U, 0x30761606b0e420a4U, 0xf406d1c9c6a83ee5U, 0x12756d666f45d443U,
  0x4dc9e4bf16cdb537U, 0xb1b7d4f5cfe10a5bU, 0x53c322473d065e33U, 0xbeb5edc69ff14721U,
  0xbecd19e1dc31dd40U, 0x36e2bd39e2de8113U, 0xe6f3acf7bf523919U, 0xc92866312402154fU,
  0x5bf32e10a21afe84U, 0xe0580b36a4350513U, 0xc4706154cf28047dU, 0xc043c38330dc7f1U,
  0xd4222afbff1907f7U, 0xa4bd53593d9777d6U, 0xd9077f106c97ba9dU, 0x27202015cd0fdcb7U,
  0xff5d6e0f53a310bU, 0xd6c9dee1e703d8daU, 0xbbe4ecd24430e17U, 0x3ee3e5dfd8e8fe00U,
  0xa6810fc5da322ef9U, 0xdaebe4d0b41ddd2eU, 0x42c2d7f7a913202fU, 0xe513cb42c0b70345U,
  0x1c0500cdce301229U, 0x1639f1180b0ae5daU, 0xe4e613f0e04011afU, 0xc81952c7a2185601U,
  0xe5a64318582dedfdU, 0x6bef100dbf3344fU, 0xca1a200c8e1189f9U, 0xd2057fe4060004a8U,
  0x49fd5c53a8601a14U, 0x9163afc080d7dd2U, 0xf647e3cafee0e4b7U, 0x5f464cf2a17fb605U,
  0x9e5041ff16e02c8fU, 0x27c3335234fbdc5eU, 0x2b31420dafd4b8d1U, 0x5fd3f7a44798bb4cU,
  0xe6ab07c433d8bdd4U, 0x2ec92a2f26d5e114U, 0x4fe40aece52712f4U, 0xcb1cc126e0ff2b28U,
  0x811a2c06f9c9f401U, 0xb3050fc902e2fa17U, 0xe735d805e50f4b05U, 0xebd412d91e3dddeaU,
  0x1e6d0b44846cff8U, 0xeef8ffe829550a04U, 0x1e62ff011f583850U, 0x2b364cc2217f5101U,
  0x97d3e744dd2f6827U, 0x381e0aed13f81322U, 0xd3ef96040834adefU, 0x7acbb334e17e304U,
  0x3be80f0a570defd9U, 0xff12f3def37fb6e1U, 0xac50ec3b1d2b3546U, 0xcc331ce60638f82bU,
  0xca583b044f3a3428U, 0xebc912214ae23dd6U, 0xc6b84ff8454c2325U, 0x2a32350d1deb0eeaU,
  0x1a405413fde619d3U, 0x4c2fc4d0051d241aU, 0xee2ef115dffada04U, 0x4ffdb6505532fa35U,
  0x14e0eaf73795ddf8U, 0xc9e468a8b41846dcU, 0x2b40bc810ee61e2cU, 0x1e1c35341904e847U,
  0x1809be3edc340727U, 0xe2d7b54a42bd53f2U, 0xd4b4f72472f7b0d6U, 0xfad2f11ee805ff52U,
  0x38df88a6a3fbff4fU, 0x68884efafaf622e9U, 0x2451d0c1d0cdfbf4U, 0x59c6057fb547d5f1U,
  0xbaca2fc40ea70c5aU, 0xdb16e1fd985b4e3aU, 0xb4ca28e712dbb70aU, 0x1939542e00e248edU,
  0x2e01133e91d44c06U, 0x16c9d7155e81d822U, 0x210118d85d112ceaU, 0x7f83b440404c85aU,
  0xc7ce26bebe7f47cdU, 0xdbca27f7422311eeU, 0xdd3206be1bd6261eU, 0x61bc5051922c2faU,
  0x20cbd2aaf6f4c735U, 0xd3f5f5e8e0f5ed39U, 0x400732e51439004cU, 0xfbe7ed2a159d0939U,
  0x28e2fa0f1211db32U, 0x5243ea6b39b71d38U, 0xf3e022bed917d2fdU, 0x21bcfdf240ff024U,
  0x1a183d81b5d900d6U, 0xddc50cdd542720f2U, 0xe2e1240e46084eceU, 0xd3d7dae9dbfe09e7U,
  0x2313251904c82ae9U, 0xeba9e222f5bbf085U, 0xf9d78ca9810de034U, 0xb51970331931ffb9U,
  0x3f18fa22f74d22bU, 0x1cf79673fbfce7beU, 0x2ce0dbb33919e304U, 0x4d9718351abd7691U,
  0x75da1b5adb25db10U, 0x41a70efe18dbe3feU, 0xd7244b071103fc1cU, 0x291fcff7e92d81d0U,
  0x4509cccb1edac402U, 0xdb706ff093d15fbU, 0xffc20ff010ee33e8U, 0x93637b5ff080100U,
  0x571eaf0e0c331af4U, 0xd11bf70119c32133U, 0x45b019e0bb4eec0bU, 0xd6e013d32f12f30dU,
  0xbe17f70114cbc82eU, 0x1a141846d0add3f6U, 0x1a484a2c130825bdU, 0xf9cafd3a81d9272fU,
  0xb419d54d16ddfebeU, 0x5e074022f533b67fU, 0xefb8e6d94ad9fde3U, 0xf549fa8de61f1ddaU,
  0xccc6073900ecc1d5U, 0xbbcbb2adc3ca0efdU, 0xe59f1d58f0002b46U, 0xcbfcd1080824c3e8U,
  0x5e3f0f5813f59acU, 0xdebffc4c28aebc59U, 0xc9e9b662dfcfddfeU, 0xf1144e9bb0109dbcU,
  0x354b023deaf33088U, 0x96aa850aeca84a15U, 0x181412d283400eU, 0xe836cf0351e24d1bU,
  0xc84be5f02028131aU, 0x1f07de07f4bec5c6U, 0x23ce2cee092f1be8U, 0x571d0fe2d1c3c619U,
  0x2e05012d0f54e0ffU, 0x10fc3fa814d57f05U, 0x2613f4f002ccdc2dU, 0x1618dce528b5a5c0U,
  0x234fad3b16afbbe2U, 0x3381af6eb11df8e4U, 0x3737b2f7d5aa310aU, 0xd44f69fb0923ecd2U,
  0x121dc8f14b1f53ceU, 0x51082813ef064fdaU, 0xecf40b131d25e343U, 0xcb31f7a8efbd0128U,
  0xe629f132ee0819aU, 0xe1e8cd6c9412653U, 0x7928185cece0f5ecU, 0xac380d21a050bb23U,
  0x2a3bbc1ee68ebd07U, 0x4df930e58ecf1a7U, 0xc9dd0d4fd1aabca0U, 0x9cfdbee13dcee3c6U,
  0xbaf848b4f91d1ac0U, 0xcb05b952a7253a15U, 0xcdb516ec11fbe43bU, 0x37ad3000bcd9619dU,
  0xbc813b16bed911dcU, 0x532bef7400d5926U, 0xca4b3102bdfb9e9dU, 0xdac1edc934f9bdf9U,
  0x382b19f1e681ba1eU, 0xdf9f4e161ee3fc5dU, 0xeff42f53f5240fa9U, 0x1655b0e5f478ed2cU,
  0x52b9a1bd32e2f4abU, 0xd4deee3ef4dfdf98U, 0x1ace27423b3303b7U, 0xb9e92c93db26ed5fU,
  0x3c5716fed6c4eef5U, 0x47dbd3b1dc053eccU, 0x403a2cf7ab5d87eaU, 0x413cb2f9f4cc1003U,
  0xf1463fc62246dadbU, 0xaece1eed033cdfb1U, 0xc321245a973332f1U, 0xcfe0c7e92c7f1ac3U,
  0x43f1c814a240bfbU, 0x510a1d1fd392b43U, 0xa8c01c9cb8b80a61U, 0x425cede6ffc3d3f3U,
  0x2e0ff02a1a48cc1bU, 0x32f811b83febe6e7U, 0x11f20f2d054dffb6U, 0x6eefe2774829510eU,
  0x153ac8f20938c1ccU, 0x4343e3052e19fafeU, 0x1ae231ea3404d1fdU, 0x513dae7f9f2492fU,
  0xe1d117efce1bcd2fU, 0xc9f20b7f3d4c8e33U, 0x3ec1032eebe22f3U, 0xc5beab1c4e060952U,
  0x6d7efc0702f70e58U, 0xed8823f150b80dc4U, 0xd6bf2fc33ea62ce2U, 0xbf567fd311b79d9cU,
  0x4f0b34ebfa0a0b2eU, 0xe720d15a454aefefU, 0xb5a6e219f90860daU, 0x21eee8c155be6adU,
};

STAI_ALIGNED(8)
const uint64_t g_network_conv2d_11_bias_array[32] = {
  0xfffff6fcfffff678U, 0xfffffdab00000436U, 0xfffffe76fffff3b5U, 0x1a7a00001197U,
  0x65a000000c4U, 0xc8600000b3eU, 0xfffff2ae000014b3U, 0x1adc000002bfU,
  0x9c6fffff0eeU, 0xfffffda50000069cU, 0xfffff6f8000002c5U, 0x18d30000014eU,
  0xfffffda1fffff75bU, 0x6c3fffff517U, 0xbcf000001dfU, 0x13b200000ad9U,
  0x164cfffffdfbU, 0x11e2000012b4U, 0x31fffffb65U, 0xfffffa4c0000187cU,
  0x168000002f4U, 0x1705fffffe78U, 0xfffff70e00000b8aU, 0x2548000007e1U,
  0x8a4fffffb63U, 0xffffef4400001d22U, 0x37b00000adaU, 0x24600000efaU,
  0x1d1900002387U, 0xfffffd9600001dd2U, 0x1dd9ffffedb3U, 0xfffff773ffffea85U,
};

STAI_ALIGNED(8)
const uint64_t g_network_conv2d_12_weights_array[72] = {
  0x7f4f9f8fb84f8195U, 0x7f52268181fff820U, 0x2f4c7f7fd67f0cf2U, 0x64cb81adac4b97f8U,
  0xbd1a59277f7f7f11U, 0x7f5c7f9e3b8106e8U, 0x8130e69305eb8107U, 0xd73d7f7f76077f42U,
  0xac89817f81819c81U, 0x4e0a74acd5937f25U, 0x5c88dc64e71b7f10U, 0xb1b14906a5f77801U,
  0x67362081338a8a16U, 0xdc8155a17fbd187fU, 0x79fc2cfbb2b43a7fU, 0xb112df367f7f41e0U,
  0x45ccd1bde82b1317U, 0xba4f35182c23cbbcU, 0x5bb804b8e6f1c92bU, 0x14a4939cbf224dcU,
  0x21903c4d80542aeU, 0x3dfc8d61511b800U, 0xcfc93e07ef10c3eeU, 0xdc14d80414291bf0U,
  0x6d73ee730b8eb2f4U, 0x48cd4443c810f8fU, 0x7f815b747ff01581U, 0x44816281e0817f57U,
  0xb28103c2cde9c3d8U, 0x3809fb7f83e37ff9U, 0xa37ffd7f8147561bU, 0x81815ae4e4e9ca7fU,
  0x7f81d2a06ffab6d7U, 0x7b817f28a333137fU, 0xb25e9fe2bfb2b1a2U, 0x819203947fdec07fU,
  0x811d81f81e434281U, 0xe2f9f430b3ab5e1fU, 0xa7cc7f1a007f3e2fU, 0x4da9f46181bf49afU,
  0xd6e71ab824ecfb23U, 0xb35500e10cb546U, 0x5f584551c0ed2f23U, 0xe3b6ed3c2d014a1dU,
  0x25fae8f5f5cb582eU, 0xcfdbc041d8bbd321U, 0xf0fd3f00ea354dcfU, 0xf2364c103820e71eU,
  0xc0dcc013edd32fe6U, 0xb0e6f3b1ecfbb71aU, 0x350632fa06ecbfa1U, 0x46ca0331cde0e2d0U,
  0xf20226010c10ea0aU, 0x54026d1b62911eeU, 0xc00839f72f32b2fcU, 0xf909c8cd432ee8c5U,
  0xf447262a003f4017U, 0xedd4e832f233fa3bU, 0xdaa4f35d17f13a16U, 0xe456f829101fc9ceU,
  0x3e27d7cb1bcb0742U, 0xde18be54cd2ed8ccU, 0x1ecd09e3edf1bdd5U, 0x39ddb5b406db00d1U,
  0xf3e2eea13ef62ec9U, 0x330455efe820312cU, 0xfbaab7fd3cc6bdcbU, 0xe46df1a1c193d08U,
  0xfe5f11aefd3e721U, 0xfe03d729b7d9ddfbU, 0xc8fc26bd18ea311aU, 0xfb2dbac32507f5c8U,
};

STAI_ALIGNED(8)
const uint64_t g_network_conv2d_12_bias_array[32] = {
  0xffffffa60000048bU, 0xfffffe67000000a1U, 0xfffffc2700000057U, 0xfffffecbfffffe02U,
  0xfffffdfc00000206U, 0xfffffc41ffffffdaU, 0x2bffffffa65U, 0x1e7fffffef9U,
  0xffffff87000001cbU, 0x54000000e9U, 0x1c60000020eU, 0xfffff96d000002d6U,
  0xc9000000d7U, 0x1e20000017bU, 0x3b800000008U, 0x1f3fffffeddU,
  0xffffffcbfffffd3bU, 0xfffffa41fffffd7eU, 0xffffff8800000068U, 0xfffffc03ffffff11U,
  0x36d0000002bU, 0xfffffee10000007dU, 0xfffffe82fffffb76U, 0x4fffffdc9U,
  0xfffffed3000000c6U, 0xfffffd3000000159U, 0xad0000026dU, 0x2400000047U,
  0xc8ffffff37U, 0xfffffe1b000000e1U, 0x545000004b8U, 0x17dfffffb9fU,
};

STAI_ALIGNED(8)
const uint64_t g_network_conv2d_13_weights_array[1024] = {
  0xf91b3834f6bea30eU, 0xdae436447fb2da49U, 0x3a5ee97cc4ec6611U, 0x2aef3836f85982bfU,
  0x42d5354d33013e0cU, 0x6af819de6dfa5333U, 0xff7221af051455ccU, 0x1d52d0bcca3edc7cU,
  0xc1cf2c1932be0228U, 0xd60af1c33af0d5e8U, 0xc60c22f300c9b2c6U, 0x453a22e9d4142281U,
  0x343f22d9d4cc23f3U, 0x284384180e16360aU, 0x531e17e6109b2146U, 0xd2dbc7bd0effc937U,
  0xde422c1aa7ea343fU, 0x2db6c23207e20a00U, 0xe6cc20d13818f9f4U, 0xed1c69aec6e62885U,
  0x38e17f3424064305U, 0x2cdcaee146f8fd46U, 0xc0f84ae8d5fd0929U, 0xcdeee8f4f4fce867U,
  0x4055eb99bbadd326U, 0x1c2200433516be14U, 0xcce60f5bf2440e84U, 0x364ce65fee3c1763U,
  0xe093cd9be1bd11cU, 0xe9a7fdf65c2e95adU, 0xe61e24c1917fd556U, 0x6f29271b2a9f2fbfU,
  0x30f23af2f5f9a3c2U, 0x2e7fb9fcabfdefc8U, 0x1b29c404d1c4f1fbU, 0x2e3d440ef67a08faU,
  0x29eef948a3ed1a5dU, 0xfcb53df4a9e3d662U, 0xdd01c2ddfe33ccfbU, 0x550058a25dd249d7U,
  0xccbefe97bd9f3e2fU, 0xd0c4eed5a087cce9U, 0xe14a9d33902e41d8U, 0xbeca4a480e9c8e37U,
  0x70ff2bf4e8f42e65U, 0x539ed6bff8e5e67cU, 0xe2522e4b30747520U, 0xdef975be2a49bc81U,
  0xedfb2a362eb201d9U, 0x9818e338e937df2aU, 0x434811c41ca5efeaU, 0xf3ce81180db863fdU,
  0x25f8cbc61b3efe08U, 0x33520c07c92801ddU, 0x29e5ac1bd90fd563U, 0xd30947068cc6a42cU,
  0x40eadf2630d5c4d2U, 0x23b8e906c656e76fU, 0xe68a7f023e6513f6U, 0xcc0642ce33fcf5d7U,
  0x4e0502fb2933ee06U, 0x734be3050b1ddbf2U, 0x16f055ff306ca130U, 0xf4a06c55dd9bd03U,
  0xc630f4e60f18cad2U, 0xd6363ee5cab8e61eU, 0xfa5609f218f5bec0U, 0xcb53f9dfe55be3caU,
  0x4f43f42081e65907U, 0x194103fcfd0b26fdU, 0x314d5019b2b0ff5U, 0x2fe42cd6a82415daU,
  0x812cccf460d20a1fU, 0xf5f1e10a2e1617c7U, 0xda3f9a384a0c12ebU, 0xdeddde471f4ffac4U,
  0x136024f433c026e7U, 0xf2e5c407d679fe19U, 0x7ed02abdf9ef12f0U, 0xce1159dbd8213fa5U,
  0x262944e5f12329d0U, 0x4ecbcd0b01fcd239U, 0xac2450fa085b3417U, 0xf5e8cd9ff4f2dbe2U,
  0xddca85ede9fdffe2U, 0xd710f1f5d4304c22U, 0x523a67eb0081ba2eU, 0x2324fec416d73ec3U,
  0xf9b7cbd249a2bafeU, 0x5c5e92ce0c0e45ffU, 0xdf34f5fddc15d6d4U, 0xf31a462dcb3dccdaU,
  0x1e0fdf10a8ee20c8U, 0x84f1309af4178b36U, 0x21e71fbe267f57e1U, 0xd7bc4123a8701ce0U,
  0xf1233cefc3e1d07fU, 0x6725ed9d231d84eU, 0xd916b2e816d6ef4fU, 0x241af104e411b217U,
  0xbcdfff41ff2ebef0U, 0x64af0aca62092211U, 0x4d7de020d3c1d2c1U, 0x4f79b7acba0ac148U,
  0xcf50170cc8c855a1U, 0xf7ffd3446c94b30eU, 0x26cf59d57ff1113eU, 0x9becd05cac547d2U,
  0x56af733b6911db33U, 0x12ef172b0716df62U, 0xf11b4bdae21b0aa6U, 0x6f935e8bf062958U,
  0x1ce54d0811200b4aU, 0x2c3c7f4625da3961U, 0x49dac371e21952fbU, 0x661de5cbbe522a05U,
  0xeafb9df29efb0407U, 0xebe8f4e4473d1811U, 0xaa31f3ef2715faf5U, 0x2d16c1aeb222cd63U,
  0x49e20719930fcaaaU, 0xecd21a4944810b0eU, 0xfa3c0d6418281ee4U, 0xe2dc1dadc90fa6fbU,
  0x25d11c28f45347f8U, 0x361becc13b3ffe27U, 0xe363c099912263cU, 0xe219f0bf1a192d19U,
  0x5d21cdbef1ed512U, 0x3e1485a3ad253196U, 0x6e1a0ac697fa1e9fU, 0x382de850067f54ffU,
  0xf31503f7f7e8ebd3U, 0x8a2ccafeb1233928U, 0xc4c6c3050f0bc0d8U, 0x88229202c10be27U,
  0xa10cbdbbf3124b0cU, 0x1f2c3b263ac908dcU, 0x11020852cea01ae7U, 0xd21d3bcfcd2c1feeU,
  0xa5ef401cc2efcf0cU, 0x42ecffdee242d481U, 0xa9f34a62848eca7U, 0x34d9dd27032556f2U,
  0xf051ae0d4305f228U, 0x28edb2286826b57fU, 0xf70e390544245babU, 0xfb4132c1d930ef4bU,
  0xd850b304c6de20e8U, 0x5b21eb12eca503eaU, 0x10c118d92b39fc1eU, 0xde26bc00d3e1b9f4U,
  0x232fcd0e0de81a36U, 0xe136ec10010453dfU, 0xf455f612f21c2e05U, 0xca05cf0ff11d3dbfU,
  0xd3f00ebb080900d6U, 0xe67f07add3e96537U, 0xece03124120cded5U, 0xc3fa2416300ba0ccU,
  0x36e8e7e111e58511U, 0x8117ff4c2e9bb1cU, 0x9311fc3a0634ef26U, 0xd4f1bd5e427d1c2U,
  0x4c38be1d9e3146f6U, 0xf30de9ed36ea03fdU, 0x4a23f310ed27c562U, 0x1f3bd3b8ddffcf1bU,
  0x2b50d91508f3d29eU, 0xb0c19ec7c45b001fU, 0xf4d65db8e67ff9d3U, 0x49edeee9e14422bdU,
  0x6d26479700fbf62cU, 0x1617fb16c09ee222U, 0x483ac6ed29011628U, 0xeb1c290411fed225U,
  0x21620c0d2510fdc9U, 0x1222b4e2fe3124baU, 0x1cfc2ec3dee3632U, 0xa07e70bd7f00caaU,
  0x2200fbcb523df5b4U, 0x2b7f23e22d12e6e1U, 0xdeece42bb0e411d3U, 0xc439c0cdebd6be14U,
  0x46bf2dc17083402U, 0xe6d022295124050cU, 0xd0f404caf714b8caU, 0xf7f9d9020c1631a0U,
  0xd081e1c6d4a52cd4U, 0x1df2cc2343ed1811U, 0xf0cc59f0d9e1f679U, 0xda05e9a003f0d8caU,
  0xe5be0959b262eddfU, 0x324427d2f4182b07U, 0xf6dd3716bd0f3141U, 0x8132fae43dc20853U,
  0x3a3739f74f32a118U, 0xf695dee03a2b2c51U, 0x60059fc1b2ceefeU, 0x111001cfe9000960U,
  0x3146004d11cf33deU, 0x5affbe3748192ceeU, 0xb83713e3e23f2dd8U, 0x350b2211b3f3fd18U,
  0xdcd8e5a6c4bf0bbfU, 0x1bb8d83307241bf4U, 0xd190150d1edc093bU, 0x7f2f247b0c12081U,
  0x6cc532202a0a1df7U, 0x30fadef76c3a204eU, 0x1bddf3d416ee6c01U, 0xf60daeba3ce109faU,
  0x9949d3f56a72d440U, 0xcdf038557352596U, 0x7f1efd0ae80d0822U, 0x111d08d3e007cbecU,
  0x91dab2c24141c1eU, 0xbb3bf91523f9db38U, 0x334ec3ae6de81efU, 0xbc81aefa02bdbbU,
  0x24f0a5471a214bb4U, 0xf11a07e30c1a36cbU, 0x1dc8ebf6c4b7373bU, 0xfb11bbe78f233b19U,
  0x4139373702ed1043U, 0x3c262e440a6131e5U, 0x2cfff4edfdcfcb3bU, 0xe12b815e2de92e45U,
  0xea41bccd0f0e0efeU, 0x4014cdf9e7481563U, 0xe73721552b38b50cU, 0xd2dc1fbbf0c5c154U,
  0x1abf2e43e624e5f3U, 0xfdeb2b51077f0524U, 0x2414bff06cd3d94dU, 0xeef5d0fb2ff5e32cU,
  0xf4fee34342280950U, 0x2beaedd6dd3591d1U, 0xe5aba50a4c08dcf3U, 0x230a16f312bafffaU,
  0x4b8e02c5c9e610f4U, 0x43051162800c762U, 0x13150333fadb20e1U, 0x35e21f1726890124U,
  0xb4e2fd7fee3ded39U, 0xfce02051fd323625U, 0x2949e01537f25fd3U, 0xa81d6a16ddf6f70bU,
  0x435b47062efa12e0U, 0x3ee1cdebf40c4381U, 0xef9d0c5e3e052fcU, 0x11ceda44dffc54b2U,
  0xd62651ec133b03daU, 0xd914d7bc0024e7edU, 0xd5db051228f2f8e3U, 0x523bc194ce219e9U,
  0x3bdae021e6d932daU, 0x25189106fd10aa32U, 0xd23402ba7f2ced12U, 0xf01a07b1fa134a0bU,
  0x2b482815373d231fU, 0x625afe81105ff24U, 0x35f4f910d729d40fU, 0xc032a20ad00b7beU,
  0xfeee81ff234e3f38U, 0xdcb20234cbdeaabfU, 0xd4c4dae3e142dd14U, 0xca1c5bb16c3de16U,
  0x19add3b112b8e809U, 0x533036f3c98aa9f3U, 0x2addfbf83a30ebedU, 0xd1f31d443d210333U,
  0x9b59ed0f054d4629U, 0xa5402e38e2f03727U, 0xaf7fd8c2cf131ce5U, 0x11e703f406c9cd2bU,
  0x2fac55dacc8e31bU, 0xf740bdd4051b6c70U, 0x455ec03ee03265e6U, 0x1df5fb020e23c1e1U,
  0xc3e3f9e9e921eb36U, 0x47f5f54df8dc25f2U, 0x8bab40d41e6fc4aU, 0x41d2f110122efc4U,
  0xdd245c01bff9324fU, 0xcf26e1baeb242c0eU, 0xdfbb911663d1581U, 0xc6632c16fc15392dU,
  0xe700e3024720f94fU, 0xf4574412fcfab528U, 0x1912dc27d7b58129U, 0x69fa05c914c8fcfcU,
  0xeef8f31acc0ededeU, 0x32f33aca2b1726f2U, 0xf0d7a85a1511d4ddU, 0x1af6e5dde521f342U,
  0x4bc5d9ac8fb12c2dU, 0x5fb12bda67471611U, 0xc8815f7e11d5f811U, 0x382cb82057e4b65bU,
  0xecec4aad47699839U, 0xb7acf86438c81cd6U, 0x1c4a253ef247a006U, 0x150aa708078e2442U,
  0xbc010ddd81df42c9U, 0x1c262935e3cee076U, 0x35c243aefa1b4ef1U, 0x45da1fcdbbe1121bU,
  0x37b32ad3063ab633U, 0xfdecb1c6e3cad9edU, 0x97ee1df94fee1b06U, 0x1545ef5cb325f932U,
  0xf12a0270ec38cbefU, 0x4e9fac57222555e2U, 0x3e2ee3f9fc3cf322U, 0xab10f100137f57ebU,
  0x3035bebac6c4cb29U, 0x304bf11cc80f2c2fU, 0x1e30b40e336aa531U, 0xca77b5623cfecefU,
  0x29d17a2e207f2904U, 0x73c6e7b5fb3cf8f8U, 0x21c9e3cc0a070a30U, 0xb7b948b6ea5aef08U,
  0xf7feee1f010b4d58U, 0xe7030af26058111bU, 0x383e5ba2115a709U, 0x7e080def56086d2dU,
  0x1fa45c3302409507U, 0x15242fc51133375bU, 0x98aa342400023939U, 0xa531f1010d04d37fU,
  0x480e0faf60f9e513U, 0x117eaafb9573805U, 0x3508efc2dd09036aU, 0x3401b02c4dd00c4U,
  0xeb0ee10e3f24f517U, 0xc503ee1f1ff941c4U, 0xdf8f90339ee36b2U, 0x1389c01a3bbe29daU,
  0xf8cebec91e81e591U, 0x630946102fdb195fU, 0x95f4bef10ced6b19U, 0x7e20411d5bc21c1U,
  0xbb4b2e3cd3e27ff4U, 0x55c0d052cd34bd24U, 0xf215bac14f9abe54U, 0xe0e8ef03f2ccb404U,
  0xcc4704345633061fU, 0xcb16deeb2427fbbcU, 0x16c2dfe9dca5b6cbU, 0x6d10142ea2eba41U,
  0xf0ee05b10603f60eU, 0xe37f30e016e2edffU, 0x10dc060d25051debU, 0xdd4c493c260a08d7U,
  0x39132f53ec062921U, 0x16e3defa192a27e6U, 0x2333fe0bc6eb27eeU, 0xe22e500f7eef508U,
  0x1dfa8be4c927c309U, 0xf2f12441d919ea21U, 0xa7e02e1643220733U, 0x2c383f1b212a2633U,
  0x7f350cd5ecdeba4cU, 0xc8f8c6d9b40227f8U, 0xddf10ad0e68fa16U, 0x5261715bddafa13U,
  0xf921ed04f70b0b16U, 0xbc3fa140f7ece4faU, 0x54fad102d10d83dU, 0x3c16f4c229ae1f02U,
  0x2408efd4ce21dce6U, 0xd252cb0ffdc3d94aU, 0xe212a94c433808ecU, 0x22d814fbdc7f8bfbU,
  0xdedff39112b54addU, 0xcff007b841bd42e9U, 0xfaef101a8800ec51U, 0xd04853f0b304e2f9U,
  0xedc0c9487f16cb28U, 0xbc87f4fc1710d70bU, 0xf250272ce3cd230cU, 0x30ded29e4fcede18U,
  0xbda5298118f0bab4U, 0xe1b4d95ece0ba2efU, 0x380ff9dbc50921beU, 0x20f9250e55d9ff27U,
  0xdcbde1ea34c8f0a9U, 0x68fb6d29f8e58d05U, 0x33e19edd9195a3aU, 0xc53f081824b80dffU,
  0xe8b397dfebf31a5dU, 0xd87ffe63ffa7ab3dU, 0x13f3462e7cf9973cU, 0x490bced2fb90af00U,
  0x194a0b6fabe23d4cU, 0xaa1f3e0a1ffd09b7U, 0x15e82bf3b244c22dU, 0xe130e2e6d957112cU,
  0x132bfca2eeb516dbU, 0xfec924557f9624d9U, 0xfe159cacc910f930U, 0xe0c2d223e14825e3U,
  0xce342d1837103c56U, 0xe42d1a27b9375dceU, 0x84557d6d6ec58daU, 0xaed0fd5d08a50cdfU,
  0x11d229235dff5eb4U, 0xb2d7f7eafa51daU, 0x4eccaf2ac2f95a21U, 0xffaa373523bd1650U,
  0x893cf0fc09a80738U, 0xbedd1626f80ba3c1U, 0xe1b9c36de0f8d6c2U, 0xde81e222e408a9f9U,
  0x27dc2a150d7fc35dU, 0xb42c34260e0ef216U, 0xc10c2348a4d5571aU, 0xa46a314408270214U,
  0xfee213dd0c34e1f9U, 0xc5a9fd93b96b0c7aU, 0xd9e2f32324283021U, 0x23ccfdf5f6b911e6U,
  0xfbdf1deccdfff325U, 0x2f1c1bf323cd7f31U, 0xde29ceefd211fdaeU, 0xe2e0b10813f6f60aU,
  0xf83910aed1dce924U, 0xf25572a4b9e55204U, 0xff0f71ef6d9edfaU, 0xd0db601c1327e5eeU,
  0xa3f1f3ed18051fc4U, 0xcfff32c7f98110f8U, 0xeac4918ba32180dU, 0xf5db54bb00120949U,
  0xf2aef0dd24abf9fbU, 0x4f3f051f90a07e1U, 0x40612c829b70be2U, 0x25ff1fbf3fde0de6U,
  0xe9bcddf2363cfbcdU, 0x2412f2ff11fd1ad0U, 0xf1f220672efa421cU, 0x1cd42d56f430d7d2U,
  0xaf6aa7d80cc40611U, 0xa8d0dba6cb2ddef1U, 0x26874107fbd340fcU, 0xb81fd21276000a0U,
  0xd03ed715f2e90428U, 0xb2dbf8073b810fe0U, 0x1daebdd06f9e735U, 0x22dbfb27eb06ffbaU,
  0x1aee6d3de1cbf91aU, 0x1f06d722ec41f20fU, 0x1f04bf6f52010d4U, 0x153ae51ef617f1ddU,
  0xef3146d566652a02U, 0xebbb7f3b6cf7ea26U, 0x8c2100a915e6eabbU, 0xa26f4d453be2a92fU,
  0xfce7c47f1e2076e4U, 0x1a898b450d40dfaaU, 0x6ab559a5b19cfff7U, 0x7703d41b1b9f56a6U,
  0x69dd350bff063114U, 0xf2bbd5dccbe6302bU, 0xc70372cafe7f18e7U, 0x13019f350f5116e1U,
  0x15f63205fd08e5bbU, 0x1050d715c5fb0cd7U, 0xe1cfcb2b3a17215aU, 0x3a456bc821d7d997U,
  0xd447a80bf742d3f8U, 0xf7103be7c5dc0ae6U, 0xe9f25ccf276e3b35U, 0xc895f4adcf7f86eeU,
  0x12bbf29b2a8ed524U, 0x26ebe21b21ccba25U, 0x1f4a15934030baccU, 0xabe3f44b31e41c2fU,
  0xf025d2de0cf33153U, 0xdbe62dab02d6f4cdU, 0xbb0efa0ac71adfa8U, 0xbcbee0681f9dbd5U,
  0xdb3445defb281cebU, 0x59575b8cec1a744dU, 0x153a502d1143370aU, 0x81d4f32207c29de4U,
  0x714673214022eb2dU, 0x2b01014b1d145915U, 0xf71c9f2d02ca0339U, 0x81e50dfccbc810b0U,
  0xdc06d121d2ee5c4cU, 0xc377f945584ccc42U, 0xbab888195ec5d237U, 0xd11d94ce4342ec54U,
  0x21ce2f22c2ca7f0U, 0x24a418f3b748f6d2U, 0x33c4eeef37330a2cU, 0xe6f203f5e84c23e8U,
  0xec21abc420eeb5ecU, 0x70d20ae60951a03U, 0xbc1bd7d6bd3fb3daU, 0xf4f6812c349f39ebU,
  0x8fd42b2e0ef930ddU, 0x51010ebe62ec4fbU, 0xfc0ecee7dc1b0820U, 0x260d23e10430fd21U,
  0xf0e0d409140de5d0U, 0x3ae6ee42e01b8d81U, 0xa18eee4766d5c3faU, 0xdd021c52d0d4781U,
  0x750a50ee16e51c9dU, 0x3f63be0f9f73bedU, 0xd39a0ca10fb2dc4U, 0xbef8c3536339e8f3U,
  0x726df3749b97fccU, 0xe505e5c9273423feU, 0xbed3152b12bd1451U, 0xe4d4d1932ab50fe7U,
  0xe9ba5d06ec5cc1edU, 0x20e811e02bc7ff53U, 0xe9283920b05a7237U, 0xc4dfd8ddf27f0f06U,
  0x2402b73a4510bee3U, 0x3c07f0f33a49f1c1U, 0x62fd09e5e7baf2f6U, 0x582a01cd0c8d52a6U,
  0x52e9b4fc1fc2c7c4U, 0x4ee4e652000318dbU, 0xc92bd1f5002758eeU, 0x16f4e3180ec9f21eU,
  0xfc2bdb0e84d14a17U, 0xc8b1287fa2d6acf2U, 0xbadc08facee2a2f4U, 0xc8ab3954dbf9f9b8U,
  0xe5eb420b2c64181bU, 0x238570d0e1207baU, 0xb3bace2fe9b4e830U, 0xbdba40d518f9d70fU,
  0x106d9bc19f781e9U, 0xd81d2fbf1ed42825U, 0xb5f3d72469023014U, 0xe725050e39003bfdU,
  0xeff2040bbbe8df42U, 0xe5e0ee19f5e50e0cU, 0xd2d706030dfdf9feU, 0xf21e0be8fde008e8U,
  0x111a7ffe132d0720U, 0xdf40121e7ed1a15U, 0x461d29e414211c05U, 0x1b4bfef4d70bf24bU,
  0x840afb1440113650U, 0xcdd9d3a9ecc8ebecU, 0xe7e82e912c373927U, 0xf0a118ed05fa2127U,
  0xb9e009a9191c88b6U, 0x7201b8cd3833db7fU, 0x2b0bd903462229e5U, 0x18e3320ef7e1e097U,
  0x27c10718f701cb47U, 0xdf400d1f1a58210eU, 0xeffd0741cfdb4617U, 0x30df05614412ad1U,
  0xede807b9bdfff324U, 0x1c02e21cc9ecb86cU, 0xa89e18213d24ba0cU, 0x32c21b1509f58109U,
  0xd827a80404df3ad5U, 0xdde3ce2226dadde4U, 0x2041da40c7ffdfcU, 0xf303fb3af64b530fU,
  0xffdccdb336a8e411U, 0xe04dae1bfdda17e4U, 0x32cb27cde6e31342U, 0x62821c42417fcc6U,
  0xd4f5afd1da24a81dU, 0xc50efca7b8e4bcU, 0xf04cb3d1ffd5d1d8U, 0x5bedc1181543ac3dU,
  0x282bd26fea20001cU, 0x51aa7ff00003dd31U, 0x2c5f2d3d31408b6U, 0x18f0cfd2ce0c0c2cU,
  0x1bcc1ea7b8c8a40dU, 0xc6645342f5f99e1fU, 0xf7372ef7b62807bdU, 0x1cbaffe5501c9923U,
  0xe81d4d9132a1f1cU, 0x1f5c5d6fd903b020U, 0xb0ea810232dac2fU, 0xf5e74ce7ffcb2da8U,
  0xbfd2e3216a3a3507U, 0xd3f5dbd2afaa0ac4U, 0xd4e62eede41e1671U, 0xda8105eb4ccdfed8U,
  0xe4521a35f1080911U, 0xb2d244f6c5a5261dU, 0xd3fdcdf4ea0bde0dU, 0x22d919f10e620aedU,
  0x4c0c381409f67fc4U, 0xcde5cd160adedc1bU, 0x431623c31cd8e623U, 0x2afd12b311b14e3aU,
  0x360d012d03ecf903U, 0x640c133fce40b17U, 0xe3bfc53728e7f700U, 0xef1df7ffd5b81ff8U,
  0x31235f47001dc213U, 0xfe483edbae18ba0fU, 0xeb33b71df6b62325U, 0xbc4423ef0a05edd6U,
  0xc33fc1dec2afcd6U, 0xf70ae60812fd152dU, 0xd1e311a91ae7fbc2U, 0x327f98122e50e2aU,
  0x6ef527dee2cfd8d2U, 0xa5bb0c0df8ecd126U, 0x433e00bdf63bef02U, 0xf32bb13d262e2461U,
  0xecf20f44322b1415U, 0xf1cb231130f1a0fU, 0xe1fb41c33d13d804U, 0x734c318e01aad881U,
  0xc702f53632181733U, 0x130f290be4d9c82cU, 0xcd0efc0a06e0262aU, 0xd9ee7f280feedfa5U,
  0xfb56f5feb11b10e3U, 0xcba27dee2e0c002U, 0x8f06e5ee5d913fb7U, 0xde2efe007f575cfU,
  0x314cd02b81c405f0U, 0x1411df21bffd10beU, 0x19000955bdaabf2fU, 0x4414a809f4481022U,
  0xb705bfd26320c72dU, 0x326d093229572554U, 0x1809094b9b5fe4f6U, 0x704d1532892af28U,
  0xed2d31f3272a0d4cU, 0xdb59956527ab3837U, 0xac770613eb38a527U, 0x107f4ffd04f83035U,
  0x47578c2ee0e63bb7U, 0x3ce13bec1417b542U, 0x49fbe845b947bb1bU, 0x72f5802aa42d819U,
  0xcf26b21cfc22cdeU, 0xc0dfef1ed335f53bU, 0xe4c0a82ef1f7415cU, 0x444c22cc34edb258U,
  0x290681f21f49ac9fU, 0xe5fce8f262c2a82dU, 0x6026f92e17fbfae4U, 0x217df8dcc4b0fe5U,
  0xe1918605b36fc07U, 0x66c6f04ef0cffbe1U, 0xc5c709e1dd3f47deU, 0xbbec6bbfb25627f3U,
  0x5101ff47cf107f46U, 0xcb39eb2905df0443U, 0xd6f32083e0c7a820U, 0xed29f345da6724U,
  0xaf3a17aa2618cd3aU, 0xead1110492540204U, 0xfe43fbbdb7b6c5d7U, 0xe33ddbd6215e86f8U,
  0xc9e719da382afb06U, 0x9067fccd39601acU, 0xb41d1a68c38df9e0U, 0x1e08203908fefdbbU,
  0xe6270929fecbf3a1U, 0xba7bee3cba62d2d6U, 0xd263b373e6fad07aU, 0xa62b23e7d010bcf8U,
  0xf65295d0dc42239U, 0xf7ba3729b1cefcf9U, 0x7fe12f1441effc2bU, 0xd427d1c6bd1d6873U,
  0xe0ba15444f3a340eU, 0x240d18db23fb59aaU, 0x5bb5f2d4d1adfd71U, 0x968107d36b49ff30U,
  0x367878056710e11cU, 0xf6e8c7ea53314544U, 0xf6f0103e6aecebaaU, 0x9024af2f8c95783U,
  0x30b6f6eb44671411U, 0xb1047581cc0950c1U, 0xe1311826a22fe7baU, 0xb846f13252d6485eU,
  0x1cf7f41441ec09d0U, 0x6fff70e3ccc1edfcU, 0xfd241c604bd86349U, 0xf25361266c8d49aU,
  0xca0f4eead9fd4f21U, 0x40fd160ca9ec66U, 0x4a83bfb25cf1c10U, 0xcc2de005cc284ae6U,
  0x2cfe7f3ba23e631eU, 0x2f8f3e4be546914U, 0xdfd71dcf5a23f4b8U, 0xd2f62ff001254b57U,
  0x11d83f50c9ea1a0aU, 0x4a86401b0a1ff4d4U, 0x92421a4132810a2fU, 0xd00e9dbfae115c9U,
  0xa04da01b17c36b2fU, 0xce2a7ffc7dfacb45U, 0x3c8929613cc02ff9U, 0xd6e91ffee93ef42fU,
  0x3b17010e4124b0f1U, 0xff5ceef2b81810d3U, 0x19109af4e50afc47U, 0xf5ed0f270a03282aU,
  0x240e1a2afcf70d25U, 0xce0c0222fb2aead0U, 0xb32119e11b0946ffU, 0x3a3bf081de134920U,
  0x3a07d6cf34050de6U, 0xd614c598d4da1a30U, 0xc3c913dc162f2816U, 0xd713f008c7ff3e93U,
  0x3602cdf4119ba2bU, 0xd75481a3ccad41f2U, 0x78d14cf7a5c6faeeU, 0xb2d59c99a0dd00eaU,
  0x4dafb0606f1cb01U, 0xff480dd7ee37041fU, 0x48f94510c6df2d1eU, 0xf943e174782e0606U,
  0x5f7f44a0d253525U, 0xfa16c415af7f0745U, 0xdcc237df0ea0bd25U, 0x7db02c2fbb60120U,
  0xd6ec5bd7195029f1U, 0xe2d30ccfe8d5548eU, 0x4816c9b1bfef472fU, 0xc785b931201c5310U,
  0xfc0f0ce654c1ddc5U, 0xea1ad8dede3f1efcU, 0x24f8daa9df04fab1U, 0xdeecb9ff24a10f81U,
  0x34ab7d18db15b9a1U, 0xf00d2e0ceff72a3eU, 0x363ac40fa8b851bbU, 0x9a6dee10626f2574U,
  0x3fdedadd0540c7e5U, 0xd619f62eef2326f8U, 0x6ff37a04336ff56U, 0x333e48a9fb812e8dU,
  0x396227e86992dcf1U, 0xb4da52f30319bb44U, 0x41b9d72addd69801U, 0x4ab373e163938c0U,
  0xa7a4e70a7f09bac4U, 0xd942b0c8681cf6a7U, 0x193c042df3b2d0beU, 0x182abcc52b3a3f09U,
  0x110206727d62205U, 0x3cf9b138ef050ce2U, 0x5b03c7c148d5f9f8U, 0x43d3c5cb7fd7db41U,
  0xe4b6ffd35deff61eU, 0xefb80834f0149c1aU, 0xed4d2edd9fce0ebU, 0x1f0ba622cfeeb8f7U,
  0xc8c01ac647b81baaU, 0xd163c91a16e51728U, 0x1a2be728224c48d3U, 0x3232f2e95403b3ddU,
  0xd4e20e612901fa10U, 0xc62e3de18309f354U, 0xdf2cb3c8f32c22f3U, 0xa42cd2c815cbf37fU,
  0xd11b1f8139b50620U, 0xcfcb1a0823c2e1a2U, 0xff1ad71fc2e301c0U, 0x1db40016bbda49b6U,
  0xe8f933e92f04c1f9U, 0xf22482c3a1f3611U, 0x264d0cba071ce1ebU, 0xee14f0f013c4d206U,
  0xf5311fd41bb40009U, 0xc0f5c6d8c534e811U, 0x52d6aafc01b526f5U, 0xd7f1f710bb243dd9U,
  0x132be60cf830cae2U, 0xe6f0d02945d3a3c1U, 0xb6bef100c798d695U, 0x2c3181d9e565dfffU,
  0x234fe6e71b21d7e1U, 0x6d2dc14364af5281U, 0x61c29a4c47e58ad8U, 0xfeeaf826bf7219e2U,
  0xed48f5d2fbdedc3cU, 0x57fa2afb474ecdafU, 0xf15371bc1d90dacU, 0x3de3c7fb11f2f223U,
  0x67e6080bdaba0516U, 0xbf1df5f08123bb18U, 0xe5f302f7f13c20d5U, 0x221af419cd0bd4bdU,
  0x1d0dd5edfc5bf510U, 0x2c1d3232fab603d9U, 0xd406ed090b381c33U, 0xd60bf60237ddc709U,
  0xde13083e4c6d8d7fU, 0x152831a01e14f3a8U, 0xed2cc1f21ea5aef5U, 0xe8c945420470c1e0U,
  0xca2301dc2fde01d6U, 0x23d344ae6b052207U, 0xec228e5f21de1090U, 0xfbdd2a1b2e162ad0U,
  0x8394c39113e2700U, 0xd9dc4bff3ec2d3e8U, 0x3272cb73d3ad301U, 0xc6ecf5fd1000ffbcU,
  0xdfa3903013edd04U, 0x7f27e31f64242527U, 0xfeb3fa0913f7ce1aU, 0xf6443f11d4fbe1eeU,
  0xe6ff729a3cb9e0e8U, 0xf2c011cce85ae2d2U, 0x313adac828ce2246U, 0xfee7e8e1d422f3b9U,
  0xc9c153127f5110ecU, 0x72db1cf653efc9c8U, 0xf3264bdc24002118U, 0xe263b1123c0204ecU,
  0x6984c819dae9341cU, 0xc916c6fc0a30237fU, 0xce4fe2305b26550dU, 0x1b2ea18fd52527f3U,
  0xe753c21e196c3f0dU, 0x3814f7d2aefa19f8U, 0x52264bc8bbfbbd75U, 0x201124fbdf28b69dU,
  0xd1d30bc4dda21e7U, 0x8150d3ecf3fce54bU, 0x505c1a4032a34cdU, 0x781eec1bf6d901c1U,
  0xb10e20bef361e0bU, 0x905801000d0bdc25U, 0xced9032134d06e4eU, 0xa62af1e7c4268e5cU,
  0x9062df5c8d7172eU, 0xdf4612f1c0bb2d0eU, 0x24be2eb83606211dU, 0x1f0e1e357fe43310U,
  0x491f531d15c7c3eeU, 0xd0e003ddc71e2313U, 0xd943051e31e81a0aU, 0x1d42f2150bb5e103U,
  0x36efe70a4a1710d5U, 0xe3e337fe4d7fe6edU, 0x1eaaab1923d4d3fdU, 0x1ac620340b1f270bU,
  0xa29fe2bd2d37fce2U, 0x6b21f4fd48c39aa2U, 0x1f0ad33ee690faedU, 0xf6b38b07c7dc24d4U,
  0x2a4e1539f920b122U, 0xf84c2d5618deeffbU, 0xf3149e2a46a2c420U, 0x2d1fd24324215ddU,
  0xd7deb459cc66d930U, 0xdc0dffed107ff7b1U, 0xb6d7d399041bfba5U, 0x1443dee5e2c3d773U,
  0x30ff37326aff393fU, 0xf4a89eb4e5e84699U, 0x24b100dd2b165fe4U, 0xec11d407fe1f0fcfU,
  0x2a7f7b2d38a4b743U, 0xd0ada85f4fdcc25U, 0x2fe2f346cdfa1dc8U, 0xd421d1f132e3d6d4U,
  0xdfebef1384df1f18U, 0xf93cfbf67facdb10U, 0xe81144d92dea252fU, 0x80d1bc8c9a2fbd1U,
  0xdf3c26de24212752U, 0x3c0b2efcde233c06U, 0x1aca59e6db5ef32aU, 0x13222e27eb45073fU,
  0x221e2d09f815b42cU, 0x550f51ef512e53dU, 0x12ba1bcd2127fdfbU, 0xf535f9020238c92cU,
  0x5d21dee72b23ca07U, 0x220690cc7f25e3f8U, 0x71ff921d2efaec2fU, 0x4845f7d60921f6d4U,
  0xe50a71e31aef05dbU, 0xf432ffe7f8fe2d64U, 0x811604cfd2f75814U, 0xff2bf6124bdfb6c5U,
  0x3ee9f3ec09ef35ddU, 0xf4d2c2c840bdc048U, 0xe5c40fbef18e38f7U, 0x161a96dd05ebaa71U,
  0xe0c54802b03f81c7U, 0xcce322d29ce8f363U, 0xdd48ed18c42b3fbcU, 0x253afac0e340870fU,
  0x63ed2227e5eaf22fU, 0x271f434218cbfc60U, 0xd23e15dbc9f5e81aU, 0x1d383dfe0cefd59fU,
  0xf5143021dabfcc04U, 0xbc4e9b23e2a0e05U, 0xf0d9de60de9af144U, 0xa08060c0cd4033cU,
  0xc5b6c0bc3e30f4dbU, 0x7f16523f4ccdc62cU, 0xb0340b2e0c38bae6U, 0xbdd9bf64ff2f2fc2U,
  0x34edd42e015008faU, 0x33c11bad9b4150fU, 0x1247f335140b1eabU, 0xafdf21cc1fe3f43bU,
  0x1e7bb6f5f8bf0cd9U, 0x2e4e81dbc43bdefcU, 0xe4203af0d6da4836U, 0x58cceb1509f3f223U,
  0x3825db6a08114a2cU, 0x2ebaedf56edddbffU, 0xf7f64afff8252a0eU, 0xeff39d000ff95a09U,
  0x33f94e41d2fe22f7U, 0x3228d64bc635de7fU, 0x39eeebfb235f1f0bU, 0x54c17cae0408e3a8U,
  0x48d713ddd40e207fU, 0x4fd2145a79062147U, 0xa7d60efced6a5ff3U, 0xa40226fadcff02b1U,
  0xfbf3f419e20f2b09U, 0x52f1fceaf1cbc01aU, 0x426651700dfef07U, 0x574b65ea16b8c8e0U,
  0x15071104ff1750f1U, 0x3df31d104ae3e94aU, 0x8053105a7c77f0fU, 0x200cd824022b16U,
  0xcc06eae0deee14ebU, 0xfdc1f8ecf20c1750U, 0xf6eb2dda23e54a1aU, 0xe4043cecb2f3dd2eU,
  0xe2bc009971b00828U, 0xcc2c021b23fcc63eU, 0xeef5422ecdd900d4U, 0x3b1dc54976a61ddaU,
  0x9e43fbd1a70cc78aU, 0x5bde1d40d0afbcdcU, 0x81aa7d3a02fc3813U, 0xb7d5061ef1c2ea34U,
  0x424305c4d7ba37fU, 0xd72f35e20e0824ecU, 0xd6bcbcce09f2d56bU, 0xdbfd14d3e914dcd1U,
  0x402156cf05fef921U, 0x81da1a669293e3aU, 0x2617b2eede1ef3c4U, 0xad4215ffd74426e0U,
  0xe7f3d0ddead0effaU, 0xe5ebb437cdcab105U, 0xd9e65ae040ecd4d2U, 0x2237349c1ba6f1d9U,
  0x6be3d25e020a0ce8U, 0xb5e65104f7a212ebU, 0xa23100bf037f0af6U, 0xf53bdd0d21c3fe34U,
  0xfebc0efee3793255U, 0xdf396f2d4dfe2929U, 0xb73fccfd0f122b3dU, 0xf3da12de0583b416U,
  0xfae6b5e711c82fb7U, 0xd305d9c7e9dc1e11U, 0xd143f57f33fd732eU, 0x2ff40fb73da91be2U,
  0x24db24e00225159fU, 0x3f40b5d820a55201U, 0x1bd5c025d9f2f7feU, 0xbb301e4fe61e12cU,
  0x20d1cbdc5ed0d2c1U, 0xabc5c23af51003cbU, 0xe8fd05a3e937c2f9U, 0x5bdc99f130817de4U,
  0x61abf6bfd4aa0a24U, 0xb078d4e12c01cd43U, 0x4850e50c10aaefdfU, 0x5ac832c943ed65ebU,
  0xb7bd11ee21c02ea6U, 0xa501381bdbfff8f8U, 0xdb33062ddb8134c2U, 0xca5ab3d7a0ddf504U,
  0xb8f10a1fba2fe363U, 0x350ff5d6112e1a2cU, 0xd3f60b17cae34519U, 0x3a2219b92100e320U,
  0xdb16f3fd232681caU, 0xf9e8d232eea6e544U, 0x29182efc3dde4901U, 0x3443fddc19134128U,
  0x34ddb6e616e814b7U, 0xca0119f1d84de75dU, 0x3a2dfd352cecfde0U, 0x40fcf9c802201ce5U,
  0xf836fefb1902ea47U, 0xdedb87fecebcf1eaU, 0x2a042ee8c9d81f24U, 0x1dbdeadaa97f29dfU,
  0xb33f9edf0711f0f4U, 0xf72cdd0760bf1ba5U, 0x816dc0effb8b9deU, 0x1df7b900d72df2e5U,
  0xe2de34e91cbaffd9U, 0x301edaf12179cf47U, 0x13f05aa4c83ff3b5U, 0xd163942ffdafa81U,
};

STAI_ALIGNED(8)
const uint64_t g_network_conv2d_13_bias_array[64] = {
  0x39a10000118eU, 0x5e000001383U, 0xffffec0300000668U, 0xffffdd91fffff704U,
  0x219e00001374U, 0xffffd730ffffefb7U, 0x5b900001ddeU, 0xffffeb64000013f6U,
  0x1307ffffef9fU, 0xffffea17fffffc56U, 0xffffe761fffffd21U, 0x21d700001d2aU,
  0xfffffff6ffffcbf2U, 0x109bfffffbdfU, 0x2aca0000002bU, 0x2de3ffffe5f1U,
  0xffffd7a6ffffffcaU, 0x2a9b000031cfU, 0xffffd33700000e1dU, 0xffffd95800000095U,
  0xffffde90000010d7U, 0x1b14fffff1e8U, 0xfffff22400003312U, 0x3b700002475U,
  0x2a46ffffe346U, 0xfffff44dfffff6d1U, 0xffffd02a00000e1aU, 0x961ffffe701U,
  0x4dd40000340bU, 0xffffca5700001004U, 0x3b41ffffd65cU, 0x1b06ffffc0c9U,
  0xbe90000200cU, 0xfffff6aeffffc9baU, 0xfffff662fffffdffU, 0x122f00000c8cU,
  0xffffec6fffffde65U, 0x1d22ffffe284U, 0xc22000012f6U, 0xffffdcc300001854U,
  0x95dfffffc0dU, 0xffffe965fffff903U, 0x118efffff031U, 0x18c9ffffdf2fU,
  0xbfb00000852U, 0x16bdfffff43bU, 0xffffea51000020adU, 0x76400000247U,
  0xfffff3b6ffffef3fU, 0x82e00002becU, 0x885ffffe84aU, 0x18320000271bU,
  0x3fe1ffffdf0aU, 0x2e300001b18U, 0x300c00002826U, 0x3222fffff5c5U,
  0xffffe61c000035c2U, 0xffffc127ffffbf23U, 0x182c00000b55U, 0xfffffe1afffff4c6U,
  0xffffee6200002b0eU, 0xffffe824000016b0U, 0xfffffba10000223fU, 0x1a6affffe272U,
};

STAI_ALIGNED(8)
const uint64_t g_network_conv2d_14_weights_array[144] = {
  0xbf290a9f3a1e3dedU, 0x1202eb251cfeec56U, 0xc21d53b255dd754U, 0x2df8eeb2d2e51e29U,
  0xaf96de16ffd2b8d4U, 0xd941f30805f71119U, 0x32fdd478f0ede43aU, 0xcc78c3d457b7c632U,
  0x249ae47d78ec04f4U, 0xda18ce07ce54d63aU, 0xed4bc33ecad89ebaU, 0x8f0afe7f36f72ddbU,
  0xd3cdcd1d155e38bfU, 0xfda5486fe0cc37d7U, 0xdf22fdc781c3d070U, 0xad4df4d53d69fdcdU,
  0x2a54d9ba015c7ffcU, 0xc9811cc5a172009U, 0xc32c04bdec9ef716U, 0xd5012206cdf1d4feU,
  0x15eda74fee1d2855U, 0x46431adb41ed2dcdU, 0xd12618ee0a465753U, 0x5c20122851fa3cd6U,
  0xc796545402c034dU, 0xc3d3d0c91ee0cea0U, 0xc9af0fe08fe4a3e8U, 0x5cef2561bae89c2fU,
  0xfce626be81b9223fU, 0xe820bd4fda33fec3U, 0xffc841c3617ac476U, 0xa3d4fb15c91eb408U,
  0xe0841811d49fcdaU, 0x425032b82f433f21U, 0x20bdbb205df43ee7U, 0x1ff104fd1616d9d3U,
  0x232702ed2dca04ddU, 0xfcb3c7f3c0593fffU, 0xd0fbe1480a26bd2fU, 0x7f3ff0d659083ed2U,
  0xffb6dea14dde1a00U, 0xf13525d7d25cfc00U, 0xbe43a4b97f20a272U, 0xcdc6ca1a210d300dU,
  0x1508cf38a861d381U, 0xd8020572a01ae6e3U, 0xc43df8c005412277U, 0xe602afa13f60fe1U,
  0xc23dc3e0ecd9bf16U, 0x3342d7fa4bd9ce06U, 0xef48d9b3818bd106U, 0xeee8f70bdb3bdaf1U,
  0x1cad5ea63e0bfa38U, 0x21ce06dc00114055U, 0x2f5bc44acab0c6e5U, 0x9c19bcd1e11c2d09U,
  0xf179e96f9927d3a1U, 0x5cb3e625d11c399fU, 0xc2cecccddbe4637dU, 0xa4afc975e6d07f04U,
  0xc8d91a3501f57f59U, 0xb140453ac04009dU, 0x2ce01ec5f665cd4fU, 0x8fabfa3c7f3e3800U,
  0x7f817f5d7f7fdc81U, 0x7f818181ef7f8181U, 0x7f7f817f2d7f817fU, 0x7f7f81817f818181U,
  0x81867f81817f7f81U, 0x7f817f81637f8181U, 0x7f7f81a87f7f817fU, 0x81818181817f7f81U,
  0x7f7f7fb91e817f81U, 0x7f81817f8181810dU, 0x817f8128667f81e9U, 0xa2817f6181818c81U,
  0x817f817fc07fab44U, 0x8181817fc4817f7fU, 0x7f7f7f7f04997f4dU, 0x6981818167d2817fU,
  0xf35d5c4fec3b6d2U, 0x156aebfcacfe2fccU, 0x3c3223db4ba336f4U, 0x8fb3799cdcd463cU,
  0x32d995913d263e26U, 0xe12539e0cb64fbd1U, 0xc801b646cf3ee7e5U, 0x6606283c06e6dedbU,
  0xe3be29efe9d004a4U, 0xe4eca1cef6b6e3f0U, 0xbff117d00f14f800U, 0x8123d3a6eae40d35U,
  0xe906d64043d8d4f8U, 0xf854c44a8134e320U, 0x32c54523819981U, 0x175c260117812e00U,
  0xf7e4fb900c39070cU, 0x4041e3a27f25c511U, 0x18c21a06e6abf90aU, 0x3115efb4c20741f2U,
  0x4d7fa191271ab2e6U, 0x561b3ec6a7a0ba0bU, 0xfa7c07f133db64cU, 0x9956f52643d6f731U,
  0xf2fb0842a91a1b02U, 0x6f30b04f20afd7fU, 0x9aed19dd3dfc900U, 0x82c52ee5e5eadd33U,
  0x36e70ff161bfe791U, 0x1ca23ffd1523f6d2U, 0xf4f3e71ac520d413U, 0x810a2fe9cb632e00U,
  0xf83cd2c9b20e2705U, 0x3d7209a42bceff54U, 0x4ddc156dd8a9cf48U, 0x27edd7f0c62b3ff1U,
  0x3d81a8a72adeb40eU, 0xc7083019a2bfcef0U, 0xccf202c429dddfc3U, 0x77ced3352aba0eeaU,
  0x3d7a0ebd7938310bU, 0x74ed993e2f564218U, 0x1fa8f4812d204b81U, 0xb31033a4fef950c5U,
  0x2d060a3d1ec6340fU, 0xe604e55801e1d12fU, 0xe4c40a1f89c852e7U, 0xeeef0130ca32161dU,
  0x3657d0c1e0aa0524U, 0x13be2d8d1be7ea3aU, 0xb83d4ae68bc1ee58U, 0x31e03168caf81f35U,
  0xbf5f8d932ed5e947U, 0x63f4d3438131ef07U, 0x2414f1521ab2e435U, 0xaf35b5f9b22f41cfU,
  0xdfb8f381813e44ecU, 0x293e293a431f1ff5U, 0x4252fa17fed64805U, 0xee45c3b620d21f0bU,
  0x2ee33dd5a71a0490U, 0xcf3cd942f1cf729U, 0xb223d255f9b3859U, 0x5dd506f5a8351ef1U,
};

STAI_ALIGNED(8)
const uint64_t g_network_conv2d_14_bias_array[64] = {
  0xfffffec9fffffe30U, 0xfffff76100000253U, 0x2f7fffff5cdU, 0xe400001185U,
  0x18afffffae3U, 0xfffff7d0000006c4U, 0x43000010c6U, 0x28cfffff7d9U,
  0xfffffed4fffffa64U, 0xebfffffa7dU, 0x4b4ffffff02U, 0x33afffff903U,
  0x24afffffc01U, 0xfffffc34000003a0U, 0xfffff8b4fffffe3dU, 0x6620000005aU,
  0x28dfffff9c0U, 0xfffffbc600000574U, 0x144fffff646U, 0xb80fffff3abU,
  0xfffffd4efffffaa1U, 0xfffff477fffff522U, 0xfffff8ef00000a8bU, 0xfffff3c400000b49U,
  0x571fffff9adU, 0xfffffd4300000b65U, 0xfffff6cf000004b6U, 0xfffff9eb00000859U,
  0xfffffea8ffffff0aU, 0xfffff68500000003U, 0xac2fffff8a1U, 0xfffffa02fffffc0bU,
  0xfffff6c10000002bU, 0x7bc000004d3U, 0xfffffb7d000002ecU, 0x13dfffff955U,
  0xfffffb0d000001ebU, 0x2f8fffff8bcU, 0xfffffd45fffff9a1U, 0xfffffcaefffff99dU,
  0x179fffffd56U, 0x39f000004d9U, 0xfffff15700000082U, 0x826000003b1U,
  0xfffff2ab00000909U, 0xfffffdad00000870U, 0x6e40000021eU, 0xfffff3f800000bd1U,
  0x18a0000011eU, 0x84afffff553U, 0xfffff0f500000669U, 0xfffffe110000049dU,
  0xfffffafb000006a5U, 0xfffffbfc000004ceU, 0x2ae00000524U, 0xfffffe1e00000bdaU,
  0x1890000015bU, 0xfffffa33fffff690U, 0xffffffa2fffffe7aU, 0xfffff99dfffff9b9U,
  0xfffff9be000002e8U, 0xfffffe0cfffffdeeU, 0x1d6fffff6fcU, 0xb5b00000274U,
};

STAI_ALIGNED(8)
const uint64_t g_network_conv2d_15_weights_array[2048] = {
  0xbce5d6ed9675bfe4U, 0x61f2101f30412adaU, 0x1e25e069391769beU, 0x5116f9063402089cU,
  0x4728b0ef2045a9caU, 0xe307e9dbccc2f4eeU, 0x17a12df6c9f406e2U, 0x232891c7233af02dU,
  0x1c07d9c4f51cfaecU, 0xb9072b2ec73a15e3U, 0xe39fc0f253bec0bU, 0x7f27c714349b08b4U,
  0x30f33bf7b65c0215U, 0xe3e1dae6151a761eU, 0xea262f061926dd7dU, 0xc79c0731c8ecd22cU,
  0x4ca0256b70dd51bU, 0xc02cbf8a51b0f506U, 0x3b1b3e3d293aefd1U, 0xd6c3da94d7a3d9baU,
  0xd1f44800b665c5cbU, 0xd705efb3aac31401U, 0x12a723c3c2ff7f9eU, 0x4c19afcd05f0916U,
  0x6c3b167e55fabff4U, 0x5df60b11ee34632aU, 0x131b0c95572e06f5U, 0x2af7450b9144af78U,
  0x6234202dab67549bU, 0x23f15861d41bac1fU, 0x872863f3e13cecbfU, 0x53e6124bb349610eU,
  0x181fdc2a2bdf1ef9U, 0x34c2e3dc2405cf03U, 0x42cce301d31fdf8U, 0x8f3c60ae60a1257U,
  0xe7b90119bc8b0c28U, 0xc02b24161eec45f1U, 0xe60841332338ba04U, 0x36caf6e09e14f806U,
  0xd4e2fd0a1a03d32fU, 0x450b7fc76f1e2ef8U, 0xf393f6f1d82125f9U, 0xb1da862c4934fcfbU,
  0xc5f7ab40def8bed9U, 0x8f0015105d4f1bcU, 0xadcafbc22dd08e2U, 0x5c1eee0310f1e420U,
  0x601e664e5fe60ae7U, 0x230d3601b70226bcU, 0xbbd9e9124f0ec4b4U, 0xf31ab0501d6544b9U,
  0x2d0bcdedf90202deU, 0x38a84206841e2e07U, 0x993e20f88d9bc209U, 0xc33d2dc13c42dbe0U,
  0x2e48dfc51dbc41ebU, 0xb2d3001705faf22bU, 0x27243206c016c1b8U, 0xe24e2a3003dbb80cU,
  0xfe00281e040b2f3eU, 0xa9449fb20ac452beU, 0x1720f65c08c57f51U, 0xd529a719e9d4f7ccU,
  0x38fb3929e4e5f408U, 0x1323db000adce1f6U, 0xcf18e31dddfc2637U, 0xd05f3d6d4dd5328U,
  0xcff508e5e8e929efU, 0xdbdb0608dc67d9ebU, 0x1c23ba36f616130aU, 0x16e170fde55de7caU,
  0xb0221f71f43fc05U, 0x3ddbbb81bc0efe1eU, 0x361dd4e62107e0d4U, 0x10f5012721103813U,
  0x2114e11807e4f5ecU, 0xe0e3ff09f9cefa0fU, 0x3413b03a32ea35e2U, 0xf8ce31af2cbd10ebU,
  0x14e9ed07082efbe6U, 0x190809cbe8547fd1U, 0xb5131b46e9051908U, 0x9c2c1ac90df24dfeU,
  0xc73137d91114d9e2U, 0xd9df1220ce99c921U, 0xc5e8bbf3b1e0fdU, 0x9d9f31edf2ed5e9U,
  0xc83affc01a052638U, 0x31c7fae3bbecdc11U, 0x1a093806f5fcc6edU, 0xf202eec5c235f010U,
  0x54b1ffe11ba32300U, 0xcc1605260edf23e6U, 0xeaf1f7280a20fd03U, 0xc10abaf5fde2e0ddU,
  0x3e592325c9bcf2f4U, 0x17a51ee202453ce5U, 0x984419500ffdccafU, 0xee3134e764df3be6U,
  0xed020be403321516U, 0x181121e4faf3fbbdU, 0xdb2b3fe681ddf0e3U, 0xd5f5bcf8d0f7cbddU,
  0xfca4fcf64d35361dU, 0x132938401ae42d17U, 0x1314fdc0fff7df2cU, 0xf9ebfe3ef09f29d2U,
  0xf7daf9dad401d1caU, 0xb33dce0aee07f0f6U, 0x9c14e81cdce84712U, 0xdb08c3dd3ade104bU,
  0x5bd50f3a431102dbU, 0xd1fe59d0e5454200U, 0x5e40f2d5210e4b0U, 0x4ef15bdb481201dU,
  0xe42415d2e4c902d3U, 0xe8f61e28fecd0cd8U, 0xece2294bd3d618d3U, 0xe2113c7d1819fc3dU,
  0x115e1fc9a2c37e8U, 0xe0f6abefff570af5U, 0xd5ea05f5d52ce6d9U, 0xc4de57bdb14c1523U,
  0x43d21ee0ffa0a35U, 0xdced32e2ef43c55dU, 0xdefb034dd9f602e2U, 0xfa0925ef40f2cfecU,
  0xffe7d918c4cee527U, 0x51b61cfa24f015U, 0x2268e40721aa7acbU, 0x18faf0e9b4a80c14U,
  0xd72bf340fbb803e9U, 0xf50ce0d92309b106U, 0xc5dd2509d6160322U, 0x2102f206095415ecU,
  0xf20cb03f61f1b1cU, 0x3d06a832de7fc8f3U, 0xedfef2163917530aU, 0xfc115919a20bf71eU,
  0xfd072a1ae3da12f0U, 0xc901a13502d3e121U, 0xde3a39ed01e32b08U, 0xe96131cdfd153c29U,
  0x1ff02bfcf3bb3a3cU, 0xee1b453016d201f4U, 0x1c1be5dd21f00ad4U, 0x2ef3d4b9ce0afb07U,
  0xfc5efc0c52bdf2d7U, 0xdeeada10231de6fbU, 0xf9033de602f41c16U, 0xc3e5fe26fa23ff2aU,
  0x19dc08f008dd341bU, 0x5e8c6f60527e316U, 0x7f2fe94c2f04061fU, 0x12202f13de2a06d9U,
  0xe7f0181a0209fecfU, 0x807ec0c06eecef6U, 0x1cb3ffd707e312d2U, 0xf822f9d9f3fef8e3U,
  0xe93cd9031410fd1dU, 0x1a22c11f0cd1af3aU, 0x40f3c2ec2af51834U, 0xf7eb7f2a23e216f9U,
  0xdc1953f60402ebU, 0x363346b818a8e104U, 0xf1ee63fcd4b0bf0U, 0x4b2529e52bebf7c3U,
  0x3fcddd06c72fe6f5U, 0xeb3226dd17ffd6d5U, 0xdada311313f222e4U, 0x34bfb5090bca270aU,
  0x1c35037ff0ae420U, 0xf2e2fdbd07bb3c28U, 0xf05e0d6e128df21U, 0x16efedc4f013eb07U,
  0xd8ed284756362b2aU, 0x272cd8610dd40b0bU, 0x1eecd30b0ccaf924U, 0x44fdf9722a61b512U,
  0x1be1d90967517f3cU, 0x55f12224b758b714U, 0x7e381690561cfafeU, 0xb7e6530000e26ad3U,
  0xda5638fddaf83ce4U, 0xb3e00afb03ac280cU, 0x272ae14dace72e1cU, 0x7dd2fc4d3be4f9fdU,
  0xfef33904ea1a03d2U, 0xfd180cbad61f1aa0U, 0x292022f5c534f5e8U, 0x8c7e6d754d9dbfbU,
  0xeaff190041f3da95U, 0x5bf9ef03c9fa27d7U, 0xd41a217ff9c4071dU, 0xec2013fb5fca201aU,
  0x1d3f11e02214df26U, 0xdc1defdde00fe7ecU, 0x19f2dbf11f1bfad8U, 0xcf41eac4470a0f42U,
  0xbad409f8fa3c32a9U, 0x5fdc854ec19e21aU, 0xc02bfd12df3dfb13U, 0xe2fa4048a9e7d5dbU,
  0x1fbcd6b9ebd900cfU, 0x1d450e2b01d3003cU, 0x91c80e21d7d8de25U, 0xdbf5f3f7ece5182bU,
  0xeaff3d182ce3fdb1U, 0x73f1aec10eaf1b7U, 0x2915193414b40232U, 0x6c96e5d71f0d4fadU,
  0xde601252dcff0c1fU, 0xd29e5a8402514c2U, 0x151fd6e34a500b2dU, 0x5d404cd3fd84eb6U,
  0x1b7fe4cf162604a4U, 0x21148125e21f66f7U, 0x1127fd1bdc0739d1U, 0xc6314d42e5f98c08U,
  0xf3f0d418d9f235d7U, 0xfa26ad071d28e80fU, 0x12df3af853c8edd2U, 0x2710f0e43e4a6fffU,
  0xf015f2c7271dc808U, 0xf6e107f8d90edaddU, 0x2ec201f1062495feU, 0xde285a181dcbd0f7U,
  0x608feb71c17ee20U, 0x7feeeacad0f1eb14U, 0x196aecef1e2c2114U, 0x2b005506dca860daU,
  0x100305fafe09463bU, 0xa5bde9bff2382be2U, 0x21bc171cbb04fdddU, 0x5f7ea2d49181013U,
  0x203906a7d007cc1aU, 0xc7e40aecd70dece0U, 0x26533ef2e227d836U, 0x2609d4effde8f911U,
  0xe9a6b7e3fbe5162aU, 0x1af3de3dfeec0f1cU, 0x1abab7d3012f007fU, 0xe23025fbbfa9a08U,
  0xce08f3e56412cabeU, 0x10ba443ab524f244U, 0x4cd4dbec14ff3609U, 0xcf5301470774eddaU,
  0x4213026093b4fd5dU, 0xede9b5e88af0e924U, 0x1dd318f71df7eaf0U, 0x60a3aceeac98f1cU,
  0x33ac690e5bfa20eaU, 0x6bf21ef454d6240eU, 0x7a5dd940e4e4eb15U, 0xce81c8d804d424a2U,
  0x34d5b0f3ec080308U, 0x18cef0e9f90330d8U, 0x1b35a823daf4e819U, 0xdac00d0ce604035bU,
  0xcbdce5d8e14238daU, 0xadbf111f12201aedU, 0xcc2b2d38eeb2fcedU, 0xcdf6f510ebfcdcf9U,
  0xeddb0f0cec2b1830U, 0x163c0ba6e4182ed3U, 0x3c41714d70904e9U, 0x709111160381c41U,
  0xe71af5e5fcdc20d2U, 0xc025faef0135261cU, 0x1efb0929ee402711U, 0xf716187ff0fb2511U,
  0x181c30ef14eefc3eU, 0xc7e3e031db2bf309U, 0x2dfbbd163033e509U, 0xf2d40d1edafeec05U,
  0x2d703fa50f216e8U, 0xede7197f120ef9f5U, 0xeb1efbec25f1e01aU, 0xd1160ecef43ef0f4U,
  0x323c06ff04f1e844U, 0xc8d9f9a8d0000905U, 0x2ac24bf7fced07dbU, 0xf110f025270b5006U,
  0xf0273419f005f5d5U, 0x40f2f1c0ddfbffe9U, 0x3b18f43f291f0220U, 0xd80bf724ead3feebU,
  0x55c3dbd71ff3f743U, 0xccc4eee3244732c4U, 0x2b2e8145e82e1536U, 0x2dc1cdd8ac1f176aU,
  0xb035fbf8f6fa2b8aU, 0xc206173547e716d1U, 0xe4075f3b2edde8d6U, 0xccaa16e2a467f1deU,
  0x27e03223e829304aU, 0x1504d79db40be315U, 0xad3d1f42526f811U, 0xe3f2ff01f11a3d3aU,
  0xd2ff2fce6f1d63aU, 0xda200c12097efa43U, 0x2a48f024f40424d6U, 0x1e3a075b36edf516U,
  0x68eef556bd4bc20aU, 0xf7449bdb2d5305f1U, 0x3f0c8d04ea4ae906U, 0xe51743e62f23b92eU,
  0xfc2ddd071c0d1155U, 0x1742ff00e1412410U, 0x416e36bd1f181efdU, 0x3793470c9b9de991U,
  0xf7e71b0ac6bd141eU, 0x10a1552f57ccc657U, 0xe1114af23e4aecebU, 0xa6b5a9fb41d7ef16U,
  0xac0f8d19bf2bdfc1U, 0x9d638fb8120fe88U, 0xf5e0210234b6271eU, 0x15e6cedc42f4b121U,
  0xdd2bf5f4ce7f28e6U, 0xb09d00aea35f6faU, 0xa25d1401c232dfbU, 0x2dac69d4f4f8d6ecU,
  0xf1f5f0e2b247fd31U, 0xdeaff32beb06f6e6U, 0x292328caf3d34c10U, 0xabcbb4c6e652c916U,
  0x246423034225f1e3U, 0xad8521be2133316U, 0xbb07e5e3313f08f7U, 0xfb3124f43405c5b9U,
  0x3537f228e60e29d6U, 0x615b81105edf127U, 0x103a5ceff6d7c913U, 0xc802fa292149bf4aU,
  0xf81102c623e617f9U, 0x1627b43516253a4aU, 0x3f31e63127353d00U, 0x132918f734bff41eU,
  0x58bc3825658d3fabU, 0xdedcae4325497f0eU, 0xc5ef935cbd40a17U, 0xd031181dfa1f23f7U,
  0xe828e9ebed261720U, 0xc3dfabe6d4fde1f1U, 0x27dc36d1fb1bb3d4U, 0x119ddf190102d3deU,
  0xd5f0052e4247cefeU, 0x561e451d34440abfU, 0xfc62bdbcddff3af1U, 0xe5ece63af3f7dafeU,
  0xfc0099cde744ff02U, 0x460dfaf90f2d0757U, 0x5b68270f50f9090aU, 0x15da68ce29a8e7bdU,
  0x121f43e7feffd08U, 0xdb00c9f0fb04c20dU, 0x259bcf28f32bcfffU, 0x593920cd07366402U,
  0xf7cacdbec32a491aU, 0xdb64d44728e14e17U, 0x231b0802f932f948U, 0x24cd03c4ebc7e6e1U,
  0xe618190ae9fdeeefU, 0x31ea13b9f9e24b5fU, 0x312a0d2b02fdf5f9U, 0xd6e90ed4fcee19d4U,
  0xe239eebd13260f03U, 0x2e1fb6e94603fd23U, 0xeed68debf3e4499U, 0x10402cdd19e31081U,
  0x34e815e6effcf7daU, 0xd94effc1f887f54aU, 0xaebf10fef3fa0327U, 0x6724f5d714dce4e8U,
  0xf6302ac0fef0ab00U, 0xfd1b4bcb1625cbe9U, 0x87d22a18d330120fU, 0xf02df9ac12de15edU,
  0xf30b2df0eb18e34cU, 0x4e4cef3ebf208eaU, 0xb6b3419ff0bd51bU, 0xe4bacadcccfaea17U,
  0xd6bbd107eb49e3f4U, 0xeb1323b801fef31dU, 0xeaecee0404dc5fdeU, 0x10cce735fdfdd716U,
  0x21e1f4d5333afa12U, 0xfada0e031cfa0615U, 0x341e01dd29c6e216U, 0xe25d16dd15560a15U,
  0xfb1a11e4ea1e141bU, 0xa0bd4eed3bde430U, 0x40f1ddbcab2d4daU, 0xf1360925c8badaddU,
  0x7f37f9ed606731edU, 0xed15d6441ede5f0dU, 0x20f9ee4a0c0fdc3eU, 0xfffaebd15e1d16f6U,
  0x10b8a43506c2322fU, 0xc9fdaa0aeee71345U, 0xffb418c0210eba6U, 0x293194f2ea161a5bU,
  0xda2a23fa7c6b1eaU, 0xc30bb502dfd725b6U, 0x9efb7d30e315e1b9U, 0x1bbfd4324a3945e1U,
  0x65fe2e8b90b3708U, 0xced7f013edfe66eaU, 0x8136df9b0734ea0fU, 0x1e0a1008ef0b1970U,
  0xfa2720043c2056f7U, 0xc1ead53656ba0ac1U, 0x22184dd9f87db1f7U, 0x3f8e51fc2281a2fU,
  0xe43101ffb7f8147fU, 0x2948fe243719f0dbU, 0xca1407d817deca0aU, 0x47ea1ed0f3f453ffU,
  0x2232bd11b41df31bU, 0x3d082d2608e8ccU, 0x32f5d60fd54f45d3U, 0x14ef020ef25c2106U,
  0xf6b92e56012640f5U, 0x28f4c496e3e10242U, 0x130ec5f43407f0ffU, 0x7c9452aeac40a2bU,
  0xf407fe140bfad5eeU, 0xf60ba1ba38d62316U, 0xff36e12e23fc320dU, 0x38e31a504cf173fcU,
  0xeeb8050322d83913U, 0x81341ef51fadbc36U, 0xd555d2ea1cf4d63cU, 0x5bfaf3f0d4d6e52aU,
  0x2b4fd171fc4110bU, 0xeb11293fe625dffdU, 0xfeffe82116226414U, 0xded504e7272ee127U,
  0xde2fe42cfff3f804U, 0x2ef0b5fc091305f5U, 0x2100059e020a4302U, 0xfe1a1130aff3fefbU,
  0xf60cd729e83007c4U, 0x233c1010606eafdU, 0x2ddabbf5fcd5c416U, 0xfcd176cc12222627U,
  0xb9252df314d1f736U, 0x81183c160dfaebceU, 0xb0070d20fe151c38U, 0x1bfd0a03f82e30dbU,
  0xc52d07d9ff4c0b21U, 0x2c6d6481b21051dU, 0xe70104e039faf915U, 0xe1c03d6ffe5d704U,
  0xab023408ea0003feU, 0xf30deb1bf0b40201U, 0x3e1bcdf70f02ccdeU, 0x16203a1af33906e5U,
  0xbcaf6ec101d5307U, 0x163430cdff151dc9U, 0xe4d3090dfa15f2e4U, 0xd0f2fb25eae0e3e2U,
  0xd1080c264bdbf71bU, 0x3b1225fcccfcebd6U, 0xf3220ee335082123U, 0x151044f1f21ef20cU,
  0x21f40938ffee81dfU, 0xf1cecc22236ef2eU, 0xefe9ebe9292b0920U, 0x2318db1e4c1a4d43U,
  0xf015fa1ee8ffdaa9U, 0xedf1e320d5eaf310U, 0xe40ceb19f9131fe6U, 0xff202124dbe7baf9U,
  0xbdbded92c1c3a0fU, 0x3629f9c51d04ecf4U, 0xcee025240b0108e7U, 0x16eb2a2a17120635U,
  0xa9f2f70650db2142U, 0xd7f4f83a0a23cc0eU, 0xd6e118cef80ac1fdU, 0x2de72e1605d8d317U,
  0xd0e84324cbf804f9U, 0xf9030fd3d7d469f2U, 0x1521e8f7023af7eeU, 0xfa172f31f6f704e8U,
  0xf20fe8e70cdfe828U, 0x2af22be228220af5U, 0xfcfa43e8013bf206U, 0xedd7ec0ef0f3cdefU,
  0xce3fafecb17f103U, 0x5af3440ef2d3e814U, 0x19340c13edf4dde3U, 0x220dfdfb1126d681U,
  0x5dd4ff209f21102U, 0x5148daf8dede1ce8U, 0xe2f0ce261dfac7cbU, 0xb4c8be3efc397ffbU,
  0xbcf0e4e333ed22cbU, 0xd2d043b3f40ec2e7U, 0xe7edfcd932e0c3c5U, 0xe71b3b0cd0e8f0aeU,
  0xc8011cf6fe091832U, 0x2924d0b9fbd83509U, 0xedf3b833f5e452efU, 0x22f21cee282a3273U,
  0x2e31013ccceb171dU, 0xfef2d1ed0bebab11U, 0xb5151b5c09233cdeU, 0x59e12f751d231008U,
  0xab4ade1e1020742U, 0xe953db0929c8e8ffU, 0x2f0ae1da02c718e3U, 0x38c5ade804ea032eU,
  0xe9fa020d29000dcfU, 0x9e18e3fc14e525dbU, 0xe5c7e2ebd817002aU, 0x1ec90b16f2204a7dU,
  0xd21fdf849ed1724U, 0xe8b6155210f07ff9U, 0xc143b9e232645eecU, 0xda42452c20b3e6deU,
  0x1be005034f030714U, 0x37e8c8bff5343f12U, 0x11f41eae0f0a223U, 0xec2e2f18f5052e02U,
  0xd3d80fcfe4e405d9U, 0xd0a154a26f4d832U, 0x1cfc1b9005cd1821U, 0xf72d578fc4ac26d1U,
  0xa41f351cd756effbU, 0xf1d4063dfd510524U, 0x4db891b226e576b4U, 0x14020fa22717def6U,
  0x42b2dd91246ebd4U, 0x130919cb59e136faU, 0xf81eeadf1335e026U, 0x4556e6231d0b23a8U,
  0x37eccae523c50de5U, 0x52b4aecc35e4fc17U, 0x10382852da2fd6ceU, 0xf33c49fa06997f22U,
  0xfee917d5fd001a26U, 0x3523810cf6cbf17dU, 0x37f112c734e2c339U, 0x38550e33e7f609dcU,
  0xff90fffcf3191f8U, 0x20ea05c5241b1df7U, 0xf81cde32094fd35fU, 0x503e0bb54ef358c9U,
  0x1933e1c0fde30bc8U, 0xec2c38b2e908d0e0U, 0xb5c2ca05c3f0e905U, 0x2bc7ac0c20f3f5fbU,
  0xd6044226f3eac917U, 0x18fbc215ed9a07d7U, 0x541ec140f049f0eU, 0x21bf43a904cffea1U,
  0xe5b133f6eb170c0eU, 0xf4d3e9d7010b555cU, 0xc2c11f1818e042c3U, 0xaa7dc90cf6faecbbU,
  0x6937520b15d2cfd5U, 0x451ff329e5d3f259U, 0x24da59dbdadbd5ebU, 0xdf3e257f50d53625U,
  0xb74402e136301b47U, 0xe0c2efc8b41fdb07U, 0xc1a28d4f094e502U, 0x4a361902e81238f6U,
  0x3d410e9e08d12bf9U, 0xd5e32c1d53cebf16U, 0x484967e7f80702ecU, 0xb2039ab1dafd31dcU,
  0xe7221b1701cae025U, 0xabd9fe05f4ffe40fU, 0xea2344eff6dcdd3cU, 0x50f3fbbefbf02313U,
  0xefdb31bb7eaf2ebU, 0xf435d002263303ffU, 0xdd0847c011e37f3cU, 0xe304a4ed1f3556ffU,
  0x1315194b3ae12bc6U, 0xf706b6efda10fd19U, 0x1d52d50ee4022222U, 0x2df23106c8fff402U,
  0xe7f0dd3a1cecddd3U, 0x18ffd41ef918c0f2U, 0x2cf6e804fdf6c5f4U, 0x11b0413f9c9270cU,
  0xefd7e013f2d1f014U, 0xf7db2adaf4671af1U, 0x1aa42dfecdce35c3U, 0x8dc9030673340f0bU,
  0x262fbfd1d216bbe1U, 0xd8e21ac015b325ccU, 0x31b42f360e1fd306U, 0xf3cdbe0028d6d207U,
  0x713aa1021dee827U, 0xd5d344ffbc16f6ffU, 0xc0134918edf8f602U, 0x3c3ae69cd9030207U,
  0x59b4ebfc2d391e06U, 0xe267fcadefc0ce1U, 0x22f32402e057dc1aU, 0xbaf3e316dfdfd7fbU,
  0xf1bd0e0c00ba2231U, 0xac2b351bcedcc9ebU, 0xe3f4edfaee18ccfeU, 0x2a19c4d7c42cd6f2U,
  0x272dc31324d0280cU, 0xeb0d1ee93348d1ceU, 0x80311d30d002e1cU, 0xf9032ff020e013fcU,
  0xaf17e27ff1210ac7U, 0x2cb91d012702012dU, 0x41fcdcf006ede6cdU, 0xe21aeaf5e9483eedU,
  0xe25f4bc492bd527U, 0xce22ca26cfeac4feU, 0xc15e3b31d1ccd22U, 0xf8ef1ce103d161efU,
  0x6c1b436610fad7b8U, 0x2700120ecb3e2602U, 0xb6dec213fdf31319U, 0xfbc1e20e53b003e5U,
  0xc3372bb3fbdbcefeU, 0xfac953fddc89c9ebU, 0xbaf4fff70d27e6e3U, 0xfe34f83e5d2f0475U,
  0xb0504ed413c4f0a8U, 0xf600cf32f0e1f3deU, 0x7c20294ff6d2c510U, 0x9fc644cce2c1abf7U,
  0xebe23e19bcf91f28U, 0x967fe02eec2cd75aU, 0xa7bd0f441fdfed2fU, 0xec0cca0f583ce3b1U,
  0x1abbc7d7c7e50573U, 0xe4730f5f18d9de42U, 0x243d09bb49eee602U, 0x42db17b714d32b4eU,
  0xce03e57f25f4f11fU, 0x932ce5afe2507e7U, 0x3eafb1dfd1f6a32U, 0x2aedc8b513060c16U,
  0x16f7e63b042734dfU, 0x42e2cce9f90942d9U, 0x3415ca1336151308U, 0xc402effadbbfec3U,
  0x42c995beb240cf2U, 0x22eecb0f2717131eU, 0x1004eff3322ec4ccU, 0x17206df6123632eeU,
  0x1c3c53362fb8e9f0U, 0xedd64a09eac00ab6U, 0xb30aec18e1b6c2deU, 0xef192bbcd9180cdeU,
  0xbf3d0234fa214830U, 0xb7e8effa4755b4edU, 0xc6f6cdd6e828333eU, 0xcbfbdc2204d9e74dU,
  0x27e6770e4cfdeffaU, 0x28f2052d4619ca16U, 0x1722b5fc1e04c02dU, 0xe9c7e36ceaf7ff4eU,
  0xbdfff8019a3321f9U, 0xf559d6ec23faf8a2U, 0x81c5fcd7eff603e5U, 0x1b60ece8ed2c2e40U,
  0x11d9bcc94dbc07bdU, 0xddf92dcafafd232fU, 0x64535f30931cce9U, 0xee01ebc52afefdb3U,
  0x1b7ff3197e833031U, 0x2619ea358d4213e6U, 0x51b443209142cf1U, 0x90f2d8e150ff2813U,
  0xc1ace320ad652f2U, 0xf5d6eb3438763125U, 0x5317e044c33628c8U, 0x3ffe3808a03f090eU,
  0xb652e0f6ce00e6ebU, 0xca5cfc52fd15e738U, 0x4bd41eba25cd0305U, 0x2eb9ecc50d1b6116U,
  0xbc0df056fbe5e018U, 0xcf18853a1005c13aU, 0xd1817d4dddba055U, 0x401de202813fd262U,
  0x37c13b2183c7bb37U, 0xe63e62e0eb413aebU, 0x52bffdd0c60c005U, 0x181a0216e72a2693U,
  0x4bf8dd11d94af0b5U, 0x3e14e815c18bc7eaU, 0xdcf9faeda86af006U, 0xc19f0248d7d9dd76U,
  0xc98dc3ea16d1daedU, 0x2ed33f4c14d6e3ccU, 0xefddc21edb35db0aU, 0x202013a9332bf7a1U,
  0x2ae011fd031323f2U, 0xc1fb5c1026ff0e31U, 0x4111ee340f26efccU, 0xc59b1813322e250cU,
  0xc808f7fcc8247f05U, 0xc2cf12f6e93526f6U, 0xe7fc430436f10633U, 0xe0b92707d7d8fc1eU,
  0x201f53e129e40f4fU, 0xc1cc1810d0cde8ecU, 0x242fc23256262cfcU, 0xf5d5e71a0a25de12U,
  0x9ffaedbf8ee1606U, 0x2617def7ee2212d3U, 0x1ef8e62a1ddde6ffU, 0xedeed31230e41009U,
  0xcfd451daea3824edU, 0xd9e1fcd3c4c7fe2aU, 0x4de10ce1900d3d6U, 0xed322441813c06e6U,
  0xe7c71cbf2ee7fae5U, 0xfe0e2810b71aae46U, 0x554cf5c829f4c708U, 0x472526fcdaf0efc7U,
  0x93d3a030e1011f7U, 0xf7c3caacebe2e7f5U, 0xd5ea281cea84e816U, 0x1d1c1c29d0171b09U,
  0x12ee1f151f23d315U, 0x16f8d7f7ffc414e1U, 0x5e341f221d02d70fU, 0x3ea8dfa1ba320a0aU,
  0x1f0f93f3db26ed65U, 0xc2dc1351031db31fU, 0xe3390bc62ebc15fdU, 0x7a049bbdab082433U,
  0xc6b8275cd2e618c2U, 0x5333771372feeeeU, 0xf2a812c1edfd330fU, 0xc2fbf332d4daeafeU,
  0x140ef3141a233cdaU, 0xc2ea5b32f25d12U, 0xa331afcf2e7f4913U, 0x1d2f3221d103cab7U,
  0xcc3207d7c6f7e1f7U, 0x3c02f4e7ea58c2e6U, 0x242644f4d3ec0e58U, 0xe84b40f2e1e3450dU,
  0x4fe5a5113b62e1ccU, 0x22ec072ae44114fcU, 0x5c36fdffcf4b1ec6U, 0xd9df0a0b021acdc1U,
  0xfdca2118e9f5c8ebU, 0x47fb14af7f95cfbU, 0xc1bb271e14e83264U, 0x389ce200b020ddfU,
  0x3148d8034bc37230U, 0x2dc137f012f7d737U, 0xed24e3181a4ef622U, 0x2ec0e20fff061d12U,
  0xdf74a348ed25f502U, 0x905e4a902edb7e5U, 0xaf876e143c75f18U, 0xc6f738701842e0ffU,
  0xe2d3f9b61775dadeU, 0x392999a6f62034e7U, 0x1ad67fcac11cbf50U, 0xa253baf01f0346cbU,
  0x38cc32afec17b8e0U, 0xe414b2fd4a05f1e1U, 0xf1fdd0c4e2fda9f2U, 0xfb3c09f943990cefU,
  0xd5fca8f80421c769U, 0xfa28253dd2162d31U, 0xd2b51a26a6ac3ffaU, 0xe2419f97f62b3b14U,
  0x5124eda36e32d0bU, 0x1ddf7d5b382a0339U, 0xfc42ffbfca069738U, 0xd1bbedd30f201db9U,
  0xfecef9d096f1f320U, 0x3f1d4383e0ff004U, 0x3eb10faa0c1b20c8U, 0xbe1219ed240525d8U,
  0xec21b92ce20c50c5U, 0xdb1423ffe015d800U, 0x4321bde95d53f1fU, 0x2bed18c7e319efc4U,
  0x222138182361ea17U, 0x122ef1d44421ef12U, 0x30eceb807317f0bU, 0x580d060cdc0a04d2U,
  0xf268e42afae3d71eU, 0x28fbf5d00fd7e732U, 0x35512f2312db08f0U, 0x1e42c4ec3e6532aU,
  0xf430280d3c362e4eU, 0xc83e2556deed04daU, 0xead048ce27388301U, 0xf10a18d3aa28ec30U,
  0xbbd416c8c8beebb5U, 0x81e5f6f5cef552e1U, 0xa189fd72e16b5d3U, 0xbd20ebfd07e004e3U,
  0xdb3812ecd29a2b14U, 0x2dd6cb3e15cfecf4U, 0xb4b00bdce34f0c2aU, 0x521bf1d80a7827d4U,
  0x2fa2af848fe0b33U, 0x7293721f2d359f19U, 0x12097d190f29eb92U, 0x537f7fdce17f6b2U,
  0xf50e2e661042eda5U, 0x7701222fda3f44b9U, 0xca26ea6afdde598eU, 0x900440e93c062320U,
  0x5044fc25f981e328U, 0xc729d1edc3f4f128U, 0xb22446ec926acd79U, 0xaf99fe1ef63d546U,
  0x2de2102a272c3fdcU, 0xb5d206e74d62892bU, 0x6191a3656160fe3U, 0xe52027c3de27dd8dU,
  0xff1de037c894b315U, 0xf7023dd2b44eb1eU, 0xf3734ef10e378b0U, 0x1e4753b5360abd14U,
  0x2e10da0ee47ff0caU, 0xfb1ee21308f2ffdfU, 0x2f0b1ddfed370ff6U, 0xc7cb3d0e1d10f1b8U,
  0xf8e7fc24001be907U, 0xe2ef23f9edbe1912U, 0xe2712f7e309d2f4U, 0xd9ba20f009d0d032U,
  0xedf823e4dee4bafcU, 0x293f40f0452a19eeU, 0xdfcf09f3dbe4d7f6U, 0x10e8b2bd15ed302cU,
  0xaf202a3c2435f519U, 0xf6291bf5231f3429U, 0xd22fe6fd12cf3033U, 0xf7e4ef0c1840d0f5U,
  0xffbfa7fadcdeec1aU, 0x24001fcc2827ffc9U, 0x2cc7062ad9021d17U, 0xb2ed09b53de011acU,
  0xf16130f404ef3b5U, 0xde06cc1137d7f2e1U, 0x7a9eb2afffbe5f1U, 0xff13fd2d1af2f745U,
  0x26ffea1327d80ef6U, 0x220d0c1ff4f7df1aU, 0xede12a2df32bd5ffU, 0xfc1020a4a90702edU,
  0x59f30f100c043b0eU, 0x307fdfda39094dU, 0x1a0529001506d9f6U, 0xdfd8110ae8fe18e8U,
  0xfbf64f11ea3ee9deU, 0x12209cbfbf1eaddU, 0xe6f634de280dcc45U, 0x6c50eb9dc5951cdU,
  0xb3d3df1b060933e2U, 0xc60250e5fd23d019U, 0xf71bf3add3d1f7d8U, 0xf9fdfdfa02f838d6U,
  0xe9220ae21928f9f7U, 0x39f3011247bc05d0U, 0xfeacb301d227660dU, 0xf90b315315fffb15U,
  0xf804fef1fefd24f3U, 0xce8e9c2ff0db50bU, 0x811b244e1001d820U, 0x1b420f2e29d32719U,
  0x28e920f126f5e239U, 0x170d062dfc5e66ecU, 0x3ec20cff0b5ae6d6U, 0x9609671715e11e0cU,
  0x27134ddb24112209U, 0xff16e07fc832bb22U, 0xfaf5d323e0c805feU, 0xfc063c19cd33e920U,
  0xe55cc404ec060908U, 0xb6b104020419a13aU, 0x22476a14330901ffU, 0x47dbecd9285de6fdU,
  0xbb22efe808b00114U, 0x4bb135031225a921U, 0x3c17650edacff7a5U, 0x1b1bf922e1c1e0f7U,
  0xec2b1c2022341d2bU, 0xef35e114d2f53135U, 0xc0fdd61007529229U, 0x3609cee0ad22b2e2U,
  0xcac6195de0122d33U, 0xfe34c90ed3ff57c3U, 0x1338edf2014aeb0cU, 0x23e5e1b30ced341cU,
  0x2fe18d422d10927U, 0x4d3afefc5333f1f2U, 0xdefef310e9f545ddU, 0x31a31160e29cee0U,
  0x8123e63af0c6cef7U, 0x45fd070fdc5ea9d3U, 0xdee546f505b51707U, 0x59373952f0230c05U,
  0xf5ef27dbf74b1ddaU, 0x36fff5c0f8bcece6U, 0x62ffb0c0ae6e7d0U, 0x19d80c2ad82cfce8U,
  0xf0c1a307c01013f8U, 0xe6d004f5f5000de1U, 0xd0ed24efc5a80dfbU, 0xe0f5dad3bf08dac5U,
  0x2ddd33d2d851f139U, 0xf43333e6031825feU, 0xe5e5dcf50aeff4ecU, 0xfe4b00143d5e31bU,
  0xf347fcf6ee1a09bcU, 0xa5ddb3e915eb1a96U, 0xae16e439f048f813U, 0x17b402f0ed0c507fU,
  0x17eb90edd7e5e117U, 0xd71b0305fc42f602U, 0x4eefef07f50c11fcU, 0xf1d7dce01aee3ac1U,
  0x3222e52f3ee9fbdaU, 0x67fcbfb1cf2b5cdU, 0xcac722d7e5163cbdU, 0xe62fe40a3c65281fU,
  0x26ecde02f0444603U, 0xf200222e53a51dfU, 0x173f071ab31f40f9U, 0x7145012c016cb12U,
  0xc2025dadf37fc2cU, 0xe70bb32820cefd42U, 0x1fe130b060ca854U, 0xf4f6c8f0e9ee541fU,
  0xa245d445f4fffdc8U, 0x2bf5b18f203cccaU, 0x64d01239ef4a2bc3U, 0x8120262deafae59aU,
  0x291739f1ee2c8af1U, 0x28381d06f9a8bf07U, 0x57abc7bccb0a441fU, 0x252e353303300c10U,
  0xf3612ec0224e8c5U, 0xa8e82b2d2423e5baU, 0x56b9e911f5b0fdb7U, 0x2ced551ec6f7b4deU,
  0x4cc2451c0e14e119U, 0x9aa1f3dd1b0e62dU, 0x5349544647fbf51fU, 0xe08de19a040b5846U,
  0xb1f1dfcb8f6bc7dcU, 0x28daece9cf100f06U, 0x381f15f40cfb4724U, 0x12f9f21a5b1707dbU,
  0x6e17d0ef5349fefdU, 0xbeeacbf1360c2d43U, 0x681280f16e3c716U, 0xec1ea8fe5a040164U,
  0xdbf92b11e9e69a0eU, 0xe5392840f40ddd10U, 0x26ee02f5c50a2ae1U, 0x1b58b3d53f91e814U,
  0xe90f031c010c3dffU, 0x21f2de4d636780dU, 0x721eadfdd590b15U, 0xa2a515f0e92bef31U,
  0x38ef132b32f9364cU, 0x94fa7f1e13e6df03U, 0x2641e6f7d4e0cd35U, 0x27bdc39fbf3de277U,
  0xc3dc06cadada2650U, 0x9707f50b145b66ccU, 0x48c33f0a199e0148U, 0x978621e1dc012043U,
  0xd171050343a10840U, 0x32cc1d2e32461b42U, 0x242ddcf915451714U, 0xd2d943d50e34d5f9U,
  0xf558c1f2ba1ce8e5U, 0x2a5b2cfdc33cb0efU, 0x250765d315bedbb0U, 0xf428443af1421525U,
  0x2a17f704ee3ac9c2U, 0xb0822230c4313c2U, 0xc18d50a1214cbfeU, 0xabed3f45060808f8U,
  0xc0730363d451efaU, 0xd72bce2c9db73a00U, 0xe730f401cde3f87fU, 0xfb423d5a41912eeU,
  0xfae2c9fd2d0f0d11U, 0xd0fd4423450fcae1U, 0xf520362e45290bf4U, 0xff20e6c448b8ef23U,
  0xa2063fe834fbca03U, 0x47bdd9adda100c0bU, 0xe64021040aea3644U, 0xe5dce25f20eecb1dU,
  0xfc1fefbcda1a090bU, 0xe603f12627e6bdf2U, 0x17ad120003e7fee8U, 0xb7f20eb964405fceU,
  0xf7af27fb054a16f8U, 0xd8dc1d22d2d1fe19U, 0xebd5b6f893eae803U, 0x3eace1f1dc223d4U,
  0x264c1209193ff21aU, 0xfe0d68f105e70d4cU, 0xf6d9dde303e85632U, 0x5e4ad503bab91ab4U,
  0x7c22cc02252a7142U, 0x22d8faa11834fc19U, 0xe04b4c78d436a52bU, 0x29812f14d0caf058U,
  0xfa3b445efa6848f7U, 0x18f3d71208ffe3a6U, 0xdd73d150cefc7e9U, 0xce500cf010f45bdaU,
  0xd9f542fb232b4114U, 0x18f525e6d6baf231U, 0x9630f01f1ad6dc08U, 0x58e8c629cb0ec6d1U,
  0xe5ddf205cd193345U, 0x4cc703261118e6d0U, 0xc831ea034ed4d2d1U, 0x22dd0e92503c03c1U,
  0xef3536f22bb035e0U, 0xbad849da26021038U, 0xa8f7f6bfdbfdfef1U, 0xe343ec2981b0ae0eU,
  0xd02dc19143f000eU, 0xfce305040520f9bcU, 0xfa23e732fafef1d3U, 0xc9db4934126104f2U,
  0xe00b20f20344f9d6U, 0xf4cc2df4acbe263cU, 0x17290a02d2a5ed04U, 0xff1f0322264197fcU,
  0xfb3827fde3fae043U, 0xf3081303eeea0d14U, 0xe9d0fd03fc26f9f3U, 0xe51ac6fd7fcce93cU,
  0xfae11c2522010e33U, 0xe402110207380c17U, 0xe725341a051c2625U, 0x24c1d40618d4f8f0U,
  0xd53cf33adb27e2daU, 0xe2f80fe6edaff0f4U, 0xf90fc8f4d8cca131U, 0x1bfc3626e6421e47U,
  0x150ed3d7c02af348U, 0x1dede9ef1edb7f09U, 0x3e1c0f153cf011d2U, 0xf0e0e3cd03d1dcebU,
  0xd5293d1401f1b818U, 0xfdc213f336c92afeU, 0xc81cde1d3114effcU, 0xfae8c82d27c0c4cfU,
  0x1eab9ffdb49fc09U, 0x60aef170a10e6bdU, 0xeffdaacafdf2f9c2U, 0xef0d15f1301b1a2fU,
  0x1852304122e8cee1U, 0xff2f591c0e9b1610U, 0xff9cfd129f4f043U, 0x331bba203712d4fdU,
  0xf502f50a1d93f235U, 0x201552df0429d14bU, 0xe22a008113cc4a67U, 0x925722fc3a204d1cU,
  0xb05bedeac09cbf9U, 0xe149e55dd1f5aa00U, 0x1e2e4a1f1bfbde0eU, 0xf8e639b89503b3ecU,
  0x2cab4f185fd850f1U, 0x1ee9ebe2e7b605d7U, 0x27c3f3d214ef0224U, 0xf5e41dad0bd01be9U,
  0x4927daa9e72e2edeU, 0x32fa2bef2120e417U, 0x32d2eaf80ec5e811U, 0xabdfe30574110fb6U,
  0x310b0fa4651a39ffU, 0xa0704a1792f481a8U, 0x271722c4d1ea173cU, 0xd282feccc5f0bdeU,
  0x47cd1be1f81a3196U, 0x901a2e204fe3111bU, 0x2dd2f53fbd2b0f36U, 0xde0209fad9a0efc9U,
  0x1bc4120254370cfcU, 0xa50d11ecf2e8053aU, 0xba06f70f01184710U, 0xe3ace34148ebf925U,
  0xdad12afd16f93815U, 0xe83e01fd02fba326U, 0x25ebd5b6c6378106U, 0x1b2ff534d4e94e2fU,
  0x1a32f9eea9d230e6U, 0x1b2345d4dffeebd9U, 0x281de5cbe8ed2ce5U, 0xeb070115f5a65b06U,
  0xc4d70e08082744deU, 0x42faf2e011f21205U, 0xdc6e114ec01003aU, 0x5d1719161a262358U,
  0xf912aaebc2f1de14U, 0xdfdef12fde46c5eaU, 0xf1311624eef310d5U, 0xa0e0d4208003069U,
  0x9bddc9feccf6e50aU, 0xfd3060efd3817e1U, 0x2ceac8cd151e5c16U, 0xc64c6011f33109c5U,
  0x27d221fb00fee0edU, 0xd6fb26fceff5fd7fU, 0x1d0adffdc325ff41U, 0xe9f10b1d29e6d24fU,
  0x1a18e0d832e6afebU, 0xcbe840d8e31e1123U, 0xef153732eb103114U, 0x325ee5cde2f11424U,
  0x510166005408f402U, 0x640636ec34274216U, 0x495821d82527b612U, 0xda01c1cbd8fbf00aU,
  0x361655083e0907b4U, 0x4dcb906d3f401U, 0x1e32ce29df2af3a0U, 0xfde4fa163bd62c04U,
  0xe510d920050700f9U, 0x700efd51aff3c0cU, 0xcbe3450581c0c20dU, 0x2e060dffe8e4100dU,
  0xe705e0d80af1e7ebU, 0x1707fafc301302d7U, 0xd20af2f129e827fdU, 0x38e5e6de441115eeU,
  0xbd060b32fe28fac9U, 0xe011d0f31ef7ef28U, 0xc2e91cf4ef184310U, 0xc2fa0b1ac828e82cU,
  0xa107561fae5eeed9U, 0x67fb130500d74012U, 0xece24bb501b72054U, 0xa12a0699184827dbU,
  0x2767338e305f4feeU, 0x8bc8fe1faf9ae28U, 0xb9eed9fae7c0e1f1U, 0x280d24f3581abfd1U,
  0x8139474105fad2ebU, 0x150937d2f201e0efU, 0x244a08010fda1303U, 0xc3f4039fb92d1fd6U,
  0x1605f3f3cfdc363dU, 0x3114dcfcece305abU, 0xb3b1862e4eceff7U, 0xd591913c2e63826U,
  0xaf0a2f2406cb0316U, 0x81a39cf2c0ceef3U, 0xcb09e32b13a7faf9U, 0x3c60bc5c2ebfceaU,
  0xee35de0a102e0fd4U, 0x2ee00192ee0ebe7fU, 0xc2e9ca01d39e6b2aU, 0xf9472c230b2dce42U,
  0x7d02af70938f2deU, 0xdb57fa55a636e2f6U, 0x1d3de00417cf10fdU, 0x1931332be4a8dd3eU,
  0xbb2ef50bf2251da3U, 0xc41fa7e122bd3ad2U, 0x9bd7a84de5ff1e17U, 0xd905dd012b180604U,
  0xf931fe2916bdd642U, 0x50c541cf351f9d7U, 0xaaa0fc112dfe120dU, 0xd6e4f701163024f7U,
  0xa71fdaed34fdf202U, 0xe9380b152520c616U, 0xd64cb009fbe73821U, 0xf81eda1dbe38fd09U,
  0x5fe2902c8e62ab7U, 0x2cf6f9fce82dbd14U, 0xe1061427d17719d9U, 0xe8445901edfccf64U,
  0xe180edce2b11dffU, 0xfc29d003f20aac0fU, 0xb8fbdf031db63a05U, 0xe67fe7fa0eed1dedU,
  0x4a73482c0f43b8c1U, 0x4e12bbf1221049f1U, 0xf7c427e9e1ec4596U, 0x1b4b1e20b5f26c1dU,
  0x3d0c0b3f0abecf10U, 0x366f27dabda0cb23U, 0x81ff0a06d85b261bU, 0x30f8f62eba07160cU,
  0xf200d3e6ec1b11dcU, 0xf115c8d3bd20b3cbU, 0xb7fe41e3124c1ffdU, 0x543445c61509e7e4U,
  0x23040a1f368c2617U, 0x3ae5fae839ea2cfdU, 0xf8095c27e9085439U, 0xaf290debe923cbfcU,
  0x176223fb12d6bd93U, 0x50e0cbd51e24e316U, 0x113a155df99d3508U, 0xdfdbd53b6900f712U,
  0x494a07daf398c800U, 0xd331d8c02013ebcU, 0xff91523c35ce1e9U, 0xd1d5bde8020817ecU,
  0x3af617de05784abdU, 0x8142056cf8060eefU, 0xd51130fefbe1d0f2U, 0xf38f45e1e5dba9bcU,
  0xe6f1301a2302efU, 0xc2f5d43de5c7efd8U, 0xa7e5f5b0101f1142U, 0x8d2cdf1501052f36U,
  0xdbe0ccf3ce080cfcU, 0xdff0fccfff011600U, 0x10310035eeffe9edU, 0xded41f1cf82d10e6U,
  0x3010a0fc7f002cc1U, 0x1bf0d70602fcdeefU, 0x29b2d42d22e1ed1aU, 0xd344e7ba33001bfcU,
  0xd1eaf0140de8071aU, 0xbfc5fc10b4c3f811U, 0x1418283d1989da19U, 0x2e0a6dafcb2b9d7U,
  0x383037225bdaafU, 0x1226df32ed3b5727U, 0x3126d9242b402e16U, 0x12d009ddfe34f4f3U,
  0xcbf92f013a22248aU, 0x433fabec0ac0e54aU, 0xd6cdf1d9dd31f410U, 0x810cbfe3b925ed0eU,
  0x382669481f9913f2U, 0xc54a71c6dcc3eb41U, 0xd9e8fbcbd807dd4aU, 0xcddf510ec92e2224U,
  0x4ffa2be2c3cb1f3aU, 0xfd6ba3f2b724cd2cU, 0x1d2e443ad207e1cbU, 0xd8e127370f24fc49U,
  0xebfbd51326a9e44eU, 0x2e2242528a9d833U, 0xd9381743f9af6b2bU, 0xeb58110a00c9ccb7U,
  0x57032921252710f3U, 0x30f9c1fbc7c2ec13U, 0xd518f3ddd7d8d70bU, 0x1254a738c09a24deU,
  0x173bf3f71990fe0dU, 0x736a3da2405f3d1U, 0xde4762f141eff86aU, 0xa134dedcea0e2e34U,
  0xe8e009c9012d1419U, 0x919e4f3026bb715U, 0x162fd30b0bb715e2U, 0xe11b1ed8eb3406e3U,
  0x8120f734e2ebec25U, 0xb523f8170014ba0cU, 0xcd32e09ffdeffc3U, 0xfb2029f80508c827U,
  0xedcea160f155143U, 0xb2d919f224142d0dU, 0x123ddf2ff52ee9ddU, 0x1fcd1cabe8e0d729U,
  0xd4382604de1d3eb4U, 0xad7f928371317f6U, 0xe4cb553f2f103cdaU, 0x23b7e31fd7e4e038U,
  0xf8d60bffd7ffda16U, 0x4148ead7ee7ff307U, 0x2ca1d47fb22bcf1U, 0xa306cafceb3314c8U,
  0xf829d122e1d8201eU, 0xeb19f91fb6640805U, 0x211a2d0df4bbf5faU, 0xe482417c01df20fU,
  0xd7e5fa221bd23710U, 0xf8dd33e2014d53deU, 0xb45f639e0103516U, 0xdd1b0906e1e2d4efU,
  0x513f07d32eb1411eU, 0xf3ff2031c22ecc08U, 0xd3210211ed98fa4bU, 0xa41a292ffb720b7fU,
  0x3d9ed1d011074b1aU, 0xee3ab2e2f8d4a21eU, 0x373867094bfef7e3U, 0x3ebc4a01ceece11fU,
  0xb8b64871142ad0bbU, 0x1a2f45b3cd36003dU, 0xf2f035fa1eee3325U, 0xc0fed9af02ffffa9U,
  0xd609081538bd42cdU, 0x18962afa22d11fd2U, 0xad3825273004e12bU, 0x90be3b424f70ae7U,
  0xd3171f12c909cd34U, 0xae71bec23d604faU, 0x42fbecdc1ad43bf6U, 0xf8c81c1fc0e649U,
  0x8e5c300525fb1ef9U, 0x41af2a771c33fafdU, 0x17e112e9effac9e7U, 0xfd737fbe27faad1U,
  0xf6c399f5e62ffd0aU, 0xde49db63f226cb10U, 0x1311f5bc1605e7d7U, 0xbb2a10ce24fc5f26U,
  0xd513164424eef45bU, 0xf2030ccc12a5b712U, 0x234de6ef1dbae01fU, 0x66deec45dc0bfaecU,
  0xfea2bee3d3c3f11U, 0x34cd4db0e81fe12eU, 0x12e3a6bb33a57f3dU, 0xf71954c5e63ec8b0U,
  0x330518d4eb5fc8f9U, 0x827bf906f203d0f0U, 0xed4bc0fa39d40321U, 0x4d222cfd4185b4dcU,
  0x3c07fb112639fcfcU, 0xecced7f96ca125f3U, 0x12f08c01097a2922U, 0xb520f1ab31d32638U,
  0xdd1b12f40225212bU, 0xed52e92a1d3bb522U, 0x480de5136d09076aU, 0x4ce7120dc92c0d2fU,
  0xcf3e00d7f2759f1U, 0xefedf5161067231dU, 0x2e59ebffd7ed6225U, 0xcb2d4dc6ba3f16c5U,
  0x335c4a2fcb29fac7U, 0x3c14b09bcfd5c31fU, 0x4713edba06b24601U, 0xd7094120e02ffaU,
  0xee1fda46cb1dfad9U, 0x20f4c7fad50a1f13U, 0x8580a4ae60a4525U, 0x2501f9cf13d5cb13U,
  0xed403e4bfdd8ed15U, 0xc81e150dfee9d0c6U, 0xd1e80e2824be0844U, 0x7f5f8ecca2b2507U,
  0x12c07140a11ec2cU, 0x22f0100b0f0a051aU, 0x2133d8d91efd4cfcU, 0x621fb050a121237U,
  0xce1501300f430dfcU, 0xfcdacd391ce7dd09U, 0xfc12e42af6f7fdfeU, 0xe2153831fbe2d805U,
  0x15ac0e002813fcd7U, 0x227fdaf91b1918d7U, 0xdab8c82ce4e712feU, 0xbef1413171519feU,
  0xc7eeab291d242606U, 0xed0caa57faf2e62dU, 0x2f604bd01ee39eeU, 0x5823b6bbb5cbc4feU,
  0xbded1e2fa5ef0a16U, 0xd831dd4afed9d0e3U, 0xe1bf04d74216ea5aU, 0xe617b32b000c0a07U,
  0xb6fef016e0cf289eU, 0xddc9fb39d61b46ebU, 0xb3f7bf33f461c1f9U, 0xe6430ffdd5d5df81U,
  0xdc341ace44d72526U, 0x14c5082d2a2bd704U, 0xe213a3ffbf6b10dU, 0xd1512741c2bef226U,
  0x8eb4e2e6d4f302e3U, 0x481cc71121f92b10U, 0x191d05d1dedbea31U, 0x37f0c4cafe5cf96bU,
  0x4d5ed8c6e04c4804U, 0xcaeef1b3b13b470dU, 0x89c134ecc0091a95U, 0xa021bd9b2b3cda81U,
  0x23240d06fa2ea541U, 0x1e52c799c837f0fbU, 0xe0d272f6f997ecdeU, 0x6e6b543faea24e7U,
  0x3d1039399bd2032aU, 0xee0064006c1f197U, 0xa8d94218f80f03U, 0x7b4d62e7d5e0fee7U,
  0x3ded2a405c6a39f3U, 0x1710a30af1e7c82bU, 0x31f0e737df428803U, 0xfc8ffc2213c1f004U,
  0xcce304b379e22d4U, 0x97e23c0217cb27eaU, 0x32d13f0749d4caf0U, 0x8a2f059dedc61c4U,
  0xb700d8a105e11605U, 0x1edce215292811f4U, 0xc99b141c9d360e30U, 0xa9add947f7729e2U,
  0xec210309c7ecd9fcU, 0xd98872e3037cb421U, 0xda0b4546fe090cc2U, 0xc52f41771e719c87U,
  0x184ffe28b848f3c6U, 0xdc6de060a4525c2U, 0xf4431e27f4cf16f8U, 0x22d65bd7f3ebd3d8U,
  0xbd4ed4af018d5e9U, 0xce391207f1ccffebU, 0xb2071be528f71004U, 0x469381fae4f4c10fU,
  0xd313e6cb22fcbcd5U, 0xd9ca4f3fd5e524f8U, 0xa60417f6306f17f7U, 0x51790ea0a11e1d8U,
  0xfe290709f329d4e1U, 0x30c41510ddc30b05U, 0xdc50e50109f93114U, 0xdb2cda0d1325da45U,
  0xe232091b19d4e1e1U, 0xf6d31cb7f1cd05d5U, 0x11032d04db15f1c2U, 0x3250708e6232bebU,
  0xbf1ce13dd22eeeeU, 0xee293f81dcc8faf2U, 0xc9edf5f4cb1bcc1aU, 0x14e1f41039d420e5U,
  0xfe08271dfa270715U, 0xb5faf243ea2bfe12U, 0xd01410110b12e4eeU, 0x1cd1161ffa01f321U,
  0xd11ff522d70f2527U, 0xbfdfc90fdddd2ebfU, 0xfd1e14de001d2731U, 0x1b28d6dabef4eafcU,
  0xd433c6dff17fbcd8U, 0xfd3d0e490dd70ff0U, 0xd50d4500d838ddb6U, 0x1e4e4220ec20642U,
  0x13fb1a2b07062320U, 0xe845df29601928d6U, 0x1c1de3056400ec2dU, 0x306c60f3df7e119U,
  0xa530dda7d3f9e0f5U, 0xe9154d64f1595705U, 0xc2e2fae7d12fd63fU, 0xeb19dcc832f6d51fU,
  0xb2eb2d1bc25437e5U, 0xd79ddb19b4aafd1fU, 0x5b0c05c44418f334U, 0xfacc1af226080be2U,
  0x2b390f50ed04df09U, 0xd2e9e6eff3dac5fcU, 0x72c623813d503f4U, 0x3f08eccc24d40817U,
  0xdb17d2f0d9a88c7fU, 0x532a3baf13e528f1U, 0x74eeccf655192804U, 0xdb30d9d932e63a3cU,
  0xc310b6f6fff3daecU, 0xcad4e811693fdcddU, 0xdb010f110be9b20fU, 0xfdf3cdcd1cea29aU,
  0x148bfcc6f20a3207U, 0xf44aacedc6d9efbdU, 0xd202d9ac2d41c824U, 0x11b7de0cf4ee1ab4U,
  0x21fb072a14e8ceceU, 0x1ece47cff910a986U, 0xfac7c0520922f60bU, 0xc4e128c812370738U,
  0xcb31e2f3b434d5b9U, 0xe00938dfb5e4e630U, 0x5518d9d1bcd9dba7U, 0x2515dd3a2a3cc9d8U,
  0x4629e50a0627eddfU, 0xff25181804f31218U, 0xc0e23cf4f3381821U, 0x3925f908f2022b46U,
  0x7fe6e22518ca24ffU, 0xbfd40204b26ff16U, 0xbed4f23bf1452e1bU, 0xe9f14910da0b1248U,
  0xd50bd21fbb260816U, 0x125e617ece22ecdU, 0xadea25ecf728d326U, 0xe833bb98f97e0338U,
  0xc1beed8b83d374aU, 0xdfd543e41e18f310U, 0x114db3e1a31c0e6U, 0x7f6a6d110bdc8fdU,
  0xaa18cd3126f1c3ddU, 0x3e07510ad2ab09ffU, 0x81d95617edf60c1aU, 0x617cfe5fe6fdef1U,
  0x33ccdf12fd16e900U, 0x26fb7125d705f3ceU, 0xffd3cfd918f8c5baU, 0xc34f140c0704dc3cU,
  0x2ef1ccede4dcd64bU, 0x23e620ff27505c13U, 0xc11db322241d3436U, 0x2ce0dd0b6c276413U,
  0x8d1343c0fede04f4U, 0xe1f660222340a7d0U, 0xd5df0e1b01aecfd4U, 0x32fd23f221311b02U,
  0x1a49fdd0172a7f0aU, 0x4b08d6d9eb301b21U, 0x56bbb9d0f073c6fbU, 0xe7070c020fcef7f7U,
  0x2d180f2f0bf7c72dU, 0xd3d710e048de86edU, 0xbbe2722823023cf4U, 0xb149d820e41c33c6U,
  0x32320fbd4f8e8f3U, 0xeb201fc10e9ae637U, 0x2409e6f1edf61bf8U, 0x344be71398177f2eU,
  0xece8402ca104da2aU, 0xeeb32e6ee142114U, 0xd30fecfe03ed131bU, 0xfedf123de1292f0dU,
  0xfba71edd1479fde7U, 0xe6f10ef2e0fe01d5U, 0xb300d00ff80b13e7U, 0x17d83e1fd9012b43U,
  0xf6b1eae124e0d631U, 0x2850f6f30b873997U, 0xd8b5e0b9f9231eceU, 0x170a11b611fade08U,
  0xfdd13bf266efe8f1U, 0x4f4fc2ce2d031a7fU, 0x6d923e8ddbdedd8U, 0x1c20ff07fd0258ecU,
  0x3b132d2c3bbab9fcU, 0x4034ead6b609f806U, 0xce32e1d31b0e4424U, 0x18540e021d1770b5U,
  0x26d9d21fcb4618ccU, 0xd25ac2d09b01d3ebU, 0x32130624b7d2f82aU, 0xd524193305ece3f4U,
  0xcffa68f6b6f0c5f6U, 0x2f9da2fe7b404eeU, 0x11efea1cf7f8bf02U, 0x2d233ac40cd902d8U,
  0x85af23d3dc1fa65U, 0xa0fa66dff23f53cbU, 0x8c982be504aacc18U, 0xdc2ce91f39512efeU,
  0x1d3a50bbe6300b7fU, 0xe9cc08f163f395U, 0x1949bbd90bd03903U, 0x8b1013ea11d01e07U,
  0xf0edd45572e84eefU, 0xd38b442c30aed608U, 0x174aa63bbc19c605U, 0x64420252002fdcbfU,
  0x538e85c20eda47d7U, 0x5ed43b7dae5a8d3U, 0xd313dcd9fcaa0ad3U, 0xd54ba4314cb341fcU,
  0xb9010f123cfcd1e1U, 0x327ed0dde28232cU, 0x361452363dc01be7U, 0x38f6d2ff07074ac5U,
  0xef921f334ffb31cU, 0xe43582c022393613U, 0xea1c30f53964baedU, 0xe0ed81c4060221bbU,
  0xe731cbfb270129a8U, 0xb10d3d26f4f9353cU, 0x21e14f42cde0e19U, 0x4ccfd239dfddc4e6U,
  0xa25c38d4c574cf21U, 0xdd33df24f5f4f90aU, 0x331bbf4e4030a21bU, 0xf99b34130bd82715U,
  0xf928f903f74aeacfU, 0x1808bbe24d15eb42U, 0xed0501d312ef19fbU, 0x1105dce5df3727e2U,
  0x56d326c0c337ef11U, 0x16c8cdc1b3054642U, 0xa41dc824310bd6edU, 0xe55921f2fc19b7b1U,
  0xea3cf5e1fafea209U, 0xc320cecbca9c6d5U, 0xb3031fc3f0b2cf45U, 0xef1aaced1eee4901U,
  0x4fd6230014cf110U, 0x11f233f3e9a761c5U, 0x1819c6332fd50a22U, 0x6df2be281f8eae0U,
  0x21f21d0f351a1ad8U, 0x4012ddeff4d5f4c2U, 0xe90ee6202311df06U, 0xbf1f0312bb1f3ddcU,
  0xded42f1faffd2521U, 0x39f6058fd7c6e324U, 0x91d30225c6d9f8b7U, 0x7ffa2ffc0dc4d9bbU,
  0x10bbe4a0f0f9e230U, 0x21f0f9de19eaeef8U, 0xb4b90401fbe41c08U, 0x2816e5d920080131U,
  0xfa42f301f1d3d437U, 0xeec8f9f325c80dd1U, 0xe519d35ff8e4f624U, 0x36000b05d30005f7U,
  0x50edd320630b92cU, 0xb50d42b1fa284630U, 0x73cfd02023e2320U, 0x2ad7fac71517defaU,
  0xf366ff3c3e25e9d5U, 0xd3bdf43d58bf4515U, 0xa5d3665fffabd421U, 0x23f2075307e11650U,
  0x1021f4f21fba1a49U, 0xf031075981051c5aU, 0xe40d30cf440ab33aU, 0xc311c4a9161d0211U,
  0xf505d32b3e1113fdU, 0x14e2efe2c705641aU, 0x2c21215c5282e3dU, 0xc91b1b3bf8c0efefU,
  0x253d24d938f943U, 0x5601e524e9633f00U, 0xcab079ced1b6ae7U, 0xef0ef00fe400502eU,
  0xdcb54c93bfed2a37U, 0x2063f3cb272a3611U, 0x97ecf5fbc2c8f14fU, 0xc2c101e8aa24102dU,
  0xfd040c30f52dd4e5U, 0x7fb350a1abe7b010U, 0xaf08a808f86ff2c7U, 0xc0dcce17df5dc6c4U,
  0xec78292706aacaddU, 0x22fde310c8930809U, 0x5961fe1130a7cc33U, 0xd3af20d16ea96cdU,
  0xfc2d470df8170bfdU, 0x1af1c82828fcdc10U, 0xe3282d7eff3d023U, 0x21ed180be5f51c23U,
  0x15f006cc49e235fdU, 0x3524371cf74a00eaU, 0x384abee9322e1411U, 0xead348a0fa3850d2U,
  0x471c30fb2e1addddU, 0x231b38c202f8e6d9U, 0x7f3631f5f341d2ccU, 0x10febc3434eb30deU,
  0x13eb1940dcddacf2U, 0xeb0cdfaceb206c6U, 0x3cf715e6e9fb0305U, 0x1d0333e61bced407U,
  0x33f929ecd3e526dcU, 0x26ee2ddc0cf82109U, 0xf3e309dffb143bf0U, 0xf8fbd7db30045813U,
  0x165fb8fcd8d8e100U, 0x143cf4dcf135dfebU, 0x3de90bffd9ec14e4U, 0x13f3a9e2ea28e7feU,
  0x26b92717197ff4b0U, 0x42adb264c1907caU, 0x2742ff32e62efe38U, 0x28d2f80afe060d11U,
  0xdb2c8af2fc1111d4U, 0xda4aff2cd9d5d50cU, 0xdab007dc0a0ef220U, 0xfce72a1fbc1f6555U,
  0x295fefe0349216fdU, 0x90c97b044221ad46U, 0xbaa31214f6cc32bdU, 0x31599245134bc559U,
  0xc2db44c310d102f4U, 0x4cfa1add70401eb5U, 0x2865240b34cdcee2U, 0xa7d8291f98d84463U,
  0x44d5467c24cb04e2U, 0x1f0b47b652fabd1eU, 0x7f50011245d03accU, 0xcee737f4c2dff52dU,
  0x34f2c5e530d4fbfcU, 0x92361a111f1ba5daU, 0xeff8f9d9210afceeU, 0x16f1d5bef7b200d7U,
  0x4ffc3f0fdd3d0216U, 0x33ab1ec202a0ef24U, 0xaf47e30ce5030f04U, 0xef5aed030a23112cU,
  0x42eab7b2db26ed34U, 0xcff6faffd701326eU, 0x2acd95356efa322U, 0xd005cdc7fcd081d1U,
  0xde222cc9fcb5b6d6U, 0xeefd0425d2f5d722U, 0xf340181443e6bef9U, 0xb1b2b6e521f4ed0cU,
  0xd72ddb62f45af215U, 0x24d00152c4056a00U, 0x5ef2dc9f0bd51e00U, 0xf6e72fdeaaeecf0cU,
  0x3ffa34fe2f3832cdU, 0xbc7f19d21ad3d908U, 0xee09bf1a0f09eaf2U, 0x51bc16489507df60U,
  0x23cca41f1de4d0f5U, 0x5ff041efbf1680eU, 0xd93c0f0b2c092c00U, 0x1bd756ce143bea1aU,
  0x21cb14defc343de3U, 0x915de22d5f405eaU, 0xd8c343ed1e12052bU, 0x18ef5462e37f216U,
  0x9ec5ef401258a5fbU, 0xd3ef02d2d7ecf514U, 0xe2b2e02af4271728U, 0xe90aca00dcfda1abU,
  0x4f489cdba29cc37U, 0xf52efa0b140204feU, 0x4f39fdd9e029e5c6U, 0x4cf32203ef02c020U,
  0x70505fe2304d2eeU, 0xf1198122101112e8U, 0x31639491ff82630U, 0xb118f927282f1727U,
  0xfbcc360eed07e5ceU, 0xccdefffff1382beeU, 0x1f4faf9170a0816U, 0x10d7df090df8f8e2U,
  0x31dd3d2eff819faU, 0xc329b9e8dc2f081aU, 0x1d26fde2f5f0d930U, 0xe619ec02e93ef6f0U,
  0xf51e09493ef0f8f3U, 0xfbc92ff715deded0U, 0xbbd8c720bdcfe503U, 0xd0e71bf5e97fe312U,
  0xcdfbeb1fe01ce1f4U, 0x2250cdeb00f2e2U, 0x1048510616e50331U, 0xda170f13dd11f82cU,
  0xf9f4f9d6e4fe200eU, 0xef615e0dadade05U, 0xcf252c2e0a25f4e9U, 0x142624fc3bfed95cU,
  0xbd7efef14b5e6fbU, 0xe733f0fd2cf02edcU, 0xfff6d20d102229eeU, 0xe403082b23140339U,
  0xf908431d261017bcU, 0x2c42a73ccafcb8caU, 0xc97fae92c13b4e4U, 0xe1e3d7004302e59cU,
  0xd2b4f011da0213dfU, 0xdb502a1119e4d5eeU, 0x4aebed0635d8da03U, 0x1f28dee2e1c00506U,
  0x3e0e1adc20e14ae5U, 0xc60a2d2de91708eeU, 0xd081b3fa970c16e7U, 0xe3583ee7dbd337f0U,
  0xed4e58fdfaf402dbU, 0xbec824b31310ba47U, 0xd0490a320502ed1aU, 0x46d7d5122b1aed16U,
  0x315a54e62f3813d5U, 0xf23b12db35fd492eU, 0xd0e0051ae328b6e4U, 0xfd0105daffe869bdU,
  0xe5eb3b22eae0f32bU, 0x28d03419afdd490aU, 0x4907c9bc2013e7e2U, 0xdfdf1cf80a0e0ccfU,
  0xdd5424c331c9e00aU, 0x5be44262fac242aU, 0x22b2cf60fffccf6U, 0x6a1ad69b312b1920U,
  0xf70c3e5314124a2eU, 0x14b330b31712f2d1U, 0xd7bf2708d5043d15U, 0x9cba893b22db81d4U,
  0x5cd431d73e3437a0U, 0x482fcdd126110214U, 0xcbb2cce8ed08f10dU, 0xf7dad90ef716e6e9U,
  0xc3e21bfc6facfab4U, 0xef153a1aecfbf6c5U, 0xdbf35d25f81beb2U, 0xf502182fdffde3c5U,
  0xdaf330b816f10951U, 0x61605dba9c40c24U, 0xe81513ca0be33aU, 0xcff628eeefe51547U,
