/**
  ******************************************************************************
  * @file    network_data.c
  * @author  AST Embedded Analytics Research Platform
  * @date    2025-12-31T12:28:59+0000
  * @brief   AI Tool Automatic Code Generator for Embedded NN computing
  ******************************************************************************
  * Copyright (c) 2025 STMicroelectronics.
  * All rights reserved.
  *
  * This software is licensed under terms that can be found in the LICENSE file
  * in the root directory of this software component.
  * If no LICENSE file comes with this software, it is provided AS-IS.
  ******************************************************************************
  */

#include "network_data.h"
STAI_ALIGNED(8)
const uint64_t g_network_conv2d_1_weights_array[54] = {
  0x9cc8abcc0e7f580dU, 0xee4ed1d2d6bf0a1U, 0xfdd729ef5ebdaa53U, 0x7f0739760b2d3bd2U,
  0xce97e9ef8b43a6cU, 0x582cdbfc4d15d7f4U, 0xb72b1a715e153636U, 0xdadc25f80d811d29U,
  0x33df43361a26f2fdU, 0x13d5fa07042a7437U, 0xc64ca3a4e0ceb50fU, 0xf9d7080cc8b69fadU,
  0x27fc5b394558b9f1U, 0xc37f1f6bf77f28deU, 0x20ba1ddeddd702ecU, 0xd214f786fa1300beU,
  0x3dcee0c1c9f33f42U, 0xe812848f424c2819U, 0x2f23818a3045d8feU, 0x142419a8fbbf94acU,
  0xdf91f595fbf03365U, 0xd4d214b72c037f2bU, 0xef22455274ee0b1U, 0x12cdf286a813bfa6U,
  0xe47fc5c5c8e8dfe6U, 0x6fdfc01f6f7f7aaU, 0xe107bbd4beed38f1U, 0xed81e004f87be944U,
  0x11c9653458322ea1U, 0xd39ad92ee0f6db57U, 0xde85e5df2ed13a38U, 0x3f15c0e118fafd09U,
  0x812b256757201fd1U, 0x576d346dc2edd8U, 0xc106d4c332f5c3eU, 0x3acf9c3d4da2efbU,
  0xc56e810db5daf6efU, 0xa65557d1d8552fdeU, 0xf8cbc7e433027f96U, 0xe9d5d3c7d9ccf6cfU,
  0xaf7f7594b7bacef8U, 0xa82e2ab0a19e9ef2U, 0xeca7c3c1c2c8d3ddU, 0x30d2dacee9f3cc03U,
  0x637fe7e7d53ef839U, 0x1f4dc63baedcce98U, 0x3def25090198f977U, 0x3f1f410349f0dae0U,
  0x68d9fa6623dcd9d3U, 0x918161efe8e4270aU, 0x62e2def5e5b0c0e8U, 0xcfd8c4e1e37fed40U,
  0x1619e5aa9900e9b0U, 0x6b21be0421c6edb0U,
};

STAI_ALIGNED(8)
const uint64_t g_network_conv2d_1_bias_array[8] = {
  0xffff98c0fffffb0fU, 0x3a1cffffd3cbU, 0x1688000029f7U, 0x2d290000328dU,
  0xfffff064ffffe3c0U, 0x3f1afffff117U, 0xfffff02f00006fcaU, 0x306c00000c12U,
};

STAI_ALIGNED(8)
const uint64_t g_network_conv2d_2_weights_array[288] = {
  0x2c3b088a6dcddecaU, 0xc4f9fd1af9c9d382U, 0x21ff08d4f50000afU, 0xeb17ca35ea99e6daU,
  0x501135d323af1a04U, 0x1fdb91551f0781d4U, 0x1a03f13985ed204fU, 0x18381a33e2fc0ffdU,
  0xef133de3bcf62803U, 0xf5d0a727ebdb12eaU, 0x1d2628e505240822U, 0x4adf95310be6f4fdU,
  0x6fabc2ad83e3864U, 0xf92c000cfcf3c7e8U, 0xfce0ecf66047ff21U, 0xd0ee07f1faed4710U,
  0xf719be0351d54613U, 0xe84518fd2cd15248U, 0x309fbfd2a55f509U, 0x8f88bfd00922b01U,
  0xfef7ed3d2af0bdU, 0xfbd11dfffe980af9U, 0x50600d0ed34fd28U, 0xfafe1309f4a10628U,
  0xfb0bfb0ef10ce4d3U, 0xfc482a080a4a053dU, 0xfa010d10c84019f7U, 0x855c3f9efea2837U,
  0x7f322dceeef44caU, 0xf7fac60dfb5d214eU, 0x6ff0ef8f0e3d0efU, 0x4f255f0e205f131eU,
  0x94c1bfaeff015U, 0x461c4412ff7faf22U, 0x5043e1bfbcfe7cfU, 0x220514f8f646e6c0U,
  0x1e767122aeecd8bU, 0x20249aead7db39b3U, 0xfa0c780143a833c4U, 0x26ffd0fed58a4a0fU,
  0xf029059e2ee9d940U, 0x514bbceebcc4a1dU, 0x15000420ba49331fU, 0xfe19c93028ee31d6U,
  0xfbfc220802f50729U, 0xe40848f61ef3e020U, 0xfebef0f1742f80cU, 0xea2128e11d271833U,
  0xfd29264a81b9061dU, 0x6010a0230b3d363U, 0xf95be330c427bf1cU, 0xfed8561f2e1c08d0U,
  0x1a59e135a4f42578U, 0xfd142ffe28ea3c03U, 0xfd090119f1ddc6edU, 0xf6d230fd00d54528U,
  0xfcf8ed0a811cd723U, 0xfff10cfde3aa3a09U, 0xfbfffbedb3c90126U, 0xd3d9c20b0201c318U,
  0xf9f526f8cce333edU, 0x8e726f703065102U, 0xfaf3d506b3cf1e2dU, 0xf8e717fbf2c91226U,
  0xfdfd0224b6f90129U, 0xe4e72cf9faf0f13bU, 0xeff2cf0c10e51bf6U, 0xc916f5fbe7a2d8acU,
  0xfffb9215fade0b18U, 0xc2233d04f3c50b0aU, 0x1ae108db3c1b46U, 0xc3082f00e5be573dU,
  0x416cfed06fbbedbU, 0xfabe1205feb023d6U, 0x70403f3e617e5deU, 0xf6b35107028140b6U,
  0xfe0c28ff372f3bU, 0x51f19fefdb22929U, 0xfc08cce31400d1c8U, 0xf6e2f6fbf29f1ae2U,
  0x403e6f3211219b3U, 0xf7ed2202fbfd4efbU, 0x401f610fc432de7U, 0xb254c060c130564U,
  0xfdf3f90409eecfU, 0x4f9fbff0841d8d7U, 0x8fb0817ee3209a5U, 0x7f643071118512cU,
  0x50e1612d81030f1U, 0xef50f1418e5f612U, 0x2f011ee022c24c8U, 0x5f5ef05f8e12a04U,
  0xfcf319013d191bd1U, 0xd40e2f7f0f91fefU, 0xf5ea0f0925352599U, 0x143fef3fa1a652cU,
  0xffedf81414443c67U, 0xf80113fbf40f002dU, 0xfdf9e119272e47f2U, 0xeb1802f5fe433201U,
  0xf4f50921f20ffaf9U, 0xf54500f20d222f28U, 0xf8f1de021e533334U, 0xf90b2af0ede52321U,
  0xf3e7ec28e1271911U, 0xa1901f1f6f5354bU, 0xf2f21804d2e105eaU, 0xfd12c2f7fc7f972dU,
  0x16210650ba3731e3U, 0xd4d3fa21f8f71d07U, 0x1a150b29f943f822U, 0xdef9d1901e6bbf6U,
  0x1e0f13e024dfff4cU, 0x993b71509f70435U, 0xe00113addfa1e10U, 0xb905201909e1db4bU,
  0x91bf7f4cff5e479U, 0x5d2ed060519c03cU, 0xc020af6f7110379U, 0x1217a60efe811435U,
  0xfef6166df71f2829U, 0xb55ae4051cfa0749U, 0xc17d4e1e3130016U, 0xece8d5170ad3e86bU,
  0xd12e832ff164732U, 0xe19caf900cf7440U, 0x103f25fb04e8f528U, 0xcde33241443ec1bU,
  0x1be9ddfbfdefec3eU, 0x5e13d0c1310ea1aU, 0xb0b0b3c0ef2e21dU, 0x2d24e52f49f2b3e6U,
  0x51212fc32ecdf0fU, 0xb04011e1116ed0aU, 0x100efefc1ef0eac6U, 0xfb01e51a08dcf5ffU,
  0x2f17f04fece5d8f6U, 0x2323bc3a2f08bc2cU, 0x1f3a2ddd42fce581U, 0x3cd5f91c1eeed4c0U,
  0x241bfbfe2cefecd2U, 0x1efdf82322fdd7e1U, 0x3d39d21b1fdecccdU, 0x4a1cb84149edabf9U,
  0x2f5fbd2f80825fcU, 0x1f0cf5f5ef04d621U, 0xfeeb5b27f9ec0320U, 0x3110307faf926cdU,
  0x6e42611f7e04bbaU, 0xfca33300ea4a1df0U, 0x4eb46d727fedf2fU, 0xe952ebf4faeaff08U,
  0x6c2542c2afa1426U, 0xeb3a220de9b727beU, 0x2f41222cadd2cf4U, 0xea2b37faf40ff5b7U,
  0xf8d54633256a27e7U, 0x1c7feaf138f31b04U, 0x5bc2d24142d43fdU, 0x664140023edf635U,
  0x3c5ff7ea549d91bU, 0x1a470f0e42ebe9e7U, 0x2a42e3f042e8f39dU, 0x7e1f119f3a0e0ddU,
  0x90bceeaf4e2eee0U, 0xea0310ffd3e60bfaU, 0x25350307e925e10cU, 0xedf9d507edbe2f12U,
  0x183445f219fbe5d9U, 0x3a07f21b1602fdd4U, 0xf6143cfd1ec8e104U, 0xf50ec8f8fb1dbf01U,
  0x152e0d10e7ee26f0U, 0x314fc2d1ae69506U, 0x2b2d7405f7a0b2b3U, 0x56f0f53f07dd2cecU,
  0xad946ed3601dffeU, 0x2f04f80d1000f910U, 0xf1e9150fbd0842f0U, 0x1f1c471003e57f11U,
  0x4ecf12784d4e14fU, 0x85e62fedd3193667U, 0x15e7cb0f8bd9e01dU, 0xe603e7fc0807ce19U,
  0x181207b6e8df0df2U, 0xb9aeff01f198e3dfU, 0x1226e926c7e1d72eU, 0xc620c70e03e1fbc6U,
  0x7edf65ab8a7cd7fU, 0x4fa0c24ea0c195cU, 0xfc16000014cce6c6U, 0xf2f6161af7c413daU,
  0x8eb68f42deaeb36U, 0xdd21bb1222e30ba1U, 0xf7ba4fd94f04fd1aU, 0x16da21fd12d13b21U,
  0xdc957ed69f93736U, 0x24df58f3f1a146d6U, 0xeddf564194f4fb37U, 0xfc0401fb070eeb1cU,
  0xe306063296e6d47fU, 0xbee713cedcfe4f0bU, 0xddf8b1e09e11ce70U, 0xdfe8eddb0bc21c2cU,
  0xf90d2e07cbd51a26U, 0xffe8ed1313fe33d5U, 0xfc0dfdf9c8d2df10U, 0xc0533fc04d0540dU,
  0x4fcfb10c235da0aU, 0x4fe04fbfca3e20bU, 0x6032014ccb8c2c5U, 0x1211e6122000f8ddU,
  0x8000cf7debad5c0U, 0x7fa3c000bd4e3daU, 0x80213f32ef0ebf6U, 0x151decfb07d2fdecU,
  0x3fdf2f9e70002beU, 0x210835120706f6fcU, 0x4f50dff0ee9fde0U, 0xceed5f8ec220327U,
  0xe80c12bf32342fe0U, 0xb7dd25dfa8d84ff7U, 0x1438f5ece6c7dac1U, 0x626ec0f1733dab8U,
  0x81adeeadfc8e5d5U, 0xbfc010907f941f3U, 0xec17fac42e132f01U, 0xdcd97fd8d31c7435U,
  0x1139ea06bfdb07f6U, 0x3af0351a3008d9acU, 0xf63c050edbe003e8U, 0xfbe7f803192ff3bdU,
  0xce3fecc8090fdddbU, 0xe4cd34d1de1c23f4U, 0x1c08095cd5e6207fU, 0xe318182401de0505U,
  0x2e0ef60211d7e7e3U, 0x1031718e7daea09U, 0x2a0f010b1bd2fc3eU, 0x252c90201b1ef124U,
  0x10272419dff0010eU, 0xd90ebf1ffccdd336U, 0x1714e51bed0a011aU, 0xfd2ef7130024de37U,
  0x14124106f0f103f2U, 0x1d28990e30cd07fdU, 0xb07e420fc061043U, 0xbb02a40d0e00e52bU,
  0xfd111429facde143U, 0xf912ee180f2db92eU, 0x110b19161ff2c916U, 0x1310b82318d431f0U,
  0xf1efefdcbe20f6c7U, 0xe2f93aece181feadU, 0xedeb1a0abb1a12d5U, 0xc11e1f907f1e5e8U,
  0xe9de220ee3fa30f6U, 0xec0aac0a024a0618U, 0xe9db0c2ede14faccU, 0xf20af7eae2cf18bfU,
  0xefdc0e3edac33fdbU, 0xeef5dd0cf54bde14U, 0x2fa14e9d8151415U, 0x15eef215153ed837U,
  0xffdffd4edbbd0015U, 0xb4cb20f0ea36f30eU, 0x6f8e21dd9b21831U, 0xe2f7f51e13dfe80eU,
  0xfa13f3eefb371b2eU, 0x12c5b4f1feceb520U, 0xe4d4382900120c00U, 0xfb2e03f50f5cf1edU,
  0xf1102f0bd8deeeafU, 0x1042e114181fd9efU, 0xcf42302c004c5eaU, 0xa040311237424ebU,
  0xfae6e2e3dce3e9e1U, 0xeda8cff4f40842c0U, 0xfffbff1719124201U, 0x10b5df0906dacee4U,
  0xf0f00ad232211116U, 0x25b8ca06f5d805dfU, 0x15a9b1d309e223U, 0xb6e449fce6e2e363U,
  0x911bbd029e4357cU, 0xd701f3fae3d30c7fU, 0xecf9d8be2e1438ddU, 0xe50235ecdaca2705U,
};

STAI_ALIGNED(8)
const uint64_t g_network_conv2d_2_bias_array[8] = {
  0xffffc996000017d7U, 0x4cb3ffffc82bU, 0xffffa4bdffffecbdU, 0xffffd3eaffffe3f0U,
  0xfffffc4bffffbaa2U, 0x43f700002428U, 0xffffe54000002bc0U, 0x23460000362eU,
};

STAI_ALIGNED(8)
const uint64_t g_network_conv2d_3_weights_array[288] = {
  0x1459ea1143c80e20U, 0xf2063cc2edf2199aU, 0x1e42b0d90806bb0dU, 0xe31b02f315df32d1U,
  0x1a341afccc06de63U, 0x5cdabdad26e84240U, 0xeadfd7070b071df5U, 0x1bca35e130d6fcccU,
  0xe8efc10c0be715f9U, 0x22b49e10c5210081U, 0xdfdb0e2eb2141d41U, 0xf4e08e05e6fed01cU,
  0xb7bde9fe49f7c4ecU, 0xf0db241bc52dfcd1U, 0xc69d360c28f4fe26U, 0x4212e560d7e50bbeU,
  0xcaa01b38f50bec43U, 0x32f482d8ed0caafbU, 0x18d3ffd5afdf38c1U, 0x2ac9040232da032fU,
  0x192a4799dcee10f2U, 0xde400da018f9e4d9U, 0x70da0dd4badce7ceU, 0x3b24028635ecfff3U,
  0xfdd9c3400717fed4U, 0x1f01dc1512102bd3U, 0x1e00aa023101e01eU, 0x20010fc5ea0c1904U,
  0xb1fc5e231a70407U, 0x49a8f6a6f8cf21dfU, 0xd9a9d4b8585ee8eeU, 0xa3e2187fe6e80b9eU,
  0xe217ac327d3ccef1U, 0xe2dbed2b09f0becbU, 0xe12aeec5f7fcf6ddU, 0xb8b51822049dcd98U,
  0x2081bd000c15bc30U, 0xcf970ab8620e5af3U, 0x3de29db5130b8916U, 0xc5a4f4f91e0178aeU,
  0xfc39f90214dde24aU, 0xca931ae1f9236c92U, 0x2d8c3b2c9cfc834U, 0xf3c503e4f909172eU,
  0xffbbe9e7c501f80fU, 0xd001d6d6081ef751U, 0xe820cefc07f641fcU, 0xaffe1b1114d833c1U,
  0xd2f3612ed0107437U, 0x13472787dd0da924U, 0xc4c51502be4060faU, 0x1e4fd3c0c804bae4U,
  0xeac01015cef31232U, 0x69f4adc0102cc6b6U, 0x131af039285b1d21U, 0x14ee17e40cddd12cU,
  0x7704e022d455ff0U, 0xbef13fb0e2df831U, 0x33150922eb0a5668U, 0x3cf7ece9111f0510U,
  0x23d4e803e519ffefU, 0xef22f314edbc9bc6U, 0x71ff719f8267f14U, 0xe6d104f6f5d5c3d0U,
  0x5f081bec2f77680bU, 0xfb2245f6f9d8e7b6U, 0x3295e2eadbdf07c7U, 0x27ceb10d2de9fcbcU,
  0x37cac61def0c2cf3U, 0xf9ecef12f9f1de97U, 0x2c34d9d8b7df07deU, 0xdaffc90801e83af2U,
  0x2e04e4d2bdea1522U, 0x25f3a004a8c35cc5U, 0x11fbd1d1d9deef3bU, 0x1aadd42cdfc02f3cU,
  0xf0e1d7b1e9fdd8ddU, 0x32bfe438fbe1fe62U, 0x22c20f0e1e1be12bU, 0xffd6e4e9e7d220f8U,
  0xb1026fc323dea10U, 0x18cef4faf5e5f5f0U, 0x9dec31c1f45eaf0U, 0x43e63a140b2ecfd5U,
  0x15c4071c054dc129U, 0xc9110921f2c82aabU, 0x76ed8d82337ec14U, 0xf0171b1e21c1e8ecU,
  0xee7ff71c2f2d2021U, 0xf8e91f511eefdc03U, 0xd6f812e1ce263d9bU, 0x838ea0e1c1ed69cU,
  0xd2fa0309eb0842c6U, 0xe930eedb31f5dc05U, 0xe026d8c436f5c6f7U, 0x101df4813d23b48fU,
  0x15e9ecffc9d1efbfU, 0x17eab7ff19d920e2U, 0x5bdec2339efe8faU, 0xd6bfd9b40900e4bdU,
  0x2021e4fe71e5d220U, 0x4f9deeeeb00d6e5U, 0x2c0f7f6e7c7cb02U, 0x26dfeb0dd7d3231eU,
  0xdff3390adbe6cf29U, 0xea21f1e1dfe34d15U, 0xcd2efb0919e60717U, 0xdbf820f1e7fd3419U,
  0xef2bf2e8bbfcf243U, 0xf9dbbac493d10dc3U, 0xce15cfb0d6da56U, 0xb7e60ec6c2ca4ff2U,
  0x24e3dbb0b1b59a15U, 0x2fadad5d3ab28d5U, 0x110b1607ec114723U, 0xf0ecbee5ff0dd74aU,
  0xfd2cdac4ef0a1521U, 0x31b2cdc40c050adcU, 0x132b0facdff1d4f1U, 0x2ef72cc307df0d14U,
  0xe40d2212443469e9U, 0x4c393bd90b40cf23U, 0xce4c4bd6fe16ce3cU, 0xd82a3ca1f516cdfeU,
  0x176ef4c9edf91c0dU, 0xff77f9df9d31ae7U, 0xb1fed36141bee07U, 0xd6204ed006421ff9U,
  0x1ed0c7d5e102e409U, 0xcef71142391a41cbU, 0x6010db141f59dcdaU, 0xca18d7ef39067810U,
  0x235f51162efbbd20U, 0x5e6145c9abfe1ff9U, 0xf462fee43a14bf22U, 0x3ef4bffbe1c4ec0aU,
  0x40d412d744edfefeU, 0xeccc2ec209e91a3dU, 0xe955d41638e12551U, 0x7f0a0bf3f6029bb6U,
  0xe115f020c1d809f7U, 0x32afc1229f1601b8U, 0x7b2e9e30de02408U, 0xc414a785d9dabee2U,
  0xf3d3b6c3ba1cd2d2U, 0xed0af9c10641ea13U, 0x12c6edf5113410daU, 0xf7f1c7312a12ccf2U,
  0xccfe9e3a001a2fd9U, 0xef281230fb9defeU, 0xfe1500fe0309dde1U, 0xf26d7ac3a22ebb5U,
  0xfed5c5f313e6e0bcU, 0x200fe9011af827fcU, 0xd2cfdfad1122b6a4U, 0xdd11d421e8f9f8d6U,
  0x9e42d5055117053aU, 0x1e531ce30a3e9f2dU, 0x5d23aacfec7df2cU, 0x211609cde9f91bfbU,
  0x97ca03c9bce9efbfU, 0xded6ef10dcdad438U, 0x2cd51ef90f00f181U, 0x392049cb28008756U,
  0xbbce049f3dde282U, 0x1b4514d7123ec770U, 0xb2f0d1e7531afbbcU, 0x6684813f43f0c21U,
  0x3dc20cf06d312e6U, 0xfcf43ec916dccf05U, 0xe6d4d51afcf0e515U, 0x86f182ad10b260eU,
  0xea3003033424bdedU, 0x1a54ed4015ff400cU, 0xb71624161cc30837U, 0x161e0ef0b903ca92U,
  0xb71dfaf42ae7f755U, 0xea43e722d30ef3c0U, 0xab00f30cba1aee14U, 0x2d09bf0e090027beU,
  0xf408b41e43a726cfU, 0xd8f52ff92305e2c6U, 0xaf8c5107fe5d7deU, 0xcec3040919141cdbU,
  0x81fdf064cf2b91fU, 0xfad92d1c150cf5e1U, 0xfa28e912fcebdf0bU, 0xd013fa1506fb032eU,
  0x41f0d2526dbc9f6U, 0xe2c1dd1e14ff2911U, 0xde3aca1e0408d516U, 0x4dde40cf70525d4U,
  0xd132dfad4eed318U, 0xc013d04ff4b0805U, 0xf6103b144700da29U, 0xdc1e10d5e61a1634U,
  0xe5f30b2c4bdef10fU, 0xbe280d10da163602U, 0x1210fcf53db90361U, 0xf2ed3c48fc52330bU,
  0xf513bf49f2019c1eU, 0xcbf6274e012344f3U, 0xcb2ee01f2519bcc4U, 0xc53a391c36f21ef1U,
  0x253fd709bdf8ef24U, 0xb3eb2107ee15ee0cU, 0x2e2bc514d937f2ffU, 0xbe033f3ae9c70217U,
  0xf10cf0181109fdcbU, 0xe53ef727eceac1a8U, 0x1f01eea6f43df1f8U, 0x81fc1cdf3325e6c5U,
  0xf1ac4023735cbd2U, 0xc3eb010149a2decaU, 0xfeecc7f9225700f6U, 0xc43a1354f197da8aU,
  0xd91c2bf63a8619e3U, 0xc33b45fa112fd7d4U, 0xa4925f611c711fcU, 0xeb4dfaee0c00021fU,
  0x162c1ed4d0c8091aU, 0x28dd0d2ff60520f3U, 0xda17f01327c4feffU, 0xda0c2dcc1d25c8ecU,
  0xf517fe0913f90bf0U, 0xef471ec7e0fef9f7U, 0xfa3911c1cef0223cU, 0xfbd7f1e8befa0e33U,
  0xe8333c182ad317d1U, 0x86d37f60509bf02U, 0xe92238e707dc53d7U, 0xf37fefc3e401f7daU,
  0x624e5f4cbcd1d14U, 0xf7fe08cbffe6122eU, 0x433e77ece5fbeebcU, 0x287f16bc2dac06e5U,
  0x2a132dd735afe5b1U, 0x4328e3222ab303efU, 0xfd09de2303dcf4e3U, 0x3ddad45f1cd8f8f6U,
  0x52204fd3e7d4b026U, 0xe5eb2fb826f73c21U, 0x1cef11f6e3cef912U, 0xcbfce2beb3a118faU,
  0xecdeea11edcbbdbeU, 0xf4c0d1f9d79fcda1U, 0x247f51ca3fcbd705U, 0xf4d716c7c515ef35U,
  0x6d01eb1e0df0654U, 0xbae93c1dc4262032U, 0xf7a6d4baa3bafb1cU, 0xd9e6d4e5f50a1a12U,
  0x2b1faededfeef621U, 0xeebde82434300bfeU, 0xfcee3448e5def518U, 0xc6600e48fffc22f0U,
  0x32e3052742e3c5b4U, 0xc16bfd15421b21ecU, 0x29dd08bb2adffff8U, 0x12b412bf1fda33e7U,
  0x1cccee01f0f710ceU, 0xe705ee0ae5e2e62cU, 0x13072440c104b9e1U, 0xd125eae5f9f2fc18U,
  0x25b4e50ef2b24cecU, 0xfec7e2371ee0190aU, 0xbd9f604e2e347bdU, 0xd101c1d7090134e9U,
  0x12cd2f00c6c07fe7U, 0xe05df99ef301fc33U, 0x4f04e41a1de3be15U, 0xf33d24374351d7e7U,
  0x2818291710ee20eaU, 0xbc497afc3042e606U, 0x4358cad53eec14faU, 0xdf247fb71e382118U,
  0x13f8e9051af1150bU, 0x5d1407f6e41ad1f4U, 0x1dffea2eed091ce8U, 0xf91c58e2ee1415f9U,
  0x1d56feeed1f1fee0U, 0x2014cf4063ed70cU, 0x5de0173414223817U, 0x1a0bddf609ef01f8U,
  0x35c7d0fdf94f3de1U, 0xc501bc3310e0238U, 0x3a0bce07b728cf24U, 0x3df2edde1563cfe9U,
};

STAI_ALIGNED(8)
const uint64_t g_network_conv2d_3_bias_array[8] = {
  0x3b8e000036bfU, 0xfffff82e00002cdeU, 0x419dfffff315U, 0xffffee7100000ab3U,
  0x1bc500006601U, 0xfffff815ffffdf42U, 0xd0cffffe6f9U, 0xffffa0f3000008feU,
};

STAI_ALIGNED(8)
const uint64_t g_network_conv2d_7_weights_array[64] = {
  0xf8c6fb12d1f35a22U, 0x4b4ada1f7f53efd7U, 0x14a9ca813e37f7c3U, 0xddcbbdddf1072817U,
  0x3029d85c50bd8ef3U, 0xe41af981c8cbad39U, 0xe5b1f6aff9897125U, 0x7fcbb4d326169df7U,
  0xdb7f34d59797ad0eU, 0x88b8a6f703bcd2bfU, 0x9834ca1b81591187U, 0xf3f0d0ba0213da37U,
  0xd15e162e75e699ffU, 0xa9d102ed0497f29U, 0xbdcceb45ce9ceccdU, 0x45c6f6121a8158ffU,
  0xf0d641d481e6c7f1U, 0xdde0eeccfdd8d8c3U, 0x1d0e3e04b697a3a8U, 0x81addc9e9816039U,
  0x664807c581141143U, 0x24ca03d6e6d89563U, 0xdffaa0d7a3b61acaU, 0xc7fd03d97f350ceaU,
  0xead71ceef4e854c3U, 0xc0172157fce981efU, 0x20b5d21b846ab94bU, 0xbfc7e2d6c18481d9U,
  0xfb120609816ad5bdU, 0x48280f3939b6d325U, 0xb228e8d8c37ffbcdU, 0xe31118c302101f01U,
  0x28eadae3d6b92a23U, 0x74511e75b0f81ccU, 0xdef9d12da014a8ebU, 0xcf09e4e8919f7fe7U,
  0xc2d523c603c5d7a9U, 0x1305ed10cf8159daU, 0xbff4d1a88bd60dd2U, 0xd3e1f281dbc81f20U,
  0x110bb5def60a814fU, 0xf1d20712f0c2afbbU, 0xbcc50b81034fe8e3U, 0x37d5e8e6e7abfdadU,
  0xcd32ca81a2d20e1eU, 0xf7f102771559a1faU, 0x5f06fca2c57fdc1aU, 0xe5a3360b93a18432U,
  0xc14f0ed022be384aU, 0x81c104cdc8f3f704U, 0xacd10ad2564394a0U, 0xcc5adecbf9819adbU,
  0x131b06e89dcb27caU, 0x113406f0a60f81f0U, 0x19d70ef1c21bdcf6U, 0xfe0ef9ebe64481fdU,
  0xd00458ab81d70e1aU, 0x1d407fa00c687e9U, 0x71fefee081110751U, 0xea4b36faffc51729U,
  0x7507bbf1e14e1c08U, 0xd2210977af81c6d5U, 0x69381c0704d9be29U, 0x7fe210bd66a0860cU,
};

STAI_ALIGNED(8)
const uint64_t g_network_conv2d_7_bias_array[16] = {
  0xfffff7e4fffffbc5U, 0xfffff646fffff932U, 0xfffffdcfffffff77U, 0xfffffac6fffff908U,
  0xfffff9e4fffff546U, 0xfffff936fffff746U, 0xfffff2b7fffff7c6U, 0xfffffa17fffffa3cU,
  0xfffff7e8fffffc2eU, 0xfffffaa8fffffce5U, 0xfffff9b0fffff700U, 0xfffff95bfffff678U,
  0xfffff73efffffa00U, 0xfffffbedfffffa86U, 0xfffffa9dfffffb0dU, 0xfffffa82fffff8e0U,
};

STAI_ALIGNED(8)
const uint64_t g_network_conv2d_5_weights_array[576] = {
  0x290bd82bbe22e0daU, 0xd817eda8cbcbcc0aU, 0x4fce23fab0dffd9U, 0xf7f9eae2f908f12bU,
  0xb37eaf9acfdecc4U, 0xd7d9eef82a03ae2dU, 0xd11b271cfd23d2e3U, 0x2edffef1c1e0dc11U,
  0xe338e803fa07f301U, 0xf0da07d4f5f1df2cU, 0xd251eb1da10dfee0U, 0xdcc6f3dc44f29c11U,
  0x4036f5ec752a11dbU, 0xc2a13e7dbe91319U, 0x514f4f559022df7U, 0x15101bd533c10542U,
  0xe5f6f82ad2be25c7U, 0x40e406013bee8118U, 0x3dcc15030e3e1323U, 0x24f7112afdddd51dU,
  0xddb32bca3520bb4eU, 0x263601c5efca93f7U, 0xcca721d31e18c400U, 0x1eafad3ec0d01e4U,
  0xdaf8fc0fa2130231U, 0xfe6f123e01a032dU, 0xdaf12026e228c3fdU, 0xccf012ef00e6cbdfU,
  0xafc826e90118ddcfU, 0xd1fbc2eaf90fec28U, 0x66e7e0c2b916e61eU, 0x2181345721196a28U,
  0x420714c9b306170aU, 0x5d7eb1bd81f3328U, 0xe9e40ad3b8c1eaf6U, 0xfae9dee0bce52be2U,
  0xc7120efe3cfafcdfU, 0xe200d4edca43c905U, 0xd245f41ceac9c3a6U, 0xd8dcc5f2d34ac92cU,
  0xde05ae1295aff7e0U, 0x90cc04bbeb484b5aU, 0x211e35ed21e913bbU, 0x221b9106cf81f336U,
  0xfde929f4d0f5ceaeU, 0xfcf0cf02ee28b344U, 0x15e40021dbcdd4b2U, 0xd90312dee043dee0U,
  0xed280b161118feedU, 0x1bd2a6f7bab3ea14U, 0x13fd01f83620b82eU, 0x14d9e8feaeb1fe11U,
  0xe4ecdcd60c35c4faU, 0x720b3cc39581db9U, 0x37bd73eacfdc2f9U, 0x9ffaecf311e681cdU,
  0xd261e216dafbe6ddU, 0xba16e69d12cfd499U, 0x3e7d12f908131b31U, 0xf22aeef532cea8b3U,
  0x45f9f433d8eddd03U, 0xffe030c0437b8e6U, 0x190c181aece0d5d7U, 0xd210d82d14f9bfd9U,
  0x39263daefce2081dU, 0x134901db25f8b1e5U, 0x1726db31aae93712U, 0x560220361f06d81fU,
  0x44f80af0c6f51634U, 0x29f9fcb8da33280bU, 0x4a333bd8ceee1359U, 0x152334bfecf3efedU,
  0x353de80ad121cae3U, 0xb92001b7ffb6d0eeU, 0xf018f9fada37f1daU, 0xec06f2d9d3dee7d7U,
  0x1e2515fd100ef6f4U, 0x2f02dbf7d4f0ccd1U, 0xe3f0ffec70dd0d2U, 0xf83100ef0dcdecd4U,
  0x412223d8e5def7d2U, 0x224fed80903fd03U, 0x7bfc19e91101ffe5U, 0x371fe40d1104dfe1U,
  0xee14110eecd0f421U, 0xfb2606fe1cf7d0eeU, 0x16280dddecf9120eU, 0xdc1c11e81bfaeee2U,
  0x7f1733ee4227352cU, 0x182c12dbebed06f9U, 0xdfe7021033ae7f5fU, 0x1503fefdee56fae9U,
  0x10edf01c04c3f440U, 0xed25ff0319e9f73aU, 0xee0a16cfeafcf1a8U, 0xef221ee5e6170ae2U,
  0xd1ff14f718cd5ee2U, 0xf7ecfec9e73cfceaU, 0x6f61ce7fecbff45U, 0xde0f0d05e4d4e504U,
  0xf709fadff2d6e1deU, 0xe9f1f1d6e6e204e7U, 0xea0d2a20f8f7ffdeU, 0xe808fccefd15acb8U,
  0xfaf7f31beb070eU, 0xfce4f4e51107a7cdU, 0x1407e426f306e7U, 0x8fcf1d016d7c3ccU,
  0x2de11637a5111137U, 0x32dad02279660cf8U, 0x340ef00ccddfef16U, 0x2508f46860febcf8U,
  0x1814eae2f1c7e3f9U, 0x19f9aa25fa36c0c6U, 0xcd82de5fff3f7f2U, 0x64fece472c18a51bU,
  0xface44e7fc0bf204U, 0x551ff82818fb0111U, 0xf5db201e03ffdde6U, 0x640ec310dd408e91U,
  0x93f1ffd522f1e2deU, 0x3d42ce3a4ec7d9f2U, 0xb8da2ed613daf0c8U, 0x330d15d81fa90ad6U,
  0xbdc9000c19faf5d0U, 0x4ceef3d700c4a281U, 0xedf8fad033f421f8U, 0x3a0505edd1eb06f7U,
  0x1cea06030b0419e6U, 0x3805fc21f3c4e1ceU, 0x3ceb16eaebdd1cddU, 0x7f0a053211dffbddU,
  0xb0f31cfe0ee52ce8U, 0x14d9f6c2d7e5ffd6U, 0xe9eb2c1ff5dd19e6U, 0x2af2f1d7d5f402e4U,
  0xf327f3e9dd10faU, 0x4417f6d40fa5f1d9U, 0xdaf82c0b1be80ae9U, 0xb903cad2149ed3d4U,
  0x70330f4eefa0df8U, 0xee22fec1fdb901dfU, 0x1c3a5bdb11021adfU, 0x14031bde0fc2e4dcU,
  0xf1cd17e7edee5af6U, 0x280413f805cf0ecbU, 0x32e0fcc720cd26c6U, 0xed0bf7150e1f0308U,
  0x7fe3c2efffe81044U, 0xee1902da27f90a26U, 0xa6f028032fe24ed8U, 0xe911de0fb8f7f3U,
  0x25f8cbc917ce28faU, 0xd8cd2111dec5c232U, 0x55dceef0ee00fc3fU, 0xd4e72ff6d9170612U,
  0xcc061f04f1e229ecU, 0xf109e8ba4d3fd2eaU, 0xf7dbee0bfbf9f63fU, 0xdbe605d41fd9ca2aU,
  0xbf52406f512db44U, 0xc72c1db80ee01b04U, 0xc9f5331dfd19fb86U, 0x98e0ac1031f6fb40U,
  0x1ce102fbd2d945c8U, 0xcbbbcac12543244fU, 0xda113f1401a147c5U, 0xd1e106f72d2e385bU,
  0x162d37c4fc063cd8U, 0xc81ea61e07efc666U, 0x2cdb2cf062f03829U, 0xfe2bf70a1200470bU,
  0x58fa0aef1521007aU, 0x1c52ff51127e5f4U, 0x42fac5bcee1fe0f7U, 0xbd2bfdbd90148aebU,
  0x1009b8910aeea8cdU, 0x81f0fc692fb9681U, 0x9cc9eca94b0ba911U, 0xeafd14e383070194U,
  0xd804020ec7f5e8efU, 0xd70d21da0ff1e501U, 0xfd0a0803e0fb06eeU, 0xa102beb1d260df9U,
  0xcef12dbdbf70cf9U, 0x2efc42f9267ffcf8U, 0xd80b132dde02f9e5U, 0xdf1c0adf03e6d0e6U,
  0xd14020fda0311f1U, 0xfe2324ec14f8d304U, 0xfd10f0e5d301fbefU, 0xa32fa2aebbd0eU,
  0xdf041e1be40401ffU, 0xee320be3fdd4cad4U, 0x170a10fee3021100U, 0x291bf2f4d5b8e9U,
  0x201e07f4e4e904f2U, 0xee103dfd03e09119U, 0x7ed20ddd64be730U, 0xfb2ded0a517f2df8U,
  0xeaf50ed6cbfd1539U, 0xf71d03100d4432f6U, 0xffd9dcd5f02d2c45U, 0xe32ffe3c03e836f2U,
  0x26d9f1f1e526e712U, 0x1020fafb4a2e1611U, 0xe804fdcc1f5522fbU, 0xe14bf21514d00107U,
  0x21fce8c5d4011410U, 0x231122bdeedc90eU, 0xf0e8ec11e90136f8U, 0x1d16d92031da0e25U,
  0xff02fcbedaf40be6U, 0xe61a0f27f0e7d11bU, 0x90cf0cf1fdc22cfU, 0xfa310f28eb87b94bU,
  0x4bcdffbcf30533cdU, 0x1410f503069e1317U, 0xece105dc19fe17d8U, 0xd11625f814050b34U,
  0xa9e8e910c9bfd8beU, 0x810327bf20460256U, 0x16e81cd80ff6431dU, 0x400bd01508e1dadeU,
  0x10123ef025ff0204U, 0xed0bf2342ece0d11U, 0xdad815260ff2d5e3U, 0xc9052ae6fa13155cU,
  0x2322eeff06ef0534U, 0x323ae5e6034228edU, 0xe1703d31cd6cb02U, 0xfc240737f7cf0ee0U,
  0xd2f90ee0f005d344U, 0xd03226160115d61fU, 0x9dfd1bfdf321ad8U, 0x41fd3e7ffc474b40U,
  0xe3dbeacbe1f31bfbU, 0x25183721d0b90b00U, 0x3add09f440bd4019U, 0xf4210112eafa32e3U,
  0x5923e0bb081d13f6U, 0xad92d5aef3f3f2cU, 0x3a37fefc3fcc1139U, 0xb1fb2611c508d41fU,
  0xf823fd153f0e1c19U, 0xeef129f8c98e0016U, 0x5d2adce9100c3c38U, 0xefe73c65ce0ccb35U,
  0x46ffe809fdf42d4cU, 0xb6de0f1ac13e9e25U, 0x2528ec41e4eaf025U, 0xe9ef1227c6bfde34U,
  0x2a68cf37c7eac20bU, 0x700f3d6fca58501U, 0xec40d424c515d6f7U, 0x15f6e00f8ba8f8U,
  0x2041c2e7aafba6ffU, 0xee3e02acd8c0cU, 0x1d37f11c0208e0feU, 0xf1f5f6180cb985fbU,
  0xea21f428ddfef705U, 0xd8fafdeb08a1a65aU, 0x530f3d4b7d008fbU, 0xc7e1b9ecf996950cU,
  0x23dae4ba07d6c519U, 0x20f8e7de10c4a5e1U, 0xd7c6ddb41dd1df06U, 0x1f402f0ffc0a971U,
  0xebd00b81c3c4e507U, 0xd2ece0c2acafa911U, 0x412ee4ad90ee500U, 0xfaf143d547204b2cU,
  0x62441c02aedf26fdU, 0xf0f149d50430653fU, 0x323e3be5eed94fd7U, 0xe9e330f2160a3cffU,
  0x3213e55affd5110aU, 0x2e33c56363cbf7fU, 0x124b0e67dad11612U, 0xa3fd3df61498db28U,
  0x72cda1d12f13dcdU, 0xf0e223e314fb9a31U, 0x7f3d805ced8d9c5U, 0x7e224274f06ba76U,
  0xfa1efe0302edd6c6U, 0xf20806f258e4c73aU, 0xfd2edaea08d6fda4U, 0x6d739176f30d6f5U,
  0x1bd510ebb6ad3442U, 0xeb08c52e28de4d42U, 0x33e7f9c9e9b8071fU, 0xc36e42335b5293aU,
  0x10c4d3f905a9e4eaU, 0x3e58020dfddc2b11U, 0x3f0907d2f1d45a2eU, 0xe9ceb81c3b3a233eU,
  0x2afa1feb01ec0d23U, 0x1520dd29f5f7f54dU, 0xefc03ff020e0ef0U, 0x4134db35e7033833U,
  0x2be8f0bd130f14faU, 0xddbd0e43cd27f012U, 0x3d1ceadc28dad848U, 0xdce21f009c3619deU,
  0x152afdeeeddaa8e0U, 0xde7f224810edfcdU, 0xe6b121d301fa0a13U, 0x111c2c07cb28310bU,
  0x38e10fd403f711f7U, 0x131b24d3dc0b1106U, 0xfff914e432f000f5U, 0x1a1505faff32eb1eU,
  0x7e112f2cbf13b12U, 0xe5ef0221ba0d0c3cU, 0x40720f5c8d950ffU, 0xf5e001e50ef2e40fU,
  0xf11d183bf8eb7f00U, 0xe6efebd910fb120cU, 0xdb0cf319e8f719e9U, 0xd5c5de0f2af5f8f0U,
  0x180e0a21d0f121b9U, 0xe0d102031518d606U, 0xd02ef838c3f008c2U, 0xe6c6e7e9290dccf9U,
  0xf8d83346e789d42bU, 0x4606f308eb12e3dbU, 0xacd812e4e1a3e134U, 0xe203ed13c2e2dfd5U,
  0xb81a30fa3447081bU, 0xcefbd3c4ebaad71aU, 0xedd72e30f9c31cf7U, 0xedfbfcf92ec1e5acU,
  0xe7eefa11ca162cd8U, 0x2ef0fed839a576ffU, 0xccdbf63116ff0308U, 0xfa17d126f9e3770aU,
  0xfcf6017f428316abU, 0x2f2ddcd44cc3cfbcU, 0xc1cadde545b4faabU, 0x1c091dfd65a226f3U,
  0xf6bdba1e5d09bcdaU, 0x3c0c01235ad56331U, 0x292638a379cb06e4U, 0x2aed131a1548ef32U,
  0xfb0b1c26f1c5182eU, 0x11071a0af6f41d2aU, 0xe8d4fc23c1eb34e4U, 0xa3e2ebc8db734741U,
  0xd31928b0002ffc26U, 0xf7fdd5d3d472d225U, 0x101b0edbbf22fa08U, 0xef0200e6e41337c1U,
  0xa4cb01f5836c1395U, 0xd8e6c09ded6b7fc7U, 0x40f3e5ce214233c1U, 0x32cdc4efbc126be1U,
  0x150dd612e01c1072U, 0xfcf1ebc2f5e329f7U, 0x2ba9d03acd1045b7U, 0x91b3bbdf03f66cffU,
  0x1af71acdc86fe70cU, 0xe3023de01c0d21eeU, 0xf7ed0605cf0ae3e7U, 0x21211ef191e33dcU,
  0xc0c9b73db7b9d811U, 0x2fe5dc343a037624U, 0x2c140cc12a5dcb30U, 0x92312fac8e17f20U,
  0x13faf0e3ef55cb12U, 0xf215e5df01e6242eU, 0xf8f6e4dc0ce046U, 0x33e0b5f921dafceaU,
  0x3135f3c5e578bfb9U, 0xeaf001e99efceb00U, 0x52fde04fc4ae527U, 0xfd19d415c6bcd101U,
  0x308d9fa1a20f514U, 0x36c9d0fff2062be8U, 0xb325591419cdcbd5U, 0xf12ecd810adefadfU,
  0xdbda52e5042dd4ccU, 0x2c18c5da092c0504U, 0xefb520f22e2cd4eeU, 0x6c2bc3263f12712fU,
  0xede74dda3c26e802U, 0xe6d7da83e3d1eafaU, 0xe5d50d06060de2f3U, 0xf8e0ceecb4b96235U,
  0x10bee9f1fdcb0e3dU, 0x52fd8d501de255bU, 0xd80e1520ef2e0505U, 0xa8d2b5d69ce82ee4U,
  0xe20ee429ceb904e3U, 0xcfc1eec8a3e4f00fU, 0x6f0d3c9f907f933U, 0xd40d17d4b2f9eb36U,
  0x443eeaf1c03c060dU, 0xa5e800171ec2051dU, 0x6054011ed5e4e1ffU, 0x9efdd39e30d4d8ffU,
  0xe85bf9f2e0acf1d3U, 0xe0f610ff3abaf69dU, 0xd80efcbbaaeb1a24U, 0xf2dde9652700e968U,
  0xff13f729ef35171bU, 0xc3d90044f9f1b3fbU, 0xdb0c2c14bee6e0a7U, 0x12d7e516e3e6fbc3U,
  0x83b7a2a323ea81a7U, 0x1ed7d46215fce531U, 0xb210de02232eba95U, 0x57cb09531cc8fcd9U,
  0xcbe513f2fdeea8caU, 0x59f2ee092055d69dU, 0x3a0dff3feef91059U, 0xeb07fe09f4e31595U,
  0x28f3dc34dc13b267U, 0x60af51b16eb9aa1U, 0x4cbf9ecf22681f1U, 0x2f00de0148b2eed1U,
  0x90a0d26b80bf03aU, 0xc613e9f92be602c2U, 0xcffdfd19cbf0cef9U, 0xf5fe0af0190bfed5U,
  0xaafd0203ef27bc92U, 0xe8e2efe129df0327U, 0x1cfad059bed95010U, 0x9e9f0f74c2fe0e5U,
  0xc9de1063dbe760a7U, 0xf0cee70100f43dddU, 0xbe1d0907aaf5508bU, 0x20cdcd1f230d3afcU,
  0xcdfbdce11f31d1f8U, 0xc7e8fa28ae326413U, 0xa608e0c80c19eebaU, 0xdfe3f801a8b51500U,
  0xa5fee5ee2326c997U, 0x900801c9e1b86a17U, 0xeaf2fff649f6f3e6U, 0x2b291e09f92f0b1cU,
  0xc3e1d0be11f62f81U, 0xe5cc17e5d6ee3f2cU, 0xb9dc02ed0ef31ed4U, 0xf6dc24150cc1f862U,
  0x2fef26e7049e01e8U, 0x430d32382574263bU, 0xf1eceecee0abeed1U, 0xe0f0270b0c07f53aU,
  0xf8d7042eb4b5f010U, 0xd5f129d827470550U, 0x11f01408f743df21U, 0xf405f4f214c4daf0U,
  0xb0de1271a22cf18U, 0x1101eed52b08d401U, 0x13fe09fc463cfa16U, 0xefd0bd7302c1bdcU,
  0xf1ef0107f351ddfcU, 0xff06e50500c508f7U, 0x1afef2064336f7e9U, 0xc12f0e20fe90c0dU,
  0x2aed030551320712U, 0x20bfaeb2207f5edU, 0x3250321143adbfdU, 0xf10a0fe2fbbec818U,
  0x1f1f082a340ffffaU, 0xfb1ef4cefcdbf71fU, 0x220a01227f222b0bU, 0xf10414e9ea160306U,
  0xcdf808e8f79e18ceU, 0xd7ed39d82b08e7f5U, 0xb806dd1b2cb61cdaU, 0xf0120d1a080e12f5U,
  0xc1fc033a139ae123U, 0x6f316c21542f8fdU, 0xf7f922f301e5ecd5U, 0xf6e62304cd5a4431U,
  0xea01031319d1e8c8U, 0xf9f800cae7d94305U, 0xad061d4053b6f421U, 0xccf440fa23debaf6U,
  0xff191b9ac9e2d913U, 0x28b45900ce05ab3cU, 0xd607edb13fe9a6bfU, 0x1ddf2bf2cdd0ce5dU,
  0xd3063d017fc3b6e7U, 0xb1e527cef4fce051U, 0x1d1002e50903f6caU, 0xe4c13930dc970e0bU,
  0xf1182402f7ffedc7U, 0xd1f614defbc18749U, 0x11edeb4b00d2d3f9U, 0xb062e05e4b9dc20U,
  0x220c0206bbea17e6U, 0xdebd3e770935f40eU, 0x15e3fb2eecb7f5e8U, 0xa1d90c0317d40c45U,
  0xf3e2eef9feb6def3U, 0x30f2c4916c3db14U, 0x91d1823990e0aacU, 0xf4ff336b2a69d805U,
  0xcdc8f451d5cbcda3U, 0x4fe2576b253abc4fU, 0xfdeffd1e0bd800a8U, 0xe305f525cf78114U,
  0xeaec2f59dc2a27ebU, 0xda12f0eeb9c981f7U, 0x1c06202407001d35U, 0xb5ffe1d5d9c28bf6U,
  0x22691f023c276260U, 0xedfaf9e30004ea0fU, 0xf1f20024ba20fedeU, 0x20d7edc3e2a8fd2cU,
  0xf632db2806f5272aU, 0x2f2dcdfdb0b052fU, 0x2812cb33461f5150U, 0xf5feee15e227f2d9U,
  0xfcdefa1003f8dcf1U, 0x40d1c516ff2f2c12U, 0xff0ed606cd1f0adfU, 0x2fcae33bf3332b02U,
  0x2dfaf8d30832172cU, 0x22bede14222fe5d8U, 0x63ea23b8402c03e4U, 0x4adb351d36ff5934U,
  0x1ea53d50fdd4262U, 0x2de10fb0822e422U, 0xd6de37aed4b87f7aU, 0x2d7bded0590fccdU,
  0x3ef026cef23ad1efU, 0xff0342fdedbba402U, 0xffe43ce60445c999U, 0xfcf80beef916caf9U,
  0xf9dc49eb1011c1ecU, 0xfcb8d31d2976bbe0U, 0x352a24f5e06020f2U, 0x322c2dffc22b08d8U,
  0xa321534cc26f9cfU, 0xf92210ff23dd1117U, 0xd8021b4ae1ddb7bdU, 0x42d9efd9db66ed02U,
  0xb71231e6f61d5135U, 0xea01cfd3fc05e8edU, 0xe4051635afc00900U, 0xed0adc4d03370bebU,
  0xdf1e0836aebe25e5U, 0x47f9dafdea7f000fU, 0xd9160627f017f1eeU, 0x8eac6f2b6044ef7U,
  0xf802fb2ada381c05U, 0xeecd3e20727400aU, 0x1c1ae5efd9e518dfU, 0x1952c52516387001U,
  0x8fd71ad29e3e9ed6U, 0xfc1fd3fac8e2e4f1U, 0xd2e3ef06d5feb4c0U, 0x130afc19d00b07e8U,
  0xdef4f701b6eaa7aeU, 0x1c5af23f13ebe1ebU, 0x28dac6b5c240e6dbU, 0x1cc1d70536fe0d07U,
  0xb2e11711bb01ff1dU, 0xf7d1c8ffdcdd28c4U, 0xbfb808cfb3f3d437U, 0xe6f1a6eb9ac41236U,
  0x18e0edc908e2a5d6U, 0xd33d9e52b25373dU, 0xeee031d6c9d11112U, 0xb2e5dcca1d47c7ecU,
  0xd6e5140fced1c51fU, 0x1de7b0e019e91329U, 0x3ad902ffef8918fdU, 0xc8fffada4a59ed7fU,
  0xd8d428f1c7f5fa17U, 0xd3ec08e540c7f62bU, 0xecdff12bc720f556U, 0x12dcbd2134d5e3c7U,
};

STAI_ALIGNED(8)
const uint64_t g_network_conv2d_5_bias_array[16] = {
  0x40c900002169U, 0x8d0000678cU, 0x2a6dfffff6d8U, 0x298400001497U,
  0x3cd000000d33U, 0xffffe770000003d7U, 0xffffbeb9ffffff09U, 0xffffb6d300007566U,
  0x151dfffff54eU, 0xfffffc3200001f8cU, 0x39b3fffffac4U, 0x3877000066a2U,
  0xffffac6b00003f10U, 0x100500003864U, 0xffffe18effffdd67U, 0x752a00003659U,
};

STAI_ALIGNED(8)
const uint64_t g_network_conv2d_6_weights_array[1152] = {
  0xf80c31332e0f0506U, 0x480c2ef5de1b3df8U, 0x2011ec0a2fec0541U, 0x4af8f7faf5e32cd5U,
  0x43005120d1ae304U, 0xf052705f70a3df5U, 0xee18231926eff50eU, 0x3944e513fae40ed4U,
  0xef14e1271cf5de19U, 0xcfae90027e71ef2U, 0xec1a1b331bfee1f2U, 0x93bf200dff2330dU,
  0x30e50bfc03f8e208U, 0x230107fff012e713U, 0x903de05e00e2e02U, 0xfde8fd09e438131eU,
  0xcdbff0106f2ecdfU, 0xedf7f2141ff70d0cU, 0xf30925ffeef21609U, 0xed1c02e7172f010dU,
  0x2bfee8e101fcfabeU, 0xd8fbef270bffff0fU, 0xcdef01111dff0005U, 0xe618fff7e6eef54dU,
  0x4afc5c0ce0f78123U, 0xdb0dd7f2ea38f333U, 0xf2ddc7e3a14afab9U, 0xe499ddd4f13000deU,
  0xfb290e0b102fbbf2U, 0xff0bf4fa0b02f91bU, 0xe8e7fad9da29c1ceU, 0xf4cfe70bf91108fdU,
  0x18da0a080201f9d9U, 0xc0e6cd0110f9f4a9U, 0xc4cb0534fe00dbbbU, 0xeadceeffc8d93f1fU,
  0xdaf3e3fefbf72ef2U, 0xee02f2d804e5bbf0U, 0x482121e90b12f4fdU, 0x1836d3ca02d3ea18U,
  0xe9f2e1f704ef33eaU, 0xe10024000ef52e0fU, 0x30fb2b11091dfd1dU, 0x1c16ecd20007f932U,
  0x314f9f8e50837feU, 0xeafee54af7f7401aU, 0xd238dd0d02fef8U, 0x1fed1ff3040521fbU,
  0xd3f3f0f500ff22ebU, 0x1aff0ae115f4f1f2U, 0x551cf71b120dfa05U, 0x1b28ebd90bf0d0ebU,
  0xe0f50bf9f7e2fbebU, 0xe8f3000b1fed3007U, 0xc0cf6e4fad6ea08U, 0x2fe16040019f5f8U,
  0xe9e1110007f61deaU, 0xd6fd063516f5312eU, 0x1ebd0dfb1006e4f5U, 0xde052a20e0fb04ffU,
  0xd9eaf0f0f3ddf4ffU, 0x23ff260e18100314U, 0x4d1ac410d72f0a29U, 0xfc000ed701fbecf5U,
  0xc8cefb0210e6f3fcU, 0xf20416fa0b00101fU, 0x1f1bd001d317130fU, 0xfbd61505f312ee34U,
  0xd881021606101af9U, 0xfa1e12e7fb3634U, 0xf1dd0aef15f3fe14U, 0x4080c24d5ff0c18U,
  0xfb0c38d5bce900ffU, 0xfb0789e9ea0d0413U, 0x36d704d1f8fb2dbeU, 0xd3ede73bea2002f9U,
  0x1027e2dddc13eeU, 0x2312f40810fbf115U, 0xbe04261b04034a0eU, 0xe2ebfb20e31be82dU,
  0x3ae5e5e6e613d403U, 0x12fdcc040c10f5f6U, 0xc9014f13f4302c2eU, 0xdeefe6ded70f0b17U,
  0xce09d80b02fa27fcU, 0xfc0ecbdef701e1f4U, 0x1ee210042e2a17f0U, 0x1aec053a0cdedcd0U,
  0xe0fbf9f8e0eb1af9U, 0xfdfd3f0a25ede524U, 0xf5fa22080df44b08U, 0xad4130c15d9fbcaU,
  0x25e504050af7d7bcU, 0xfcfd1cd7fee8e9fdU, 0xf7ff0cfc07350f1fU, 0xd3dafa14e10721d5U,
  0x9f11950434d0222aU, 0x49ff20f9fff7f4bcU, 0x2c040b061bffe9ecU, 0x2a12f75b6312353cU,
  0xb60a1d0cf8db1810U, 0x36032ae9e2efcc08U, 0xdec08e4fdffec10U, 0x1df8db513a112624U,
  0xf0d815142cde0bfdU, 0xf0df4cd4bceac61eU, 0xf8122f8f11d0410U, 0xe9cdd558360825f4U,
  0x320d06e7f823b6f7U, 0x207fcf7d5f91d07U, 0xdfc7081404320a10U, 0xef1c1907ee282ad4U,
  0x174202e6ff13ebfaU, 0x12070e250809f104U, 0xf15fb10f6d80fU, 0xfe2d11e607cefec2U,
  0x2053dcddffbbe9e0U, 0xe107f1bf2efcf3ebU, 0xe51f044d300dd12eU, 0x4d1539c8f3f0c881U,
  0x57f5db02fd2ccd12U, 0x180cc30bdd10fa2aU, 0x28f128d2073a220dU, 0xe1160621fdfdf5e5U,
  0x19082600e4f6ff1fU, 0xfc0ed4fa04fdf3f6U, 0x182918ec23e8e22bU, 0xec1c0e110b0612ecU,
  0x36e102f0e3f9fb04U, 0xcf03de040cfc0410U, 0xf8f12ff9392c03f3U, 0xe8f10928f6c8f2e7U,
  0x3deaf1100537c8f9U, 0xef03adcfe80404f7U, 0x27dceadb1121f0c7U, 0x1d1feb04e5dbde04U,
  0xeee727f9ed0b0319U, 0xde13e509e9fcd531U, 0x25f110f44fb8fef7U, 0x3bebdb070db8e742U,
  0xf390daf5f0fb3207U, 0xeb10f30105f5dd18U, 0xf0def3ec6bd22dccU, 0x3d930d16dda4d14cU,
  0xdad4d4eedcbfa3dcU, 0xf20abe9bd7e6a9e9U, 0x5fe3edb7d037c1daU, 0x1cfab0c4fdca9391U,
  0xf5f1cce5dbf8ddd5U, 0xdaf2d4c2ebd8cf29U, 0xfd2907dca910f4dfU, 0xe9faac4a0304e4eaU,
  0xf5f8e4eb0dc9ea02U, 0xf804f581b6ec971bU, 0x114cc0afd6edbcc1U, 0x9058e76e7ced028U,
  0xbbe7e205151108deU, 0x1f01d202f3e82603U, 0x16ca0cedcb78c8fcU, 0x6a16fcc8e81304c8U,
  0x5dee9fbeb220006U, 0xe2e9cc2ce9fbf914U, 0xcdf17dff551ff0aU, 0x2642cf05fc0120f2U,
  0xe9edddff071f1a00U, 0xfafed6ef3ffde100U, 0xf5fae4ef47122ffbU, 0x4116e1f2eebdee11U,
  0xc9dcfd1f1e3c3d13U, 0xfb0f22eef4f6a4eaU, 0x20fd0d3edff6baf4U, 0x2a171b2d02def2efU,
  0xe7fdbc0efe0b3f27U, 0x59e00db714e8d6deU, 0x3ae625373900abU, 0xd51c232015d013f6U,
  0xa8c0dfe0e803281bU, 0x1002e2f209e49cf2U, 0xe808080213163902U, 0x2423ec1216b10f5bU,
  0x16211e2c44de1510U, 0xf412d9ed18e52933U, 0x3d54d90209d2b206U, 0xc1fec0af2be0adaU,
  0x13f317281bf4090cU, 0xde1dbed0fd0bcdf7U, 0x1064200013ec9f2cU, 0x2d4c5b906e0e21fU,
  0x5c7ae0818dbd3eaU, 0xd9fbadbff3fcc505U, 0x3108222e8bdedd41U, 0x282ea081f8d2ca4bU,
  0xabeb3d0717fbf72fU, 0xe113d3d644e8e8edU, 0x1cf50b1b11c9f3f8U, 0xe100e50c04ea1047U,
  0xdad60ae90c0ffef7U, 0xf304f4edd2f4f4f7U, 0x121afce3e1eee2fdU, 0x1fe7e6c7172a020eU,
  0xc6cbe6fe0a04d2f6U, 0x39f8f5cfd8020c5bU, 0xfd9f0d3d9013c39U, 0x210b1102f93fdae6U,
  0xabc1e31506f125d2U, 0xefc2952f1f4290eU, 0xebb91d0625cd0ecbU, 0x2e082b1a3a0ce815U,
  0xc4c51307061d2ddeU, 0xcfd0c349d01fbf0U, 0xeddfdfd7e9e01729U, 0xa0d33021424df07U,
  0xcdb4f60d1106efe2U, 0x41e91b28e4060514U, 0xcdcad5f5ddde30eeU, 0xf03e7e703122d408U,
  0xf243e5f5f8ac4706U, 0x104435f230a1011U, 0x5355e5d5dc3c274fU, 0x1de41a8b1ff9e647U,
  0xf7cf0c1f09e74244U, 0xd40c0a3ee71a1f39U, 0x166706f4222e0bfbU, 0x33cf0bb814fedcd3U,
  0xe7ccae12facf0b07U, 0xd302d7fcfe011fdbU, 0x1e3c02f2b825fbcaU, 0x2adc24e0fc321d33U,
  0x3e027f0190e3905U, 0x38f25d2be4260f30U, 0xfd21ace4feff4b2eU, 0x27d9f6c3e0380227U,
  0xf3f8f9fd07e50a1eU, 0xeb08cfcde90e1bbbU, 0x217ee14f1f0df04U, 0xacf001ae025f3e4U,
  0xe2d8def505d545f9U, 0xcaf7e120dffee8d6U, 0x12f10224c135fa00U, 0xe4ecbef1e74a2810U,
  0x3fbd2214fdcde110U, 0x810200f5e33eff05U, 0x398b5280eab1100U, 0xeac1112ad22805feU,
  0x3ef00feec4cff925U, 0xae00ccca0309bff3U, 0x37d7f4e82823b8ffU, 0xf786ee02d2e420c6U,
  0xb8ad0de7ccefedU, 0xaae2bed9eceeddceU, 0x5ceb0a1eea0bccf2U, 0xd8b51b32de191de4U,
  0x3e1ff6c3e521f1dfU, 0x15f8eaf8b0f8ba04U, 0x31fe0490f45449e5U, 0xf2d2ef0bf040dee3U,
  0xc403f6083017f915U, 0xf80fd910f6e5c81dU, 0xd035faa63cf97fc1U, 0xeae63a7c1afbf7eeU,
  0x8dc2bf19335913e6U, 0xfd13ae1eefe72ddaU, 0xd721c8e605ba109fU, 0x2ead76ff1ccf4c8U,
  0x39023f04fcf8d90eU, 0x2af5bcd6b61d0016U, 0xceb07de30410dd2U, 0x1709b625fb00cbddU,
  0x90d19e5e9ecf3f2U, 0xe0fcecf50cfc0027U, 0xf9f0d4c3dd55e6dcU, 0x1f11f74c0df3f51aU,
  0xef19d8e3d5cffedfU, 0xddef20ce3bcbf1fcU, 0x53f4cec2b648abeeU, 0x1917c8340c23ddfdU,
  0xffee3f121cf92007U, 0x252225f0d31d08e8U, 0xc00dc734f1cf106fU, 0xa919eaee0f1a32eaU,
  0x30d1f6f012f024f1U, 0x1114e51eeb112bdeU, 0x9bdf0617c2f1195aU, 0x212f8ef0c2915eeU,
  0x2edf0bdfc8c71f04U, 0xe9f3fed1060a2ff8U, 0xd6ab34e1a3001622U, 0xadeefc92e4e363dU,
  0xffbebea16c921ccU, 0x19f052f342f949fbU, 0x606e51efbdad53bU, 0x2bd2138105b4c9d2U,
  0xe90ce6fe16e7f8e9U, 0x1107e3d9190cd0e7U, 0xf01cebe8f40dd9e9U, 0xfaf01f11fed9d411U,
  0xcae0fa1517c3fbedU, 0xf209e28ccc03c9dfU, 0xe6fbbfdad0d5e8ffU, 0x2017da4500cfe8fdU,
  0xffe5d9e603e607c5U, 0x2cff131502ed46e9U, 0xca0cd424c8d4f62eU, 0x12d24fca10dce2f3U,
  0xe8eae2f9f23ef816U, 0x2903ee10f1fb22f7U, 0x1415fc07d7e705f0U, 0x28ff13350de51b1cU,
  0xdcf3c9f8e343020aU, 0x1411e4c8c001c0d1U, 0x2e12e9ca25140419U, 0x4ae7033e03d710f6U,
  0x13c6fe1a1a0a51fbU, 0x60018fa0af8ed0bU, 0xf63235320214e940U, 0x13c1e3f506f30bebU,
  0xe8fcd6fe0225ee14U, 0xd16f113ed0c29dfU, 0x8351d0afc722b0dU, 0x7fa1c26153f5412U,
  0xc91ef8efdd04e6daU, 0x420ae90e1311680eU, 0xfc172fe045543822U, 0x1a16edf1fff07412U,
  0x1b04fde4d54b2ff9U, 0xa7fcf45104db4733U, 0xb948140521971441U, 0x3cf37f5e6c02bdfU,
  0x1e38fce5f61937edU, 0xefffdb2ffcee2d08U, 0xc206fbef2be0f1d5U, 0x170b7fd208012dcdU,
  0x214bf8eafbe1ebbfU, 0x19fc25c83ff3fef6U, 0xe7e902fff6e20a48U, 0x32f5ff1826f90909U,
  0x15cb08f9f05bda0cU, 0xbcfc0af50de3684bU, 0xec47f00c2fd03515U, 0xdb24f3ceede820dfU,
  0xf70827f8ed21effbU, 0xaaf9d306f0e02815U, 0x170822030707a326U, 0xd1cbd8f6dddb0ee2U,
  0x6261309f716dce1U, 0xd3fff9094aff45ccU, 0xfad22101e1d4c1d0U, 0xee20ddfe3c8e9dbU,
  0xf3d00beaf11c4df6U, 0x27ff15abddf231d5U, 0x631dd9c503db6e11U, 0x27292bce6615d266U,
  0xe3e22af9e3d53ff1U, 0x8fd2ce2b5ed2415U, 0x29db029b1cfe5618U, 0x1cfbf4e4252e1342U,
  0x29a03bffe1e206f5U, 0xdff6ed01ebf00823U, 0x11ee25d2b1f33842U, 0xffc808f50338facaU,
  0xf7f1e339f51afc28U, 0x3c04e62c14fe10fbU, 0x44085e12ddf6cadaU, 0x1d020520f401160bU,
  0x13e541d5bde0be51U, 0xe05ec24ecf71e06U, 0xa4050e5d92bcd38U, 0x2a1602e0d1dfd807U,
  0xe122aaa1923edcf1U, 0xe3f9fa641ffd150aU, 0xe2f44910a345e2f5U, 0x7426cb14e124a301U,
  0xf9ef1afbfe19e40cU, 0xf1f8e747cd18070bU, 0x2e32351938f5f118U, 0xec2b3a082afbfcfdU,
  0x14f40aebdf0fd1e9U, 0x230c1b03f5fffaedU, 0x6fcfff1c4c7e602U, 0xc8e5f5f0fd2108c8U,
  0x9ff04adc31518bdU, 0x1f71d3cceead441U, 0x6dfedb70bfb413dU, 0x33c21803de1db5f0U,
  0xccc3ed111a0f01e9U, 0xd80ff0a1fdff5cacU, 0xd173679358fe72bU, 0xf5501e340ac1eef2U,
  0xc9d2040926364201U, 0x32fc17eae7057144U, 0xcb13fe0144d02b25U, 0xf2e92f220ad0cb24U,
  0xcfe3ecd5dd6166a5U, 0x2c120007d8dc46f2U, 0xcbe1fd207fc0313bU, 0x3f402b15eaadadceU,
  0x3a190d0604dcddf5U, 0xfb04f612e815071aU, 0xffdff1cf0d05151bU, 0x2261dceef030bbcU,
  0x33ff13092ab0f1eaU, 0x602e9e5da06f609U, 0xf602ebddfe091503U, 0xf021644011516e2U,
  0x4005e60c44c8b80eU, 0xf60bdf0513f2b40fU, 0xfd11f8baf80205dfU, 0xd5d8227f00c9e791U,
  0x11f91c070521f50fU, 0xde01d2f7c215e2fdU, 0x1ced14f62ddbed07U, 0x15203ccff6e6efcbU,
  0x9f7190802d5dd00U, 0xdafceddcd8150c06U, 0xebf2dbfb531a0b09U, 0xfef82307f820ff16U,
  0x91ffdf1f3d0d1feU, 0xf1fdd40fe8f4eef9U, 0xf9dee80311303be5U, 0x907056dedd519daU,
  0x18fa2e1a24163810U, 0xcfffda11d81cc9e1U, 0xee324431e7b8fcU, 0xd62bf0cce5d5fac0U,
  0x29f3110d0cf8f438U, 0xd5ff04011c131314U, 0xe720e43d0d0d9efcU, 0xf43c11da00fbffeaU,
  0xd27f0000135f20bU, 0x5fe1906e307c7efU, 0xf5e3e728225406e3U, 0xf72b131ff4fcc91bU,
  0xdc2bef0a07700726U, 0xd008151d280b20a0U, 0xddfd08bb3a0ef400U, 0x291d33ce08ae9d34U,
  0xdc9f607b71efa11U, 0xe9f449045201e605U, 0x5acafc3ba2b3b7fU, 0x22bdf6d2d9eceb30U,
  0x259214e4bf360cf9U, 0xeaeb4e16e2fc20fcU, 0xd2b5ceee9420473eU, 0x1db41cd40d3a1d43U,
  0xed16d50005d70ff5U, 0xd2f7161110dd18c7U, 0x25ee553f594bf51fU, 0xf06239c3e811ec20U,
  0x66e4090ee81b0f0bU, 0x100104e453e90200U, 0x2210e81cc94c1419U, 0x21fe0414d8fee63aU,
  0x34acfb10ebfde2f2U, 0x11f528dcb6ed043eU, 0x1460c7dbbe26e81aU, 0xd4fcf0390d452cd6U,
  0xd76503f1fdec14d0U, 0xdcf60a12d7d0dc00U, 0xef2d3c2703abc72fU, 0x2b2907d02db5e824U,
  0x5231bef6e0dd1acbU, 0xbf7e11dd9fadad0U, 0xe90ff60d080efcd8U, 0xf61443a5febffd2aU,
  0xe861b6fe0f1b38d6U, 0xe2f1e9ecf9f9ffb8U, 0x1b171cd20fd6d3bdU, 0xde195de60ee710d4U,
  0xa1edbf70be912e1U, 0xeafe23fd0cfbf107U, 0xf6f9ef19f60cf248U, 0x41ef706dadee2cbU,
  0xf729f5f0f3f408f3U, 0xe0fb30faf0f5fa07U, 0xfeecdcf5e7eae927U, 0x1cf801f8fadce6e9U,
  0xeadd0cec0425e83aU, 0x1b09fbfcd304e4faU, 0x1244d8add5e70ef6U, 0x2c4061722e9e6d8U,
  0xd2f0cbe511062bceU, 0xe5ff12d316f627fbU, 0xf3f9122efecc4121U, 0x5f92afaf1fe1511U,
  0xc203f519060d1beeU, 0xdfd16d4f6f712f1U, 0xe001efe90e0d0e28U, 0x13fbfcf51ffef312U,
  0xcdf0eaed01241440U, 0x1920effae8fb0501U, 0xf740f3ca01d82000U, 0xfce415c41507e113U,
  0xfff71601ce36d736U, 0x7f8fc1416ff28d2U, 0xe540f826d2e9ea18U, 0xddd1e3dbe9450ff1U,
  0xb2c1407f034fc42U, 0xf502ccd0f5ea1ceaU, 0xbc0bfe0af83707f9U, 0xedc6e5bcd72feb10U,
  0x3d2efcfad91afb40U, 0xf323c3e8d4ece90dU, 0xb833d705e7e201e2U, 0xffdee881bd08c0e9U,
  0xeb5fe5e70fedde2cU, 0x1113dd1409fcdfe4U, 0xe112141303c60bfeU, 0x52f2b1d31d413edU,
  0xf024f6ff0307f7fcU, 0x1501d42bdf0d02f3U, 0xfad132f01901141bU, 0x1f33ebdbfd05f0a9U,
  0xe148e2dd14f7d80dU, 0x3d090aef3507e2eeU, 0xc034337f72de134U, 0x347fc8c10610b6dbU,
  0x29f8cbedf9fc17f4U, 0xc70bf4ff07f1ead5U, 0xd312240423ec02c7U, 0xf2161c0efbd8fee6U,
  0xcde0704111a24f4U, 0xb07efccfafbfe01U, 0x17fc04fe30eb0c29U, 0xbfffc0deb02dad7U,
  0x3ef4f701ee17d1e6U, 0xfffb1bec0301100dU, 0x17e604f9121dec42U, 0xeded0df6ee1adedeU,
  0xd6b7b204f7bb4aecU, 0xbde624bb0ddc11e5U, 0xd9ce44521fdbf8aeU, 0xfbb83719d1d4222aU,
  0xeae7f6f7e7051ff7U, 0xbff255eeefe8f2fcU, 0xfedee628f5fad909U, 0xdcb01d0ddcec0618U,
  0x27c7ec19000206e0U, 0xa6e329e6bcf2e826U, 0x2dca1c182d08f83aU, 0xcb93f119e13214f6U,
  0x3cbe251bec092144U, 0xc0fffea3d51904ccU, 0x5fef1a105d1cf8cdU, 0xca22cedc14fbeeb7U,
  0x15e4fe030fcbfaf7U, 0x100625d2ee0cf2ffU, 0x1be20a293e1b0fcaU, 0xcff423f207100defU,
  0x1fa5e6fa24c0ec13U, 0x9ffb0d1dcfce1e3U, 0x285b112b02b9fa81U, 0xb95220d32309b61aU,
  0xe6db052147c58a24U, 0xc1616b12709ff11U, 0x3e1916e3e223b7c2U, 0xac1cf6233fe83d24U,
  0xe9db092d22bdd8f5U, 0x2d0cf902fa090502U, 0x250119f29cd7c4beU, 0xe7adeafefadec45bU,
  0x31f5eb2a06c2cf0eU, 0xd000c5bdc30f302dU, 0xd57ece17bbde202fU, 0xbb7118dafcf2d807U,
  0x4410c1b25f0c012U, 0x16fa1d11dffee9dcU, 0x1fe7f1d8ce33f3e8U, 0x18d5f8ee14f2be0dU,
  0x1a3f092b27f105U, 0x1605dd1947009e08U, 0x1feed624e509ff04U, 0xd64d1d11f8c7d5c5U,
  0x4438ec1d3ac9cfefU, 0xe8fcdeb9ce01b5feU, 0xe51d9fd209cd0eecU, 0x8c5f09c41dfce7a9U,
  0x3be026e7d44600e0U, 0x2ef9e60a17113427U, 0xf226fc0401f8671fU, 0xe23a3209076dac2dU,
  0x1bf425f2da1edef9U, 0x18f715090211e818U, 0x22e5e4122d315569U, 0xdc613409ee1be928U,
  0xf7f00de3e527f70cU, 0xfbf2e47f3a031802U, 0xe3bbea010a21503cU, 0x535edcde830cbf5U,
  0x1306e4f6f1321208U, 0x1ef72c1005fc3cf7U, 0xc718eadfeaf11ae0U, 0x19d7081d0616df4aU,
  0x11f5f12925e208f9U, 0x2d092cd9f922dc21U, 0x9da13eadb10e143U, 0xe2e313020220130aU,
  0x2bfafdf605eefe0eU, 0xdff9b32a11ede6d9U, 0xfedfe301143cda2fU, 0x1f2204deffe9eaf3U,
  0x1e08fe0211f5492cU, 0xddf5df24bd06d1d4U, 0xf6c9f3e3e897fadeU, 0x21ebe4fcfbceeac4U,
  0xfef5fd1a10ed5716U, 0xe4fd18e4db08dedcU, 0x14f20017f5d49accU, 0x1afd0d0026e2fec6U,
  0x31170c0c07d23ef9U, 0xc9efedc80300bfecU, 0x49111138e8d5aff1U, 0xc3919b8f8bfe0adU,
  0xd1e07e503e462e9U, 0xe9f74625e2ef1028U, 0xb3ecc5e8390e1556U, 0x23cf50d1ded0acc8U,
  0xdbffe8f000d1d4fcU, 0xfdfdedc201fcebd0U, 0xc7c003ed2f211c04U, 0x3ef221efe5bbf29cU,
  0xc820e30700f43adeU, 0xd5fed5d146f9efb1U, 0xb9a825d7e410bf9cU, 0xdbfc2f03e1c258c2U,
  0xdeeb331aedcd1a19U, 0x20f815e41df3f8e9U, 0x906ce03ff31fe24U, 0xe6001ae8e119be0fU,
  0x427eefdf0d731f3U, 0xe12e4dffcfc11d8U, 0xe801dff1d9f2d60cU, 0x3cf6fff4efd81014U,
  0xea08f7ddd9e611dbU, 0xe8efc133ecf13cf0U, 0xf8d548c3aa00b5ffU, 0x10c5f4041b053d39U,
  0xfa20080812f82aebU, 0x47080b1ad0062207U, 0x7f51c69cf01a0515U, 0x23f8edec2227c705U,
  0xf4ed14f8e70d04f8U, 0xf718e831010c43d3U, 0x266100c9f31e3e1bU, 0x5606eed841ebe5f0U,
  0xcdc811fed82a2dd7U, 0x6e2d65b02f91ff0U, 0x3c274deea74a581eU, 0x48f1f6df02fffc41U,
  0xfa0c3bf9ec37f4d1U, 0x3ae7fb07dbeb2a0fU, 0x9ff41cdec6ed1018U, 0xf2e8ed1f1833434fU,
  0xf5f6e4f0e1faf3d7U, 0xedee062afee6e8e6U, 0xbeec08141ee935ecU, 0xf909e7c60e181973U,
  0xdaa5d2eaeb4e1604U, 0xe3f20649e4070bfcU, 0xdebd0b032f0c12b9U, 0xf6f9f0b7f813c841U,
  0xfd0a31ef09eddbf5U, 0x207d6d516e5df1eU, 0xca48fed62f4a3ffbU, 0x161cf63b2b00260fU,
  0xf6fbcc0616f20deaU, 0x23f7f3f53fd8b9d3U, 0xeefdf0050e2fff06U, 0x1af5ea2be3be1525U,
  0xb8d4c009183613ffU, 0xfffbf32f0ee3c4caU, 0x34f9e903090f031aU, 0x2945cc2a190ae523U,
  0x167fe1ebf93b1213U, 0x4ef3addfe2efc8f5U, 0xf71037b8e439ced7U, 0x3223c9d11a42d0cfU,
  0xf52ee1f3f9ed1fe6U, 0x37f9ce092902d1fcU, 0x1bf62bedd81df121U, 0x222bd1160705f905U,
  0xb62cdbe4dddbd334U, 0x5af5c649fd02bdacU, 0x3431d21fffe30d35U, 0x22912ce1a291b07U,
  0xd51100e7dadd3e04U, 0x13fb38390212f500U, 0x11fed4f119b91931U, 0x1af30d2108191a2dU,
  0xaf813f3e71a1ff3U, 0x7fdd618c906e4f3U, 0xf2dcecd3fc2f2de8U, 0x1a150711eff2121fU,
  0x4c60708f51612f1U, 0x32f32a4a00f22b32U, 0xfcd71fde0005fe04U, 0x3cc2e6fd321ef45bU,
  0xc7eb271101f84415U, 0x30ff493e0619f715U, 0x25feb0043bed314dU, 0x16fc13d114f7f8fbU,
  0xed24efe7f9062cf0U, 0x13fb031902093418U, 0x3fbf40ff7101d11U, 0x3af00c0cf40a0430U,
  0x7f016050509fbcdU, 0xfbed1dfaeeddef3cU, 0xaf10fc7d60fd30fU, 0x18e0effe0128fdf8U,
  0xdcfc2f0b15f4fe18U, 0xff062e1d08161afaU, 0xfc29dcf539c7097fU, 0x1a05f1c3f2f1f0fcU,
  0x2318def202d20dfcU, 0xd101033c16f907e7U, 0xf4fefc11fde7ce30U, 0x25011befdee2d0e4U,
  0x2efedcf50d1112dcU, 0xdaeaebd4eceae40dU, 0x11eb412d3007d6f0U, 0x13ecf0f3c4d8e4e7U,
  0xfd0603e2fafb3501U, 0xc0558f934ff2316U, 0x6513d40205220d7fU, 0x1df429ace4fed0b3U,
  0xfcfffddbde0a0c06U, 0xf5054af944fbeb17U, 0x292511142feaea0eU, 0x540521bbf9fcf5e9U,
  0xe6f3d8d31c010eU, 0xf402f23f17fafef8U, 0x5cf411f8f015f101U, 0x23ebf8d6f9feea0fU,
  0xf904fe090e0e14ffU, 0x17ff18f109fe2f02U, 0xfb27f318d8f4f703U, 0xebdeedc6e40a0bf6U,
  0xf4f7ed03f818010cU, 0xc0c02da01fa2ce1U, 0xf809f02b08e9e50fU, 0xef031e110804ea1fU,
  0xd7e024f0e310e90eU, 0xe2090506d4f90212U, 0x6fc07c40c0e0c0fU, 0xf22c020c03122021U,
  0xdeb0009030719e9U, 0xd6f5fe07fe0404f8U, 0xf4ef1c27d3f5e6f4U, 0xb9d1ee22fef42eedU,
  0x1ee40709f3260c11U, 0xdf02e0deefe73116U, 0xdbeb192505e504d7U, 0xe9fb291504310d04U,
  0x5401bfcea1ff4feU, 0xe502f24adaf73cefU, 0xd4fafae725e7040fU, 0xe3f22f2cfa15010aU,
  0x3f29e2e4d92ce8dbU, 0xb0ab44144d202edU, 0xed4b0d1dea790230U, 0xa1bf40af0e1023eU,
  0x29faf007f3d45904U, 0x71008475ce805dcU, 0xdd3a34fb1635d63cU, 0x48f8dcf623241c40U,
  0xf8cdca0f0232230dU, 0x18fcef53df0608b3U, 0x4d1292be47bcdf9U, 0xfdf8d46b0d665777U,
  0x5220e9f1e3cffbd0U, 0xee5a906dce34708U, 0xfc150fdea26a020bU, 0xfff4f35524410bf8U,
  0xf02b26f803bc18dbU, 0x100ea0af3ee2d22U, 0xcb2915020841dc2bU, 0x32d7fb250a102f4aU,
  0xe5faad1d1ef140e9U, 0xe409c17fad0b3135U, 0xd2c85806fd082545U, 0x22941753e0321a28U,
  0xf926e8eceafdeee9U, 0x10130538e2f30cf4U, 0x6ce6dabdb85203deU, 0xf2c3df17fbe9bd0cU,
  0xbf0ed30b0ff137ddU, 0xfe18d80eb20a3b22U, 0xe0e57f4d928acd7U, 0x24f24304cf39e01fU,
  0x84e298fd0f1e7005U, 0x81fa0f8fd03570eU, 0x1cfb57496e04b3b4U, 0x3fe64136c731e558U,
  0x12050c0c22e4ef01U, 0x3fa00d31efaf7e4U, 0xc2fdddca5cc952efU, 0xfe121de219dcdfb9U,
  0xf1fa0fe20f13fa03U, 0xfd09d915fafce902U, 0x150813110526eff8U, 0xb59e911fdc6d4a9U,
  0xe922fbedfae314ddU, 0xe5022fd32bfa1819U, 0x25b12612f530c307U, 0x345dd9c6e5edcaceU,
  0xdefef0041edce701U, 0x19fee3ba0afdcdd6U, 0xfd3c17f8f5e424d7U, 0x1931f7f411eefb39U,
  0xeec0f8f0f6de40f0U, 0x603e0dd00f9dff2U, 0x29e8321dfbf6fc1eU, 0xde815f1e5170808U,
  0xe8f2fef6fd0440e4U, 0xffe17d01bf9e60bU, 0x21e72219dd30e349U, 0x4128f0fe1500d7efU,
  0xb2f4f8f814e6220eU, 0xb04e21cf2fdbedaU, 0xfaf5f2de65bb2420U, 0x12fe23ee1ceaf439U,
  0xcaac1a00050d45f5U, 0x130110fefb0e261cU, 0xbaa03f110c00f01U, 0x67c3e004f80fec2bU,
  0xd3bdeef901d234deU, 0x4bfc7f121d0d2b72U, 0xfda5000900bad754U, 0x14c7221a12f1ccf8U,
  0xdcede712f7fc1018U, 0xc0f9e6b3feecd8b4U, 0xbbd3d306b4ecf994U, 0xd4efef7fde28321eU,
  0xfbe2e60f0900fdefU, 0xdb03f6d5f1f9d8f3U, 0x3f9e002d0ebe1d7U, 0xc9dd1457f71c1df1U,
  0xf7ef19070ce70925U, 0xfc04f494cbfade0bU, 0xe9f4d0d5c7e1e7f6U, 0xe1c5ef5404f41ce2U,
  0xef0f405fefc1113U, 0xe50cfc451ff802daU, 0xb0ed0051df1a09f3U, 0xe815ebfdee00ed1eU,
  0xa0a0412f72d07f4U, 0xfe07f7082d071ffcU, 0xaddc05fe1f0a2318U, 0xe0151502d841f0f7U,
  0xf4d129f31002f604U, 0xd9fc1fbf1cfbf424U, 0x1a14cef11518200cU, 0xe61d2ceaf602e8e5U,
  0x35e30305f103f4f8U, 0xf7f4df3f33ed1906U, 0xaf06ffefcb111bfeU, 0xad532dae806293fU,
  0x15fc04f8e10a0df0U, 0xd5faf225fff6da05U, 0xedc321dbec1b19f3U, 0x1d0d2aeacf10f01cU,
  0xeb13e807fc3adcf6U, 0xf1f0f0f3c6f9d224U, 0x1eeeecfc2c1aec1cU, 0x18250d14fc08fdffU,
  0xaafb23fcdb27c4f7U, 0xbf0f40cf8126614U, 0x95e6ed54dfb90548U, 0xd7c034ccaf4d2bdeU,
  0xddfe1df1cf1a0bf5U, 0xd6f02b593ff8723fU, 0xadeffd3339dbeefeU, 0xfcb744e9ed1522e7U,
  0xd6eb18cadf26f3c1U, 0xccf4fc465ef1ff26U, 0xe7e43c5043ef0302U, 0xf12204b1cefcdf2cU,
  0xf0fb4b232166cb07U, 0xd9fe232ec9117f1aU, 0xbeeb1cf2d502f91dU, 0xe201e508d7ecffe6U,
  0xd404fe151b2904feU, 0xcd0602012ee9121cU, 0xd317b9d7000402c1U, 0xed0108d6eabce402U,
  0xe1f0d3110c18e507U, 0xa000d72b0aefd5f6U, 0xcb1affda42f40adfU, 0x15fcdbcaf1c1b313U,
  0xedfdfdf8fd560ae8U, 0xc4eae3cdbddfe61eU, 0x2acb38041a0106dfU, 0xef3e0e2bd3f01403U,
  0xdc15ddf7f06dfde7U, 0xdee319003fd0e7e2U, 0x315e52c07f3e2c7U, 0xe617d9f712dc133dU,
  0x8af58df5f212ecf0U, 0x7ecdff427cbd0bfU, 0x3000cffa422117d9U, 0x320cf10004d4df47U,
  0x17dc13fce329d31aU, 0xe601c62b4b27e739U, 0xa20dfb37f0962826U, 0xe4e8fb47e5fefffbU,
  0xdeee18fcf7f40a0aU, 0xd6f2cc4836e3e1f5U, 0xef08c42df3bf3409U, 0x1aeb2602e631d315U,
  0x14c14c08d2ea0ce1U, 0xbee8fdd433f80311U, 0x427e563d8ac1c45U, 0xb6e425d819c2dbU,
  0x49be42e0d944d240U, 0xf4fce0290600d925U, 0xe42227f9e41141f6U, 0xfdf7080efb4529d6U,
  0xe7f9f2f8f802d1feU, 0x40f50eebef0b2e0eU, 0xef1ddb0bc5041206U, 0x8300302fcf5f60eU,
  0x2ef6220bfdf9d0f9U, 0x240920b0dfe31adeU, 0xfd22dc06c0c5060fU, 0xf7cc23d31b35f4d9U,
  0x12cb32fc0006b405U, 0xfa00d9c1cd167ff4U, 0x17cff4cbe7093500U, 0xe0dcfc32f5ea02f9U,
  0x1f18fcf406dbd901U, 0xf17e4e8f50959e1U, 0xaf406d8c22b2142U, 0xf6ecf3edef02fefaU,
  0x394137e5f7d2e0eaU, 0x271503bbf1127318U, 0xa3c01daa7fb120dU, 0xecfee8fbef09ebbeU,
  0xfad21f05f622ea57U, 0xe408c402c625f9ebU, 0xfa440b11d40bee9aU, 0xd9e1da7f2df25908U,
  0x5e8ef282720f632U, 0x4816ecede9051be2U, 0xf1f08e5ed16ea9aU, 0xf0c6f33918fff9e3U,
  0x10f4f63c39e5c1f7U, 0x11fe18c6f0fa3014U, 0xe018f0ddf006f3c8U, 0xbbe514d81226dee2U,
  0xdcdcedf0070fe120U, 0x910ccfeccff08c8U, 0xd3f7fa14c5bdfcbaU, 0x4ec2806e3183e1aU,
  0xe607f2012103ea0aU, 0xf0804fde204ed01U, 0xf3ea0d06e9ede81bU, 0xfbe4062d1006f9f7U,
  0xfbdf201c48faabebU, 0x1ff5eef4f9f0f417U, 0x1605e1fadcd116e8U, 0xb3e603db200bd1e3U,
  0xe046c7ff0b210adeU, 0x141b02e3d4f85cebU, 0x201d46e109e92711U, 0x4513f84d00f50f16U,
  0x74bcee9dffff0f2U, 0x3104eaf40cec52ebU, 0x2be61a033e245affU, 0x1821e8c306dff1ccU,
  0xe18e6fa17edca0dU, 0x2c0511de07f42f2aU, 0x2b4bd9eec7104215U, 0xabf812292ee0e4c4U,
  0xd827023843f9294fU, 0x2a0ce9ddcbf5f60bU, 0x3d38fef0290710c6U, 0xee035e6542f7fa00U,
  0xd9ebd3493d05e218U, 0x2b10ed10bc001800U, 0x4935d2e520f7e7e2U, 0xe316262a1bfef2dcU,
  0x1bd20a3f7ce1e206U, 0xe011e495b5000e07U, 0xe12fe4e522c5d6c9U, 0xc6f60d34eadcf8eaU,
  0x13150b1610e8ef28U, 0x640a29e21df5fc05U, 0x33df401f09ce23U, 0x2a63101e18c1f8e7U,
  0xf50acafbf718db13U, 0xffc0415d3f5e225U, 0x2614cff10008d755U, 0x2d2cfaf8fbe5f5e7U,
  0x490dff2c15d5dceeU, 0xe2f426b91301fbf1U, 0xe9dbee0bf300e30dU, 0xdd0108f3d9efeae2U,
  0x180312012ecafb02U, 0xcf9523b46f00f30U, 0x1ffaca30f837ea3bU, 0x373934d20008eee9U,
  0x28f2290311f1cf03U, 0xabf735061bfa130cU, 0x11aaeeecd136b205U, 0x4e1c19fa02211feaU,
  0x2fddf82f4bfed917U, 0xd3eb2ba421fc1721U, 0xf4b1d7e5d558c0efU, 0xd7c3f224f0107fe2U,
  0xd903e0e7dffce20eU, 0x4101dee7c503c9e6U, 0xfce512f51231c9efU, 0x2614b30401f1f2dfU,
  0xd5f5e4f6e41adcedU, 0x2cf7d5d8e8eff5e1U, 0xcc05d4261ed3d901U, 0xaf2e510dee4e6d1U,
  0xece51104de1eed0aU, 0xf0fa1b1534fe5d6dU, 0x810b0e1ffcb2f75fU, 0xf0daff3dd7f541b0U,
  0xf70ae9fdeb0ce012U, 0x305f808e31c44d4U, 0x17eb07f209191ae5U, 0x3817e2eafbdceffeU,
  0xf702f3110c19f9fcU, 0x10fef6e934100d16U, 0xdde828dfd327f423U, 0xf9f615fefdf7f407U,
  0xefd832191f260609U, 0xe1041b0d04f45374U, 0xb8d6dd08fbe6bf3aU, 0xefc9172dee1e290eU,
  0xeffde5f7f626001aU, 0xe50ebbc6e718fcf4U, 0x272227c244e1ece3U, 0x264efbceeee5840cU,
  0x2d7271217302921U, 0xf109fe23260a4a31U, 0x81e0003fadee7f8U, 0xf80f2cf2162ddff6U,
  0xd49d371a05d83a10U, 0xc402cd484cfe093fU, 0x2fec0e07152eacebU, 0xeae31a1cff4e080cU,
  0x100c0b0a1f4f1027U, 0xea13bc24d63316ebU, 0x151710c3f514cd00U, 0x4f04cfd8f335e6cfU,
  0x4128302506e91b1bU, 0x218e4e80f071af2U, 0x5d7cbedd13ca617U, 0x11dec122e50931eaU,
  0x370df52052d70616U, 0xe7fa01bee706b4faU, 0xaf0dbdb493c9e28aU, 0xc8a2fc4305e54adaU,
  0x28f2020801162617U, 0xa70edcfd1e26f902U, 0x29ff493534cfe136U, 0x2f7cfef1fb00e0f3U,
  0x61c3a02f2f10ddbU, 0xf504c0ca1b0c28faU, 0x130810fc1a1b20e3U, 0x1b2203010d0e1c2cU,
  0x31ed062214f4cfebU, 0xd2edc10feffdc2ddU, 0xd3d7c5d0ccef52f4U, 0xd402553d18ed3b0eU,
  0xefeadcece0bb70ddU, 0xfd08dc02070cd2e9U, 0xf2e26352ae5201eU, 0x4212f30ad4bfe308U,
  0xf9f124ddecd04defU, 0xce0706dcfc10e303U, 0x33f008276e111541U, 0x18c8d934cac4effeU,
  0xfb99d016eeb708e0U, 0x1d09bddfaa0f14d8U, 0xe63f280d7fc71e21U, 0xf6080510f5b9d1d1U,
  0xeafcfcebccd514e5U, 0x24050acb37f7f50eU, 0x1c39ee2fe9fb1100U, 0xd9001fb3fd15360dU,
  0x243a05c4a9e72cd9U, 0xdbf417f0391412faU, 0x2bed2414cb1d0340U, 0xfdfcfcaf06fcee30U,
  0x33e508e8c5d7f7aaU, 0xf3ebfde520ed1afeU, 0xe5eb0d168f124b38U, 0xd2c71f19ef463c1bU,
  0xc9fef9020af34413U, 0xec1106ef19000aa6U, 0xc0f6ed400ed6de14U, 0xff09ffff17f3fe14U,
  0xf420e4e4cee314faU, 0xc0fc21ebedf505d2U, 0x26e2e0f4e913cb16U, 0xd7f70ad1f7020de7U,
  0xd2d225fc17f519f6U, 0xfaef5322d80c01faU, 0xfdbfd9d9bb4b1900U, 0xabc72100097f323dU,
  0xb9e8ed1408fb11e7U, 0x37fc0bebe4f3ebcfU, 0xeffde8e8fcf8130cU, 0x10492fe01e062b33U,
  0xcde4160ee9e2d813U, 0x2cf7fcf3c81dd8e3U, 0x9e4fbcddb102c14U, 0xeb152e093f0bf0edU,
  0xeded0c211615c9feU, 0x60e2130fda21eb35U, 0x38e4f7a4b8043b13U, 0xc9f036365741e3dbU,
  0x14bce243b12fa0cU, 0xd0106fc0401f1bcU, 0xf438e215d5b10ed8U, 0xc9ef0019faeb4313U,
  0xf1beb421ee60ff5U, 0x10fe6fef40a14e2U, 0x80c09083907dfecU, 0x819eae204ca2c08U,
  0x30ff713220e0d14U, 0x107cd48ee16260eU, 0xe6250bfe52f7f91fU, 0x35deceafecfe214U,
  0xfbf51203f91b1701U, 0xfefb25f8bbf7ee23U, 0xb12fe1bb1fb51f1eU, 0xe9faf94514e8311aU,
  0x1316ff1420ddede9U, 0xfbf5e2f9fb0af80bU, 0xd522ea162e0003f5U, 0xe936f2ebf6c73113U,
  0xd4e8e6030146c201U, 0xcc02bb1302f70911U, 0xbb2f1b2f5cd62e12U, 0xe1582de5eec6d2daU,
  0xeef1f8ed0d1062ddU, 0x5fa27f9d8e80d1bU, 0xcd29d11e3f813328U, 0xddfa0f4af333312aU,
  0x70a2bdaeff82ce0U, 0xbd07c3e3f5f319eaU, 0x16291c2408c9f91eU, 0xed140cdfdbcff607U,
  0xf010cbd4e01bf2c4U, 0xbafbb9fc0af4000fU, 0x2b41ee0748d4f9e9U, 0x246cded4eee4e035U,
};

STAI_ALIGNED(8)
const uint64_t g_network_conv2d_6_bias_array[16] = {
  0xffffe914ffffff90U, 0xfffff82100000110U, 0x3144000057edU, 0x18ad00001023U,
  0xffffeeb7fffff9f1U, 0x56ffffe366U, 0x2a46ffffec1fU, 0x2cb2000022beU,
  0x769ffffe97eU, 0xffffd4a2fffff8c5U, 0xffff98b1ffffe44bU, 0x2fef00000638U,
  0xffffff9b00002554U, 0xffffda9600000cacU, 0x60500000c58U, 0xfffff90000001462U,
};

STAI_ALIGNED(8)
const uint64_t g_network_conv2d_9_weights_array[2304] = {
  0xa909e8c8dd00d5fcU, 0xdf2af5b8d52e2ae9U, 0x5b0ecf3beea922ebU, 0xfd1fc90235df4e23U,
  0xce0fe5fcf6fbe9acU, 0x304f181cf26e508U, 0x49f6e541caceffedU, 0x3a2ede28200d431eU,
  0x10e141f600462adcU, 0xeafdaec7f6f619e4U, 0x3704aa13d3c310efU, 0x37152050fbff3620U,
  0xcd030ee7d802da49U, 0x4c6fde8f8f9da02U, 0x2ae91614fec6f63fU, 0xd5e6da0b28cb5645U,
  0xdcdb310cee1ed528U, 0xe5f701d9daebe5f0U, 0x50e0037fa034025U, 0xfbffe3ff26e90327U,
  0xdd4dfbf2e246fff1U, 0x15d2cbd800fa02cbU, 0x2a1ad5def9b01c37U, 0x37ff47f30f19f5U,
  0x28fcf5ee01c4036eU, 0xfddcebdcf905e906U, 0xfdddf326a4ef42ceU, 0xc7aed6ca04375be9U,
  0x23c31505f1c9252fU, 0xeefd25ee23161313U, 0xa914bb1eece334bcU, 0xcb0f21c11284ecfU,
  0x2433220601eb0051U, 0x2a49cbf8e6f725e6U, 0xd911bb06d58d29a5U, 0xed1a20d3373e7e8dU,
  0xfee6f27f02ecf5b4U, 0x23f30ff210fd161eU, 0xe2c5f136e7c81cdcU, 0xc812091e150504f6U,
  0x15c80b4111eae3faU, 0x1fbe80304111912U, 0x13e2f304e2fa08d2U, 0xf3ddf815150e0412U,
  0x1ce20f31030af5faU, 0x21dc1e1e080b3bffU, 0xc7d2defcf9ea04f5U, 0x1304f605fe22f537U,
  0xf7e6d706f408f0caU, 0xf5e8310d0befc6e9U, 0x191af9ecf1072314U, 0xeb2311e5fff52300U,
  0x9fc1105f301fbf1U, 0xef502e7fa1df2f3U, 0x1409fc06ed07ee07U, 0x16fc0af5f6faf138U,
  0xfef7e5f03af50ef3U, 0xfb013d0303f80d04U, 0xe309e6f1e723e7edU, 0x6b7efe2162e0231U,
  0xb14fd1611bd0202U, 0xf4ac021deae6dfd4U, 0xf3ebf8f75311c532U, 0xdf7f9edf7fd2bedU,
  0xeee7d6ee27d4ff33U, 0xf0f1090cf8eceee4U, 0x26f1c2091a08dd20U, 0xf7e8fbf9f104fbe0U,
  0x130fe70217de0239U, 0x3c119090eff09dbU, 0xfb03d00905eddc0eU, 0xecdaecf50beff90eU,
  0xc9ed0109ffded020U, 0x24f506fe02d7d308U, 0xec1321fcd30c0ac9U, 0x7dff0122105eadfU,
  0xcfe2130c03e1bd23U, 0x30e80bd5f9f1fb0dU, 0xd40fe8f2d40406c6U, 0x14ddfc1a1b1e11dfU,
  0xd5bc2a0023a4eeeaU, 0x3812e5d7ec0a0decU, 0x9a25f84f06f50c81U, 0x13daf90f3816f00aU,
  0xffe50b0be559d627U, 0xd3ebfc1afbf91e23U, 0x16e81ac3d8efe503U, 0xf1ece90afaf9f50bU,
  0xe4fc120ceef7be01U, 0xcd040d02e40524f1U, 0xf0fb190bf920d3f7U, 0x1beec627031ef1efU,
  0xd0e4ef14eeb3d320U, 0xe1f13133dd1212e1U, 0xb718cb10cc16fbd9U, 0x21051cdfd20d10f3U,
  0x7e404eff760a33bU, 0xf106d7ca08c42cf7U, 0x230205f2ce17e033U, 0xc31be433d3c208f2U,
  0xd535fc0efa46d509U, 0xf2f9e30209d92cffU, 0xeeeae2f40e22b31bU, 0xdb10df20f5dc1520U,
  0xb639e12a0bf3e522U, 0xf7d1e916fe132cefU, 0xc129d718fb13d405U, 0x14ff0601c4d715e4U,
  0xfd04f00cf1e715deU, 0xecfe12e4f5e005ecU, 0xc7d6153df60a0522U, 0x812e0004d5f71c03U,
  0xebf6cadcf5f5ffd8U, 0xd80137fdf3020addU, 0x16e82d3912e4e249U, 0xe13f1215af1102f7U,
  0xdb02cfe4fbdf2206U, 0xe6be0b080ae412e7U, 0xeff1330b1fd4ca32U, 0x81bfbfab9280322U,
  0x1cfece200e24dadbU, 0xd2eb0611edfc1003U, 0xe3df16feddf510ffU, 0xee23f2def3f9001aU,
  0x1e07eb00e41cd5f5U, 0xfbde121919de04f8U, 0x19c71307f3f72effU, 0x10351eeae919f638U,
  0x27ec16e9e0f90ce3U, 0xfada25f02bdefdfaU, 0xdd73deaf02bfaf0U, 0x41e1cc8032ee31bU,
  0x3ccf0b372e06e3f5U, 0xfddedea22ce1bdfU, 0xff1feddec526f709U, 0xe7fcf1fde6e1e9U,
  0xf5fdfb071efaef2dU, 0x16fa16f9f200d9U, 0x40818e9ccfcfcfeU, 0xeffbe3d52af1d0faU,
  0x11fa1301e91af200U, 0x20e7101704e1fbf2U, 0xf12d1c00e317f505U, 0xdfd710e32dd6c2d6U,
  0x9a94cc2d5401972dU, 0xdf03fbfc71ee0e19U, 0x1df1b0ba90852a59U, 0xf018c352e6f8fa49U,
  0xd5cde91815d4d82fU, 0x32cfcc62d0b0afaU, 0xf0e5deb7d7ff123aU, 0x9f88c10ece9fa19U,
  0xdebf69ed57cf1cfdU, 0x7fe4f605d2f30ae2U, 0x1f6c70bc2d91605U, 0xe536c210a6d5ea4fU,
  0xe3c6b8101cd4d62aU, 0xf1d082304ea02eaU, 0x2e0eff95a00324e6U, 0xf0bdea64e02c1410U,
  0xd0f90409e2a844efU, 0xeb040b10fb2a3c04U, 0xfcdf25e3fd524705U, 0x1dd1dcf9de08e211U,
  0xc8e242ee15bde505U, 0xf599e723e93cfd1fU, 0xfb18ea0be834269dU, 0xec08c7f9c0dde020U,
  0xa9c10bf731975ad9U, 0x103220fa0fd1ee11U, 0x502e14d3d6fe133dU, 0xb0bcfb3d1bf5b115U,
  0xcb2326f6298f3430U, 0xbdb508130d0ef1c6U, 0x1cf001e0e845110eU, 0xae13e6170101bbfaU,
  0x14f81fe61c9e39f7U, 0x2fb6010ee71018f0U, 0xe70af8253244ed0bU, 0xebebe320aae709e9U,
  0x802f20af7d328f9U, 0xe6e70e21d8100efcU, 0x2ae510011fe825e7U, 0xbf0af906ff000ce6U,
  0xfd12ed02eff440f7U, 0xe0fcf7feed190915U, 0x2fe0204113ee0eeeU, 0xd9ea2af6f5edf60dU,
  0xd9d50af10b08dfb6U, 0xc510ef11f6120535U, 0x31e506fce7ef1ed7U, 0xda51f8fadcede5d5U,
  0xf512f4fdf6eafdffU, 0x3e6fe220d010805U, 0xb9f43b37e9fcf826U, 0xdffb07fa17f80cefU,
  0x1323ea2811fefbe8U, 0x7c2f5042cf3ff09U, 0xd9dd202ff5e4fc1dU, 0xe91923fa1ff604e9U,
  0x12caf4ffdcf6e5caU, 0xf8bbf2f72713ea28U, 0xfdf73004f2e027dfU, 0xfd1f0ae41efe03ddU,
  0x7eefe0300f7ddccU, 0xe1f80c2330d4f30eU, 0xf4e320f081341ff6U, 0xfdafada1505f52bU,
  0xed8e5fd2912dfe3U, 0xbf40d1d28dce700U, 0xfc035ef4b22b1210U, 0x20bf00c20c04e814U,
  0xbc3e1e9e8ff17e3U, 0xe9ff060c16e8d900U, 0xe20812e1dce403e8U, 0xf8cbd600ea0ce2d9U,
  0x2203f12a03eeebe4U, 0x2f00f081810081eU, 0xb305c6f8f8d81605U, 0x12c8010b34021ea3U,
  0x3a1c152e12c7e643U, 0x1500f3f2df0304f9U, 0xb8d8db124ab313daU, 0xd4e416e039fc3ab9U,
  0xf430d07f0c4ec31U, 0x2ef30c05eed7f820U, 0xfb7e519fda820e6U, 0xe9026106dfddfdbbU,
  0x1ad8e4d433f315ffU, 0xede8ed03d0152bf5U, 0xd51cdefc32fd0cdfU, 0x5e9f1af42d2420c9U,
  0x15ff150c1207fe16U, 0x1108ff07dd082149U, 0xbf39d4122d134a05U, 0xf10d3323e4dc1aeaU,
  0xc003f607592f403aU, 0xf8220ae1cddde32dU, 0xffcf11160dc538eaU, 0xa4d20807f2dbe2d5U,
  0xa2ef081e7d13427U, 0xfff7fe3cf2ae2516U, 0xd24fd7012cd62739U, 0x209c2814230b00f1U,
  0xa2d16d319bc03fdU, 0xcdf4f90bd9ff2815U, 0xc54deee13cde1ee3U, 0x3b644e1e03209cfU,
  0xdb03030114207bc6U, 0xee62f5e2fce9381cU, 0xeee10250ec02b06U, 0x42c7432cd01bde5U,
  0xfac04824ec26e5e3U, 0xf2fc230ed9e026f5U, 0x271402d6e3ffeec2U, 0xf7c70614053be70eU,
  0x27ea4a37f6e9e7edU, 0xf9080823dad0d227U, 0x6e80af7c3120995U, 0xe3cf0a00142600dbU,
  0xbf44a48c7db11c4U, 0x3dc93614d201dd07U, 0xaece717faf2fabfU, 0xe5ba312425e91addU,
  0x3eafe081624be1cU, 0x162006dbe50017f7U, 0x32df0dbd1413e4e8U, 0x34cddece021521f4U,
  0xe00ac903e7d6ef13U, 0x1424f0edd603fc10U, 0xd03c2f2152cd021U, 0x4cc5ecfa0d051320U,
  0xef1c230fdfb02af1U, 0xc1a4709e8ece5ffU, 0xfaecbf04f11de107U, 0x2aa119f31e09ef09U,
  0xf728f2f30209c729U, 0x1ff724d6c60e28faU, 0x19d9fadc34d4fd20U, 0xff4f9e2d70c5ed4U,
  0x1207e8f0e1b4ecebU, 0xd922fce8e00f3f03U, 0x1fe808f2270023f3U, 0x42e9190de70443c3U,
  0xe11009ff1481f53eU, 0xfb3231f3f31fbb01U, 0x404cbe81218ec33U, 0x47d3f00de5003a14U,
  0xd84a0b81e102b9e4U, 0xcabe1cf80448d5dbU, 0x55e0d433200d1811U, 0x1bf7b317061e061eU,
  0xc0d3acbf61cd207U, 0xdc0602d9fbf622dcU, 0xf01e83bd8daf3e4U, 0x2310b51301dbe33cU,
  0x12070bd92bba0f2bU, 0xe91110c8df0932b9U, 0x21fd72cd1e6eee9U, 0x48e9a9123cbefc4eU,
  0xc08e3ba0cc9d8dfU, 0x933163f441330c5U, 0xce2400d8e8f71918U, 0x2919e3fb0d22d23eU,
  0x12f329ef26c8f40eU, 0xeb36080afb172bf5U, 0x62ef821de0e13faU, 0x13ef05e926ed051fU,
  0xb094fed1ec70017U, 0xe533130fefdd08dfU, 0xdc1bebefd8f105e1U, 0xa3711ff0ffdeb34U,
  0x14dbfd104db51daaU, 0xe11120de82246f3U, 0xe6203db5fe1419c1U, 0x5262f060911f706U,
  0x1dcd562c29ab2dd8U, 0xd51d3145dad93820U, 0x1624dc15ee1012c2U, 0xf81a380516e3eaf0U,
  0x5f74613f5c83cd7U, 0xed06f407b9ed0e1aU, 0xe6eedc09e92dfddbU, 0xb65a0ad6ebf418f2U,
  0x2a40ff63e8be5007U, 0xd3e817edeaf244edU, 0x1dc414031d071bcaU, 0x1cfd2e23eddced1dU,
  0xb0d305512f34ed3U, 0xe8223ceef709e4f3U, 0xe7dd081fc7f4f7e0U, 0x9101648f6f4ece4U,
  0x16e41935c4b346aeU, 0xcee23835f0fe0d04U, 0x17ecd0350ec70eebU, 0xbd24e231f7d0d5ccU,
  0x4febcc2f1c07ea1dU, 0x10e91fcfedd30307U, 0x309eb38fc37fdeeU, 0xf8fde7e0e5ef2ad8U,
  0xf4f0e6ecef0df0U, 0x12b1711b7d49c00U, 0x3cfbd215b4dcecddU, 0xf509ea02fc0f0dacU,
  0xedf34300c40f4aebU, 0xe7b30fffef00f10cU, 0x3218fd40fbd2f313U, 0xd144c506e4edeeb0U,
  0x341ef61f0bf3ef7fU, 0x24c0d0deedc7e4caU, 0x1e304f9bb4dcd11U, 0x94ccbd4dcd73692U,
  0xf32922fdd3b9dc09U, 0xbe8eafbd8c9a4e4U, 0xfedeed32d112ef0dU, 0xc22cdfd01b181ba5U,
  0x7f522f6be09d4f4U, 0xfed4e141d0eee202U, 0x51ece21acdf42e40U, 0xbf1ba409ec051eb9U,
  0x2a1d35e1dbe503f6U, 0xe6060009f5111e25U, 0xe043ab50209227e7U, 0xd3d4c818ffd0ecc0U,
  0xed0b2d0edae6f202U, 0xa0dce8f7ef0e2c3aU, 0xe0f4dfea16d037c8U, 0x5eaf3f8f5add7c6U,
  0xe6533c05d60e0e28U, 0xe8f5cdc8cce52510U, 0xed1fee0e230e3bd3U, 0xd134011d8aa7feb8U,
  0xf441fa0eea3821U, 0xef22ee4119124f13U, 0xadefe443f581f6c6U, 0x3018cb03fde7c10cU,
  0xafa0d352bcaf3f7U, 0xf70ef742e7263607U, 0xefd6026814cce5efU, 0xfc12fb0fc5fdd3efU,
  0xfb1d31191337150bU, 0xb9f9d739e21335f0U, 0xfacf1822fdc206beU, 0xc280405bafde20aU,
  0xf9f1dbdb1b3cc2c4U, 0xfcfff92c2d0506e4U, 0xce03f0f7c7dbd8d3U, 0x33c2b10c14fbe965U,
  0xe4f204143304eacfU, 0xff24004742e4550cU, 0x1bf2e1f5fbdefebfU, 0x42bbe1bfd7e7d22bU,
  0xd5d331fa150ecf98U, 0xf1f0c84e1e1a5ae8U, 0x10d3e4d6ebda0bd8U, 0xe536f8d3e313dc01U,
  0xceacd012e0de0ecU, 0xeae3effd040d0d03U, 0xd11a3510ec244712U, 0x8e4f0c2ffe7ebe6U,
  0xadcd0f82810d1e5U, 0xd51a0de8da080e01U, 0xe62b36f8ff10f5f9U, 0xbded3f405efe9ffU,
  0xede8efef3ffa040fU, 0xea4400cefa1c05e6U, 0xfdf844f7f520f6feU, 0x20b7edda23df11f5U,
  0xe4f3cb11fffadad9U, 0xeed5fe3efa05de05U, 0x1805ff02f8e4e5e4U, 0xf7c7f0efdb00d926U,
  0xa6dec2290100f7b7U, 0xd01001f8e1eb2d03U, 0xda0e1debf7effbd1U, 0xed3daf5d0ffe5efU,
  0xdcf8ec22fbe7fde1U, 0xed22ed18e40617f3U, 0xe8d4ffefec0de6caU, 0xc3f8fff910eefdedU,
  0xe215cc4236b7c381U, 0xe3a2b1b14defb0dU, 0x220ce8f905ffc218U, 0x2ecb31feefffc22cU,
  0xd2e2d0483ee3ecb1U, 0xf5352d06ffef0507U, 0x405e8eef62ace25U, 0x1d00f4f80d06d512U,
  0xcf22e82f16c6dfdeU, 0xfe082bfdecf32304U, 0xe8e3f8f50c46e50bU, 0xe102130103ddd7c9U,
  0xba89024b19df1de7U, 0xfc720e2ede3d201U, 0x1e21db431f1e053bU, 0x9b25342d1c9059cU,
  0xbffd0bf4230bf831U, 0x2ea813fbfb0fb3afU, 0x7f0cf81142f5ef55U, 0xf3c40410dffc20a1U,
  0xd51ed6d116fc4001U, 0x2c9e311c00f4b9d2U, 0x5eeddad61bcacb49U, 0x1a96f237c50735b0U,
  0x12cb02ddfe201cc2U, 0x2af00e30d408cfd0U, 0x1513becf67c0a3c0U, 0xe7cf1bdfcf19fbd1U,
  0xf0fcefcefa3f270fU, 0x1be9dd1e0639f309U, 0x3e6c6b764c0fe0aU, 0xf3f5e116eff91dd0U,
  0x1e30d4ea041926dcU, 0xbcd116e618f5d909U, 0xfabe4b1d1db4e809U, 0xdbccc7e9e0e84af0U,
  0x2f043bd5cbf744f5U, 0x19d5c1e4fa0b0dedU, 0xeff2e2293ea71827U, 0xeb14fb400d17f81cU,
  0x43d01f6fa28e866U, 0x2ed9f134fd08e612U, 0xd5b568fe35b43f4cU, 0xd44d132428deb8eeU,
  0x102807fbf742e0feU, 0x218bf917fbceae0bU, 0x7b83109cb04fe3aU, 0xea3ed1fbeaebc9f7U,
  0x9ff3f6e3f6f5bba8U, 0xa838c6010a3118f4U, 0x4af7eab5f2f5fda1U, 0x32cdc7e43f09e403U,
  0xdbe500d913f9c018U, 0xde462011ff1326f5U, 0xcefbec2ab3baf3e9U, 0x18e6e2fb2ef30715U,
  0x416410625e4d321U, 0x2f2625d9fdf72cf8U, 0xa6e5e419e7bd05c7U, 0x3f08f40b4029141eU,
  0xe0fd19e1b6eafb93U, 0x1b63def4ee1a41cfU, 0xf4e802c1ddc12dacU, 0x1d4c01fddedae828U,
  0xf903fb0ff6b80af0U, 0xf9102cf904ef14f3U, 0xec31c00bcabb0109U, 0x68ceef03e9cf1d33U,
  0xf722b40eecc2d713U, 0x23f300f424d4fcf2U, 0xbaf3c0f80ca7d84cU, 0xface0c050e3115bfU,
  0xd1ef1effd3df1281U, 0xdeebe11f05fd42e6U, 0x50ede602fd391eb6U, 0x723f70de1ff8f2eU,
  0x3d5fd0010f0f1c6U, 0xf6020811db0af202U, 0xc8e3d751e1f7c612U, 0x1ffdfe2dee03bc01U,
  0x58fc000ce6cfb710U, 0x3f62795d0e62a0bU, 0xc010c62effd70029U, 0xfaf9270f2df5a4e4U,
  0xd6c0523cd0cf45b3U, 0xf6180e0d0309e10cU, 0xc3191026e9190ae1U, 0xbfddfe2eddc3d4cdU,
  0x5033afceab54038U, 0xd1fb1601e106f1e3U, 0xd807ba39e6100016U, 0xf8dd14f7e8d8c7d7U,
  0x81170ee9dfcf5135U, 0x43082fd8f4f5f8eeU, 0xcfcae01024fdeff6U, 0xe09704d4f6e72cfcU,
  0x2dd74927af1ef993U, 0xe54408270b2dd9caU, 0xc0cdfde1efd7e405U, 0xe6f018fac60be1e4U,
  0x1f50fde5da1d0d15U, 0xf41c155828fce6dbU, 0xf6ecd1f1cfbacefaU, 0xab02f08100221e6U,
  0xbe15e91a9b25aa47U, 0xe81912f705defefeU, 0xcfcce3e5abe8d3fbU, 0xd1f11abb152d20e5U,
  0xfcf6fac2ecfe37a2U, 0x34ae0e8ff0a0a00U, 0x1ed08bbe70417f8U, 0x1828ec50db2ad6e8U,
  0x206fee7ca09efcdU, 0xff2be302e8eacffcU, 0x46e7ab00eadcd92bU, 0xf161222e5f010d6U,
  0xef22e7ffe110c5fcU, 0xfc0efff3f5b12b1aU, 0x35cfcf2ea3efeffdU, 0x3306f807f738b2U,
  0xf61effd3efd206f3U, 0xef52face1932e4d0U, 0x8dfc3614a8f8f436U, 0x2106d9b2edc907f9U,
  0x6efde9922e5d704U, 0x1911ecf6fb220198U, 0x8109fd0fd9edf619U, 0xeff8e5f3e0dd19bfU,
  0xba22d8b2fffcc4f1U, 0xdb50ec38070c01c6U, 0x96da3628b6262753U, 0xf123bfd9b3c928deU,
  0xd7fdff10ce0118cdU, 0xf449fcfede26f208U, 0xecf216fddedaf924U, 0xfe00f12802ecfbf2U,
  0xed4ae717dd1303f5U, 0xf4151cf105271b21U, 0xe4e2f8d806e23606U, 0xd9d73922f3f21327U,
  0xe6fcee0ce00ce6d9U, 0x9cc231b1bfe0709U, 0xf5c7052cc4e252ffU, 0xdd2ffeefd905e2fdU,
  0xaf04ffef1d2d448dU, 0xe45e016af21fb24U, 0x2f3d1ed3ef0c3af7U, 0xf4325841d01bf41aU,
  0xe2db0407271228caU, 0x3325efe0f0de0f11U, 0x31c1ddac7f016e4U, 0x10153d22ea25eb30U,
  0xf6d5f8f6031d1a88U, 0x212029e42c1f0af4U, 0x22e60802d1e3f0b9U, 0xeb260aedf436e700U,
  0xebdceb10d3f5f6c0U, 0xecd8223cdde406f9U, 0x3a0009d61b61b54aU, 0x2421fdf2bfed3fcbU,
  0xd7d1dcf9dafdf5e7U, 0x1cc91803f7c5e219U, 0x4fec03c9221ed221U, 0x3be80332d6de00bcU,
  0x2af3051b08812514U, 0x4cc23a0603f30f38U, 0x23ea00e6241bd44cU, 0xfda60afa182c45e4U,
  0xf2f0b0dfe656049eU, 0xfed0e1f5012d37c0U, 0x470302a62907daeaU, 0x8c5fde3ebe937f6U,
  0xdfe0d2d7242020e0U, 0xf11218fe05dd25f2U, 0x5f0cbd506dfea0cU, 0x17e2f20fed1b2010U,
  0x4a1522071fdf17f8U, 0x21170109e7d0f820U, 0xbee0cb040521cd0eU, 0x5ab11e82409340aU,
  0x50702c5fb08c825U, 0x2bce17c7f5fa1af4U, 0x2ed9281c2ed15108U, 0xfd4ccd1f2af241f7U,
  0x9d18e5e10d43e32dU, 0xfdc4defb11e3e1ccU, 0x36c72c02ddfc2b0fU, 0xb424e7fd1fd2e6cdU,
  0xcdf01404f723f306U, 0xf6cbeaece0adf3e5U, 0x1fd12530d62918b7U, 0x8e2de20620d4f9a1U,
  0x967fe4ed00ecb8f9U, 0xca9aceef58e10506U, 0xdffab23740b73f06U, 0xb5d4df1ee90d170eU,
  0xd43c46162cf7f6cdU, 0xf3c7cdf6db063014U, 0xbc43980c72e03cefU, 0xe7f124f3ea00cfdfU,
  0xcf3d1412f6c81c22U, 0xff57cecda4181b16U, 0xd2fc2c291fdc54edU, 0xffe5f9fca6cce62dU,
  0xb8ea062b01e0a3f6U, 0x1ecfb0a42f8e924U, 0xfe15b312d8bae62cU, 0xfaf0842e5f70a13U,
  0xd1f42b37cc00b7d7U, 0xf30de40c35263719U, 0xe603c0150de43afbU, 0x31d63751c6e51ad1U,
  0x93dc3316ebf6054dU, 0xcd04decbb61126daU, 0xcfedec07a5f73af5U, 0x19f9d940afe2e91eU,
  0xcdb0f1fc0bd59ad0U, 0xffbbe84712cddde7U, 0xd70f9deca91bc34bU, 0xfbc1ff6ed0ee0538U,
  0xe8f840f73efb0bd8U, 0xfbb50737f7d421ebU, 0xc83cae26caefea1eU, 0xee1d0a27d1d315d1U,
  0xb71e3be3c3e749feU, 0xc0faeef2950724c1U, 0xf2510202abdd1f24U, 0xd71df517c1bb3618U,
  0x6ff1e720f3fbc2f2U, 0xded9f7390a2dea13U, 0xadf224c6d6cc0a00U, 0xa5cb3e051ebae8ccU,
  0x3524e31ce806c2e7U, 0xfcd4ff03111720f8U, 0x46dcf8f71aba151bU, 0xda0a011f2ae2eff2U,
  0x53ee1a0ae618b214U, 0xe3ca212c1a12f713U, 0x1dc9deb9e8ea442fU, 0x45ea3ad3c60e2edeU,
  0x50c8b8254407d3d9U, 0xa5efeb20e0d7cdc1U, 0x743cee2ef3c030eU, 0xc20e2feac2b8e90aU,
  0x3905da272207fce1U, 0xf802ca05bd290bfdU, 0xdd28bbe9222bbe9dU, 0xfc12131026efe0f2U,
  0xffd52725383d99f2U, 0x1b16e71b04f5c7e7U, 0xb70ab7cbf932ce23U, 0xdc2302eeecd9fecaU,
  0x4a9deb333bbe53afU, 0x1f8c022fbfb01e9U, 0xa75020f8e84912eaU, 0xfacf464c07e7f4ccU,
  0x50aaf1934eb0a81U, 0x6effcf9c8013cefU, 0xb245c3dd251410a0U, 0xe5142b0ce70823edU,
  0x9f40f261bf6ecbbU, 0xed340a2eef1d13ddU, 0xa8308308f50a05edU, 0xa354d09fd1d67bdU,
  0xfee7d4cf1e0aeed9U, 0xe3c5010cfcf90fe2U, 0xfd190fb00a47e5f7U, 0xceaf2dadf1dead5U,
  0x4403e8e1e50bf6e0U, 0x16dbf9da08f807eeU, 0x1a100bc4fd3a0becU, 0x14e61dc8c4eaf2f4U,
  0x2201f0c0fe14350bU, 0xdc10e011fe18f907U, 0xfc1a39d02449fceeU, 0x2b220ac327f608f4U,
  0x2fe0fa1bfb21eacfU, 0xcca131d1520edfdU, 0x926e3c5f5ffdcd0U, 0xe6dac0d712e8f0fdU,
  0xe4e102e4f638f924U, 0xef0f1407f6db31dbU, 0x7141ee812f60cbdU, 0x9c9ffe8c7e4f7e7U,
  0x4e9ffece72b05f1U, 0xe11417f1ff110e0fU, 0xd4242ffe2644dfe6U, 0xfc0cb9e2bddae937U,
  0x2abc0d231dfb16bcU, 0x16c0184a0205d215U, 0xc71afbd017201cf9U, 0xd3d2e2de07eea0fcU,
  0x15d2fc37d61e239fU, 0x3ca351f1114f3e1U, 0xd9f0e1d60d4f1afaU, 0x4ece30be9d6aa07U,
  0x1fbe0e1019fffa81U, 0x3d81a1d1ae80809U, 0xee0415e40d3010e8U, 0xfc34a2f9dbe0ba32U,
  0xfee19451a1bfd0aU, 0x1cbf23d8efd2d3e0U, 0xb62b58dffd16f9c1U, 0xe4a512effaea060cU,
  0x1d3b4f22ae1409e3U, 0x4bf2bd1a1ce15d7U, 0xdf0a07f7ec1df4c1U, 0xf0f026f5543bfe08U,
  0xf10e413ad11a1081U, 0xdb912d0cd3e7afebU, 0xbcace8d0e106c1f5U, 0xfaa02a1b526514e3U,
  0x2ad0f2fe405ee90cU, 0xeddec4e31fc3ee06U, 0xeaeb39e32875f34fU, 0xbdea21f8e8e7b706U,
  0x22f003cbeb60ff33U, 0xfde4d0ceac05e1dfU, 0xeefac4e5f259f106U, 0x22c0eb517f70513U,
  0xfcde01e911f4c11bU, 0x23c3dbfad6d1e80bU, 0xddd8d1c6e40cdb45U, 0xf1bceae5243ec202U,
  0xfeb0ca153a31bc31U, 0x1bddd9033d6510d0U, 0xd213e7e154ecb537U, 0x1ddc33e4f0073c09U,
  0x14c4bc172508c31fU, 0x42abe7fd386d0bdfU, 0xea38e9df0d02f8bbU, 0x163a13fdc218f709U,
  0x790b71d37eaa7cfU, 0x44eb01f5066beff7U, 0xe326b4cfd5b4f9f1U, 0x2df630e7c42450fdU,
  0xbb48f744f7b4c2d5U, 0xe5c00adb07c8fd3dU, 0xe8e21572262b2281U, 0x1613eed257c0170eU,
  0xfce41f5c1b0e1093U, 0xfc2007ff3aebb133U, 0x4097203f6234194U, 0xee0ef54e2cb108baU,
  0x49d1c4df1e141a9U, 0xb2d035efccf3cd64U, 0x721f21b238855dd8U, 0xdedc217fce9ddd89U,
  0xe4d7ffbc41ea937eU, 0x53e3f1cc04e416fbU, 0xee24d718a4f4df0aU, 0xe4012ac734ca07b2U,
  0x33fc0cfc23be284fU, 0xf11348e33bfcc40aU, 0xd8540cec06060d29U, 0xf9f0df3602df18d8U,
  0xe13e8e7c30c4dU, 0xd3172beea81ce7d2U, 0xf10824ce2bf7db1dU, 0xccd7de25f1f41dd3U,
  0x34d423efe303d4c3U, 0xdff7e6a8da12ccd3U, 0xf472c4c0cabc0c0aU, 0x9d0bde0fdd0d3b9eU,
  0x1fdc3fee8dec3213U, 0xdf3035cec448c506U, 0x2d84b061dd80333U, 0xc8cbdbfedcd4e6a4U,
  0x6cc4d9c4b7e8c9ffU, 0xcb384fe29dcdba51U, 0x3edee6eb09e6cf6cU, 0x199182fcf0e4e4f5U,
  0xfde6012fd812e327U, 0xe70f26d727f55e04U, 0xbbc835d38fdbe8a1U, 0xe8d22308e441f5cdU,
  0x3cfb1ce3fcd7e411U, 0x4afd2bc9ea0de2e6U, 0xf2d31ea2c6ffd5eaU, 0xf1da1ce012211fbcU,
  0x12095a1cdef65fd6U, 0xfc44fa160617e5e0U, 0xe6ddfaebea3d27cbU, 0xcb4d3a071d50e9d1U,
  0xd4ef276605e2c7edU, 0x1f4e0dedc4dbc90dU, 0x5bc2c8bfb0e6f2efU, 0xe0e911eaf70228fdU,
  0xe5122ff9110cdce0U, 0xbc4504d3d7bf3b1eU, 0x1bfde9d6cafcf6f0U, 0xe80c37de0213dccfU,
  0xdd951323aa8290dU, 0xc58c9e8b8db25f3U, 0x242dcff3e326f9beU, 0x8f56dfc5163200ddU,
  0xcad108fd2c2834e0U, 0x12f100d6acd5f4eaU, 0x31b70fa281121ac7U, 0xbe0ff909cd0d0d14U,
  0xcae719f95c081ebdU, 0xe920e5ef011f00dbU, 0x52210894d6fb2e0aU, 0xaed114bbc8f9d63cU,
  0xc31a72ec3f2a5cc2U, 0xd76cc3ecaaf404deU, 0xee3f1be6d4ed37c6U, 0xa1281f11d21ccbcaU,
  0xeaf1ebebc3fcff30U, 0xfb29f6cbe5fb2eecU, 0xc1e01eff0ce3f629U, 0x35feede8eff82f40U,
  0xd7da4deed80af003U, 0xa0b0fe8f3070032U, 0xb60c081e32e332faU, 0x4d7041efff63748U,
  0xf40222f8cb1b1312U, 0xae2edfbd50f13ebU, 0xace806fe0d49f90dU, 0x20e5e3ebe2e00824U,
  0xcaf4e7ffd1e2203aU, 0xe20315cce9f524fbU, 0xd0df0813c50ef424U, 0xecf504eada082b2aU,
  0xebf024f5ba16220bU, 0x2cf62efff3f8070eU, 0xf3ced3fd080bf2f8U, 0xe4d5030a0e08190eU,
  0xf0eeebfcbd16f9c4U, 0x12c21dfac9fbed1bU, 0xd2e7fd37cb200f36U, 0xf6e006fcfcf80c30U,
  0xe908e223bde0c92bU, 0xf4fdc4f4f5cbed15U, 0xe5d305f8e916dc42U, 0xddcf0f9f906402fU,
  0x10ee1401c80cc61cU, 0xc02e80fe8f1f823U, 0x10c90a1ff2080614U, 0xf8e71ee90421002aU,
  0xfc2ce30e811190f0U, 0xf6dae01a01dcdf0aU, 0x12cd1b12e02f124bU, 0xbfef008012df2e0U,
  0x331e4ee0fd20e06U, 0x11042af61a2103edU, 0xfff1df3036d8eedeU, 0x14d0f5e4b706f9a1U,
  0x320318deffe2f723U, 0x1a060dcc25021f07U, 0xeae0eae50faa2305U, 0x1208f310010fec1eU,
  0xfa1a1b1f03c9070cU, 0x1e1a0eb936fce6fdU, 0xc7dbec0315d111e1U, 0xf6b1e0fd5221ed1cU,
  0xd743ffe115d6e244U, 0xee2b26baf91d231eU, 0x27f4d36204cb132bU, 0x40b0cc3e4133d1fU,
  0x2eed16e8fbf8fb32U, 0x1b2ff7c9e2dff422U, 0x19fef4f7f613e203U, 0xf702ff0c1d10f435U,
  0x18f81ce8e006f119U, 0xeb17fcafea06e81eU, 0x1c18edf5b71d260eU, 0xf5b018cf250dc81bU,
  0xb7ea0e1fdcf3cdecU, 0xe10c03d4d518be1bU, 0x24fff000c5551404U, 0xd9faf807db16070fU,
  0xe7d4f6e8f6f0e6d8U, 0xe7d3f9f1c8fbffe1U, 0x3f1637c1ed4015dfU, 0xe7092d12d618c9f6U,
  0xceebdfefdb18f0d0U, 0xf4ded6e9ff01b311U, 0x3e3f2fb5d1450acaU, 0xf9d41c07cbf881d7U,
  0xde321085df27064aU, 0xdcef007ebf514cfU, 0x32c80cc7dfccd33cU, 0x4bef0ccc004bfff9U,
  0x4a2c01a0e45bffdcU, 0xefe40ae00cdef6b2U, 0xfddc33baf806bfecU, 0xec8605fc121bf5e8U,
  0x7450f0971746116cU, 0xe200e205cdd9e4bbU, 0xdbdfd322cc5a3cd1U, 0xf2b3e12d52ffc704U,
  0x26c603a251e9f0e4U, 0x4e013aaf0323f800U, 0x637f3b7a73dbbffU, 0x14d9090f170908eeU,
  0x14f7edd009dcef0cU, 0xc33a17e8100103abU, 0xc31c6eee9e2cbe1U, 0xb8a7ec7123f5e2d7U,
  0x405fc8ccf228db4eU, 0xdf05f0def21019cbU, 0xfceafb34f20bfa0fU, 0xc5aef40243e1ebfbU,
  0x1df90ece0532270fU, 0x3047fdeefed8b4dcU, 0xb410c9fe0d2b2bf1U, 0xacf6355c09faa0c4U,
  0x5d06eee9cf0731d8U, 0xf33eed32f62ae5ccU, 0xe5e7f64f36ec33f2U, 0xbbb51134c8e091beU,
  0x1857fae7f6e645d9U, 0xe41ab508070e2c06U, 0xf3cbcc263bf97f16U, 0xa42cc4fbd1998709U,
  0xab01f519f43de9cdU, 0xf3f632d6dcd4eb1fU, 0xdae42bf0f3120df9U, 0xebded2ef70af6d9U,
  0xbedbe1183c1806e1U, 0x30771ccf2f2f507U, 0x2df0e1cfaefe2dbU, 0x4cb1f833bff01128U,
  0xf4dc090f170ad7cbU, 0xc80a7fd00d161426U, 0x1a01dc31d3fc0602U, 0x22c5ec2eaff50226U,
  0xe25d31021fa4425U, 0xab32ab7f8c3fa15U, 0x12ca4b0628cf24e8U, 0xecd40e16121a0df0U,
  0xb6f1e20cf5f82740U, 0x4fc826e7df000303U, 0xd6f102f2e6f20ae7U, 0xf9be2515f80a2d03U,
  0xd4b659f81704d1f0U, 0x408a18fb191be7fbU, 0x42f90300f905f719U, 0x211f2315dfe32ae6U,
  0x713ed733efe65d37U, 0xfec8d9c8150df501U, 0xf0e8fd030699160bU, 0xffe7f80a1015660cU,
  0x2ff50d12fbcff70aU, 0x34aaf1e5f1f8de07U, 0xdbf0eac23ef6ec46U, 0x3b8fece2dffa540aU,
  0xd8eb0bf911c1eda6U, 0x2aaf514faeca7daU, 0x9dbc6d8ef2cedf7U, 0x59ddf915cb161bc5U,
  0x48b5e49feb75bcf6U, 0xf2d4fefeeaebd413U, 0xebbe21a29bc8fce8U, 0x39c3f6d2e50ac76dU,
  0x5ef6e0b7e85ddbeeU, 0xeae0e3ff1d2f2607U, 0xf4d7d8fee5e30839U, 0x1fb90dede5fa4207U,
  0x47e5d1b8c1f6ebeeU, 0xc9f0cb09e019fce4U, 0xd2e3c30c1a07f41dU, 0xe1e1d4c4f70e1a45U,
  0x4bdafc1eee1ce0c1U, 0xf116f9ddebd71ff2U, 0xf09d4b1f6cdd3b6U, 0xe0fafefe0806e701U,
  0xf0f1f6fe0206d7deU, 0x1216d2f60c1b79f5U, 0x8f80625e4abcafdU, 0xcfc1829e5fce20dU,
  0x31d0d511e5d6f011U, 0xec22290de1d907dfU, 0xe6c3a3c91fdaa0f6U, 0xf8d4f70f00db191eU,
  0x4d05ffe30f080be5U, 0x9ffc1e4eb420804U, 0xfa0cf7ecd6b81b83U, 0xde44e801270920ecU,
  0x363d17efe729dc00U, 0xc3ddeef7162ef3U, 0xe6f3e10b1edd23f1U, 0xed431728fcdb5aefU,
  0xf61a94d5dc45ec7fU, 0xfac4daebede12bf3U, 0xc7c1b9f0fbd5fecbU, 0x89efd7114bc0480bU,
  0x35fdf735fdd41ebeU, 0x15e5edfefc17e61cU, 0xe307ea32e24af5e9U, 0xbbfcc9fafbeed7fbU,
  0x16fdf02401cb32ceU, 0xbfe162b00fc1508U, 0xd519d6250710fde0U, 0xcb1cfbeeebea03deU,
  0xcee5e53012c003b4U, 0x73cf2645fc04e906U, 0xf406fbf6e831e9caU, 0xe70cffded3f521daU,
  0x14171510e3f8fa08U, 0xe00cff05f6efe40cU, 0xde02e744ccc40e08U, 0xeefe04d908f2dacbU,
  0xf82b1ae121d4014dU, 0xf1092efa05f5001eU, 0xe202fa20e5d0090eU, 0x17e617d0fcf3fddcU,
  0xed0fdbf20cd0f334U, 0xefec4ef00de4d107U, 0xe3fcf838e1dde30cU, 0xfaeb04d5d3fd16d2U,
  0x8e03e0af326eb81U, 0xbe111f00e909eb0cU, 0xbf7e4fc11c71dffU, 0x70e07ecdc02d301U,
  0x243836eb1411f0edU, 0xe8fc0cd9f0f52a0fU, 0x18f5d91beedc2115U, 0xf92011d5fef2ffe9U,
  0xea0713e90b1705e7U, 0xff18fcdbfafafe0dU, 0x1beef0fcf6f515d9U, 0x11cd16f9e60df5beU,
  0x6aeed104f7f3b1edU, 0x36bfeb0fdcf1fb06U, 0x5dc9dbd0613d3a08U, 0x9e2de0eacef8f429U,
  0xff18e2f2140deda7U, 0xc05ca1eda0dde1cU, 0x44f2f4d93814f145U, 0x459c9d8ebeafaefU,
  0xe15fdfdf419eaaaU, 0xbb2cd11ddedf928U, 0x58be26f44a512b5eU, 0xd77ff5f9e802f516U,
  0xcf0d3d510d9ac56U, 0xf009ee03c9e6d0eaU, 0xcd9fb00054407faU, 0xc3f9020900f30fa2U,
  0xd9ecf2f407dee61aU, 0xf014e4e9d6e7e509U, 0x2cd002f017130944U, 0xe3f9f1edfeee4dcbU,
  0xa6fd1c091efcd604U, 0x1de1d5fcd2f4d2f4U, 0x30e8f4d14410dff4U, 0xf351ae8ed060ca2U,
  0x10dfe30eeae2c24fU, 0xd5ae13caf0b2b501U, 0xefd60404950efe24U, 0xf7c2df19fcf721e1U,
  0xc5ea08244ed0e6fdU, 0x10f50bf818e50afaU, 0x14faddfef613c517U, 0xee94101d6fd27f7U,
  0xd5fe0d5b21b3d21cU, 0x4cc501f725dcfaf7U, 0x21efb201ea19cdf6U, 0xdc822ead2302cf1U,
  0x37b23030e528c805U, 0xf1e229fe2c23f9dfU, 0xf2fbd1ccb487aac8U, 0xfed72b13fd2101d2U,
  0x1bee423cd12acaffU, 0xcde62826135bdf0fU, 0xf427062408d5caccU, 0x1fc628262b192c22U,
  0x34f220580a0fdb11U, 0xcef528ed2208ee3dU, 0xce9d30b01b6d9e8U, 0xe0bd300bc5b61cedU,
  0x52aa3cf80a32a3c6U, 0xdb212108f8eebc06U, 0x225d6e2add6b8e2U, 0xf4ba29f7ddfcf101U,
  0x6ffb1b35e72be2acU, 0x32a0514df2f193cU, 0xdd0dfb510d26cbb3U, 0x33d62202c606fc08U,
  0x58132f21dda0ac6U, 0xd1d039040335c718U, 0xe221aa17fcccd6e6U, 0x3d71109ad90f9edU,
  0xffea1a12b42d1433U, 0xdd1f2405e0efc80bU, 0x704e81fcceec10bU, 0xedf8de0f07e000c3U,
  0x123efa1ae3e82a22U, 0xa71911c6f9192b0bU, 0xc71603e72c18c4b6U, 0x49f007d60eeafcccU,
  0xa111f00fdde481cU, 0xfe1753f7183acb12U, 0xec49cb5024e6cf2bU, 0xcb16ab21c28ff705U,
  0x1e0a0f0ccddc04f1U, 0x3130516f00eb730U, 0xde0720fafa03ccd0U, 0x418278110c333cbU,
  0x1b18352ddbed1e02U, 0x19084fdde4f4ed1bU, 0xd5ee0ce8fb3bd9fdU, 0xf6f929d810f2f898U,
  0x2e100814c6eabbf6U, 0xcdbd583c2304cd22U, 0xb04cde0fff0ca03U, 0xf33151b0f6e7fe88U,
  0x21eee20edcddeefdU, 0x3bf1150ff5e3e022U, 0xc70e2e05fb222927U, 0xef17f3fee1f595U,
  0x340a1c01dde10bf1U, 0xfee333300fe1cc10U, 0xfaf931edf50a10U, 0x8300be2c1f708c0U,
  0x220fe214d2dfb420U, 0xf3a7351c07f5e71eU, 0xf8dbf62905fefa2fU, 0xfa1900f3b9eff9cdU,
  0x432f060ddfafa64dU, 0xf4af3de2dd0cfb15U, 0xe5f62915e21ae2d1U, 0xdde60dbed1f52fb1U,
  0x3f092b18d6ebe012U, 0xfed964e3f4230e02U, 0x1e03dafde0ecd21bU, 0xfee9f203da091bbdU,
  0xfa19ef14ede4c52cU, 0xf7d34c2e142df4e3U, 0x18ecdbe9ebd99247U, 0x1ac6dcd1d9d44b83U,
  0x2924628f19e82301U, 0xddbff04abc46e1eaU, 0xd4042019f1f6d54fU, 0xff28d225e6eee60fU,
  0x2b431c9ebd2a219fU, 0xe0bb0c37e9f71dc8U, 0xe0cef231ffea2f68U, 0xf1061b39bdd1d7aeU,
  0xf623f89e0118f5e5U, 0x10a7ff3d0d3108e8U, 0xe9a9f203a4f2fd38U, 0xb7ea3930a304dbe1U,
  0x2127e2b6dce318ecU, 0x1a25d61d2423ecedU, 0xdfd578ce1524ca2aU, 0xfe2f0282cf1dd2bU,
  0x65f00baed31a2dd2U, 0x2ced0f26192020d7U, 0xe9fc52d82918fd01U, 0xd3b610001005fe2dU,
  0x41133bf0f52a20deU, 0x20e017d1301524f3U, 0xf4f938cfedfffa09U, 0xc8e208f41d45d84bU,
  0x10d6efb7f1e0cd76U, 0x107f09fc1dbcfc24U, 0xdc4ebefc92106edU, 0xee9ee81856c6ec14U,
  0x11c030decbd03109U, 0x32ec05bc1707f704U, 0xde50aede215f7ceU, 0xccc1b41825d3b328U,
  0x4dc97bef14bb1900U, 0xffda1cc31a083f2cU, 0x1a19c9f8f2f1effeU, 0xc0ca9f032311bc2eU,
  0x5f912fdbae4fa81U, 0x7f509f5181c0ef3U, 0xeef6abba0805b36fU, 0xece608ca112204dcU,
  0xf5e233f4bbe5eee0U, 0xc7c114ea34231eeaU, 0xd8f9f5033261db35U, 0x21fa12c9cbfb2fd7U,
  0xefdb4410d8de20f2U, 0xd3aceb3c0f3dedf3U, 0xd128ddf82861c064U, 0xbd17f3e487c824dfU,
  0xf3e92313d4c1e481U, 0x1659de22fdfe4219U, 0x215c1d5d6160110U, 0xf1f8f8cc15f2dc1cU,
  0xde0e4afad6f8ec05U, 0xe3212323e7da34feU, 0xd1d32130ee2ff5fdU, 0x1a05e4e31b08ecf6U,
  0xf6e20215b8d3fe11U, 0xf7c00d2b1e14ef09U, 0x1fe71a03ed1abcdcU, 0x3be9bf00a5bcd8ebU,
  0x223a03bbffa65795U, 0x105cd6340ded230cU, 0xe335e30b65fe3037U, 0xda320af74312cbdfU,
  0x183a29e0d4b008c8U, 0xc82ef10deb252fd8U, 0xfebd21f71e202444U, 0x56fae0ec1101edf3U,
  0x191f01ddefc0cf47U, 0xe0da10f30df7d1U, 0xdcf41ac92358bf53U, 0x42a592f6ece5e7e4U,
  0xdeedfc17ead27aeeU, 0x1f3108f1c5053dfbU, 0xf4c93e05c5e90608U, 0xbd7f04e2ec3707f6U,
  0x50eedfad9ef0804U, 0x2902eee3e7ff170eU, 0x49b40224d9fd1b04U, 0xb92416f0e4d8f0deU,
  0x20e7beffbadde901U, 0x37e20d0116fa0801U, 0x2fcae3c5cec4f91aU, 0xcf4cf8dfb930d8c2U,
  0xf7e902efdbf21ce2U, 0x10c53c06ec1ae5c2U, 0x2ad934fef9e91bdfU, 0x231d1a040f1aece8U,
  0xc6d7bff9dad5e8e4U, 0x20a9201df733f1c7U, 0x2e7f6d9d8e9db0cU, 0xfd0af4d02ee8ebf3U,
  0x28dec7ddaeedcfe5U, 0x20da17384fe105c2U, 0x2ceff7afcefde41dU, 0xf7db35f5350dfadfU,
  0xc218d5f5e4b218bcU, 0xf43d02e6e24c06d3U, 0xf3e10fed60efe0ebU, 0xdc21deb302cf00eU,
  0xe418dee503f0ddddU, 0x1823160c22dff521U, 0xe7c1d8c919cdf308U, 0xdfb3e4fb27e5c7ecU,
  0x2e16ba0b040dea0fU, 0x2b0423281aa90700U, 0xe5bbd1d4e7dc06e6U, 0xf29e23214f24c9a4U,
  0xe391ed702bffc00fU, 0xe81ffb172613f82bU, 0xe0addb9c5b2dde5U, 0xe5bfe4fc060f0500U,
  0x34caeb7f35f5de28U, 0xf8100e29f8ffe923U, 0xda03cbeed5fdf4ebU, 0xfbe7ff17f20805f9U,
  0xf6de261b1befb420U, 0x32fbf8012bf61918U, 0xe17f519f9e80fcdU, 0x17e338cffc0013faU,
  0x31eae139e20c001cU, 0xeecde030101120aU, 0x200addc4d8c80fefU, 0x2e8ce1b0afbf5feU,
  0xc03ee06f90f2046U, 0x160ff41016f91bc3U, 0xff04252ccc1f171bU, 0x18edea240927fbf7U,
  0x43f5f8da0917ad09U, 0x3dfddc0ecce6efe5U, 0x5e6f510f325d6d7U, 0x7d005272903dc2dU,
  0x11fd2deac11bf529U, 0x30e1dffdf8dbfb07U, 0x17091446e0182cebU, 0xb2f9b5e30dfde7dcU,
  0x3809daf4d6fcf0f9U, 0x56e3f9dd1a0e0be9U, 0x20ce090cd64ff7f8U, 0xb11deb01d614cd1bU,
  0x2ad016b71ef1a2f3U, 0x32d7f5f4fdd9ccd6U, 0x22b92a00134608dcU, 0xdcfbfdc3829c55aU,
  0x8fef2eae3129943U, 0x10f8edede8e30003U, 0xfdedfc26cc5b0e3eU, 0x240dca21db16456bU,
  0x26c2dcd20b1ddbf5U, 0xe1d8e5f12a0e16d7U, 0xffeff4ced0134030U, 0x3fe9f322c3111930U,
  0x29c300f10016caddU, 0xdcf6eaad4c241405U, 0x271247a2df07f21eU, 0x4cc079fd9f5e325U,
  0x1fcaf4d8ed0cd6fdU, 0xe7f1f5f9e3dd0324U, 0x14cc120a994a0c75U, 0xddd8f80f13230cf2U,
  0x44d4a50600161f22U, 0xdbebfbdb160cd1f5U, 0xdece30e0ee002c17U, 0xf3e4150dea06e700U,
  0x3f3c412bcb1e46d2U, 0xd5c908d3f3094618U, 0x8f2ce238223709U, 0x6bc03ddf9fdccd2U,
  0x2f616091f09c416U, 0x2e9f6e8f2d3ed1bU, 0xebf4e2f1bac40bd7U, 0xaacff00a1bead4c3U,
  0xf224e91ee8277dfcU, 0xd7e405e901e6c021U, 0x301be060fcf2cd3U, 0xbdc41b35ebe7e9abU,
  0xb92629e205087fc4U, 0xced0fbb2da30103bU, 0x182ee1124a9d2f03U, 0xbfd0cdfd4e6c49cU,
  0xcd18141df785f809U, 0x59f0210add09d146U, 0xd126e3683f13e7f5U, 0xfc460b0a22280693U,
  0xa23da01ef9d1be5U, 0xe0232be31143a655U, 0xbc2de817e4d504b9U, 0xed3a49e72909efc4U,
  0x2c320b2ccee1adceU, 0x1b13d5eb2537c933U, 0xeb19e97febf5eee3U, 0xcdea29f91505ffc0U,
  0xc7f7f81531985a41U, 0xea47dfd2c72f0200U, 0xb828174050d502deU, 0x74e0efe24117fefcU,
  0xe3555009ffcefdf0U, 0xfd6b0ba3cf5d313fU, 0xae61ed49d9ebfad7U, 0x3d82e290107edcbU,
  0xf4c61b12e758131fU, 0xc9629305ee451918U, 0xba54ee1cfda824cfU, 0x109f1d404ead7a1U,
  0xb7edbf7f08d6000U, 0x2d621509f31e4449U, 0xbfdd0d6a0cd8f9e1U, 0xedff3c1e37ed34d1U,
  0xf322d0e30ad739d2U, 0xf44927aeee10d460U, 0x931503065110f8e3U, 0xc7ad0e2f200e28cdU,
  0x5063ea0a233f1949U, 0xc4ed0100125264aU, 0xd2dbc63a16cf0ee0U, 0xf03f15e80ce904d5U,
  0xff0f2c0bfdfe05f6U, 0x26e02f05d9b1d137U, 0x7ff41a33bcf52b11U, 0x30f40000660ed1U,
  0xfecc27e8eb000f06U, 0x10de5004d4fbd9eaU, 0x420c37cae22b210eU, 0x280e1f2ffb3642bcU,
  0xdae5ddff221038ecU, 0xfce315e11da9df31U, 0xffd122a70af60ccdU, 0x3f08581b0645ecb0U,
  0xbeeb2cfe2bcc08baU, 0xf1bd2007e324d7dcU, 0x25a053e1d90ae4bcU, 0xf0232e5e0b1dffacU,
  0xb1f3de02f6cf14f9U, 0xeced0702d4fbf0f0U, 0x1d843c1e914090bU, 0xfb242b2422080ae3U,
  0xdc0df5f412e3193fU, 0x7bc11ed2d1f07f6U, 0xd5ed48f521e6ec0fU, 0x91e53ffe90fc7d9U,
  0xf4f30b074af53ca2U, 0xe7a42304ea1d14ebU, 0xecf613bd10b519c6U, 0xc6bd5a39a71e14ddU,
  0x2b1b14ee401b00cdU, 0x24cb1438cf2c34d3U, 0xf6d71cccfdbb1452U, 0x2d9191ece1b240cU,
  0xc326cd0a3c0f1638U, 0x35c4fffe1d29ecdbU, 0xc7b72cc219cb1621U, 0x8cd62e9b72bf009U,
  0x835fbc0f6f00523U, 0xdc03dcc0f80f17c3U, 0x4acdf9fe1ebaf339U, 0x230425e7a9ea0ef3U,
  0xe803f9b8e11fdff4U, 0xb8cbc20d26daddU, 0x6e504ee10091f44U, 0x2d285ff6d92fe6d6U,
  0xcbd936d814d8fac6U, 0xefeb0e04260fe3e5U, 0x1fdee6f4cad0e311U, 0xfc14dbf8cd1ffca2U,
  0xedf6f6f808270a03U, 0xf806e8b6e8ffe7ecU, 0x2d050575d4efda0aU, 0xb933bdc3a3f9f1fdU,
  0xed03e8efe13d0ce5U, 0x41119e71210f9f2U, 0x1fd121fe041ae63dU, 0xf546e0e6c2f3e4bfU,
  0x20cc3b02fed5fda2U, 0xf2d41aee180de406U, 0xf1edefd8e103d7eeU, 0xd2fdc100eedbdfceU,
  0x150f12ff02101eeeU, 0xda28c7f4e303112dU, 0x5720204d0d81f5d3U, 0xad4bdf09eddef7ebU,
  0x932efefee22e014U, 0xffddced6f10215f8U, 0x31c824c6e8bbf705U, 0xb644e9f4f2f0e7feU,
  0xe2d52eeed906d2bdU, 0xf0c5f713cdf524f3U, 0xdfd826f8f018da2aU, 0xea0eabffc115dae2U,
  0x2cc73011dd3ac8aeU, 0x1cdb4e029b62e714U, 0x6c0815b5c905f222U, 0xbef1f33c0b27512bU,
  0xa5d946022e0befc2U, 0x15fa1907f111dddfU, 0x401601b0f1f7fa02U, 0xf7ce9cfd340dff3aU,
  0xbde13ff8ebe0eca8U, 0xe3fd312dbf034fdU, 0xef0c1a21d713e4dcU, 0xd7d2c61b08390713U,
  0xb9edfb0d323ff5e1U, 0x4ba1c38b62abae3U, 0x4709fba341fde3ffU, 0xf9d0ec5149eed3c9U,
  0xb8f415e54d092001U, 0xe9d3fe240bd9d8cbU, 0x4d3efcda060b0826U, 0xb9eaf2f241dfead4U,
  0xa0da71f1fdfb18cbU, 0xe8d9bd211b2eb4dcU, 0x501936f927a131edU, 0x81fa26535cdad0c0U,
  0x2cdee42e1b03f7f7U, 0xf39df01ae1f20eecU, 0xed03fee0e33d10b4U, 0xeb2bafc70137190aU,
  0xf8be0afc25d62921U, 0xbb6c5f01b1224f5U, 0x3b0340c6f125e2b2U, 0xf9cd07e5084109e3U,
  0xd5d333e3e3b728c7U, 0x2a8ec4f318f4eb03U, 0x3500fbe4dc08ef9fU, 0xe6c1450fde4aebdeU,
  0xd6dbe2f32705c429U, 0xed6ff1de1dd1fb22U, 0x59eddabcf6dc2b44U, 0x40ede7ecf8e7f015U,
  0xdcc60be4ead1d121U, 0xf821effe2f0e09e8U, 0xffe802c6e8b0273bU, 0x5ef520f122de36beU,
  0x1a080bbce2f8e039U, 0x1d22ee1624f1dcd0U, 0x3aedd8c5d7e3ead4U, 0x2eb5f8ececd41be2U,
  0x221e15342916d2f9U, 0xfea03dee4d6d1ecU, 0x37cbca40eede3fc0U, 0xac2dd30fcee82cf1U,
  0x17c6130e5e17f437U, 0x20f08f4cdf7d4U, 0xf6c60beebdf4f0dfU, 0xa4e00a1ddd10f7d2U,
  0xf7022ee82628e2f5U, 0xf35df7f6ee3c0adeU, 0xe009b3c7bbf7cbeaU, 0xf3e0fc2cec114cd7U,
  0x2de01f5d00e71628U, 0x12e1f9d3e0e82c18U, 0xebd0be0b30c653c5U, 0xd60eef1feb0131a3U,
  0x3f152e06380c14a5U, 0xf812fbdbe90810feU, 0xda0c81151ef826f4U, 0xc607170f07df3acaU,
  0xffd326f11427e2daU, 0xbe2fecd314043bddU, 0xe018b4d3f3f402feU, 0xd910c9682feadff1U,
  0xcca2ee1763cdef01U, 0x2570e103240ffd19U, 0xf14d2bd7c22909d5U, 0xc0a16d920e6dbc4U,
  0xf4e9070a2cd50fe4U, 0x3723d6d816ddd8dcU, 0xe91d09c3d0f5e601U, 0xf1e70eda23d2dcc6U,
  0xb9c901dfe9c2b5f9U, 0x1718cdfe00d5ea20U, 0x2119e2cbe3e6b206U, 0xf50420da091fd8afU,
  0xf9eb3e1a15e1082bU, 0x3000100526361e2bU, 0xdee02d17f1070eebU, 0x17ecfffff0dee0edU,
  0xf7cc09eeeef309c2U, 0x29f40bef442633e7U, 0xf207f1e4da3beafaU, 0x11f5eb0fdcda0b0eU,
  0xeafcd9e5e5b8b811U, 0x12fc3b1916eb06eaU, 0xd9e7e2d0e928deecU, 0xfdc6eff302f3f6e4U,
  0xfaff0014eaaedf3bU, 0xeef213253f14f823U, 0xc21322fe029e603U, 0xc61d26af32f2e022U,
  0x191afd01af03d00eU, 0x18c5210216d23e03U, 0x2818e325ed32de00U, 0xc42b04e82a00e4f7U,
  0x2dbce6dbdb8143U, 0x3d1130831ef28ecU, 0x2908d522e7f19222U, 0xac25f2c4fae9f2cdU,
  0x30aceff1c83a2acaU, 0xe8dc13f1cdf00c13U, 0x4ec020af1e1f4404U, 0x811ff2fcc108d070U,
  0x39fabeec00e3eaf2U, 0xdd1e0c53e1f93a20U, 0xcd1ad5eeff262c28U, 0xe212dc11d9f7f537U,
  0xeb08dc40ebd5c8b2U, 0x23f3282ccc02130dU, 0xe812bb16f70903f3U, 0xe6181606d9081aeaU,
  0x2c21250b05ebe01aU, 0xd2290cf8c1e05902U, 0xe9db0f15c7380a03U, 0xc0c9f004ef01da54U,
  0x291cf606ff00b706U, 0xf8f70d0c0206ef0fU, 0xca18faff0a0de81cU, 0xcf1fdaed0702fb09U,
  0xf12bc80b41d3c4f9U, 0x39ef3a272e0bd9e2U, 0xe332dd3bc90cd2f6U, 0x281429e4ec0c1abaU,
  0x6dc4fa0da4e1d2bcU, 0xc99912b1f00ce252U, 0xf3f9ed1ec6054109U, 0xefccc4340212bc26U,
  0x47f7d9e209c3b1abU, 0xdec8dfebf71ddf12U, 0xcf03c302fa121523U, 0xf1e90f2407f2b5U,
  0xe2f3f401dee4b4f2U, 0x891340818f1ea12U, 0x2f7d3eefec727f7U, 0x4a2704fd12031bc6U,
  0x404ec9ee424ed14U, 0x2d2c17ee04b325d5U, 0x16e504d00d18e21aU, 0x2e05ef1ade0419fdU,
  0x19dcfbf82325e910U, 0x2f100822fbb301c1U, 0x36bd0cb30be4f10bU, 0xe04211017f700ecU,
  0x5307ebd61e02e036U, 0x92606fa1a8121f6U, 0x2ec520deb8fcf20aU, 0xd08253d543a29ccU,
  0x1b1925eaeb24f9deU, 0xa090a2820f1dad1U, 0x19dedbbf4adcc923U, 0x2e16fdecd2fc12f3U,
  0x13ba002f380d0affU, 0xb91fff350fc8fafaU, 0x22bac5c8fdc120eaU, 0xcc8dd390a0410e0U,
  0x170b0f19ee2afb02U, 0xede4fdf302c121fcU, 0x16c7f7d0c1f6fcfdU, 0x120bf809ef23f2U,
  0xe745e60018eae623U, 0xea1d073e01b72dedU, 0x33cb011627611525U, 0x2119f5efe2f4f01cU,
  0xf11d36424130fa09U, 0x201aeb4f0900b6e7U, 0x40c9f3e105180b19U, 0x1c141114f3eead3aU,
  0xfb08f60f1304fcd2U, 0x9d5e81516b3fe27U, 0xffcaf60e0f522509U, 0xc070a13f601d01bU,
  0x3de24af8fe5c0a17U, 0xf10406022a2826fbU, 0xba19e7e9f9daeef3U, 0x250218e107f900d2U,
  0xf716e7f309ffed55U, 0xe2db2702ff151a06U, 0x9d2500fb231bfe0cU, 0x33c3f6f30d05ed0aU,
  0x22e425ee063293f3U, 0x2208f1e100ee0dceU, 0xce1cf9e6f020d206U, 0xf9bb33f41ef6f6d9U,
  0xefd0e60e201b05d7U, 0xf2da122e0210270bU, 0xe71dd3310ac5faebU, 0xa13e917f900ed2cU,
  0xfd0ef70508f4d1dbU, 0xe61012d2fbd60f0cU, 0xbb0cc2f2250416ddU, 0xada23f9fef90e0eU,
  0xac10131feddc1c5U, 0x324dd11d30621f9U, 0xcf51d6d9efc6eeceU, 0xf3091e03160403deU,
  0x5140e022ccfb25fbU, 0xedd027f722080425U, 0xfefca71f12dacdf0U, 0x32b6fa2c2bdf0c28U,
  0xf813e91201e7f418U, 0xde1618fa000bf046U, 0xd8e7eec22ce1d4f6U, 0xe78101151d0406fdU,
  0x2703cf09eff62d09U, 0xf02014220ce6bb20U, 0x11bc3f01ff6dae4U, 0x3fe70a161ecff8d6U,
  0xdffd0cc4042eefdaU, 0xedf4030803231decU, 0x7bd705132ac9e0eeU, 0x6021c303e2de31eU,
  0xf13ccba5290bee42U, 0xfeba10f1f0495314U, 0xdef6292a2dd42434U, 0x3c503183f25f52aU,
  0xe2a01d202e4f40fU, 0xcaf19dc1c092100U, 0x13bffc3e0ef6131fU, 0xafbfe5f14a1ad41fU,
  0x315c20c20ca9bc1U, 0xcfd209c0bc422807U, 0x3212eb47f3080221U, 0xf1e40816ed012c2bU,
  0x350f06ff09e9adedU, 0x12f415eff9fb1c18U, 0xf103cff00649e01fU, 0xca1208070b0540f9U,
  0x1bf1d00405cdccbaU, 0xe6ecf4dfde7ffef8U, 0xd912001fc83af911U, 0xd816f8070af3f0ecU,
  0x35cac1342be9b589U, 0xfbc332d16df0537U, 0xff21d5f2f55a01c7U, 0xb0eee6f003c123cdU,
  0x1cf9f1350ef8a5b1U, 0x24ea200415df0638U, 0xfe01f5cce5f1e4feU, 0x3509f4e6edeafeb5U,
  0x16fcb83d1ebec2aaU, 0x22d40c4648110aeeU, 0xee0706dff143d502U, 0x5bfdd3d9d1cdb3faU,
  0x2f00262eea4bd2ebU, 0x34dbe4c7ee3df203U, 0xcc079cff0ea9d2e2U, 0xf2c6f9e81c1804e7U,
  0xd2071511dbf6e5f5U, 0x221ecc8022c010cU, 0xa215e816dfe7ddb9U, 0x11dc16e3330a10aeU,
  0xf3057047f3f1d60aU, 0x24abd2bf0ef82006U, 0x9715c1e7f9b6ebb4U, 0xcfd4faec0ff12eb5U,
  0x52b72ce8da190fe6U, 0xbb33ea01d0f3fff7U, 0xae0cbcf2c8c6eaeaU, 0x2de72d041a1ff8d0U,
  0x59e47f0d0d25f027U, 0x5c080fcce816f1f5U, 0xe2409eee24e8c5f5U, 0xf61f31bcd60010fdU,
  0xc8d9163c1533d302U, 0xeaf60d28d8def227U, 0xdcdaa8f002d5ecf4U, 0x2a1a47f5d80afecaU,
  0x4cef3ef1a1f52591U, 0xf27d729212df1edU, 0xf601a1285cc4c5e1U, 0xfe60bed0309f2b0U,
  0x19ea1518d8cc0b21U, 0xeb1df2e50550fa48U, 0xdeccf70c34e4f5d5U, 0x76cb24e5d52beb00U,
  0x5aea1532ca40ae89U, 0x19eee8de2e3beef7U, 0xdd279f142aff13f9U, 0x37e709e8fdefd9fbU,
  0x5c20ec2072a2c33U, 0xf5e5c7f2fcf52cf5U, 0xe7030ef5c15eeb22U, 0xf4e5b7b606192a50U,
  0xe521f5b60106ea3cU, 0x39d9eb181320f6f6U, 0xfb1c0d30075cbc1cU, 0xcefc70c28041dfcU,
  0xe20dd5bff1f0bd28U, 0x142a0d430eb8f008U, 0xe7410d72af2af92cU, 0xd801d4f5292911f2U,
  0x3a02f8122335b6d3U, 0x9c9e2f5ec270703U, 0xeb0e0e23d11adbfeU, 0xf0fdc7d0fe0dfa46U,
  0x3fbc4f90a548ed7U, 0xfe2a111e171931edU, 0xd44535e1b4f0c4d9U, 0x20efcf0821e3ccd1U,
  0x10e481ede4008efaU, 0x232608091a2c1c0aU, 0xf2101503c3edbc03U, 0x1543d2d723f21cccU,
  0x11bce4ebc03fb381U, 0xf908ba03101e1cf4U, 0xf1052e0ead3518e3U, 0x1114f40327fcad55U,
  0x5c0bcfdde65fe4b0U, 0x1c12fd3a133912eaU, 0xcf25071fe4e8edfeU, 0xf81ad22a09ffe7e6U,
  0x8f799ced13bc81eU, 0xc76311f301106f1bU, 0xbcf1f2271e970d01U, 0xf139d7e32dccd0d3U,
  0xceefd2b08e206f7U, 0xef37fce539102502U, 0xc7faf7e1d0dafce7U, 0xfe01d4e504d8f3dcU,
  0x9f1fc1eecfce225U, 0xed26f6e036272105U, 0xbdf0f6f025ee0ae5U, 0xac41deb0de502d8U,
  0x2afaed44ecec812fU, 0xeed2ddf63812e803U, 0xaff1f3e5e2e9fefcU, 0xf6e3e1c2f3e7deddU,
  0xc3fa16e70acb1b99U, 0x125d8e7f41730f5U, 0x7f50a10e7e623e4U, 0x1d0e0919f5f8ff15U,
  0xfce90df1050404f2U, 0x2f8df030e3235eaU, 0xdf12fbf1fa1cfbf1U, 0x1fe2ddfb11f5f135U,
  0x27d0d5de05fac303U, 0xe20ac210ea1639e3U, 0xedf50ff2e0d9fff6U, 0x24c0b9c4c5d9dc1cU,
  0xd92300fdf80038b9U, 0xf365f4e9dc16fcefU, 0xff1f81810d21421U, 0xf4250b1c1dd7f60eU,
  0xf806ebfcfd2a0eddU, 0xd01708e417f40eefU, 0xeeef120026e60b42U, 0x10f0350f06e4f334U,
  0x251deefd1a3604dfU, 0x1df225181ee3b9U, 0xbc0717e218dee936U, 0x24e2ba0fd8e6b615U,
  0x3cff05cb33233e24U, 0x2c99f0131e241c02U, 0xf7e5078ff3a2206dU, 0xdeb325d01614e7c6U,
  0xfde51a2a0e223f0fU, 0xf4e7030b0ef35305U, 0xeeeddcbe48035ef7U, 0x3ee31fbd4d04c3a6U,
  0x52f9420f60ec220dU, 0x21cae0d5450a3a0aU, 0x7f0623bdf60b2efbU, 0x220f4ee944fbe6bbU,
  0xf507c5fbf8e1f20fU, 0x3cbd07ef27f4cd27U, 0xeef0bee90ff40625U, 0xd8a9ece44be1d0f4U,
  0x203c503febefd0bU, 0xdf0106db1b07d1d6U, 0x1ffaf5e10fcf4bddU, 0xebf9affd48c9fefeU,
  0x18f8023c3204ec0eU, 0x5f619daebe6de07U, 0x22f205db3f3523deU, 0xe5fdb51737e121efU,
  0xf63eedc7db19903eU, 0xf3e0be1eecaba1bU, 0xf6f5fa2adb0efcf6U, 0xbc871cb219d9ebc4U,
  0xf228eb1de62fbe40U, 0xe9730f24dd0be710U, 0x1b08d419e20cda0dU, 0xe8ac2000fbcde4daU,
  0x451ae81e0bba14U, 0xdb22ffecee03e6f8U, 0x14ebea35cb6f2704U, 0x10e2e9d3c3f0f9f1U,
  0xf136fa04e0ee06cdU, 0xf8c5ecdbc4cb09fbU, 0x5df644e237134410U, 0xf808e80cf1291a15U,
  0xb8fbdf1301f12103U, 0x20dc1ffdaceb1629U, 0xaea30f43a3832bdU, 0xdff7c15827120f14U,
  0xb803d91229caf514U, 0xfbbc4503fe4a1617U, 0x429b0f1d1044fee8U, 0x2ecdfa1af24803d3U,
  0xfe3a1fe1fe00070dU, 0x19e2e5deebff1a1bU, 0x4fe03cd12cd6271aU, 0x4bd522e22c19ecf3U,
  0xf8ebe206c7e8280dU, 0x30defff7b2082d17U, 0xf2ee41da3b114ceeU, 0xc4ed282c2c190bc9U,
  0x17ece5f603ffee55U, 0x11c612e80f2b0f03U, 0x2fb632dc1444faf7U, 0x1fe00f1effeae9e4U,
  0x2a3316e605da3bb7U, 0xfffbe8cfe2412220U, 0xbf16e51837af2a01U, 0x7fd01aeefc405822U,
  0x4bb0f0f90fe5232bU, 0x3d2efe6da03331dU, 0xbd05cbdd2ce3568dU, 0xd6eb2071401331e2U,
  0x25f8d10c2ed6f447U, 0x12e1fdd7ec47e314U, 0x248d06080b171ac5U, 0x18de5715d3f10ec9U,
  0xf81cf2d2f9add569U, 0x8eff8cdfac5c5e5U, 0xe3f715f1d710211fU, 0xe7eceaf8f41afddcU,
  0xe3130090e51dfcccU, 0x11fbebe0d51bebafU, 0x2ddf300dd2e3faf7U, 0xd4f2fcdddd0c4adfU,
  0xef330c81c6f217d8U, 0x4f2d4ea2a03c4e6U, 0x600f4422ea4b0e27U, 0xf6d4cccbffeadfU,
  0xf6d505df0cd8d916U, 0x15ccffd8f9ecf407U, 0xcdb43e9d165ed20U, 0xc7bd19ecfcf60e0eU,
  0xea0707bf12eed6f8U, 0xd307fe14eb2610eeU, 0xaf61cedc9e8c705U, 0xe7dce5f6fdf90a09U,
  0x4152e3bcd9e2d6e9U, 0xf449fac2122b42f3U, 0xf8c429ff05070605U, 0xfaf3c1e7fcf20a24U,
  0xe6c3c3fa1818e82bU, 0xeb0f0cddcf16f615U, 0x8d237d4ac0d4a03U, 0xba9628201214ecd0U,
  0xf4e339def01c28cdU, 0x2342f809d00d0ad7U, 0xbf5819ebfe69bdU, 0x9fb313091d11bcecU,
  0x190735d9ede35fd8U, 0x1156dff3ef1431e1U, 0xd19b0e32d5ce44f9U, 0xa21cd5f529f6c60aU,
  0xee09fee6e6d23e0aU, 0xf7e932c9c701dfe8U, 0x342fdb3627dde8f2U, 0x2fbbef3a0bc3472fU,
  0xeb44e3c8f9e6f511U, 0xfce53bfdbffff7e7U, 0xfb23f62418d20ae7U, 0x4a00ee36d5faf928U,
  0xe005dddaeaebd7f0U, 0xe8cc0af305daf2f5U, 0x1b0e91b0ff5e805U, 0xe5e3c01df70cfb1dU,
  0xed1fe2d6dcbc2259U, 0xd1f337ddf30f0c16U, 0xf6d8e02ee5f20540U, 0x2bfb15ead8ff311aU,
  0xfc0ff7ddf8f11811U, 0x1ae14c140c19d4f8U, 0x6ee1edf0d02f308U, 0x16f7f9c4d7fce5f0U,
  0xeee7d6dfafb9d3c0U, 0xf1d02000d6d7e412U, 0x14ef301ed42c031bU, 0x61520d5f20ed312U,
  0xfc250b08e329c266U, 0xeb1bfa113118fc2aU, 0xd4f6042ee70cc525U, 0x4edef4f000e60023U,
  0xf9211b02d3fdbc02U, 0x3d090f1144249a27U, 0x27f2253bf803000dU, 0x2df1fbe5fbf8b91fU,
  0x1fffba1ca5d981e5U, 0x1f0f29fc58b5a427U, 0x1cc133bef56ae6f9U, 0x3ee9e4df02d6acf0U,
  0x7fe532e6f0f8cdebU, 0xedfbee18f7b8e6bfU, 0xcf7bea8cdf9021bU, 0x3de1f246620416a0U,
  0xf6f83712b61ee22aU, 0x920d34c1be7d0e2U, 0x59cdf2f520420edaU, 0x30ff3a21e5ed0f05U,
  0x2e2411e1ba13dacdU, 0xc113c81903d2e210U, 0x58c920c470ec2b33U, 0x222861ded318f6e3U,
  0x35cc21e0ba05affaU, 0x6fd2efcb82dc9e4U, 0x1de6c216cbfd053eU, 0x90ee6153efbefe1U,
  0x11ae8b9f8fbea29U, 0xc8ecf32501f0b8f7U, 0x29ffc309ddbe483aU, 0x17c92cf7cff3dddeU,
  0x110bef03c90deaf6U, 0x548dae0a6d9b5f6U, 0x53f31ce2390feae7U, 0xecdcf415defba321U,
  0x14d3e7bf1fc79a54U, 0xad000e0cadec819U, 0xfe0b085595482f3fU, 0x13b5b70734eef1daU,
  0xf733fadbec15000eU, 0xfffcfce5f8d5e6f2U, 0xcc150117085ac415U, 0x16c306edf2c7f6feU,
  0x1fe7d302f9dfe7d6U, 0x34ecf5dcf1f926U, 0xfa262eebfe28c5feU, 0x32d114cdecf9f440U,
  0xcc5406c5ede7ff1bU, 0xe71ee3f5d5fb2ef2U, 0x2c5c647c086041fU, 0x24edba490b233834U,
  0x1612efb90bd5de11U, 0xe83cf1dd22c3f5eeU, 0xc4f40d27e38e1405U, 0x1709e12fce16f229U,
  0x3b2db6cd0cd4495eU, 0xc2befd1cb110ddeU, 0xcfeb15fd34f2f10eU, 0xab3ba53b9edee55U,
  0xd7d9d4ae1bc8e9b7U, 0xfaf50c15e2f4d4f4U, 0xee16f0f4bf07f824U, 0xb4c09d922f5e522U,
  0x1ab1f1d52bc2c5c5U, 0x20e9f404f5ef0103U, 0xe5e4b7e80536123dU, 0xed07670dd2e4e041U,
  0x370018c6f0b5c898U, 0xcef7e7f9acbd69edU, 0xcd21ff1ff8041924U, 0xe11101c7d9f0ba27U,
  0xe1f6dff012e9efe4U, 0xf3fd1af3f6efc7fcU, 0x251a29f8d641f21fU, 0xac08f7f31acb980cU,
  0xd7e72fff2ef3d8f6U, 0xe9f3f31803d4deffU, 0xc721e9fb3726012aU, 0x9f0af3ffdce7ba2eU,
  0xdde64321d0fdc9c8U, 0xdb81db0dd1dfed06U, 0xf21dfafffa63c308U, 0xcc0606e3c8c5b5ebU,
  0x7210596b009df03U, 0xf7d907c42af81fdaU, 0x5dcd1bee37233dbfU, 0xcdfadcf0e82a0c20U,
  0xf7dcd4bbf8f6b131U, 0xf70d09dc2dcf7fe7U, 0xf6ebe6b4021c11eaU, 0xfeed10dde2d50826U,
  0xb225f130dcb325U, 0x1e7ef9bbeee93aecU, 0x56ce6a6d4190ce1U, 0xd099be0a380d0f0dU,
  0x3502fdd8a0c7da0fU, 0xecc82ae5e20468daU, 0x16cc0a8eba4963e4U, 0xd4f50a0ee904f10aU,
  0x2def69f5f1c3f239U, 0x1b263fd6d5fb5cf9U, 0xfd02090d1b17410fU, 0xa802e7c71a0519f3U,
  0xe20b0833f0e20af8U, 0x2a170cc70205faf1U, 0x6e2cdc1faf04b02U, 0xb71fe538190ff0b9U,
  0xdedd442611d211dbU, 0xd8bf1a12f63a4b13U, 0xe620259cfbb6ea01U, 0xf9f5d52efacbe0ccU,
  0x27242108e2fa1f1cU, 0x8c233bfadd3ffdU, 0x120cd8121ef10034U, 0x481e16f2cadce4e8U,
  0xe9fbdf333cd836f2U, 0x20bf020530010509U, 0x13f20e4002ecc600U, 0x27200801d4f1ac11U,
  0x1fc8cbce7ddfb3edU, 0x2cf113d117be52d4U, 0x421ee9a5ca2aeb07U, 0xbd1000d0907fd45U,
  0xe1111dd09b7b611U, 0x2f130b3e4fc00f5U, 0xe21a2dffa2a10ecU, 0xfc03f5f5091df258U,
  0xff1926de24d6e1c8U, 0x30dc160de5f301f1U, 0xe511bf690348d9e2U, 0xff25fa12d911054bU,
  0x2f0bd7de1e063304U, 0xadff1dfde8db1ce5U, 0xcf208bbda7fe103U, 0xd4bc12f40109dde2U,
  0xfafb5122f302efd4U, 0x1223f3ffe008fefbU, 0xfbede1cf092904f4U, 0xd20632f7ef0acf0bU,
  0xf9e5240fe406d698U, 0xde9eed4fe5fdaf06U, 0xfaffe5f33037ea07U, 0xe71436f0e9e8fabeU,
  0x7dbf1e41f433af1U, 0xa46f503effdf2e1U, 0xef040b1617fee0faU, 0xdea2300f0b101395U,
  0xcc28e804ef3bef1bU, 0xdf1408f6fd18dc05U, 0x10f4caee32e2f814U, 0x17aff6def0fefdceU,
  0x1afebc06f527e1e1U, 0x212901e3f6e10205U, 0xf2dff23708ccdce1U, 0xe094fe14c5091691U,
  0x1eb8fd12f512f4f0U, 0x89c38e909db1b00U, 0x712924f8b5e438c5U, 0xe73d15fbeffc289cU,
  0xecc722faede7ddfeU, 0xed4170602fcfaf5U, 0x52030cecd3c9ecdeU, 0xfcf6d0cf00f919c8U,
  0xbfe52118e89555d4U, 0x23f255e5e4eb0403U, 0xa31d01e4e6c2e0daU, 0x329ee707ed21f9b0U,
  0xfc11ffd4e7043f0aU, 0xebb0edee1f0be7f2U, 0x4b1e11b70ce607e8U, 0xe6f1f6f21c2d12aeU,
  0xf20191ebf3333f8U, 0xfedcead5ed021b18U, 0xe5ca0bd443b2ce10U, 0xc6120cf9e81f0cc0U,
  0xbc1f23f71b166a15U, 0xb8f7dac70914202aU, 0x81e30236e885edd8U, 0xcb04113200140ed1U,
  0x1d6a08050fbee772U, 0x1cac2df704cbe6e8U, 0xd11733e2f1fdee18U, 0x8a9e5fb17ecfb1cU,
