/**
  ******************************************************************************
  * @file    network_data.c
  * @author  AST Embedded Analytics Research Platform
  * @date    2025-12-31T12:38:51+0000
  * @brief   AI Tool Automatic Code Generator for Embedded NN computing
  ******************************************************************************
  * Copyright (c) 2025 STMicroelectronics.
  * All rights reserved.
  *
  * This software is licensed under terms that can be found in the LICENSE file
  * in the root directory of this software component.
  * If no LICENSE file comes with this software, it is provided AS-IS.
  ******************************************************************************
  */

#include "network_data.h"
STAI_ALIGNED(8)
const uint64_t g_network_conv2d_1_weights_array[54] = {
  0xa896e5b223f77f47U, 0xd340fdd45a13c9cfU, 0x8ed22e362d05b31fU, 0xfe2c2a21fd8e1aafU,
  0x3f7f682cf72ce8d2U, 0xdd0d3617161f585fU, 0x3c5627cdfa0d1fe4U, 0xd7a4dec9bd90a44bU,
  0xeb14d7810cb59e0fU, 0x63e3bb666630ea47U, 0x485519f79c81a2f8U, 0x1f196c01af7533fU,
  0xe7ddb0c73efb8697U, 0x5e6cb8121b49131U, 0x8bc8ff7afe007b6U, 0xe918a9ddac081fd7U,
  0x2629d7b1264bc912U, 0x47156342e048d4a4U, 0xffd2bac4819bf5b5U, 0xc536b02bdd5b5ae0U,
  0xe9def28ce62e9e00U, 0xad594893943784aU, 0xaed0b6af7f21f225U, 0x34f70348011d930eU,
  0x39c3153327572a2bU, 0xd715293af6f2f60dU, 0x9281b6afbc29a299U, 0xc2033d04e05e11ccU,
  0xf5d41b260ed3cec2U, 0xa681d0d3ecb7b8dbU, 0x9f81cd383cd4dc3bU, 0xab730455dfbc16d8U,
  0x31e113d80ab6ca20U, 0xe0a0fc842554f21U, 0x27ebe43f4934ec13U, 0xd55bd67e247f6a20U,
  0x46e0583a24f916f7U, 0x7f3c0744daeaf1f6U, 0xf6ee101fda03565eU, 0xb20f6dd1b36e4e7U,
  0x58c1b516ef10e319U, 0x631bec58a555a6a4U, 0x78246e7f72f23f34U, 0x404ddf458f84cfbU,
  0x1dfcc0c745f8e2ffU, 0xe1ab98a0acb4d80aU, 0xb7a62a26a7f7c009U, 0xe879fb725ff381a0U,
  0x140fe13343379783U, 0x7609d627ed93f3e8U, 0x763fb249f227f40U, 0xfe08ecf0fa1ad4beU,
  0xa80bae0be6f0d1caU, 0xd3a3b3b00981c8cdU,
};

STAI_ALIGNED(8)
const uint64_t g_network_conv2d_1_bias_array[8] = {
  0xffffdfe400003a97U, 0x42e90000205fU, 0x2f4c00005ddbU, 0x22f8000019f1U,
  0xffffee0900003c31U, 0xffffd563ffffeed3U, 0x88b7ffffb114U, 0x7027ffffc75dU,
};

STAI_ALIGNED(8)
const uint64_t g_network_conv2d_2_weights_array[18] = {
  0x3fb204e57fd5e52fU, 0x96f604269f2364fdU, 0x66e1b3d93cc0085aU, 0xd0e2e6ef8132562eU,
  0x331fbe8132cb3428U, 0x1e18ed2b9942f9a9U, 0x46f4b9472b0a7f63U, 0xb8c0eca080b7f81U,
  0x7fc481bb02e7717fU, 0xd8810a7f002376efU, 0x67b2bf9e18b4121cU, 0x1d86c424230421eeU,
  0x6c0c9d1407f2f38U, 0x7ff5bf9ee19e0bc5U, 0x5982a83dcfadfa16U, 0x24ac8117198164c4U,
  0x46810634269ec7f8U, 0xc19ce9185cbe2f72U,
};

STAI_ALIGNED(8)
const uint64_t g_network_conv2d_2_bias_array[8] = {
  0x830fffffaefU, 0xcd8000006d9U, 0xfffff9b8fffff960U, 0x4b9fffffe8dU,
  0xfffffff5000004a6U, 0x891ffffffb7U, 0xfffffc5a000002b7U, 0xfffffc65fffff447U,
};

STAI_ALIGNED(8)
const uint64_t g_network_conv2d_3_weights_array[96] = {
  0xb92f773cfe098109U, 0xc25f647b218afd8fU, 0x401eb87f5febdbcbU, 0x10e1bcd4d76e09e5U,
  0x81e161d80a0fc139U, 0xe82d4f0729deb008U, 0xb497f1afe3b242dU, 0x5be2cc60b3a1a3edU,
  0x21b059d904883560U, 0x488802479ba981fcU, 0xda177f22dcf7cf71U, 0x4919a4161257088fU,
  0x290fd5adbda35caeU, 0x955f2b107ff61503U, 0x291ac8c0cdc6c7adU, 0xecf72cece2a37f12U,
  0x81c43c5848a0ea12U, 0xf99f4c68cfc7f11eU, 0x5c20bc161e051c81U, 0xead5e12552fa4b2fU,
  0xcf33e9cac20af097U, 0xb9fc5c4e4181bcc3U, 0x92bb6e7fb2e3db28U, 0x550a5af7e0182735U,
  0xef0e9313ee24437fU, 0x83354db6bdca4b4bU, 0xef810d42104ed7e7U, 0x2bd1170a3347e21bU,
  0xcdc6597f07148512U, 0xd9d9e13fef2de9b1U, 0x67c80cce37bd33a5U, 0x37171526077f62d2U,
  0xb7324fddb0bc3342U, 0xfc18b3dd907fc2f4U, 0xff287fe6aed83c1eU, 0x4f29f5a225c6152aU,
  0x12e7e0f7edd76581U, 0xd3a11bebf3bc2b93U, 0xd28e210c5577f02U, 0x3ca816f0a440723aU,
  0xbc32fbd539c7287fU, 0x74ca30aec54fadcbU, 0xeff0e022b7d2bd0bU, 0x22f0f6fa7fc2c61eU,
  0x81d958c50cde1b13U, 0x50022010cbf13c6U, 0xe40a0a09ded33cb1U, 0xe9f0227f7b26fab3U,
  0xde92d16e7fc63db8U, 0xa6db413517b42eeeU, 0xc58124a9513b9df4U, 0x9cfda3085ec3ebd4U,
  0x81cc4d2a30161d76U, 0xb3e8b7b920474068U, 0x3de3d5ce74460022U, 0x386a810517abc2d8U,
  0x3d1f4d09e3f2b135U, 0x10197f2777a9f490U, 0x25f26116f5374caaU, 0xae0e3e2bc581e1d9U,
  0x9bd07ff8cab02863U, 0x44ead028eecca3bbU, 0x54ccde1924d4662cU, 0x528127fcfa5bf808U,
  0x3a1616631e23aad7U, 0xdb4b4c1a810de006U, 0xd0cd953815f507fdU, 0x18cb25f4f60a7f2dU,
  0x35b7d80ab17ff21aU, 0x551731fd6661d9a4U, 0x2a51bf674d1cd6e2U, 0x9c1981b71720c02dU,
  0xe7e67fc6effa3cd6U, 0xdff2ee32bf5647e1U, 0xfee8814e0f2a45efU, 0x36290a770634414cU,
  0x93f2c52ad9e27f66U, 0x68bc737e3e75713U, 0x492c7f427a6e6a85U, 0x1c30f9fb40a6d1b3U,
  0xc8812344d8f5092dU, 0x28be01261639d5ceU, 0x3e288134d0272b24U, 0xe7f7e9c6adf3ded9U,
  0x335fca7fe1b42fd7U, 0x4767fa5b1e4a3bf3U, 0x81a8e320aaeedb32U, 0x4ef1c82df4c224f7U,
  0xacbee3ec00954c71U, 0x18814d7d8c2bcca9U, 0xd1b1dd9004286c2U, 0x13eef94dc7988120U,
  0x4c3f3aa0130d936U, 0x115d99007f3d3e31U, 0x9ff9ced2e4ec5ceU, 0x5febca81f9eea8f6U,
};

STAI_ALIGNED(8)
const uint64_t g_network_conv2d_3_bias_array[24] = {
  0xfffff4ad00002daeU, 0xfd500001f61U, 0x14d4ffffec9eU, 0xffffffcffffffcacU,
  0xfffff1a300000db0U, 0x2c0000001636U, 0x71dffffe106U, 0xfffff7ed0000171dU,
  0x19ab0000142fU, 0xfffff34dfffff98cU, 0x667fffffc1fU, 0xb2100001553U,
  0xfffffcf2fffff0c6U, 0xffffe33fffffff59U, 0x138f00000fb1U, 0xffffdfd1000010a2U,
  0xffffef42000013c6U, 0xfffffad1fffffb77U, 0xffffea4b0000122aU, 0x16e2ffffe587U,
  0xffffe3ed00000507U, 0x1f5000001b9U, 0xf7bffffe5edU, 0xfffff4dafffff343U,
};

STAI_ALIGNED(8)
const uint64_t g_network_conv2d_4_weights_array[54] = {
  0xb381c7cc2ca81a9bU, 0x108138db81bedc35U, 0xdfd419157b7f814eU, 0xb88d32137f09bc51U,
  0xeb0ffd358c7f5d35U, 0x360bfa3f7ed4845dU, 0xb2a1d4d981e72da2U, 0xe3e146d9850c0a81U,
  0xd18f0042fce2de71U, 0x1a2d590ed17fc954U, 0xe981d3aa81b16d52U, 0x570bde817f20fe42U,
  0xdb1ddcdcce69d6e6U, 0xce511abfe0f1abd9U, 0x7fae7f16eb193843U, 0x58ce1ace086a1281U,
  0x9bbc81c0aad43004U, 0xd87bcabe17627f32U, 0x9d2c769a01e49a36U, 0x19eba10da5e11556U,
  0x4fec3a7f7fddbbc8U, 0x747f9739578d7f4cU, 0x7fe719811f991ab1U, 0x46fe2142a77fe790U,
  0x81dd7f7f3d4badddU, 0x77778181bf05d1b7U, 0xb2cc2a4cd9e6da82U, 0x6e45fe7f15a1357bU,
  0x2d5c00ced5e744c6U, 0x2d7f8eecdb6ec9efU, 0xd3f54c16682a817fU, 0x63e2bddcf1818edbU,
  0xabafe826b1f0c22fU, 0xbdaea6d22ed3563bU, 0x971d18aa7d01930U, 0x7f7422b3bd4f9441U,
  0xc60a2eded62f1869U, 0x3ef3102ff25de0ffU, 0xf47dfe26e2562a81U, 0xd4312e4915a0dc45U,
  0x1ef8f42b306e823dU, 0xc7337ff1295fbcc9U, 0x2e11a225e811c6eU, 0x7feef7dbe84381d4U,
  0x637f4ef3ef2fe4b0U, 0x8117f108368bcf5aU, 0xbdb236ce74e816fU, 0xb93ca2c50729090aU,
  0x25bdfd2cfb8f67c0U, 0x12b5f1d5f10cb7ecU, 0x5b24dc07e6aacdf8U, 0x3ec812938f22927U,
  0xc5112fc24d1ded7fU, 0x3f0754fee12047fU,
};

STAI_ALIGNED(8)
const uint64_t g_network_conv2d_4_bias_array[24] = {
  0xffffff8600000141U, 0xffffff9e000005bbU, 0xffffffbb0000011fU, 0x35e000001d4U,
  0xfffffc5800000574U, 0x177fffffe57U, 0xffffff3afffffcd7U, 0xfffffbb800000204U,
  0xffffff44000001ceU, 0xffffff5000000289U, 0xfffffdceffffffb3U, 0x326000004caU,
  0xffffff9200000002U, 0xfffffff4ffffff71U, 0x159fffffce5U, 0xfffffc5e000003d2U,
  0x350000047bU, 0xfffffee5000000d2U, 0x203fffffd56U, 0x12afffffcc1U,
  0xfffffefb0000045fU, 0xdefffffe5dU, 0xfffffed300000277U, 0x1effffff55U,
};

STAI_ALIGNED(8)
const uint64_t g_network_conv2d_5_weights_array[480] = {
  0x123aa0f7014d21d3U, 0xe2d829e3813ab331U, 0x695be1c704f6de3eU, 0xf1ae99c20228e403U,
  0xf9f533ccca2d1f34U, 0xb62526d5d2e2250cU, 0x3004df1ade13bbf4U, 0xf41503f77f30c20dU,
  0xe82af8f7e0de2a17U, 0x37e31cd45304b7e7U, 0xd3ca22d0ce0fcee2U, 0x131b2a1a1416cd24U,
  0xd3b600c82ef5811cU, 0x672b045f4bf0a139U, 0x172aed3e1caafbddU, 0xd41085db0bd8e1a0U,
  0x8eee6221afea1e13U, 0xf0401309f7bcecd1U, 0x501f242e590dae1cU, 0xc569ae21ec343cc6U,
  0xb817573e30f42676U, 0x35d13609c37ff093U, 0x1ddda8aa9e93ab15U, 0xd4fc17c7382553c7U,
  0xfdc1f44be207562aU, 0xf2321ef6411bd541U, 0x47d7e969a2e9d3f7U, 0xf9d300072b7f3ff0U,
  0xa7b1c3064f9b06U, 0xe703ee9aa0ffef7eU, 0xb912145defe112cbU, 0x282a29dfef4abbe1U,
  0xd389ee0f35959d9eU, 0xa91e96b65bfb0dc8U, 0xd97a76dca9c72467U, 0x335939e8b6812ebcU,
  0x3e51ea2d5c95b9ffU, 0xd4c336da557f60d5U, 0x34e72b2bc7280b21U, 0xceed1e16f2f7d929U,
  0xe01e14fcb3411efU, 0xba1ad3af65f953edU, 0xec30b9eb442b3521U, 0xfac79dbd1642f414U,
  0xfbbea30761b4afbdU, 0x14be81f74be7f031U, 0x4e20204fe3e36b3cU, 0x3b3a653cf61d2707U,
  0xe30bd23daecdb46bU, 0x33dd06bd5c3e97c2U, 0xff41db81a1c3571bU, 0x24e6391029a3911fU,
  0xa3b85cd5f82df745U, 0x4224dc2145d50af3U, 0x42e9d5b0cb560221U, 0x3de1dfdb81f0d8ecU,
  0xe5d021121bf9f949U, 0xdc3b141f3052d033U, 0xd8f856223acdf02cU, 0xf41aef36c1330529U,
  0x36e87f4cca1d20e0U, 0x1e7b91ffef197205U, 0xffb8e41a26502b1aU, 0x6bae144db75d890eU,
  0x1ab7eed516d7bb32U, 0x8f05eecf69cfd0d8U, 0xe9f6fefce6d8f428U, 0xc71dcde12ada47eeU,
  0xdc43f9e3f930f1d7U, 0xe7e32408ef813fffU, 0xe70403ee030c0edbU, 0xf546f0edc6fcf4ebU,
  0x55215027ef403ce0U, 0xf5f5107f93b33aaaU, 0x18dcb0b8c3f9f533U, 0x2674fde4f81333ceU,
  0xbf3726b141e8b520U, 0x1400fab2bb1605d5U, 0x373cf1baca2edde4U, 0x4a372f5b4eaae22bU,
  0x414a2a2c48c6121cU, 0x55e7fce53fa20200U, 0xbc1f809fe41df13U, 0x2c321bfb557fe9ffU,
  0xf3d5ced5ed021734U, 0x3fb35cf0d12de4d5U, 0xdd00c9810ab5dbc7U, 0x6be34a922381656U,
  0x10fbdddfc21506ecU, 0x18d11510be294f1dU, 0x2e13da2af72cf241U, 0x3ec2cdbfa4ee2ffaU,
  0xa938bc12d8202244U, 0x97cefc1c84c53301U, 0xfc445644090c0981U, 0xdadcf54e4fc5ea42U,
  0x4c0cb42afbf63febU, 0xf8a23ebb40fb62bfU, 0x236ec5c97ca77f65U, 0x60ad3db100fc7530U,
  0xdf20e35c92cfc60U, 0x28156334dd03b2a1U, 0xd91d11a681ce261cU, 0xaa55bef97febc067U,
  0xaaf190dab2295dd1U, 0xa617dce7ddd85e1cU, 0xd049224abc101e6dU, 0x39440d3cb4052fbdU,
  0xf402915761b2cffbU, 0x14ec454756efb3c1U, 0xddeaabceaceaf216U, 0x9fc9df23061a4d8bU,
  0xa73d002c3cb9b227U, 0x7fad3d8cee4d7d38U, 0x67e11c0720dc2bb7U, 0xba41caebe6b968ccU,
  0xd124010405ae3022U, 0x2481138fb7161c9aU, 0xb1b268e51b07f918U, 0x19ec2bdbffe2082bU,
  0xd0301cd9bdba16a8U, 0x2d14c720e0f2f08U, 0x320a18215add0851U, 0x120bb37f3514b0U,
  0xbb284026035ce122U, 0x331e3b11daacd8f3U, 0x6c3d0339e1d8e01cU, 0x2ee48c99caab6440U,
  0xd6e65018ebcae3b9U, 0xda4c000bc3810bbdU, 0x92304321e5cc5ea4U, 0xa2ba753e2d517ffU,
  0xc810303e7d59f33U, 0xbce5732129d1cff3U, 0x18ff145610cba5d3U, 0xc04e0c02befb1c4bU,
  0x41cadcbfe658afe9U, 0x5d3284445d0f5faU, 0x7f5cc15dc3e0f62cU, 0xbf3001f4e3ee40cbU,
  0x55b54f3cc2b47596U, 0x1a36a8a7cef52be4U, 0xa73daa0281baca25U, 0x3d13ecba04cd6365U,
  0x43f3e3e02adb4b81U, 0xd92bd92a3b1f5949U, 0xc32816fa4133ea37U, 0x235827d840f932a6U,
  0x3feac603bdd71ed0U, 0x29622ef146c5b81eU, 0x3c11b403bfe387fU, 0xac515208b44b5700U,
  0x404e218f2deb809U, 0x33dc7df442bc541U, 0xece32f165e4915b7U, 0x2c18315e44a2f812U,
  0xae86e6e6d4b2c31U, 0xa202a4146eafb22bU, 0xd377cbb9aeef0c38U, 0xb037c0adec197f43U,
  0x3270fc0e0ae7a763U, 0xdc733eb8e221c519U, 0xab34f41989181daU, 0xf1cc69f9fda4ff29U,
  0x16e7d8f21bb502fbU, 0x675024032701efb0U, 0xc9d7cb15512312fdU, 0x5b10ebfae316a2dfU,
  0x6ddfd7e814b80b69U, 0xb5a5767f3d093cf9U, 0x4c293674e61bfd58U, 0x302bee032f7a0ff1U,
  0xc3eb6a35fb56d2e0U, 0xe704d827183c5e0aU, 0xc7300120abf7c8a8U, 0x16da1a08eb62b885U,
  0x10d8debe838d43c2U, 0x39cd29de2e180e6aU, 0x1525e414ab2811daU, 0x5d3c48c07f0629d5U,
  0x57e4eccaa045fac9U, 0x73020b9f8124d23dU, 0x7cb1c7063b29ebb0U, 0x580effc00c03b860U,
  0x43ddd1e94339c33eU, 0x8ddecf2efebdbbc9U, 0xb61c4bfb9d4e21e1U, 0x43a99c46418fc478U,
  0x10310ff1fabfae8U, 0x35210932214446f0U, 0x26ef3a1e1110200bU, 0xfb21283d814832b8U,
  0xc3ea00271d18eab0U, 0xe41081c9492e20efU, 0x1a37b3e62f2b26d5U, 0xe5ff36fae3a2c507U,
  0xdf44f90da6b72b90U, 0x5e372d23000521d5U, 0xe72d2e41c9d7df8aU, 0x124bf50320582f15U,
  0x60ec13c723e106fdU, 0x33af11dcfecd81ddU, 0xccf1eecfba410b88U, 0x20ded25bfe1b1347U,
  0x1cf308c6e1ce0214U, 0xc220fdc5781ace9U, 0x9e0c17f73f150dcfU, 0x83d51db97cd1d92U,
  0xbb78ffc29fd8700bU, 0x15c41a59e22b3f98U, 0xdadac8ffd7364b29U, 0x491e8136f5e14ff7U,
  0x39233e3f619119cU, 0xcf1548d72f1c0cf7U, 0xec576aa52d2257e6U, 0xe4bc4af11bb9cb54U,
  0xc9c54bf634082b1dU, 0x4ede2751d4f7bbc2U, 0xec9dafb64a044e57U, 0x20810ff0f04184cfU,
  0xb4c128fa4622613bU, 0x5614fbd3236cc933U, 0xd80b12b414f15546U, 0xb60d69537a1eaf11U,
  0x7657b47d5c0be1faU, 0xc11fbd38d216f6cbU, 0xdd01283e8146542cU, 0xfb8e2798b2d49498U,
  0xe13760f20946154bU, 0xfea50424f4d2471fU, 0xdb4d0e6f5cc2081U, 0x660a03a2350c1bb4U,
  0x47d30e14f5c009e2U, 0xe354f04202ec2e50U, 0x2eff01cd36165f09U, 0x84c0d3ab93ec663bU,
  0x4c540d1c02dec53aU, 0xc2e92423dd8102a4U, 0x91440d55f12dd337U, 0xd86e32dfec05f428U,
  0xba0f8d11f1481d6U, 0xe92ee0e12713cc56U, 0xddddea405222ca7eU, 0x27e75105090ecfe5U,
  0xa2c74ade26c70eb7U, 0xf142f5253ac618e7U, 0xf1cf130181d408b1U, 0xe026b111d2dd4efbU,
  0xe4a6f92c26e17ee7U, 0x523047d35ce65cfcU, 0x8d00af876f3afe22U, 0xc1e2e611e14d2d4eU,
  0xd8d71f37d5def5e5U, 0x5dada4c24f20d46U, 0xa7f8cceb25ebe509U, 0x7e525e1e302e5bcU,
  0xd25f7fd360ae609U, 0xff7f727d17fe8fdU, 0xe60cc124d51000fbU, 0x29fde3f41ef41aecU,
  0xfdc105abe2e2ee06U, 0xb81b7e2c204dfd1U, 0x2732e81bcf2cf6U, 0xf3ad0204e7cc2c3aU,
  0x550fe8d11981f32cU, 0xa6a9eea73ce5ae05U, 0xc9a1c83295aaaae2U, 0xa1ee2e921f1baeeU,
  0x2e24e2c71408370aU, 0xed11cdc6ff45714aU, 0xf9195805f08136aaU, 0xedc811d5c1d0be04U,
  0x5ede3e60ed24ace1U, 0x382bffe3d8baededU, 0xcf13dcabfcffef0bU, 0xa4154d2670db05b2U,
  0xc931bce50930f2ebU, 0x1ae80137a9ed084cU, 0xeebf9d99eedf8136U, 0x1ad733f2c20a4124U,
  0xe9104fd44312bf03U, 0x14fece59c634c497U, 0xdd33f92f024a031aU, 0xb9fd0e9ada5673dbU,
  0xf1123a25b2cbdf24U, 0xab02ecb4645310c0U, 0xe428555605da381cU, 0xca7181b412e83ee8U,
  0xd5efffdcc2bb7f9eU, 0x2ab11efbf6e01638U, 0x2e24a8074c2de4fdU, 0xdad977c48b55eeccU,
  0x7498c119ced04cf7U, 0xd39264dd4fa3197U, 0x143616e5e5f3c532U, 0xc73e1f0a2eedde21U,
  0x7f0816e93b01282dU, 0xfbf51b17e549dbe2U, 0x20afec1b0faf15c6U, 0x3dd38064c08fc2cU,
  0x2bef423b0052d1e7U, 0x8136c2fdd22438b0U, 0xd3537614fdd0dc25U, 0x1a56f603491921f5U,
  0x170860270fd8ddb6U, 0x270ba220d2add2feU, 0xabccf22f3564574dU, 0xc83d5404afc4d7deU,
  0x210a1dd201d4bbd1U, 0x1239efd7ea0ef74fU, 0x3dd22d0e3f7f22f2U, 0x90c70db238173a0eU,
  0x33c1b342d013f29fU, 0x203aba74d5cdb3d1U, 0xd4ebab072e912963U, 0x3742f9ff17a50158U,
  0x8100ced06fe49acaU, 0x21ada8e3c3b5d686U, 0x28010b4ce281e7fcU, 0xd9cbe62d4618430aU,
  0x440b3d2721f7fdfbU, 0xc7f1d3dd18db0f30U, 0xe7de38172ee5acU, 0xc60e1d5015f6113fU,
  0x4887752066376d0cU, 0x835c929f8f0bde5U, 0x19d24e210a182799U, 0xffb2df0dd76264d9U,
  0xc5d570ae930a67fU, 0x7fb362da424ef28U, 0x5505fb070ddf0323U, 0x92bab20f2fa640f5U,
  0x4b0b2c0229b62a1dU, 0x18fed5c581a61c0bU, 0xc9f221a214d735d5U, 0x15f1441d6a9ae24U,
  0x55cb15d4ac81ec48U, 0xeb88032fc9b2d175U, 0xeb3b5115ed053fb0U, 0xfdef01c2e64f2837U,
  0x151f065a6512020eU, 0xfbfaf51b08ca17b8U, 0x3b1f24df310e7411U, 0x4576bccff710f2b6U,
  0x2cc13e431231d1f3U, 0xbfa503e9c629c732U, 0xe9710db87f47e55bU, 0xb6f68eca2bd3d502U,
  0x84c1e91208ead9ddU, 0xb014eca42ddb0fdbU, 0x3dc049b83e20a8f8U, 0x7fd7d8f7dfd33453U,
  0x16bbb1bf310a0d9fU, 0xe54a4464334904b9U, 0xd746223944e5cc7fU, 0xa31e2acb6ebc13aU,
  0xbb233fb7b5ecd550U, 0xc6373e964ecd0843U, 0xa3c11267e10f6d3fU, 0xf0294d233da6f400U,
  0xdb45811efdc7aafcU, 0xfa96d0321232eddaU, 0xadf9fed5b0fae733U, 0x33cf2db85ea8b846U,
  0x4e6d220908bd5a1fU, 0x4cc28423f48e823U, 0xf21213e7ea53e704U, 0x2815c1e32ddef2f6U,
  0x30edffc316e3dfceU, 0x21dee614e3380b55U, 0xe1e97fc7cd25c316U, 0xfe19c6e51cf29a98U,
  0x4fdf0e8d2428527fU, 0x4ffd15c2411b00d3U, 0xdcb0ed174afc1a10U, 0x7c2e4e1010beab4U,
  0x94b2f92c37b32bc4U, 0xcf1d0e5a9dbfbc2fU, 0x88e8d1be73a3d1c6U, 0xdbd61540f1a08f65U,
  0x555da7d5e1aba962U, 0xf6cad70f155b33ecU, 0xed0e1ddb1c148c18U, 0xa83b22d9992efd81U,
  0xd28e2834d2f17fc8U, 0x200b312fffefd3fdU, 0xaae9f0c9f0f510a9U, 0x996d46f20e22c3caU,
  0x22381b1eef3805feU, 0x16fc07f632c82ebcU, 0x920bb80037b5645bU, 0x2a207f6550e9e836U,
  0xd642342bdb9c5622U, 0x1dc7c936dcc72d36U, 0x5359dd9de4fa25f2U, 0x22bb2216d523185eU,
  0x46dc410b108f2b7fU, 0xd7dd32e1ad32bf39U, 0x216a053a07ea47e3U, 0x34cb2c2bac2c173aU,
  0xe4afb1e18cd9ae30U, 0x4a75f5fef2fbd83bU, 0xf02a0e5b4d734f2U, 0xe63134014cf51001U,
  0x4a1d03c910932552U, 0x155e10c905f31340U, 0x515029b48eebe97fU, 0x225e032d86981cddU,
  0x384a67575222ef77U, 0xd3af7f31e73a32ceU, 0xac9fb6135d2309cU, 0xf6192cf820332595U,
  0x28cbdddef6f2692dU, 0xa422d1f1cb02ed16U, 0xf020e30e21ddff26U, 0xe930d5aedffef7e4U,
  0x33fcbaceceb40210U, 0x3add17af18fec8efU, 0x33102e2f35fd7ffdU, 0xb0051e1702f635c5U,
  0xdd16f101a6eaa0f7U, 0x41db37e4ed5b322cU, 0x2f59dbe83d410a7fU, 0x35c338efee44b4ffU,
  0xf4ea5415f71fc50bU, 0x1bfad8e1342cdd0eU, 0xa2d143c1f326335fU, 0x44fa7f1340b60ef7U,
  0x3cdcbc18ecebd902U, 0xcf11b5ebdb70c5e8U, 0x46175b5dfd60c0d1U, 0x96eb24283e4f02beU,
  0x165fc8da2a52017fU, 0x24df2da1fe65fa35U, 0x18d18601f9d33e3eU, 0xf4462db31c29491fU,
  0x7ae49937f628b860U, 0x7cd622aad0d6426fU, 0x37c452cd0328e4b5U, 0x67fff80ae80faae1U,
  0xcff9442ad921d6eaU, 0xd9304b1a1f2418d7U, 0xf8cfbef34adafd5aU, 0xc9eadb1be7e681e7U,
  0xc17fe065dfdafef4U, 0x25cf01312c7304adU, 0xe608e9c3d127413eU, 0x9b82cb9b7299104U,
  0xa2de15cc0ece6504U, 0xb7c41b205172b311U, 0x1fed55f3e4819c14U, 0xb3dd18e40ffb451fU,
  0x2a1a0939e3d20df9U, 0x1917b8ff2bd21c2bU, 0xacef2e937e825e8U, 0x13c42ebbcacf132U,
  0x14fbd9f4dedcedf6U, 0x2fc5d9b70a4d26b4U, 0x21eb14e5b1e340c2U, 0xdc58efd43411056aU,
  0xa4cc1fca6d26efcaU, 0x17262cca01aa7f10U, 0xc325d5175d0001fcU, 0xdfd311100a345411U,
  0x81babf8f8cb6f1a4U, 0x35331c55b63c0134U, 0x1b271210bd1afd2cU, 0x490db8a80eed4531U,
  0x7f6af49f979ad008U, 0xc4efe795f2ea4007U, 0xe1cc47232c27ee43U, 0x475567b70c0414f6U,
  0xdfdc2d03082c3333U, 0x30c149b3d5d88ed0U, 0xa3f684e00ebf239fU, 0xd6efcec623dc09b5U,
  0xe2eb40dfd6d39044U, 0x1507822217280fd4U, 0x5f7ff6cb962acedfU, 0xcbf92dfd28f32a01U,
};

STAI_ALIGNED(8)
const uint64_t g_network_conv2d_5_bias_array[40] = {
  0x947fffff033U, 0x59bfffffdfdU, 0xffffe801fffff4d4U, 0xffffed3a00000e1eU,
  0xffffebb400000b4cU, 0x5cc0000051aU, 0xfffffa4200000b71U, 0xc38fffffcffU,
  0xbd2000019bdU, 0x193700001808U, 0x206000007a4U, 0x4ffffff92bU,
  0x1300000931U, 0x569fffffd2cU, 0xfffff150000014acU, 0xfffff83efffff08bU,
  0xa320000085cU, 0xcd00000da1U, 0x42f00000261U, 0xfffff83400000137U,
  0xfffff9f900000285U, 0x1529000010caU, 0xffffe8a5fffff66dU, 0xfffff9a600000c53U,
  0xb2600000b53U, 0xfffff32e000005ccU, 0xbc00000106cU, 0x1108fffff45eU,
  0xfffff7ba00000a0dU, 0xffffe480fffff8c5U, 0xfffffb7afffffbaeU, 0x851000010eeU,
  0x2b300000518U, 0xa02ffffe803U, 0x809fffffc9cU, 0xc1500000ae6U,
  0xfffff0a1fffffe7fU, 0xfffffff300001551U, 0xa5f00000961U, 0xfffffb0f0000022cU,
};

STAI_ALIGNED(8)
const uint64_t g_network_conv2d_6_weights_array[90] = {
  0xe1817feb83b3f224U, 0xc9fdf6e4b8c0987fU, 0x317f7fc17f1b8149U, 0xab41c105cbd1dd51U,
  0x176a7f792acd815aU, 0x7f3b818144f4f83dU, 0x2c7fa7fa81c7f51fU, 0x34b81eb02b48114U,
  0x7f7fc312b78179c4U, 0xf451402f17d03111U, 0x1ebf61e7c6f47fceU, 0xf9c0ce7f2381d905U,
  0xdff758811bde6e7fU, 0xeded1a3860fe8119U, 0x7f8140fe81f5f233U, 0xb14b9a42d4d116e3U,
  0x83017f81dac6670fU, 0xe82dfe8153141f58U, 0x4748143bc5987fe2U, 0xa063fb54e8fffb1aU,
  0x24d31dddfb810928U, 0x1a13f4513ae03bdfU, 0xb80026aa0e462bbcU, 0xbad796225e2cdd20U,
  0x3a9792dec73714deU, 0xe227ef160c205446U, 0x49e335f50c1a297fU, 0x38e44ac7c21929dbU,
  0xdfb5a03f2ca3fd70U, 0x7f97f5b1cd560a8eU, 0xad4802fe02085218U, 0xdf0481ce3af90340U,
  0x7fd4b0e99c8c1959U, 0x8106d78f81df0103U, 0x13378c8184ad5581U, 0x1b7fca387fe89f07U,
  0x814a4e7aa8aa63efU, 0x262d69472636147fU, 0x5acf2817f79d7a6U, 0x4958456e81119db0U,
  0x26de108f442b40e0U, 0x85192aed5e9efed7U, 0x61edc99c29f7eef4U, 0xea4e427f2cb10d7fU,
  0xd0cff1366781d904U, 0x15ea36c9ed7ff3a7U, 0x4845b604227fe61dU, 0x7f2e5102d1ab9fceU,
  0xed238186ef1606e4U, 0x5d24c97fd77f3323U, 0xdeb9ed812c031df4U, 0x817fcffe8193d709U,
  0xef950c164428bf42U, 0xf5cbec2c04dad811U, 0xaae94743f8c73f1aU, 0x6e63f7cc1513481U,
  0xe140f56c57707e4U, 0xf5ddd05d7fce1f09U, 0x81e6c1eac00e4dcaU, 0xdcef7f6b2e108142U,
  0x7bfe95ae81412f58U, 0xd732e516d2ff7f2eU, 0x3af77d2deb813c32U, 0x3811efd54a31442U,
  0x5137a2c174270807U, 0x1bc685d9050d7ffcU, 0xae0fb0b761158107U, 0xc57fa5eb44f69e0cU,
  0x2410b40e33ff07fU, 0xd2ad15e80ceb013fU, 0x81d120c9613aff7fU, 0x7e933f9feeec25fU,
  0xf62fe926e51f2c25U, 0xe41e81ef6d6f99ecU, 0xbcd84df00af7b652U, 0x1130dfd35b408e50U,
  0xfcd1b9c34003fb0fU, 0xd4f14f05ab0299d1U, 0x18021236e82c50a8U, 0xedfec95df4df0a98U,
  0xf4bbe1202527fc0fU, 0xaff6f41f621dd7f8U, 0xfaea08472cc5f7c3U, 0xc6f93a19c47fc7c2U,
  0xc3f32a47f5f52bf0U, 0x8ca950adcddea2bU, 0xa94bbaaaba0f354dU, 0xd4383840a1814b8cU,
  0xa4a2ab00de9f102U, 0x157ff8dfcdc1c77fU,
};

STAI_ALIGNED(8)
const uint64_t g_network_conv2d_6_bias_array[40] = {
  0x33000002b7U, 0x5200000089U, 0xffffff8100000644U, 0xfffffeb200000184U,
  0xfffffff900000181U, 0xfffffcecfffffdc6U, 0xffffff320000047eU, 0x36000002e0U,
  0xfffffd47000001ffU, 0x94000000e2U, 0x1b8000000faU, 0x4eafffffabaU,
  0xfffff04700000213U, 0xfffffdb400000127U, 0xfffffeb00000014aU, 0xfffffe4cffffff52U,
  0x286fffffbe2U, 0x84efffffeffU, 0x17400000354U, 0x516fffffcb7U,
  0x51dffffff2dU, 0xfc00000042U, 0x397000000e3U, 0x38e00000003U,
  0x1bf0000032dU, 0x412fffffeaeU, 0x3c600000075U, 0xee00000308U,
  0x129fffffba7U, 0xfffffd8bfffffffeU, 0x258000001edU, 0x17a00000278U,
  0xeb00000155U, 0x236fffffebcU, 0x2a4fffffddbU, 0xfffffd1cfffffd43U,
  0xcffffffd1bU, 0xfffffdc0ffffff9bU, 0xfffffd6affffff87U, 0x4bbffffff98U,
};

STAI_ALIGNED(8)
const uint64_t g_network_conv2d_7_weights_array[640] = {
  0xd50ae131ddcdc405U, 0xc812e20b27b32fecU, 0xf41f33f3fd2ce71cU, 0x2ab5fee0ae08210eU,
  0xe701333b1519fec3U, 0x1417fbbcc807e411U, 0x81d0fe275fee19ebU, 0xa558f0ef360fc724U,
  0x18091efb51e20d3fU, 0xb3fcc71feee3ece1U, 0xadb4733106e91427U, 0xe6d2ee2fdbf8e3abU,
  0x480a11cbd14fae39U, 0xd66ce533ed0bc070U, 0x51582de6040522c5U, 0xd8d1d52b658101f1U,
  0x3333d62e0d40ab12U, 0x35394a3e53eeda29U, 0x64ce191e6abe119dU, 0xee461120d5be3d6aU,
  0xfd1a42c6d5175cf7U, 0xf360cf0070c0e14U, 0x2409d72bb906a202U, 0xdfd7ecdfd53f1a16U,
  0x9a0a3d1ef181e93bU, 0xec232a07e1f74a5aU, 0x23d1ae2bcdfddc5U, 0x2322ace9450f38c8U,
  0xc6d9c919ce02d00dU, 0x1cff403f60ef40eU, 0xff34f76002e91f2cU, 0x23c9042ae9c5f72fU,
  0x5223d873ffe5aabfU, 0xf726b9b112facf0dU, 0x1fead02e48bb3cb9U, 0xeee70edff40efe38U,
  0xe53631c007aa4448U, 0x69341f46b4939620U, 0xb317cf1a472fc381U, 0x139ad3ead4e9f56bU,
  0xf4ea232b150a39c8U, 0xf4e129d84b3a7f4bU, 0xe8d1f503d5e81c1bU, 0xf69c9be54b115c10U,
  0xf11039d7350b19f4U, 0x310ddcc5241d0c10U, 0x25b5b734e845f6ecU, 0x42d6056c3e1436c6U,
  0x33cff9243ab59901U, 0x34aff73fd70f60f3U, 0xfd9e8bdbb7cb39c8U, 0x1c72bb307681c546U,
  0xcd2dfb07b8f9afc8U, 0xb6d33f25d149d632U, 0x4df6f7360126822eU, 0x295bf0bb6d0ba0dU,
  0xc2b94008d5bcd40dU, 0x862d1b774e233d2aU, 0xb63f201efca8833aU, 0x153c093cd4179eedU,
  0x40cb3a27f91244deU, 0xebc8d8e6a9f8f49dU, 0xcaf3a3eaf014ce3dU, 0xda12fa2c0805eaf0U,
  0xaf65e2cac80cc2abU, 0x6625bb48c0fdee44U, 0x3a23a9dcbcee0dffU, 0x3f4bbfe8fc28cd2eU,
  0x7f28d9c63ecec33fU, 0xfc34e5014e3707fdU, 0x14c912055924503bU, 0x15b020e152e97039U,
  0x9a1c480e2731050dU, 0xd8f5485cc37e4df1U, 0xad8e4200b220d7fU, 0xc4d9c69d04091c98U,
  0x3a17eafb44b8f1d3U, 0xdce30d0b15bd1c22U, 0x2c73ef28dea0e590U, 0x4039f19f23bdc2c5U,
  0x83fb9bf3211521c4U, 0x3ce0410f5223e80cU, 0xece546a11f1c3731U, 0x63aabf683adb17f1U,
  0x2ecff5eb330d6bceU, 0xf8bdf7b6e1a1701aU, 0x4a58f2583b23dd9cU, 0xd6ad0813fa3c0febU,
  0x4958cc1330779e3dU, 0x254a3fe85a816962U, 0xe710d815d6cfdf24U, 0xfb3a252735e320f9U,
  0xf03281ee4ddbfc1aU, 0xe724f71a18f4ff1bU, 0xc734bf38b2c5fe39U, 0xf19dd613fadcd85aU,
  0xfec43bda4639080cU, 0xcbd6d3ad081cee16U, 0x164d04d7d5fcc1e8U, 0xfe02ede3e0303843U,
  0xa730cd537dffa5efU, 0x5ac9ed4aebd55d4dU, 0xaae91b7f9c5afed6U, 0x2ebcda06a8ec65caU,
  0x18a041dcfda6c629U, 0xad4322f837766437U, 0xc7a6b0e8a3021c06U, 0x12b69d2107ea7a12U,
  0x69c4ec2e8a3b3214U, 0x3beefd9431e0733U, 0xebd8da363591ba6dU, 0xeedb6301976f62deU,
  0xcbf6d4db9afcba3fU, 0xfbc7794e07b0a0bU, 0x2bc1bf3b35f6f932U, 0xf281224a9308f03bU,
  0xf86364c12c0731d9U, 0xcbee1fa729be5dd9U, 0x3ca5b8e416440351U, 0xb30613e61828deafU,
  0xc7f727d7695722faU, 0x1115e4e9ecd71d3cU, 0x173e1bcb21fc4eU, 0x1a09811a30d11029U,
  0x16c4e3cdfde3ddfeU, 0x44d24ff97dc1bd6U, 0xb5e3fb020754253dU, 0xe6fe27b1e32013dbU,
  0x67dffc0336253c0bU, 0xd4a4ed9d1d1bfb04U, 0x26f9af57d2de40e5U, 0x4d0e1218f4b7f51cU,
  0x236691ed0ed22cecU, 0x183eeb2a08ebd43cU, 0x225eff4023afc1dcU, 0xc317d016273e4d1bU,
  0xd9faba7f4cab9f27U, 0xe1bf0337b2cd3ec0U, 0x37351c2f1db4dcdfU, 0xb21347b84f1664e7U,
  0x2f472fee2ae93bcfU, 0x5729d7fd9ffe819cU, 0x3de7c8615af3534cU, 0xc73607867d2a4325U,
  0xf3edea4bda2bb424U, 0x562d6ccc1b2071f7U, 0x154f6f431124cfaU, 0xeee424bfeff8359fU,
  0xe5f83ac704e1ef5eU, 0xd523c5d3230cf70aU, 0x2f4005d009d70fefU, 0x1411641f942d3b37U,
  0x4317d7d6d93196ffU, 0x5150ed831edf7f4U, 0x9264914c61fdf74U, 0x3326c7f80c58e73aU,
  0x8fd7ed27fffa91e7U, 0x4a182feac6ea5921U, 0x12d3f84a8ec90761U, 0xe23fa0df28147eaU,
  0xef030600d90c42d0U, 0x5607f27f32e4e110U, 0xb00d1a171be0e3c0U, 0xfd0c51dc08dc4db2U,
  0xd9a2d2f3caebc21cU, 0xba0647fbdfe23228U, 0xe8091cbb33232a52U, 0xfec124d434f24724U,
  0xbe7f12308db1fe7U, 0x34cd00d4eff10216U, 0x640a00a86bf5d754U, 0xe61b18c95efcbc3dU,
  0x10bed740e2b6f51cU, 0x4d45f9e4dcaf11d9U, 0x51049d4111a1daaU, 0xfbb45ac3a08aedaU,
  0x434e14ff487feb03U, 0xa9dcb616beae06baU, 0xefc5d8bef91cd104U, 0xe608cf13248429abU,
  0xfc292911073e4a1bU, 0xfb11d2f706b92728U, 0x33e4a54ed120243bU, 0x162cf4ea1f39dcc7U,
  0xe61220e4279b3df8U, 0xa3904c7f4d310f4U, 0x81334117234bfe23U, 0xc7ebf7c9dd0532cfU,
  0xc3094b8c065222b8U, 0xe7293739c4c507dfU, 0x49addbe198bb38a4U, 0x16240ded462ce0a9U,
  0x4409d5bd67b9537fU, 0xbb4c0fc5d8b92d45U, 0xc4270904f5dd0747U, 0x41232f96f054049bU,
  0xd3be411de1d42254U, 0x2717474ef8e22220U, 0xbf93ff03c12f36fcU, 0xd3305303594dd7ceU,
  0xf62f0813c02b4dd4U, 0xd3e10d62ff60ccebU, 0xf0f410444208322dU, 0x451e2cdf2718b827U,
  0x2de4ef0515eb5ed4U, 0x22f9abd81c22ff30U, 0xecb9e2ff5507f37cU, 0x294953cb4632d4c9U,
  0x19c41a7f5745b15bU, 0x3aebf34fba324fe2U, 0x27f730c135b039c4U, 0x4bd5d7acfbcfdb2fU,
  0xd7102a1cf4bb5805U, 0x215d1a34461f06c9U, 0xb0bff1fc22e447e7U, 0xdec3e8ec02ebbecaU,
  0x22eb037ff52a1ed4U, 0x38cc3cae68f48c8U, 0x48e8395c0cde2c1bU, 0xffebd3124b260c02U,
  0x15ce16db1681f20cU, 0xadeeb41dca34d93fU, 0xd7400a011503d9edU, 0xdd274017f503172fU,
  0xa6fa0907fc0d2ee2U, 0x14d13f290e09142fU, 0x23e49b64c48d517U, 0xfea8ebebbe18dcebU,
  0xcc26c301f6fd9800U, 0xf4c419500102030bU, 0x4939656d619c06d2U, 0xcc9dba545d90762bU,
  0xa25efc0d46b8109aU, 0xda9d0ce00cf2984bU, 0xaaead002893d54a3U, 0x18116029cb9fe87fU,
  0x7a53faddbe27cd0fU, 0x1baff305362a29f1U, 0xb885a9deec5930fbU, 0x6384a3dc1f3185aU,
  0x630a181a53a6e427U, 0xdfd603e3eb0a5d7fU, 0xfc15dbce0e55421cU, 0x5dd3cc21ebc115e2U,
  0xe7474e122149d12fU, 0xc5e029cdd61ecdacU, 0xf621113216710bc4U, 0x2820ecbde40c2305U,
  0x14ff3ae1a9252dedU, 0xab4d27eae630e40aU, 0xfae442bc021d0ad2U, 0xeb112a12fade38U,
  0x104135dfcce9d433U, 0xc5e9f725d8a3190fU, 0x19d21a5eda49cc3fU, 0x37edf90b1b1507fcU,
  0x1603ee21dd11d7fcU, 0xed31cdd51d2719e8U, 0x16240d19017fe75aU, 0xba3d4cd08fd9f7e2U,
  0x26ba090d022a45d5U, 0x4e008db299b915faU, 0xe70f229d40bfd453U, 0xb72e1d5b26ddf3daU,
  0xe3366803112b08f4U, 0xf4a852acdc032596U, 0x9211bcf9011c3f52U, 0xc27fe40503390fdaU,
  0xd6ee33149eb7f2ffU, 0x29d79fbf02220797U, 0xcb2490f4325f21cbU, 0x4bf663343def2de4U,
  0xf3edffbcc03bce1aU, 0x15586637b6105807U, 0x2598dae70aeabfadU, 0x30343d7f38d3c001U,
  0xa10067e71f0f0303U, 0x11ce132e1307108dU, 0xe1381a1102780b60U, 0x224d1deaf2a039d0U,
  0x21233c21ebf55acfU, 0x41f081eb2d07ddf5U, 0x1af107003104b923U, 0xf100020efbcee422U,
  0x17fc0a0221dcf2d7U, 0x201b30fbe10b41e3U, 0x4831e8eb06240ff6U, 0x350502d2cbd2f396U,
  0x1811e00d0dde342bU, 0xfec61dcc070bffd6U, 0xa54b4ff1ab5cdc4U, 0xc4db343d26be01baU,
  0x8dd1bc2c045cd13U, 0xbe304e5b3b9f6a6U, 0xc2ebb3629d8e5f1U, 0x4de95f3860209f5U,
  0xa4d027a24c1624c9U, 0x27d1c294fe32334eU, 0x1ad261a7ce1946f0U, 0xc37fe5ec8c271d6fU,
  0x2d0d23e91229f3fbU, 0x18ec08bce006f3b6U, 0xea1d3527f41666c8U, 0x20fd2cfcdbe4e494U,
  0x2fac38ae2427fe52U, 0xfadb4910c75333cbU, 0xe618e8ff26c56ff8U, 0x25f24a003c094528U,
  0x2c2ae52acc1854d4U, 0x421e4b057f3ae304U, 0xa55fbfe30f80fecU, 0x9128c9fc4b34fe0cU,
  0x1554e8fed725eeb6U, 0x1189df8192e88a99U, 0xc5d745f4ad4ea98eU, 0xdef04e742ee93fc4U,
  0xc7f938d7c42cb11bU, 0x2b0020c25d3e4ad9U, 0x3b3620414c9d01eaU, 0xee880acac14f1ee2U,
  0xf94f342dfbfa7fb5U, 0xd4dd2e1c4fe071bU, 0xf4a3cab31cb472fU, 0x55fdff0c062c1f48U,
  0x20e80c065a0ac81cU, 0xb05f4c6540a383cU, 0x3d1303e5432bf90aU, 0xe82c49e4fd2ed5c2U,
  0xe1e6a617322df71cU, 0x490e5520181e11bbU, 0xc626ff2ec54301dfU, 0x372e1a0ddbeb4157U,
  0xf51cfaeec0f5e742U, 0xdf050bd9d37f0022U, 0x1741e022ffaaf212U, 0x19f12023bc0a2408U,
  0x3609d104d1f12db9U, 0xbcd8d93afa25341bU, 0x924282d19141de6U, 0xcef34bd01c1c3a12U,
  0xe19f21aa0916c802U, 0x2b2bb6ee00f9601aU, 0x2e16f7e4bf461417U, 0xe8bffdbe083d362dU,
  0x21cd9f1d204c08feU, 0xe4acb43517043ee3U, 0x990174949d1c4becU, 0x91f526120326fc02U,
  0x52f6e3fed90b20fdU, 0x81caea5faccf2dbbU, 0x3ff3b058cefca80bU, 0xd2d1102efaedede0U,
  0x34c33c3ae568fb3eU, 0xd62fcea06c20c818U, 0x28fbe4d4be0acc56U, 0xf0ff20d2b1b27349U,
  0x109de9cd0217cd04U, 0x3573fdee0d284a42U, 0xe4a3b740f30181bcU, 0xd1a6bf2030bccfc9U,
  0x4126c131043ddbd1U, 0xbdd50dcac0abd9afU, 0x1f0105520d04f4dbU, 0xd13ae5002237aab1U,
  0xa9d6c3e046b326edU, 0x3210feadb4437f2U, 0xf832fdf1d3254e0eU, 0xd33a0dd3f72efc13U,
  0x4381e258fdec440bU, 0x10b5f5042b3710f2U, 0x8ceeca33f215eee4U, 0xec054315f53f3b20U,
  0xf0dfd1cfd6f9b759U, 0x25e3b6651005055fU, 0x13f2ea9bf0f0b128U, 0xdfc737e14a0af014U,
  0xcef139decce6fbe9U, 0xcbf7acd6f3fde9f4U, 0xdc36f49f81bf051bU, 0xcd2fdb1521b89ed0U,
  0xe3f6fa45dc00263cU, 0xffe04fd3e5ed27deU, 0x7ff40ce95af64338U, 0x73d42afc1344f645U,
  0xea36eaed51213ca6U, 0x5cb5100abb263ee3U, 0x72d51e1314007d4U, 0x9ad3ef0f4657d107U,
  0xc8c5179710c9bb44U, 0x29f9e013fa4924c5U, 0xf0f447a9af10faa1U, 0x4cbe13b4111f94e5U,
  0xa5b91f7eed93d81U, 0xa67bee27d74ce316U, 0xbf53f2eef6b9e194U, 0xdff1e0124011bbd4U,
  0x59074243b8f107a7U, 0x1a071fefc1545251U, 0x3f29de8f1ae03789U, 0xfddac7fe53011d17U,
  0x4445dffb19de1be0U, 0xf32202d933ccfb60U, 0xd781dba8b92a6d26U, 0xedb6d43f13c20fe6U,
  0xd9e2190ffadd35d6U, 0x21354b26fecae51aU, 0x13fe26e4db6924efU, 0xe0c1df3fa2bcbdeeU,
  0x41092cab0f0ceb46U, 0x3edf6504fdaee95U, 0x31ef22080b777ed4U, 0x833dccecb2e36d7U,
  0x2cf7f43033f02ffeU, 0x5d1bc14f37f1935U, 0xf029bd0c25efd747U, 0x71e314ff0cf818d4U,
  0xeacf4cc9a1d170ffU, 0xea23decb3ed4cff1U, 0xd192d0e1c7eb48e6U, 0x242e3702fd49d9b0U,
  0xd302ed60c02f10fU, 0x2bc2410e292225aeU, 0xf5de242be443d2eaU, 0xe44b0208cf392fdcU,
  0xf34e80bb4ec4aebU, 0x3510ab4d3451f7cfU, 0xc4ff2eccafd9d811U, 0xf6eef4bdb30c292aU,
  0xc1bcf61d24c381c5U, 0x284120294c324a32U, 0x9e04a27f0c468449U, 0xd8296b065fd25417U,
  0x452a2d25cfb63eeeU, 0xb02ecd2266a0e18U, 0xffefd8c8d259a900U, 0xf93c05c4e7535edbU,
  0x1589d5114dde5031U, 0x5811e6432100a965U, 0xd4a49bf829c3001aU, 0xede8dadfe51626bbU,
  0x80e187f0f09c8e9U, 0x2ad11650fde5550cU, 0xe5eac212d843d7d4U, 0x41dec1ffe9e8f742U,
  0xd86814f0ce1910deU, 0xaf59eefc31452dd2U, 0x24b0293a47bd2d22U, 0xfcbbf044f3e649fbU,
  0xebdd49c5a6eed2f1U, 0x2eefce4add24d0U, 0x22379a3a8ce6ee08U, 0xb701260214157f06U,
  0xe03a9406cb22b825U, 0xc4af0ea7228fd490U, 0xd8cc1dc83cdc0ebdU, 0x9f3c50736da155bU,
  0xf2ed162134bf15d6U, 0x3ebdd41ca6f8cc0cU, 0xd22e22371fe204f2U, 0x2eeebcdd4a63110U,
  0x1aab0d35e6d9f231U, 0xd766c8dcd6fcf503U, 0xf9d8ff530765bff1U, 0x18b9340648fbf794U,
  0x4a2601d947fe0ef8U, 0x3f32ab27455f1724U, 0xe8e439463fbe1a00U, 0x590141d84b01f415U,
  0xb015611bdd3cfcdfU, 0x297ffc2a01dcea35U, 0xd8f5f3ef631e3fccU, 0x19d45e2f52cb3c3aU,
  0xc1f2df7253effe1U, 0xfe0d144527d8e820U, 0xe50c81eb9615e23fU, 0x846c14c58dffdad5U,
  0x4296ebaf580c0000U, 0x32dc2b831b6353e9U, 0xb8e97a3343fd11e1U, 0xeb5d98c84972bae0U,
  0xfa320115d7efa2edU, 0xe7c0d7022515ef0bU, 0x1c217fcb30193bf2U, 0x25dfe12bdde7cbf2U,
  0xbd2dea010c0759f3U, 0xe835a0d913f2cbb5U, 0xd43c05d91b54054dU, 0xec2bedcb502ab5b8U,
  0x2bcea40d5471f37U, 0xc413d6f3bd2ce7caU, 0x5e3cd315185abde8U, 0x612912b9ea291cc6U,
  0x270dc2ddbc7f3a13U, 0xdf964b2df1bfafeU, 0x163cb1f83668caffU, 0xc2c80bef14ec3313U,
  0xe42d09b2feb93ce6U, 0xcb0805ed07e404e4U, 0xd01be6cacc3e1905U, 0xa015dfeeec0b12feU,
  0x1a0fe9227fcab305U, 0xb6fb1eb853eb2ac3U, 0xadd7d1c82fd3bdb5U, 0x4ff7fa15253dfbf8U,
  0xa8c206a475d245e3U, 0xae1c3a5338d10f57U, 0x5c93cdf7067a1bffU, 0xc099cc1607eff7d9U,
  0xef8aad139a5a63fU, 0xd09f5e6d1e02234U, 0xca29a22bda3bcae2U, 0xddf9d73fafbcf5f6U,
  0xb6cbe946ece11503U, 0x510330e0295cf622U, 0x799ffe2ae929150bU, 0xe95241e50ee8ed46U,
  0xf9f9efcb43b048e0U, 0x2c3f4515d020cc07U, 0xea43ed0712d225e8U, 0x6ae403bd7ffb23fdU,
  0xb40cc6182d161f6aU, 0xf3ec3f293e0dc829U, 0x4a32ddb146d9d51cU, 0xdf2dd456e9c4fe0aU,
  0xddb3f2e023bd47d7U, 0x316ce52ec6ff1829U, 0x15241009d87fdd2fU, 0xd8f122d8076d1fbbU,
  0x5d18bdeaf0cad144U, 0xba4f43d3c71440fbU, 0x46b3b005bf450b2fU, 0xe202a298334cd003U,
  0x5ed3e1e9dfe5f018U, 0xe5d13839f1f21844U, 0xf707a28ce1bde39bU, 0xf126c864d2f8ecb2U,
  0xa6e3ad38fedbd502U, 0xc02b523826d15c0U, 0xe81b364c2b2ae941U, 0xb8e2307fcbe0d2eeU,
  0xd60fd5283f053d2eU, 0xd0dfcea32e0f3d06U, 0x14000dc5fd1aea6bU, 0x7fefac6042255064U,
  0x2cd9b7bc37503023U, 0x1346e42504ac1753U, 0xdcb923099d54d5ecU, 0xb4f7d70ec6f945eaU,
  0xc6bd1fcbeaecd10cU, 0xe209252817bcc72eU, 0xda34eaf6cab50403U, 0xb2751354a244652U,
  0xd4c981e411d4dd36U, 0x1512c02730ec1d2dU, 0xf2da11b0b90eb285U, 0x15b23aec260242f9U,
  0x49393ee6ff4655fcU, 0x3c81f38e93eeff6U, 0x187464b9b6f67613U, 0x9a0067cda09a1fedU,
  0xdd3ecd0304bbd547U, 0x5bbbd79105d04ca3U, 0x295d03aef463532aU, 0x39f7a414fce50150U,
  0x2b8e9023cc02f3fU, 0x4026bf03df1855dfU, 0x7fce1434f8170fc8U, 0x3abf0eeee068d30fU,
  0x312470d2b82202c5U, 0xc13dbc85b0a2a31U, 0xcb20e169c6192658U, 0x1792f20509e7a721U,
  0xf8b133f9ccddeda0U, 0x4e0b34bf1ff6a532U, 0xc937a6d0d33af826U, 0x4801e5ea739df001U,
  0x7fe4d027d06a0cceU, 0xf3cadb1495e0dc93U, 0x5aa6dc5c7b701a1fU, 0x16d12f442fd832ccU,
  0x7f4b362d3d16df37U, 0x9a52b23eb399469dU, 0x4e1654a184400d7U, 0xa4f3524819a0f500U,
  0x3a253f451e0c49c6U, 0x1adededea649a8d4U, 0xcb16c9a8e4024ddaU, 0x1a0eb6186054ccfbU,
  0xd3a62347fd511a3bU, 0x4237fd11b13103f2U, 0xf69419e3e8ce2cacU, 0xccd9a034b3ede409U,
  0xdb9314cb3d061203U, 0xe612abcac7d6d220U, 0x5f3cd3f43a2be0efU, 0x449528e8ea81d9f6U,
  0x6a151212010c103eU, 0x23e90fe723bfdc11U, 0x99e1ac0ad2d6ee2cU, 0x5041ff5bcfd29cc0U,
  0xeb4ebd200617f232U, 0xd0bc1306df4414f1U, 0xfd059e1bc4edf7f2U, 0x57dd50d8092608f3U,
  0xea26f74f312444deU, 0x3c681db83aeb2ceaU, 0xf588b281cfd645eeU, 0xe10fa43ce2430c17U,
  0x27a531d22c4be4ecU, 0xf9d70e46181f29e4U, 0xf772d3a4ced97f06U, 0x20fbc2e15415ac7aU,
  0x16cdd1234570ede4U, 0x51ec8bda97141af7U, 0xe617294e423b1401U, 0x5b11c10f18aad1ceU,
  0x4b0ef6e0f94266e8U, 0xfc69a328aa089603U, 0x9e886a9f24fd2202U, 0x7423ca24e0b42745U,
  0xe5e270db836b4dfU, 0x3f529cb2928efc4U, 0x2c1fc24ababd3a14U, 0x35f1f2f915425a2dU,
  0x8adce57ca73fb8b5U, 0xa8d914ffea58a0f7U, 0xdc47bd2a15f5ec41U, 0xcf30841ef42aef0eU,
  0xeed155d806673279U, 0x81d6a1a8d9c53b13U, 0x86fa2427d449e947U, 0x13c63d6e6008f024U,
  0xe83c8ffe611111c0U, 0x27193b0d2acdd52cU, 0xc7033bb1c3f048ceU, 0xd617ee48f786fdceU,
  0xffd848811e60d14bU, 0x46bdb126dfe326fbU, 0x6fe720d6d224fed6U, 0xcf296dde102c3609U,
};

STAI_ALIGNED(8)
const uint64_t g_network_conv2d_7_bias_array[32] = {
  0xffffdf0600000212U, 0xffffe4cffffff7a1U, 0xfffff23400000938U, 0x942fffffd72U,
  0xa0700001cd8U, 0x1fe90000246bU, 0xa55fffff1dfU, 0x3e90000082fU,
  0xb0d00000d4aU, 0xfffff270ffffe497U, 0xff1fffff0e5U, 0xfffff8a4fffffa85U,
  0xffffee890000088bU, 0xa2bfffff33dU, 0x575ffffea54U, 0x15b00000f77U,
  0xfb6ffffe7a6U, 0x16a2fffff67dU, 0xfffffa47fffff7eeU, 0x141800000224U,
  0xffffeb96fffff69aU, 0xba500001147U, 0x175e00002079U, 0xf50fffff3f5U,
  0x2799ffffee5aU, 0xbc600002478U, 0xfffff717ffffe278U, 0xfffffd2e0000000eU,
  0x119200001059U, 0xffffe1d6ffffe5afU, 0xffffedb900001eeaU, 0x432000029c9U,
};

STAI_ALIGNED(8)
const uint64_t g_network_conv2d_8_weights_array[72] = {
  0x7fe1d0a9548c3981U, 0x6c79d3b3782600f0U, 0xd87fcb0d81fa660fU, 0xe2217f0e7f3dca31U,
  0xb33feb1f040f817fU, 0x818141d749efd1e7U, 0x9e1b81aa7fa9dc0bU, 0x5981394d81b581c7U,
  0xabd87f812bcf5b0fU, 0xa95b7fec88a9813bU, 0x4e843fde1fc8a6b1U, 0xe1812b2ca881b87fU,
  0x81b42de13290fd7bU, 0x4fec4a04df0b447fU, 0xd5fc497f41018181U, 0x7f3d7f7038a41847U,
  0xfadecdf4bf5e7f5fU, 0x3d1269e81ae67e6U, 0x2e94e0cdfe7fe67fU, 0xe2bad7a1fcac81bdU,
  0xece31aa5f2d30cb2U, 0xe1982fb94808bdcbU, 0x6c7802ec517f0eb6U, 0x1a4ce2034c7f489aU,
  0x7aff9dedff0dfee8U, 0xc29cc5cecc811681U, 0xa45481218c308138U, 0x833428a5a786fd91U,
  0xff733a81ec403d5aU, 0x36d5bb7fbe175ae6U, 0xae91c7df0ec76be3U, 0xb6f8f14db4f0e97fU,
  0x67f73457fbf480cU, 0x9a81a47f1daff708U, 0x24ec057f0e2c37c4U, 0x3e3115aad6fd31ddU,
  0x66817fa7818119ffU, 0xbb1fc6e2ca672d2aU, 0x53d8cf195c097f04U, 0xc58e8a7f0c255df6U,
  0xef2426966af6ef16U, 0xfdc10ac72537d1d7U, 0xea96087b31fcfd3fU, 0x81a056a5e8d7c0f9U,
  0x5e1f6f9da233da4U, 0xfd03e986abfc0399U, 0xeb172f8fe802e360U, 0xbf0620224403c4e0U,
  0x5bf15ce8c67f2016U, 0xf413f03abeb4cc3aU, 0x81fbf747f1f1ea29U, 0xc33eff7f36cba91dU,
  0xa34bcab9a4f718d9U, 0x3337c9dd81aa661aU, 0x477f24ddfad3b6f1U, 0x1bede858dafe141aU,
  0x39bc3e6ee22ee5fdU, 0x7f2a27741e0ae899U, 0x522d4fcac311c249U, 0x1303f2ca0ee33346U,
  0x4331d34df0f91a0dU, 0xb907a62cbd7f9e00U, 0x7fbceae771ebada2U, 0xb3391bdacec2150fU,
  0x37e43d16d7d34e14U, 0x2a870e96d008c1d4U, 0x2c3bd4cb5c14c7fbU, 0xf645fc0a1a1303c4U,
  0x9c35d8e28832cab8U, 0xbf09812ff28b7f58U, 0xf015db1f1a14f7e2U, 0xbcff25f2f3432d4bU,
};

STAI_ALIGNED(8)
const uint64_t g_network_conv2d_8_bias_array[32] = {
  0xffffffb5ffffff0eU, 0x7e00000391U, 0x13dfffffffeU, 0x3330000012fU,
  0x43ffffffe0U, 0x1140000002eU, 0xf5ffffff6fU, 0x119fffffdd8U,
  0xb90000000eU, 0x5fffffffb2U, 0x2a3fffffd6dU, 0xfffffd9bffffff2dU,
  0x4b7fffffebcU, 0x21a00000081U, 0xfffffd6dfffffeffU, 0x1dffffff8eU,
  0x26fffffdafU, 0xcb000003ccU, 0x129fffffe32U, 0xffffff1a00000063U,
  0xb100000109U, 0x1a400000062U, 0x320ffffffc0U, 0x2aa0000018cU,
  0x13dfffffec3U, 0xfffffe68ffffffe7U, 0xffffff69000001e6U, 0x86fffffdafU,
  0xffffffcaffffff42U, 0xfffffffd00000161U, 0x27c0000012fU, 0x250fffffefaU,
};

STAI_ALIGNED(8)
const uint64_t g_network_conv2d_9_weights_array[768] = {
  0x21c7f31afe60c021U, 0xe192b227f101ad3U, 0xd0efcc311efa3061U, 0x80bab2ffa3a2ff2U,
  0x5c61b21f0d2e103U, 0x3b2cd12b02bcd003U, 0xb4e15ae82ab3ab1cU, 0x7030bf8ea1e27e8U,
  0xfd2733f2f7f9b0c6U, 0x11de05d3d77fe4f1U, 0xe42ce9fdc0e3db29U, 0x1dca1f1521dba5dcU,
  0x453d045d2dfedf26U, 0xf9f91c13e6e23c00U, 0x2efeeaeb1c0bc6f2U, 0x10d429e3ded31921U,
  0x45dc0147e3c8faf7U, 0xdef3c92406380735U, 0x19022828364302b9U, 0xa1411097f2ce9e5U,
  0x1df700c41b54e861U, 0xbaf3f6d5da1edbd7U, 0xe44011a2830c3b8U, 0x741ff7ef4305f628U,
  0x1458ddaa28e5bce1U, 0xfd2fe59d50a65f81U, 0x8c446a060b0f1U, 0x3adcaec3dd0a4aefU,
  0xfaddef274b394136U, 0xf027412441f607e1U, 0x376bf1f73c38f509U, 0x30e8ed22df0d032fU,
  0xb016c1e2192aa61aU, 0x5dc5f9d5f5d1331bU, 0xc524ad44e0273a0bU, 0x1098c6e2752c39abU,
  0x5a9db11904e0beffU, 0xcd3323223808d77fU, 0xf21b0abd01332a53U, 0xca1fd1d7fa0a22d0U,
  0x27170442c106c7a3U, 0xf329c61a57d2f210U, 0x17ea2058e4c25146U, 0x7fc5fe4f46dff3d8U,
  0xd9febc2f3847bdfeU, 0x6e7d1421db6d513U, 0xead4bf40242ceed9U, 0xcf88ddd2aa32cfefU,
  0x14ebc8e0d5d96042U, 0x554693007eec01bU, 0xb93aaee21039f4e5U, 0x304ed24108d215f1U,
  0xa0cf251010b8da14U, 0xea494de03ad62939U, 0x28e91bb781d613abU, 0x6733e9edfb5909bbU,
  0x812bc0c62362aef8U, 0x13d828d08629e239U, 0x41024109adff2113U, 0xc9b0aa3bdbbb1538U,
  0x18c30c2a070e4ef6U, 0x67a25ebc051e2207U, 0xc3edbcd800dcfb1cU, 0xc8d90b43090dc5faU,
  0xfdee7a06ee0dc22cU, 0xc7e8581f2bf4ed09U, 0xf4afcfccdcf965bcU, 0xb3cf244acc1432aU,
  0x35731cf7f925d90bU, 0x2efebb05b7bbfcb6U, 0xdf9424ea7fd95245U, 0x36c0b4f3b44f1206U,
  0x5ebd8fb0c23e6d3U, 0x654835f43002ec25U, 0xc90d1b2eed045707U, 0xf6d5e6e6111108d7U,
  0xf9b54abde4bf61f6U, 0xb1f4c74df0e704deU, 0xf1b8bc01f81d57bbU, 0x7f18080211fad232U,
  0xc3f6fe311f0fc8d5U, 0x50dfe11646354729U, 0x12e790daad2e0d0U, 0xda25181f1ecf2759U,
  0x2c16f33e2703f857U, 0x3e10dc34f80441b7U, 0xe635033cde283b0bU, 0x2ec4835f81fd2648U,
  0xe4ba1e0cdff04f0eU, 0x45213a62e51b3dc1U, 0xcf15de8f6f04fd3U, 0x37dfd53c8ecff855U,
  0xaa484521db199ce7U, 0x302dcadbf9d61410U, 0x25e1ff7f60ee4d3aU, 0x262826d6f009b6f1U,
  0xdd9f62da1f352b99U, 0xd7398141d35bd5abU, 0x654a21db1fe4b1b4U, 0x4ebe3264e839c261U,
  0xf3dd00000fb3f0d7U, 0x161d59c83ce85044U, 0xedcdffff0a160014U, 0xd67625cc68fbf9e0U,
  0x59022a9f29aff0e2U, 0x2b1dfdd843d4f10fU, 0xf51c0c9a7e326b7U, 0xc20ab30fd7dee1U,
  0xd736680038f33e53U, 0x333f102610251f9dU, 0x1d880d01e0a6f5e3U, 0xb1e8f881e9e700fcU,
  0x2b0df51bd901d5cfU, 0xcebdffd23acac310U, 0x3c0af2bbf1160e16U, 0x1afc390be82fdd18U,
  0x2738ca02c15503c1U, 0x3c811dfbe71fdf1eU, 0x3ab92e2fe991e826U, 0xdf3643d9e60eea1eU,
  0xfdf6980e35b5db16U, 0xfe301596cef7e90cU, 0x35e5d8e1f7dbff06U, 0xe11fd6ece12d81e3U,
  0x2efddb1e05143122U, 0xb2d7cae7e8d8d7f2U, 0x2423fa00d8ca252cU, 0xf1bd1ed6102e20abU,
  0xff89c45e5c18d61fU, 0x92e1e78194232bf7U, 0x4aab1ad84be7871dU, 0xb90c16ea03e1c603U,
  0x4c1304d1af79e4d3U, 0xdb47121e00cd1bbaU, 0xecec153a54a4a5d4U, 0xda6f6087b55b15c5U,
  0xcc980007ce0aedadU, 0xcf2121ec2612fdcfU, 0xc75eed205312f1ceU, 0xf019a9143f36e2e7U,
  0xe4e3a44ef1f2d6daU, 0x19185f210c41d30dU, 0x380cde15c781bfc6U, 0x5e23bdfcc93de7adU,
  0xde815937c1cc6e07U, 0x39b9e609ce580b77U, 0xb5fcb2ba04b4490bU, 0x8896dfef3cf6f203U,
  0xcd5d05561bfe48c9U, 0x20412ee0432bebdeU, 0x222dfb32cff33265U, 0xfbf4d1da25f37877U,
  0x3b220aaef129a0f8U, 0xf00014ebcfca1119U, 0xe5bf18020d6f10cfU, 0xc5f2caeb46d92681U,
  0xd93a48cbcd403344U, 0x2607f112d62830ccU, 0x58150401e72e7fd9U, 0x3c04f2101cd3f824U,
  0x3d0f2cd1ed3de330U, 0x124d2709064ec97fU, 0xbabdc2cbc74515dcU, 0xaf0b0a472d2b422bU,
  0xe9e0d4dfa6d3eb0cU, 0x4dd32ff0d822dd40U, 0x1ab827c9ee373b02U, 0xf2db390d272be136U,
  0xc5289ada24fa2be9U, 0xfa0bc22ee4cc5781U, 0xd24de8170293df13U, 0x24f0d42afbac0301U,
  0x5209b6071acc65f7U, 0x13120b091fe1ea24U, 0xb2fd28df19d196b9U, 0x4bf33627cde14e88U,
  0x2c18d228ab240024U, 0x42dcd92c1929d507U, 0xe7ba1b1e11f0de32U, 0x203b193538edf945U,
  0xeb25fbefb22ceff8U, 0xf7f4f6ddde1ebb42U, 0x5c3816fc0618b345U, 0x2bb0eeab29ea7fdaU,
  0x394bd929373135fbU, 0xac4395c614237c69U, 0xd37fcdec0e43db1cU, 0x7306d138dcb5e3f0U,
  0x3dfe605a208b08c7U, 0xa72b503ea6af022U, 0xebba3527df9de9dfU, 0xca152cfdcef0fb4dU,
  0xfe5142e2d61b0131U, 0x50c6fdca6ae5d8ccU, 0xee59f26ff57fa8fdU, 0x3eedfff6fcf0f5fbU,
  0x5cdbbc9f2c0d52cU, 0xa9caaa53161b074eU, 0x10ebec311f51f0f7U, 0x11ac27155e1b50ffU,
  0xcb184f14c8090310U, 0x81f916f02ec1f451U, 0x80705feb7e1d1f2U, 0xedfcf3dbea16d75dU,
  0xf2242d1f2bf623ccU, 0x2cea47241933c907U, 0x17c0d1eff2f41831U, 0x29c7fafd12d722f1U,
  0x9507c833e596beabU, 0xd0b2981028eed7b8U, 0x22022e7234db1ca1U, 0x1e81eae8d7000710U,
  0x3201051a0913361dU, 0x491701fd576e2322U, 0x1616f4e53efa1ef5U, 0x3aa9bd66020046feU,
  0x53cbf8e407db5362U, 0x2d8e631420feddaU, 0x44cab4cf1548b536U, 0xf344b2b36ce7130eU,
  0xfe4bd02d42c590bfU, 0xc0f1fdd60e31524U, 0x7fec1934025326ddU, 0x361605a12327df1cU,
  0xf4ff4b20fed02df1U, 0xae1735a4ae020a14U, 0x3930fd30ae458a81U, 0xe314c56148e143b6U,
  0xb7161029a550a366U, 0xae46d8dbe7a6a5b4U, 0xcab0cd05fb36e1a3U, 0x253ea4f5afe5cfd4U,
  0x5c3ec6cb9a5881e3U, 0x9f9932eb72030713U, 0xaf293c2957e4406aU, 0x3ce0c255ebbea5b2U,
  0xd6680921d6571d62U, 0x6da22934c2b5deeU, 0x150d5d091bc2f47eU, 0x1d92dc93944cc3eU,
  0xccfb084ba1113a73U, 0xaacdc23890c9509aU, 0xd346d30355b681f4U, 0x130b2e416e9d07eeU,
  0x75057d6121d6c02bU, 0x64c11e3186d69797U, 0x1bdd7642ec0b92e7U, 0x4cf10df5b50ba8c9U,
  0x2ab30c952151cdfeU, 0x7918c223f4f4d552U, 0xf1cac014db04abd7U, 0xef1d871c09d0269cU,
  0xca54fcf355ef32c5U, 0x3cd252f6239f0a35U, 0xea21447fbfcd611cU, 0x30df34440900b8b3U,
  0x44a33294c428cd66U, 0xd9a408df29f5bbfbU, 0x2bd6d833be1a6b7fU, 0x135eccd63ff713d0U,
  0x59a5ab1600abfc26U, 0x37aa1c4a38b520c8U, 0x2729ac6c09ed631dU, 0xe113ccb406542c3fU,
  0x10cc18e42be2e837U, 0xefce1c0939e148b1U, 0x57bd243ca7c33bf3U, 0xd2cbebfdf6f239d0U,
  0xf2c7e83a202ec2a4U, 0xe942ca09682cf8f0U, 0x7fb92eb6834eebf8U, 0xad4c0423b2cd45b3U,
  0xb38deaf6f1fff2cbU, 0xe1be0a2c331cf0f1U, 0x134a0c1603fb1112U, 0x17f4d5e3d6164fc9U,
  0xd981bbe0eed64554U, 0xe141101d323b48ceU, 0xddc6032eb7ea0b39U, 0x6ab1a75ae1e8b9e0U,
  0xae2607360be4f6dcU, 0x122606c61ad9fce8U, 0x332d092857f92eeeU, 0x51d7123ec920f823U,
  0x79ef2b3fa29e608U, 0x15f5e615e8232ad5U, 0x1d7e9001cc3e14fU, 0x1d1d7f2f2ce4ca16U,
  0xd5b0104a2af8c90eU, 0x56d1af3966666c3bU, 0xfedf0d2bf1442f8U, 0x47f226141ce11fe4U,
  0xbe59eb32233b1301U, 0x294bd21425bcdaabU, 0x2b2568e87f24f11aU, 0x42e4de23f961e0fbU,
  0xf625a70f3c0e06e0U, 0x8aadceb53a07bbb5U, 0xf30c01e845a7325aU, 0x3518bfccc0a3e058U,
  0x60e0d6d42ae37ed9U, 0xdc1bdc2fc1e0232bU, 0x35887f9c35fdc5f5U, 0xaff729b0c7d6cf9cU,
  0x8f9efad01dd9630eU, 0x2b23f8a5eb2e052bU, 0xf9ef26a410f9e0ccU, 0xded7c71c089c6435U,
  0x229d1244bf8fdee6U, 0x1004c0b0bd7cde1eU, 0xfe87720020b02eU, 0xd20a811ee24916c6U,
  0x7fd21d2cd1ff13dU, 0xd0485931061137c6U, 0x15dd1a1e5a55c5aeU, 0xee469c35c6d60f36U,
  0xbd2ade50fdecf2adU, 0x5622a709e8ffea9cU, 0x73263f0b529eb0bU, 0x1b11f2c6277f12f6U,
  0xb45101e0f83cc3d8U, 0xbeea132dd69e2d2fU, 0x530ae2f923d003eeU, 0x3129fbca4c2ebaffU,
  0xea05ddfcd71c20acU, 0xee063639de812ce2U, 0x97bdb8ac33e3e1f2U, 0xfa46e7ee1bee08bfU,
  0xd1751e82e0bdff1U, 0x2f22ab56d6cca924U, 0x3dea0553d3125713U, 0x19261d0e1cabeff0U,
  0x17fd0ee6f1342b1eU, 0x17a6c9f9fec781d3U, 0x7313e20100ddd5fdU, 0x46ebcdc4e9a12141U,
  0x2de53d1c24e6f572U, 0x52e934810cf22f0fU, 0x90e318b7f12cb561U, 0x15c7123af1410fdeU,
  0xdb0e5bb712c4290fU, 0xcd059c1fb2add1f8U, 0xeb9b143e04bd6bccU, 0xcf60e2230c581632U,
  0xd536bf0e7f17e2e3U, 0x51cdb4aaed4e6bafU, 0xbd25e0cb0c223905U, 0x1a1fb8e9e660c803U,
  0xcff6c1fa03493809U, 0xe7c208b9c50318f8U, 0xe5001d4a13ec45c6U, 0xdf210f238559a81aU,
  0xdd1d50a2e1118f1U, 0x121e3a2781d613f0U, 0x19da0acdef08c613U, 0xf1ff3cf905303e02U,
  0x20e53916ab3d1e16U, 0xe1c96c0e05e4d2e1U, 0xed27ecf2f11ae217U, 0xfa1e492a012a1cf4U,
  0x17023b2d01411b21U, 0xe4c2212124b9d707U, 0x13dfe9bcef28de17U, 0xf8e4c3ffa5315400U,
  0xcbea7ff7181f402fU, 0x1f4b46f0e1c7fe40U, 0x25f43c0c292c41cfU, 0x25f5f7b72faefde1U,
  0xc79d4c1b2121e778U, 0x2a20e70d79208ddbU, 0x591ad8c27581560bU, 0xda6c4625a2afaabcU,
  0x96e012cfd0bae6e8U, 0x892f3cb1a8203311U, 0x25113346de5500a1U, 0x4069b722e8332ce1U,
  0xc4522a51810b0b40U, 0x5d24f2db17750edcU, 0x1040e26329ad1b3U, 0xc7ea4c4c1d949817U,
  0x1de8bc009d98baefU, 0xc2f4d5e01601492eU, 0xd1bc61383cc752fcU, 0x148216c3c16c6a6U,
  0x34193ffc1dd6f65dU, 0x41efe241608eac7U, 0xc8c8eef0a8af27aaU, 0xd9d089bf3b29c08eU,
  0x5720ef3f7ac1ad35U, 0xdb3f25c52bee059eU, 0x38dc1e4caeb3d92cU, 0xdc62c9113d7fe75dU,
  0x7d93a370b131365U, 0xf1cbba22cb1b0db2U, 0xd204e412840e333U, 0x3fc6d9ebe74b290bU,
  0xe2c7e919970fe1a9U, 0x6642ff18c55a9b29U, 0xffadf37fd8ec7900U, 0x411f2c3dee190415U,
  0xfbd948ec326510f9U, 0x5df8347b620bdeecU, 0xfff899f7b111ecdeU, 0x140f0219dec057aeU,
  0x2d0abdf1f84614d5U, 0xed5db7d291fe7f6aU, 0xfd123c74e9f8b4e9U, 0xe1163fad2ae25e68U,
  0xded791c5384bb709U, 0x42e392e1dcb2a2eU, 0xb47f2fecfde5311eU, 0xffffdde42a354f43U,
  0x2e2c66041e2f2c17U, 0xef114f151d0924cdU, 0xbcdade461d0c2fc9U, 0x224927fb1e2205ddU,
  0x1a4c1bf7cb442f19U, 0x24c138d632f7ecefU, 0xe0cbfed9d2fab6f5U, 0x27f7d0eadcd1ec47U,
  0xcb0d440812dd1aafU, 0x4e059552935810cU, 0x5d553ccd8c5acf1U, 0xa705d4cb55ee6839U,
  0x4d2418def0c9ec10U, 0xe60d37c8f9ba5713U, 0x31ed5e5df476540fU, 0x759ff2b1d4c223f7U,
  0x37fe3e510e2ef2b3U, 0x555ab40b240a43ffU, 0xd8e121e8bd17f7d2U, 0x81bb8cd8f3f33ca4U,
  0x4090ac6ee59e304U, 0xbf5df0e7b2fa06e1U, 0x6f0a80c3a41f9fbU, 0xc60b58ce234e2c33U,
  0x14d128cce7fcc5e6U, 0xfd111332d03081c7U, 0x524c83205a8ccf3U, 0x3eedee1233cef4eeU,
  0x3e591a3f34fcc92fU, 0xf7ff47d539fce4f1U, 0x26c71b2a2ddaf8beU, 0xe5befa43ebf31a45U,
  0xcb9ae1c14ff6f0e2U, 0x17e1e6523aeefcc8U, 0x816cc9d1d0049f07U, 0x1e9ce5ae847f5fcU,
  0x16c3377f37adf47aU, 0xebf9282d44fd5473U, 0x39b08c332cf0bda0U, 0xc5e2259ce9537aa4U,
  0xd5341ce579e5f326U, 0x281c6cb50ee3d0d4U, 0x67000a7b4616ba95U, 0x503d79c842f0b8a7U,
  0x1af3321118a90911U, 0x4f8117b40c04bf24U, 0xc80f00db00ecd8c8U, 0x1bfd23001b29f2d9U,
  0xec2ec9c587e83cdbU, 0x7cee94d4f14d141U, 0x6c322cad55f12a21U, 0x2e29f20822d3f1e7U,
  0x523cfdf2d6eb5193U, 0xd33c325b4062aeU, 0x2507ff0ee609b97fU, 0xe1edcab83402b24cU,
  0xc9234ff256f79b11U, 0xd903d92524d556fcU, 0x2d1c85024b308b3fU, 0x39d80aedd21bf6e7U,
  0xeb1b4fdfecf4fcfaU, 0x3225f22e22c939ecU, 0x1e3e0608d7e335cbU, 0x3cb5afb6fc1efc5U,
  0x69460afe39c5f0e0U, 0x742dec9b1227ff9U, 0xde170006dd081502U, 0xcf0ed905f0c530d7U,
  0x18811bd1c22e86f2U, 0xead1070924b2222eU, 0x99e8ced234ece32eU, 0x170db114285be4f2U,
  0xecb216d5c4a6a722U, 0xa3555e2d1d092a1cU, 0xb8af37eb4192e10cU, 0x4126ce04c8e821beU,
  0xf6a6e13e18112910U, 0xb9bfe20f3e18df3cU, 0x715bac202513803U, 0xca933da04d04ee27U,
  0xf31935de2d62270eU, 0x7fb8ff35310adf4cU, 0x1f5dd41010493844U, 0x3ebe26ac063068aaU,
  0xb312e27b370d311U, 0x7fee0b56e4abeeb0U, 0x5fcde59c451bc4bfU, 0x2d5c0f5169d14812U,
  0x4390320da1f1312U, 0x3987a4c40417bcd7U, 0x50739bfa6937c4e0U, 0xd28d2dd468b162f6U,
  0xb9ad55acebb9f805U, 0x2dc7e2edfa76e71cU, 0xcf64e088c3d51637U, 0x24b0214f07e21d0dU,
  0x325be356024114faU, 0x7fcc160711d0dc4cU, 0xe9c5d96b43205417U, 0xfef4adde90e8edd3U,
  0x39e065cef9fecaccU, 0xfee8bbccabe20214U, 0xd3bee30f304d4f2U, 0xc028a7171310233eU,
  0xe2d8e0883219d656U, 0x1de0dbf6ccbe2d89U, 0xe50f38fac72bcbddU, 0xa7ff618fab2c929U,
  0xfb2ce00f5817dc09U, 0x204106d6c701dc08U, 0xeac918d5f02da32bU, 0xe9def82af02cfec8U,
  0xccf4c903b8d981a9U, 0xbd3533f91a0626edU, 0xa0356ed733f6bc9fU, 0xea3e095551c30fb1U,
  0xf30244e522f6a907U, 0x39eadc0239db1edeU, 0x37d12d9ec2f30181U, 0xd92532fb6ef5059fU,
  0x28fda29304c1f05dU, 0x12edf0fcce0506deU, 0xf215920e0af967deU, 0x7045afedcd3fb93fU,
  0x4fe6e363cafb0cc3U, 0x1c3f686b2c10a0cdU, 0xeef8e0242cc845cfU, 0x39cd6c4ac91bda27U,
  0xd614f847e0b03b26U, 0x2e03bf292628addbU, 0x63b01aeb81abf90bU, 0xe6590afdea072806U,
  0x33cdd2cc6b1a1435U, 0x1af4f80fb4231a81U, 0xd22e40d51bd0ece7U, 0x3ee1e0eebdf8a135U,
  0xc71c0939ec004460U, 0xac344decc8349f23U, 0xf931e20216374df3U, 0xe5601f1cd4993a2U,
  0x4e201f25fdc63130U, 0x36264a46ed7f2543U, 0x999ae132d3ca0029U, 0x13f92098c00e565bU,
  0xc958e3f2ec2bf9c9U, 0x5a58472214fa2ae2U, 0x26dbfcbdbed21732U, 0x7e1e0ccb532e3ddU,
  0x351b2648e612cbc1U, 0x3c11d70cfdf2e724U, 0xe9060fad0ff445fbU, 0x49c0635aeca9b10cU,
  0x152015e914f53714U, 0x55bb0f56db32f7e4U, 0x5717cff428f081d7U, 0xd25cafc09ea21e5U,
  0xf2ad5581311cf91fU, 0x2218bf24f3c30bf8U, 0x993affda0ce7ddd3U, 0xca1eda4df4dd344cU,
  0xce81f44cfd542fbU, 0xcfaa05fde113e00eU, 0x2332e8f981ac07b2U, 0xec2c15e8eff3e63bU,
  0xf9ce01920071cc50U, 0xeeb2066328bdc081U, 0xc500a01a72ac0267U, 0x6474f047a2051f31U,
  0xeb12c7e0ea1359afU, 0xd2e27ada3d10de25U, 0x3dca07a493acd61dU, 0x55357b1ecfdbf5e7U,
  0xb5ffaa0befc515c7U, 0xfbedd6e17fbe20eeU, 0xd62d7225760c0c59U, 0xf20115f3513d1616U,
  0xf284df2127e21d23U, 0x1e3d11fe3f73f71bU, 0xfe4fce02044cdefcU, 0xbd02ac1738210fbdU,
  0x3e6caed0a68dbc4U, 0xd9f305caace70fc3U, 0x311c4d23e2b12a1dU, 0x50e7b51bdc4b3929U,
  0xea249c9928e9a6c0U, 0x30cf198f26ba65d9U, 0xd7d202b62537e41eU, 0xa2dc547f225415f6U,
  0xf6182a26b600f715U, 0xf6297d432cde819U, 0x1bb6c50fc3f242ccU, 0xe24e1be1d3b3ff7fU,
  0x5814d30f50ade70bU, 0xd230830c4e52a523U, 0xfdbfdb40904251dU, 0xda122fb51eb7210cU,
  0x2f2ff20215abfa37U, 0xfce65e4b42112a20U, 0xbfbe0286a2d834c9U, 0x11f7fcf6e146ee81U,
  0x3229e2c8c837b662U, 0x3a161f183d1b941cU, 0x62211bc218dd510cU, 0xfa02dab611062d4bU,
  0xb0dd43bc0e657fe4U, 0xb2bf323ee0e84123U, 0xcae14f0b421df739U, 0xe3fa3cf1191f56aaU,
  0x5ae65ad5f4423a99U, 0xf60b76ffcc0bd73bU, 0xdc69cbaf01ff1307U, 0xd7121137a3c2b9e0U,
  0x4817eae0a8b9f806U, 0xd11593dce003f5f8U, 0x36c011613ccc8ccbU, 0x1070275c0461fb52U,
  0x27aa7fe7d334d047U, 0xd2d5f00dd07e4403U, 0xc72d13a5a5a0fe2cU, 0x2e4435f72c3a3d0dU,
  0x262212e41e37dafeU, 0xf8ea0e0fe1dcb4bfU, 0x1fb60051031785beU, 0xfcf3f11de041fe0dU,
  0xb53e81d13b0bdafeU, 0xf7d4ccf3dff80dc5U, 0xe00647140be8de2cU, 0xff17e10af625baf5U,
  0xce17ca29ef29ea1eU, 0x1ceb41b6ea325830U, 0x43b82871e8e7e5c2U, 0xe42f8145de8cf205U,
  0xd2edd8fa2ff4949bU, 0xbc659d2ecdc44824U, 0x3fffdc08dc70ca08U, 0xade6fbd31138fa28U,
  0xd8bb61d4910cfde2U, 0x1868d12d1242b0cbU, 0xcc935c022f55e08U, 0xe2d2dc58aabd15e7U,
  0xd41518c3b9ca4e25U, 0xcbe8218fe533fb05U, 0xe32e512ce4c523b9U, 0xec2e353a2e4b7fccU,
  0x282a1ed941b51ee3U, 0x2a40dde0dc38e607U, 0xffc8c5b2f8dc0a0eU, 0x114038dbedd5e929U,
  0x1b321709df50d736U, 0xf6bbcb007f010c10U, 0xe63f27f3fbbb171fU, 0xed16e9a71be32ff5U,
  0x22aa24c2f2ed1656U, 0x9ece7f2dff8df93fU, 0x13abc5d67131c336U, 0x323ab0658719d9aU,
  0xb30ec208fe55032U, 0x49307aa836a7c004U, 0xce3acbe617c0f0faU, 0x6913310be9e2ab1fU,
  0xa09c32629c68891U, 0xbbe1ebaeafed9af3U, 0xf1702ce0f42332cfU, 0x4de9ecdcebfdd5f4U,
  0x767fe7adc21de107U, 0xfd52db3683f02c9U, 0xd55509c4d1b64dbdU, 0xbef95efeb8ac0b08U,
  0xac6ce8445749d5ddU, 0xe266cde4ac76e923U, 0x87270e1396f87f12U, 0xe1ce07737058e135U,
  0x91c10133d4b55772U, 0x9c251bd051177159U, 0x55cfb452c5a2e03U, 0x3fd3037a10e6d859U,
  0x811e59d52bd62fd2U, 0xb1c1ea23e44dd435U, 0xc501b8d1f713fcf8U, 0x13bcfbbc3d6f053U,
  0xf7bf002245a4b3f1U, 0x63384bdf1cebebf0U, 0x19fdc4f1bcdb3fdbU, 0x3fc516cb03e6b24cU,
  0xfcd8f1ce130feb65U, 0xde15ebf8ccd2ff13U, 0xbffdc572ff081c0U, 0x30d5e3dce7afd6dfU,
  0x9dd1fd0310f4b528U, 0x2210c8c50be9e529U, 0x2503e80accdbd5deU, 0xcf3e10ced5f1cdefU,
  0xcb1e3f0bd0eae1beU, 0xadb6e53bdfb6cf2cU, 0x34b32514f141e1f2U, 0xfb4ef34d052bae8cU,
  0xfc8cfa09380005e4U, 0x481193de2d7c128U, 0xd46929e45eb7ec1fU, 0xd406cc0bf012e605U,
  0xcbf0f9112bc8ed48U, 0xe8a40ec7e8e1cce8U, 0xc14ccc2cf9cb4e22U, 0x3a08c4f2bae40f42U,
  0xc100b3dd6554606U, 0x32edd4e5112cf8dbU, 0x4881130b2cc9ed1cU, 0x9eec4eebeeebe25U,
  0xdd0e15a6351bf8bbU, 0xf10e2cb5b022bddU, 0xfef23c17431ab6ecU, 0xf81a18dd521e50b7U,
  0x135901eefbe9bce3U, 0x287fb1070d4503f0U, 0x50da1d0e2d140af7U, 0x35ce081d4ee2f1f6U,
  0x2a23092cd1dc210eU, 0xbfc741f1b6141e3aU, 0xac562e1fa1c18f3U, 0x14612b04e1bb2ed4U,
  0xce20da1f000eda81U, 0x4abf1cfc09de3582U, 0xba02402ddfd4fa18U, 0xbe29ef1a03fd12bfU,
  0x391c3f5a1a2e2b08U, 0x5c34e07f3a3d2a01U, 0xff04a6fa13da14f0U, 0x2bf58e8cd3a2618U,
  0xb927de0f40fbfcc4U, 0x6dfc3060a244c39U, 0x662bc73ac54fd2c4U, 0x161adbb257d01f3bU,
  0xc028180744fdb2d6U, 0xcf3a30ff1d81c30aU, 0xc574ecfbd5f139ebU, 0x38dbc0b443fe061aU,
  0xf81502b7ed0b5e24U, 0x4f0f212182f1a09U, 0xb7e74c182ce7d907U, 0x2027ffd2dcd84430U,
  0xeb2a0026d3e10b19U, 0xd64883d1b0cf092cU, 0x59340e1668dce9cfU, 0x45c2f9c94e42c81bU,
  0x7f105ddb474a31f6U, 0xe314e2f477e15cceU, 0x1de633bb1b4e2b24U, 0x45d3499a77edb912U,
  0x2c0c0f3ad1461fd1U, 0x240aff040af2deddU, 0xf8092837232de5c9U, 0x391eedecb9da15d9U,
  0xbdf20efdf5bebe7fU, 0x4232f7f224c4c1d1U, 0xf908711fdbd14cceU, 0xdc080328fef01526U,
};

STAI_ALIGNED(8)
const uint64_t g_network_conv2d_9_bias_array[48] = {
  0xfffffdb700000fd5U, 0xffffebd6000003edU, 0x14a800001ceaU, 0x7ef00000381U,
  0xfffffea9000002ebU, 0x1aa200001a2cU, 0xffffe69a00001014U, 0x1710fffff963U,
  0x187cfffffe96U, 0xffffed8000001b56U, 0xfffff09efffffe6bU, 0x77e00000ffaU,
  0xfffffdf3ffffe55fU, 0x77a000007ebU, 0xffffff0300000156U, 0x63afffff8b1U,
  0xf52fffffe1dU, 0x89fffffd75U, 0xfffffb7d000021a5U, 0x2b850000178cU,
  0xffffed53fffff85dU, 0xc84fffffbebU, 0xfffff875fffff34bU, 0xa6cfffffad4U,
  0x953000018ceU, 0x13f6fffffe98U, 0xbecfffff6b2U, 0xfffffc06fffff126U,
  0xffffe96700000676U, 0xfffff6d2ffffe507U, 0x559fffff0d3U, 0x18cc00000277U,
  0xfffff3c6fffff141U, 0x12ccfffffcacU, 0x283fffffe3cU, 0xfffff5ceffffeeb1U,
  0x10d9fffff17fU, 0x119a00000885U, 0xffffe354000006d1U, 0xfffffcbdfffff4cbU,
  0x6db00002e97U, 0xffffeb12fffff8e6U, 0xed0fffff5eaU, 0xfffff8af0000020eU,
  0xfffffa7efffff661U, 0x79fffffe65U, 0xffffefca00000e3fU, 0xfffffb4700001e90U,
};

STAI_ALIGNED(8)
const uint64_t g_network_conv2d_10_weights_array[108] = {
  0x81def581c1d35a6fU, 0x45ae1013078b27b8U, 0xfa2f7fb9b538b548U, 0xf75ffcac9f27fdeU,
  0xe78147bf9c2da60fU, 0x1cbdae817acd31fbU, 0x98dd97417dbe47fcU, 0x51b329d7648181c2U,
  0x7f2aac9d160ac4edU, 0x59ccfd720c816d74U, 0xf3ac581ee81fb8fU, 0x412eef20767ff7c9U,
  0x90c37fb1a6a39b01U, 0x84c155b316ef3213U, 0x81cb37ce75f7b1f5U, 0xd981b0149d5cf67fU,
  0xc6613062fefc2b7U, 0xbee27ba6e0347fc0U, 0xc11ca6fe2ac8a59dU, 0xd32e7f4762852838U,
  0x781be0035d5113bU, 0x7cfe97d447a11e0fU, 0xa4017f1404030a7fU, 0x69df2c5c679df239U,
  0x3ee42304e27f81c9U, 0xf8323b8157196d05U, 0xa47f8d117f7f0b9bU, 0x52c807ab16dfa212U,
  0x2e1d45403300dfe5U, 0xbff5af029c7f422dU, 0x7fd111e8ea334c04U, 0xaa7ff05abfc8c246U,
  0xcc3bc30770e1ddecU, 0x9c3fadf7f31d0d33U, 0x7f42d9060d174108U, 0x977f0775a7c7ef5aU,
  0xc8cbe704d91df50fU, 0x427fe5e03101eb97U, 0x33cb8934af37c6ceU, 0x813b7f1de66ec70eU,
  0x8daceef28147054bU, 0x3cb5e2c8c835b9c3U, 0xed816b4193addc1bU, 0x8328fa4999fbd081U,
  0xe3cd7f4d207ab597U, 0x7f7fd1810c8f134eU, 0x3d0d4f50d24240f5U, 0xeec9f37f7f1b7f58U,
  0x9a74ef25111bf820U, 0x53c93dc138cefad1U, 0x13287809c88a2c81U, 0x1ad30a55cbc8e33dU,
  0x7fe62bd204093916U, 0xd63b62098104cbebU, 0x2dc01cee90daf410U, 0xfc9b04987fb3ca3fU,
  0xe686de95e652ef81U, 0x3db4f8161260af95U, 0x221ccd26f9338535U, 0x28cdb0e4fa33c53fU,
  0xc3daff5443a292bfU, 0x134db33e17aace50U, 0x2522da3f57b13a8dU, 0xc2f1c6f0fa81f0aeU,
  0x17260fb1c9197f4bU, 0x57b7faf1769c0c7fU, 0x22ed137fb70ec150U, 0x415cb5253519facfU,
  0x2812f4518104814fU, 0xdde0b36a059f022dU, 0xe67f4313e8e2d3c5U, 0xf7b5b1a1d30d2a7fU,
  0x3444020b13e5a381U, 0x81a54f647fa53e81U, 0x971569b2b90f1c5cU, 0xfd9b02e88105bfe8U,
  0xdafca2d90007d27fU, 0x7d7f58aa31816cdU, 0xea74e3dfde01d57fU, 0x13deacd007112a18U,
  0x99320002f2813b93U, 0xe6ca81cc4c397fdaU, 0xf092dbec01067f59U, 0x153acd46e1a9ff28U,
  0xb10d2b2758d3336U, 0x45390439257f078aU, 0xf7f811e2262f7f4cU, 0xb92319812a8ae5d6U,
  0x8534f67fac7f3303U, 0x7f7f81443bb4fbc5U, 0x52e17f963a81c04dU, 0xd9c7f77feddb06d9U,
  0xdedcf6e16231e9d1U, 0xf736d30044ce0081U, 0x1eeaf42a7f06cf3cU, 0xd78f7faa87d60b9bU,
  0x3815d007fbeeaa4U, 0xde937ffb4bb17f09U, 0x5940e381c660caf9U, 0xbdb166b5e08bf61eU,
  0xe80681e7cbf01032U, 0x1702c5d9c3f2e2e1U, 0x6667afed812281ffU, 0x7f961913e603f3d6U,
  0x2c0d37f25655569U, 0x58d96ca81f44417U, 0xf0e55e3e23b41048U, 0x7f2958e91123d76eU,
};

STAI_ALIGNED(8)
const uint64_t g_network_conv2d_10_bias_array[48] = {
  0x3dfffffcb9U, 0x7d000000cfU, 0xfffffdce00000253U, 0xfffffe28000001bfU,
  0xfffffe810000008cU, 0xfffffff300000007U, 0xfffffcbc0000040bU, 0xfffffd5a000003b7U,
  0xffffffa6fffffff6U, 0xffffff6300000121U, 0xfffffcc3000000e1U, 0xffffff9500000187U,
  0x60fffffff2U, 0xe10000015dU, 0x153ffffff56U, 0x5200000050U,
  0xfffffb95ffffff18U, 0x417fffffd92U, 0x1ed0000001cU, 0xfffffe61ffffff89U,
  0xfffffe7200000373U, 0xfffffd8a000000d8U, 0xfffffd020000013cU, 0xfffffe3cfffffec0U,
  0x7f00000103U, 0x1f700000339U, 0xffffff22fffffd9cU, 0xffffff18fffffdb6U,
  0x1a200000425U, 0x89fffffd37U, 0xffffffc5ffffffc0U, 0xfffffef0fffffed1U,
  0xfffffef8ffffff77U, 0x1100000003U, 0x84000000f7U, 0x24fffffd9bU,
  0xfffffb50fffffe97U, 0xf7000002feU, 0x500000031U, 0x37300000240U,
  0x526fffffd98U, 0x1fbffffffd6U, 0xffffff9b000001b2U, 0x110000042fU,
  0xb2ffffff5aU, 0xfffffc7fffffff2cU, 0x12e00000322U, 0x16ffffffec7U,
};

STAI_ALIGNED(8)
const uint64_t g_network_conv2d_11_weights_array[768] = {
  0xd6211c69c3b5352eU, 0xcf4b350021380ff8U, 0xd319e7d4212031ffU, 0x25d701b6b206f0b7U,
  0xeb1443e8ecf7032dU, 0xf84d27d0ea04d97fU, 0x1b191f62fbf8d4daU, 0xeee0d8dc35540063U,
  0xc923e7b85ab20d2bU, 0xa912a8c05f53ccb5U, 0xf9ca9df82114cdd8U, 0x3753a1072bcc0f1eU,
  0x47f1ff0cfbd82311U, 0xfa1726382a4ce9aaU, 0xd3f2fe21fbf3ad43U, 0x112514fcf3fad719U,
  0xccd3aeeaf9c5e0deU, 0xd2aef159bbf828ddU, 0xe2f818e4c2c6b3d8U, 0xbf122ae42fcadd3cU,
  0xfdcb3fe4cf0e0418U, 0xe3cd3cd60dfcdf21U, 0x220fbaf91be450cfU, 0x1e4cc67f415046dfU,
  0x36b66c25230127e6U, 0x29025ea509c95fffU, 0x46fad01938e8fe06U, 0xce0709c283ddc7f7U,
  0xc3e52281e502fed3U, 0xf235e5d83539b013U, 0xd8cfd7ed2bb339ecU, 0x4a1257018163435U,
  0xfbb3d605faea0636U, 0x635844f425171a2eU, 0x272aeaf52c1a0925U, 0x33e1ba95d5b9ed95U,
  0x16d2ccd0ba39900U, 0x36fa9a3af011e4eaU, 0x13e7137fe9463f53U, 0x2bd052e305ef3210U,
  0xe5091f210aa635d6U, 0x743ae1f3e0e600e9U, 0xc136376812d25553U, 0x448ee4e8f7e624e6U,
  0x1ef7420ed2569642U, 0xee2e3ab03bc0e8b9U, 0x1f38230a51f1c432U, 0xe417d1c209402fb5U,
  0x7af276edaabbdddfU, 0x5dcc450a7243f0dU, 0x460c1cd029cc2459U, 0xd32d2a9ab1f2f440U,
  0x2b23931eeb6054d7U, 0x5621203e3dcac204U, 0x57ce110225fafc05U, 0xecab37250bd9cac6U,
  0x2ed2c43322f8816aU, 0xd6e7e121ad0dd3dfU, 0x5fda35cedf3311bdU, 0xbae0e0a8c4ca38ffU,
  0x15be2fc95104f8eeU, 0xd97e9b69cf81dfbU, 0xc93e44d470d9089aU, 0xb3d19c60f99500ccU,
  0xf8e53ffff349c4cdU, 0x81ce114a2a03e8aaU, 0x45df46d6136606b8U, 0xc958c7af39350e10U,
  0x1b1530da0dd9be1dU, 0xd2a4dd15cf12a414U, 0xe3e9e93b3420f6f1U, 0xaff5f8fe0c359dffU,
  0xcab9bd6af4009ac2U, 0xee90eee14bd2015U, 0xd8954feba6100201U, 0x55c8b9990729401eU,
  0x1b02391a030cfdd1U, 0xb935fadeeef2cbd6U, 0xc63a1ddd3247043aU, 0x5ad7ef0adc55352dU,
  0x41d03513d1e2e0f2U, 0xcfe6082c010db5c0U, 0x50abc750fe1834c9U, 0x9be54b019f7f04ecU,
  0x2336fb1148c9f151U, 0x26ca1fd01fd901d7U, 0x321ef87be8e47ff6U, 0x8e377bbcdfb9d113U,
  0xa41bb824fa627010U, 0x1d0ee6399eb3fd02U, 0xfb43e5b1e2e0d0adU, 0xb32e0f25932bf31dU,
  0x34ce6518dbf1c395U, 0x2fc31635fdad0b2U, 0xcfc34dba4c3ae22fU, 0x8c02c696b62d3a1dU,
  0xac5cde773c41cb9U, 0x41112604b765ee48U, 0xb77b2207dc29cba5U, 0x89cdec107fb1b5fbU,
  0xe99fb70706ce3f33U, 0x9e561909efe72911U, 0x10071c380647dc34U, 0xda1697daf2fb3ac2U,
  0x5b28cbe34d030205U, 0xd111012f566c9e6U, 0xbfd9cff8e701e6b5U, 0xffe16e441cfe0120U,
  0xc35c10d513ff0beaU, 0x529f0013f7b4213fU, 0xe41bc2f73024d05fU, 0x5400607f6f00ef9U,
  0xdf3f6a0391ae21dU, 0xe53661b67ffc35f9U, 0x53cea9f7cac951d6U, 0x593b5026c33b1e58U,
  0xd724e05ddde347f5U, 0xd059ea69b3f91fb6U, 0x5fff3170e9c14edU, 0x2cf3223b1bcac800U,
  0x2d2a3dffecb8f230U, 0xdd2ca61f1e73e69bU, 0xd0cb44f1be63ebe0U, 0x3ca0f2f74c270ecaU,
  0xe31737f11c1103d5U, 0xdcc3af14001313e6U, 0xdcfec42f0db80af8U, 0x6ded08fc0913d990U,
  0xdea231bbd5551a1bU, 0x35967fd50f078df6U, 0xf5080ff9f05d0d23U, 0x369dd760c7e81bfdU,
  0xfb34f43ec6df3a4bU, 0x26e3e4bf2bf2fbccU, 0x353a07381c2c00d6U, 0x55c81be5da109f81U,
  0xb5d89c39992b3960U, 0x92d79650d4bedcc3U, 0xbd461c37ddf2bac4U, 0xe1d7b73cb8ee6c08U,
  0x41e15b47bfe9575bU, 0x22bb126bfbcc6613U, 0x96a6142bcbe7b001U, 0x4a7a4fc6edd6dc06U,
  0xe8423f9c4766a3U, 0x101c1a2153e688eeU, 0xc6de332bc34dc1b6U, 0xd78b494614f6bdb8U,
  0x5e466012f4930627U, 0x3c53ecf635b5ff4bU, 0xd6d781d8dafd9d15U, 0x21ac2bdd564d6de9U,
  0xdaf7f0101b3bd429U, 0xcd1f10b35ae7f5f4U, 0xed4146c30e392aefU, 0x30909adc2b0fc6f0U,
  0xf7164230ede22e49U, 0x266c30e8ecc0c0a9U, 0xeffa8136acc64ae1U, 0x224f08e1c60cc543U,
  0x65166ea20eb1fcfU, 0xefeac6352ff71dc2U, 0xc12502fc42c5c63bU, 0x1b2ce81b221812f5U,
  0xe84b10bc00d62638U, 0x6ae83796e581e566U, 0x2da0b6c5c84b3ef0U, 0xeb09c6f23408d1e3U,
  0x2df4e07f2fe12133U, 0xa309df5ed5ef560cU, 0x9461e6053b21b1d6U, 0xe9a23bf4d896defcU,
  0xe33a1d610031bf2dU, 0xe6cc8a3b085123fbU, 0x365c32efef1c0a31U, 0x141ddbc2c901e5U,
  0xced4fce022041d09U, 0x34401b1109779e08U, 0xcece54deec733f4U, 0xc302f422f20fadefU,
  0x23511851b7b04b24U, 0x980022741e2b0d37U, 0x5b48ddb242f4b946U, 0x7f08320febfc47c8U,
  0x490c10d5269f2a13U, 0x19107addb7d806eeU, 0xfa3338d8e0643216U, 0xfd51a101f01551U,
  0x1631ffee2a960341U, 0x14ed12d6fdb682f2U, 0x2f12702c8ed48edU, 0xf1ab12f9c700bc00U,
  0xd74837cdb50109fdU, 0x5bdb11f432031e3dU, 0x50e529dfebe6122eU, 0x1d7bcbeb3018ea27U,
  0xfa97293ad441fce0U, 0xf640ff8c62a54421U, 0xdc391ae63fd33929U, 0xf2f8cbec387f65fbU,
  0x27abf5d5f831cf13U, 0xe62f0912eec20216U, 0x249ab62221e6ef0cU, 0x18333b28d5e6d7ddU,
  0x1422c449f3e8d3b1U, 0xc76ded37dbfc0608U, 0xfec169c4bb56f2e0U, 0xb79b7aff96193d24U,
  0x14defbb6e21df855U, 0x83ebc03a5acae4cU, 0x4a677f5722bc4b1fU, 0xe0b4004adbfd1270U,
  0x18c2e20b32d82ae2U, 0x505357c7d50b88c9U, 0xfdcee22d36712c37U, 0x1be63f15cc0a61f9U,
  0xe3b91e2a129ae0ebU, 0x7c1dd839dde50429U, 0xdb32f599b64fda0dU, 0xf7dce0f1020e584bU,
  0xd9c1a45905c4d84bU, 0xf5f5fae617ae06ddU, 0x291fff4602d5505cU, 0x2989b43013b0c125U,
  0x6da60abdd140be3eU, 0xe8156d7fd9332723U, 0x26e9c5dd2c0c333dU, 0x14cf770c1049cad1U,
  0x37484cfa0803344bU, 0x3da6f7ebb80b16d9U, 0x35b7c481b900ef01U, 0x4ddace28821ccb05U,
  0xe92bbeb06b022ae6U, 0xfcacd7c92eee06e3U, 0x11084ac41debb64dU, 0x54dea5181c092fU,
  0xdb3bfeb6d8e542e4U, 0x18cb040c22add354U, 0x9de02ef2e374c1a8U, 0x6a312eec1afefed1U,
  0xc8bac6134eca588bU, 0xa0431ffefa11d521U, 0x531d4326bee291cU, 0xbe00e1f2c7e71a61U,
  0x4125ed3bcc3e0b1cU, 0x8ab7e60ccfeadfe8U, 0x207f56cec85cd519U, 0xc706c73ff8fd03edU,
  0x49efe741ec0501f1U, 0xe7e1d84df412080fU, 0xfa08e13afb191d4cU, 0xbfce43211e1b2603U,
  0xb8b2fb64db2c0dfdU, 0xd2a058256a1200d8U, 0x200ba8e5fd1c0305U, 0xe0d3172efe810868U,
  0xb22fb4d42f0b103dU, 0x67e73fe77d43faf3U, 0xcfd6f74effc2fa4cU, 0x7a5bfd2df8a22042U,
  0x53bc874b57bb6a2dU, 0xf907d0530007e519U, 0xf24c31bb030ae738U, 0xc25f0e1842058ed4U,
  0x15bfc7334be93285U, 0xd7f921e38beb1f6U, 0x16dab6ba420ae0fdU, 0xb9c02f282f30190cU,
  0xf63924f413d62401U, 0x2909c84e0db6e0d5U, 0x2bd3b0021961aU, 0x1a2be3340e3f2d0fU,
  0xfb2541d4fde5304eU, 0xb8bef4d9d422d331U, 0x23f0491c3d00435fU, 0x43f9599cecb73bddU,
  0x46d6b7fd13050302U, 0xfc2ed8e11bfb12f7U, 0x4d17e4ce17e2e1f8U, 0x33cf6113c334ec6U,
  0xd4161c13dac6ea31U, 0xc3981e911aef5efU, 0xc9e93ed1bd1b18e9U, 0x4c9e9052c4ae1a8U,
  0x370209f9a9d7372bU, 0x1acffc39ed2b0e07U, 0xf2c2e9161c000213U, 0xe7390bed3cc5f99bU,
  0xe8fdd1ac1917ef0cU, 0xe47f24c9c9c69a9fU, 0x7615daca125656c5U, 0x21f855d2f2399e1bU,
  0x7533fed6fd3d502dU, 0x212bd3353822c7cfU, 0xd0e84bcb0dc1bb09U, 0xb910dd20dc174b12U,
  0xa273fafcb09d47bfU, 0xe9bb3cb2832bd551U, 0x5ee7381e34f04febU, 0x29e1e5a1b4503b0bU,
  0x274baeca5e1e2d03U, 0xeb8df7b6adc9e8cbU, 0x2ca438f03ecd20b2U, 0xcbfc14f04229b7f3U,
  0xf0fa25380fc7a9f1U, 0xacdd053e06dabd29U, 0xe83ecec93503f625U, 0xc214d8a2dae1e419U,
  0xe73824fafddbff27U, 0xf3aef6e3d5a8fc81U, 0xfec630eb6406d7cbU, 0xbfb8bfc632ed16U,
  0xb82df8db09da1acaU, 0xa831e818ed1b37cfU, 0xefcee4e6e4327f25U, 0xbe04ef3cbfefc934U,
  0xf41408bcef573c20U, 0xfb230827e7d84c45U, 0xddd3125bcfe51453U, 0xe2152615adf244d7U,
  0x1d1313d4e3de02e4U, 0xf43621e4023ef4f7U, 0xd4bfccdf3aed71bU, 0xdaf237d5e43bc94cU,
  0x3bf8eff027c9be17U, 0xc21bd61a26cc09fdU, 0x3b340ecd3bef0cf1U, 0xf4ccb93e05d2dde4U,
  0x39cd16d4f6ee21ebU, 0x96fcb2f32ee52eb5U, 0xe8d207b42023ce2aU, 0x29cf4bdcf600e9e2U,
  0xe6d6ff38d6162b03U, 0x34d516c5c229f2caU, 0xf4bd5afaf317e0daU, 0x10e236f901e8fd81U,
  0xa6b496fcb1111bdeU, 0xe920c9d43af1e916U, 0x3959e5c1210f0328U, 0xf74c1cc3e94701c4U,
  0xeceac6ec1d053214U, 0x13dc4bd3411926c4U, 0xba64bf7f0950d9f2U, 0xc2efed30530aabdeU,
  0xdcedd00ae1a6fd5bU, 0xa54dc9e2aeec941dU, 0xfeef4b9328d93fdcU, 0x5ae346c55512faf3U,
  0x369efdee2a331fe5U, 0xb71916d74329fbc4U, 0x1913b42a3ed84cf1U, 0xe646e4edfb325e1cU,
  0x592e332334e743fbU, 0xcca18bdad003bbfaU, 0xfc02ffee8129243dU, 0xc0aceb6bbed21b3U,
  0xd501c743cff14b1fU, 0xae45548a5f1bf09U, 0xc2ce0b14fdb45b3cU, 0x12ccf57f4c1c8a6U,
  0x75991925cbb1380cU, 0x232b3022c3213456U, 0x9ec0fc294bdf10fdU, 0xc122bbdcc255a3f7U,
  0x5d153be57f04e432U, 0xf4cee2e548d590c0U, 0xdc0a8538a9c9314bU, 0x3792cf22f8243a02U,
  0x74356e917db1db8U, 0x2a34502529b92feaU, 0xc71ae32809d85917U, 0xeb1098d31ca30ec1U,
  0x2eb141cac900cebaU, 0xe26b1c10f13049f8U, 0x1decf146b910152aU, 0x2c152eae00c80a78U,
  0x7b70529d45f5c409U, 0x45132500ded59ae9U, 0xebfcdce410e2d734U, 0xdc247fde7258f31U,
  0x97a3a5b531ecff37U, 0x451f1895e10a2b48U, 0xda37f5700d3a57efU, 0xf9517febb63c16f9U,
  0xbadfdfdf17e11cd2U, 0xc9eec4c028db28feU, 0x56fef6f7e012770aU, 0xb419f3343481c7d0U,
  0x9acfe2a0753e0bfU, 0x390bc3d410c3f922U, 0xcbf03c7cfdbd3f7U, 0xccf5e6b7bdf82e11U,
  0xfeea6d56a6c4c8f9U, 0xbaabb09d7df66f2U, 0xe50f17dfd203f004U, 0x16e21ad6f63bf71fU,
  0xf6403bba813966e6U, 0x7c88bdcf218f612U, 0x3d0f3d3a7afa1f4U, 0xb92ced3cd85fcb12U,
  0xfac903106e0123b5U, 0xb3c2d1e409af6be1U, 0x25ea00c2410d34f5U, 0xfb1e403fc4111395U,
  0xbfe7ded25144e3cfU, 0x59d5cd0717250e57U, 0xa5e1bc2bddece0a4U, 0xedc1cfc7e64bafe8U,
  0xc519fee00a4b3fd4U, 0x7f19cb3ed7289d16U, 0x42fad6612303283fU, 0xa2fd593f03b7d7edU,
  0xfd3851efc2d4c10fU, 0x108043a17d5eb45U, 0xccedb7f22d220d03U, 0x1810f20a481420c1U,
  0xbafe221cd7d31edaU, 0x18da3adb2de3cc23U, 0xa22ade931043ca13U, 0x9733930da18422aU,
  0xb512e3e7d6d644acU, 0x4431d54806ca0309U, 0x47c4fc37304436fcU, 0x9e6be7f04c0de03U,
  0xb9b4e1b6e4f60dddU, 0x172414d9333ade1bU, 0x2a2190a3707f6bbU, 0xea38f612da0d320eU,
  0xcd35e6fdc60b13ebU, 0x305bdac70620f9f3U, 0x1d13c7f6c8d502b6U, 0xdeec69d103bf2fb8U,
  0xe923f1e0ed1605f2U, 0x2b210af52ee5132aU, 0xe4e3223acc5ebd8U, 0xefc5bfe3267fea0cU,
  0xdada1127ce1f143aU, 0xcfd3de4acfe508eaU, 0xfd524eef1bb51c1cU, 0xbfd7fddfd235e424U,
  0x1b173dfb27141721U, 0xe75452c002de42feU, 0xddf7c2650b3be3ddU, 0xf95308e0a5230ff9U,
  0xb0e9dde82dcb6002U, 0xe7d5051d9feddb12U, 0xb0f9cae1c9b2df0eU, 0x555e1cf109020b25U,
  0xc204e4ac96d7d901U, 0xcfc8f31df97fdb16U, 0xec2b05e5373cf3d1U, 0xcdb6efe0cf2dcefdU,
  0x2ec9e2a5ac13ce5fU, 0x40132b18c6cdedbfU, 0x29d0abb99ebd40c3U, 0x10c24c3414f13157U,
  0xcf0bac0322135827U, 0x5d949462abd38c9U, 0xd2c3cdf0559610ffU, 0x35b2c9d67514d717U,
  0x7af15f407e8561bU, 0x31f8eccf2650ab28U, 0xb545c3d3c3f919b7U, 0xeff5e008cbf51ebfU,
  0x9d09a60ef70df64dU, 0x1c2331cdccb047c3U, 0xc4b9e1307fe048d6U, 0x172bdbf62e19c334U,
  0xe8812e163eefed17U, 0x37e13f120ced25e4U, 0x3af9e40b3ae1f41fU, 0xe60841ab1a26cce1U,
  0xf300e24a21de1adaU, 0x2effbc191fcb1534U, 0xdf6aeb29e8b43e53U, 0x443b20d621eaf3e9U,
  0xe0023cf82fdace55U, 0x11c00f123b48c831U, 0xb8f810072415df39U, 0xc2f1dae61e04da27U,
  0xf129dec3ce1b1515U, 0x17089f377f76dffbU, 0x961228c30943b31cU, 0xbf15cf391ce5c818U,
  0xbdef266827d418e5U, 0x2fef533029c0ea1dU, 0xc94a5bdddf32fcdaU, 0xb0fe40eec4fb1b25U,
  0x11c243a9c950ebb5U, 0x3164bf927f5f910U, 0xd3c29a37d741f9fdU, 0xcdefc846470b99b3U,
  0x5335fdbbcc374e44U, 0x551a9625b5f7edfdU, 0xc064191ca6421af6U, 0xc905bef257f626a0U,
  0x5020cb3b380105baU, 0xee1d02eddda6ef3eU, 0xc6e9c9cef427dfb7U, 0x58cd204bde2f25dfU,
  0xd1f4d01514693524U, 0x204df0f6f66a4b81U, 0xfe1fa467a02497d2U, 0x3bd643afbb4bcf34U,
  0xf9253d1534269a1aU, 0x45f1dccf23283d42U, 0xda12e906921911cbU, 0xe4e41116ecf0d626U,
  0x183af1ed550ff10bU, 0x82edb12ac7c9d7e7U, 0xdd3fd0ebd7389ddcU, 0x4f25a3805f308a4U,
  0xb6de4411d0ecc1e4U, 0x59ade5fe3881eb41U, 0xf0ff0bdc254dfba0U, 0xe303bf1e2cfa40d9U,
  0x20f444e2ef1cf225U, 0x102408ebf4edd72cU, 0x2317da09d43501f2U, 0xd920b94df6311a16U,
  0x1fd642eb20c7b638U, 0xdb0b0c7f07cce930U, 0x340bf115e80935d3U, 0x15f10b0218b4dde5U,
  0x2449f22dfb2b39c8U, 0xf612f30ef1153532U, 0x3518c81b260f0ff9U, 0xbfe21237cc17c0e5U,
  0xb2f4c2beb2a4101U, 0x3ac3bdfebebc4d8U, 0xfb81eb50be2d64daU, 0xf330000ce8e9df2dU,
  0xd4cdde60ba3ac744U, 0xe43811e236224efaU, 0xd8dbd1a3c40c1df9U, 0x2d540796ede1c017U,
  0xe9eba72403ccc7U, 0xee86cda37b30ed3U, 0xb8ef10dc5151ec01U, 0x1200ec50e9f5a249U,
  0xeb10ff03b0fa22c9U, 0x510c2ec5cf4fb6fbU, 0x72132b2b7f67d417U, 0x4a90cf936cb09caU,
  0x63a1e649dd25043eU, 0xb1a373f12d31c2bU, 0x2a382b131ae51fadU, 0x16f3f6bc1017c1d9U,
  0x19e1d0bc39ba094cU, 0xf3253eea20e65142U, 0xc0bf00314c85fd0U, 0x24f616b81612a2b7U,
  0x553b4ac51b1e81cbU, 0x18c9b53c290defceU, 0xefc8b0182348d2c8U, 0x2c0ae1b3b8cff360U,
  0xf82033311b153401U, 0xbe3a15151d0c0719U, 0x56dbffc906e32adfU, 0xb11b5e0909203d3eU,
  0x52bf0ff4d731183eU, 0x24072b45554f09b1U, 0x5ea0c131ad2af23U, 0x1bd42cd5ec89f536U,
  0x470c21fcbb1d2d54U, 0x18c917cfd926bf05U, 0xe40d0dce81fdc3fbU, 0xb0ef14facbfb242eU,
  0xef5f50040fd1f5eU, 0xb43ee0553a161c28U, 0x8fff1ba4703e24fU, 0x143419022fe0d216U,
  0x46cb3339033cd00fU, 0x420bffa20fe60720U, 0xfbecc417ca5eca45U, 0xb8c804fd9b1e20e6U,
  0xefca0ddfc0be2519U, 0x44f5caf4bf0b08ebU, 0x3fe53a233f37b6cdU, 0x1aaee7f69df2804U,
  0xf209150f19d0f3U, 0x313a1a59e3c8beefU, 0xb8f5957ca8c82605U, 0xff18d4223cf3d830U,
  0x4e41e1d7e8ff1828U, 0xf001b664c1282e37U, 0xc5ec122303d4d4b6U, 0xbce826dd2bceb229U,
  0xeb0e20a9fb1f2ab8U, 0x4f24f8555208acb3U, 0x1dc0e008ce3e0f1aU, 0xc1d4183000ab443bU,
  0xf01d0422431a0aceU, 0x55d42aee6ff85bdbU, 0xb004b1a7fea4869U, 0xfa75403631f5c8b7U,
  0xbe2e7ac0fad4f830U, 0x9fdf48eb023acb19U, 0x10b73326f0124f39U, 0xb636f056cc18ebdbU,
  0x3540d518e0b0e42dU, 0x9fcc507f18fb1ee2U, 0xcc872ceb44ccb6ccU, 0x6be75ad873d514bbU,
  0xdeff2010d50c3879U, 0xdeded7b717d91130U, 0x59341dc9d9173fd4U, 0x13f809b20d0e19e2U,
  0xc5a2bf0bded323c6U, 0x25e6e08e0974060eU, 0x78b6fe3846200bcdU, 0xf6671ac80de9eaeeU,
  0xa0f03c30fd38d9d2U, 0x321f183e2feffc2cU, 0x25c12bf9281a18c5U, 0xde2819f63dcd54f8U,
  0xab1a25dc05f9f611U, 0xe7e8c60b040dcdf2U, 0x28cdde4139331bc3U, 0xca17db210e135716U,
  0xefd5f527da2ed202U, 0x26ee2cf25b26d97fU, 0xdcb309aada751b50U, 0x40e5f91c03daf437U,
  0x2bf6140a231ef101U, 0x341ccd9e40c7c90cU, 0x3f59bf18c8d23ce3U, 0xb4a74ae7b3e8ecf4U,
  0x21f9ea9d36efebfcU, 0x2a563104dd81226dU, 0x202102ef2af6a7c3U, 0x12220f25dfdefbf7U,
  0x40f047dc320a06c2U, 0x113f358af011e8e0U, 0xae1d22b137382506U, 0x19d23e20002a363bU,
  0xe844880d15684e39U, 0xb02eec22af4908b1U, 0x143c3e025bc9690dU, 0x213377fa461935a3U,
  0xf79f1b74ca490436U, 0xc25af0d7ba4ed322U, 0x48f14eb820080fe0U, 0x83cfd6d93e2922f4U,
  0x7144249653e1b04U, 0x18a2cdf1652991feU, 0x6e4b12d5ebecbf43U, 0xcfdfabb3e3dc387fU,
  0xfa5cebecc1190751U, 0x6bb2adef0e30833U, 0xf7de463bff2d142eU, 0x4ee92e322e334a51U,
  0x4ccce905f547c921U, 0xe61009dd15092cfaU, 0xf4f4cce6b9cf08c2U, 0xd1deb81da2b19d9U,
  0x1f1042f2e5fc0b42U, 0x3c0f5f2724edadeeU, 0xb428e4acc62cca28U, 0xdff6e407c2b72abaU,
  0x6bd5e73c2decea30U, 0x17f1fafd0a3af2dbU, 0xfe8af4d9d1239626U, 0x432f4fc2faf139e0U,
  0xdce49290cd3ed41U, 0xbc08e3e507d8f4f6U, 0x2052a32b1ddcdcfU, 0xc8de4115eeb93723U,
  0xff16064c81b92335U, 0xd5a2dd13c155d401U, 0xbd18d8e9ec3e3ed0U, 0xfcc7abaeefa42d26U,
  0xae54f69c9467bb07U, 0xcfe463d5c32cf102U, 0xb01b40e4c8c41906U, 0xcb361d38f77fbbdbU,
  0x3be141e414e20a01U, 0x65b331dc993057f3U, 0xc46aa0de24df3a9eU, 0xb33903db451b07fcU,
  0xa2f7ec0b34134df2U, 0xf756a6e20d952621U, 0xc5f0d4cfe4ff0be4U, 0x13e2efeabd9ceed0U,
  0x4be0cbc5ab0fdbaU, 0x372c9ee43c19bbc9U, 0x59fd80a09cefa0dU, 0xdefdf5be51dc16ddU,
  0x271301c15df9fb10U, 0x1bee972ed48dfebeU, 0x3d07082e40c13d4eU, 0x26ef64112b5c4b36U,
  0x2081e3283ad3393aU, 0xe71724d2c67fc21eU, 0xf3eb2e5dc0f408c5U, 0xcf73784df9f22cb0U,
  0x36bdcbcfc3191410U, 0x605f1add2d37cf00U, 0xd0c97cf3e7e7a955U, 0xc7429c4643dd53a0U,
  0x2e10450ec0cf2afU, 0x189d4830de688538U, 0xb3af4c40f5e86993U, 0xdc1465c108d431e9U,
  0xa9cd4515cedab4d7U, 0xf5d20fc00fb5e202U, 0xdfbe30c6d77f6ccdU, 0x4ef93f4f0eee38c7U,
  0xc3f3fd280cef0e30U, 0x122824faf6d4e8e6U, 0xebdad817e724f002U, 0xd123d5020e472a1dU,
  0xd6e53f253105d920U, 0x215e63c2a1413e9U, 0xfbf291e03f81b15U, 0xeb3b502ff5f8cc34U,
  0x3181f319d1c80023U, 0xdbd313e4fe05eaecU, 0xbc06b7f5380bfc06U, 0xd72309f1ebadc803U,
  0xf01ada40070ca9e8U, 0xecfd03174ab2051cU, 0x9540ef31d267b94cU, 0x1b002e1e28d00ce8U,
  0x3143070f111ee8ddU, 0xd2c9ce38484402afU, 0x18eb14f33f1dc307U, 0xfaf88108f33e4bf7U,
  0x43f5bf4c110bdc17U, 0x75332a514fccef6U, 0xca41f1e6e63c2256U, 0xe026d646b2b501d1U,
  0x369d38f1d4ad3cddU, 0x2e2fe3def13ab4c7U, 0x21bbf26039cfaf2U, 0xdf052901a7215e1dU,
  0xc01d0c0ccc36dec3U, 0x7f42f4e6c5c94728U, 0xcd56d3102ace3729U, 0xc6c6fb0ff8f3e313U,
  0x4dc1521f1a3c91eeU, 0xff0723baee261cf0U, 0xc33e28efefdbdcf7U, 0xe904a602bf70c3e5U,
  0xd6d2fedf1ff30669U, 0xd16f405c92844d6U, 0xee2b3de5fe62fe06U, 0x3fa6d3dc38ec03eaU,
  0xfc46d734bdc61bceU, 0xfc9d314ef0c31f8U, 0x1d261ea13fc3142U, 0x93f351dacc43d4ffU,
  0x13bb3d0ada01f6f4U, 0x54314381533bf6f6U, 0xc3cbe1542c231f26U, 0xd5b72f18141b37e6U,
  0x15bca42d30f90c32U, 0xb3c9bd932169d1adU, 0x40e4be09259bb9f0U, 0xdcf902ccd8edf418U,
  0x99d5b26a3245f52aU, 0xd2e1e8002326f2d8U, 0xda0dcbb82117ce2eU, 0xf2e5f2e918d85bd6U,
  0xeac0f17f1e403917U, 0xc1c7b85ccd200510U, 0xd338e7d1a601f8c8U, 0xd374dc14f0de595aU,
};

STAI_ALIGNED(8)
const uint64_t g_network_conv2d_11_bias_array[32] = {
  0x5c0fffff99bU, 0xfffffaecfffff340U, 0x7d1000003f8U, 0xfffffcc500000f2bU,
  0xffffffdf000008c4U, 0xe4400000753U, 0xa17fffff98cU, 0x7c4fffffef0U,
  0xfffff89e0000040eU, 0xa52fffffd9bU, 0xffffefd9fffff509U, 0x1516000012dfU,
  0xf0800000289U, 0x365fffff284U, 0x151800000174U, 0xfffff89d00000ffdU,
  0x716ffffec37U, 0xfffffa0f00000c2fU, 0xfffffe4300001115U, 0xfffffe62fffffea9U,
  0x15b2000001e7U, 0x106efffff75dU, 0x128cfffff77dU, 0x9b80000005dU,
  0x5e900001229U, 0xfffffbc700000d4cU, 0xfffffae2fffff320U, 0xfa00000152dU,
  0x1544fffffbafU, 0x16e000005cfU, 0x21d0000052dU, 0xa77fffffe1cU,
};

STAI_ALIGNED(8)
const uint64_t g_network_conv2d_12_weights_array[72] = {
  0x3c1816481f8157fU, 0xed09dc8157ce2a81U, 0x472eb181a6bcf0fbU, 0x3f814a818160885dU,
  0x81717fb9f9430938U, 0xfbe14729f8dd5e14U, 0x6f0fecd93cff481U, 0x4d01816914ce2681U,
  0xa7e8b6d63cac818fU, 0x81fc8f08c8c60ca8U, 0x3581d044ac0e7f21U, 0x7fdda42efb7f6329U,
  0x67a53a8f81f1e67fU, 0x5502e47f245d5581U, 0xddd822b2eeec8108U, 0x818135de7fc781cfU,
  0xa5c9022d3c25f5baU, 0x1e12c8e51cf3dcf1U, 0x34f2d003d7480529U, 0xe9c71fe9e2bd3f28U,
  0xb346bdddc8ec8f40U, 0xed288d1d4fc6b2e8U, 0x263f05fc68cca029U, 0xee2e3cefbbed3f1bU,
  0xeea2cd7fd57ffb42U, 0x547f8135a0f4ed6cU, 0xdda869e57f81f6aaU, 0x16a87f0617dff081U,
  0x208106fe9d6bc631U, 0x7e7fbba5a1f51502U, 0x7f078181c67f8deaU, 0xc483a97fc6e3d9b3U,
  0x737fd73417d5a65bU, 0x35f285bc068181daU, 0xb71e81f345401a7fU, 0x33c58678cb190e7eU,
  0x479c058152818105U, 0x7f2d8183817f811fU, 0x4f7fe7087fd9493eU, 0xbb8f9950427fb6ccU,
  0x851c19eb27143ea4U, 0xf4c1dfc84ca12d00U, 0x46f9083ec056ed24U, 0x5c1124ca021e79e9U,
  0x33cca863bf462abaU, 0x53039d4112dbbd5U, 0x1217e644e3baa70cU, 0x49edef4b53e4be77U,
  0xbf0c23b1bc18b760U, 0x2f30f10d62e85246U, 0x81d993b8495a1e28U, 0x5ba447c8da2b5090U,
  0x56c63cf41f105e11U, 0x73ee3c2c6b1444ccU, 0x1bebf8416649433eU, 0x3bcabff0de5823e7U,
  0x7f159dc345b611bbU, 0xd5e7c7c731abc7c9U, 0x6a11c7ecbefae0e4U, 0xc4c5d14602067f30U,
  0x3b690209f54b0df1U, 0x7a3a49a35f1e0bebU, 0x40fbede0ee1b10f7U, 0xf0993057f002e5a2U,
  0xd73a423644ba22f6U, 0xff6a8307f19da4cU, 0xc4a1adc93d1b2d30U, 0x1b3f250439d4531eU,
  0x28e6ae5c161aab3aU, 0xd507ca08d94fe93bU, 0xe3b7f23e57110715U, 0xf8f3263a45db3157U,
};

STAI_ALIGNED(8)
const uint64_t g_network_conv2d_12_bias_array[32] = {
  0x2cffffffbb8U, 0xfffffe4dffffff96U, 0x7efffffe16U, 0xfffffe8600000067U,
  0x12fffffca3U, 0x3ffffffe60U, 0xfffffd85ffffff8fU, 0xf400000409U,
  0xfffffe77fffffd75U, 0xffffffc3fffffeacU, 0xfffffe8100000044U, 0xc7ffffffcbU,
  0x36200000736U, 0xfffffcbf000002f2U, 0xffffff8a000000edU, 0xfffffce3fffffda6U,
  0xfffffd1cfffffe7cU, 0x9ffffffe56U, 0xffffffbb000001a8U, 0xfffffca7fffffd01U,
  0xfffffbc4ffffff4bU, 0xfffffec40000010bU, 0x49900000068U, 0x15a00000074U,
  0xffffff69fffffa0aU, 0xffffff5500000087U, 0xec00000228U, 0xffffffd6ffffff4aU,
  0x44fffffd74U, 0x2c00000300U, 0xfffffe260000018fU, 0xffffff00000002c6U,
};

STAI_ALIGNED(8)
const uint64_t g_network_conv2d_13_weights_array[1024] = {
  0xf1feb3e12ee8bb0dU, 0x32d2b016dbec21e0U, 0x17e618132bd60226U, 0x2ec55d5c5eef954U,
  0x43570afdd9b7aae7U, 0x7f3607a6c5302011U, 0xdd063cc22ac4c544U, 0x6f00705c626e7faU,
  0x13bcc01c59c74940U, 0x2c042fe90a4a0cc5U, 0xc71de83405453b22U, 0xc2f401444981e9f3U,
  0x16c7fccd01db3f05U, 0xb2029d0dabe40e16U, 0x2f4cd43d1f0d41ebU, 0x7ed710d3e5fc1622U,
  0xf32c0ceb0e5aca86U, 0x15f4c22dbde8f1e3U, 0x2fed580339d50647U, 0x15ba26d41f307061U,
  0x3ed42081ea52bdbbU, 0x6520fc36a4efa43aU, 0x4035d5fde3940126U, 0xb4c7482dd01114f5U,
  0x32df2b90e17cd14U, 0x534244cdde662716U, 0x43f72fe3ed4a95e3U, 0xaeb7241407c5320aU,
  0x352b0a1c02d63110U, 0x81f4d22a0f2d1dd1U, 0xd99b19afd1dd5ae5U, 0xb0552942b14e301dU,
  0x21ff06c3ef3413baU, 0xd618ffe9dd184ff1U, 0xd7c7e0100cdcf004U, 0xeb133aa55c27b7e2U,
  0xe05e130d020b04beU, 0x51338b410b10b7fU, 0x81e47dd2fb80e1eU, 0xb2fa0b1eca42ba18U,
  0x1c5181ed37d634dbU, 0x372afcf82cc51253U, 0x5b4dc7e8ce2d46f1U, 0xe1cd24f90e100436U,
  0x1243bd42130bd9caU, 0x1027328809f32fe2U, 0x4f50ba1a05474822U, 0xfbd6d239426036faU,
  0xe830d6e912e40309U, 0x19f7e4edaf420ad7U, 0x45dfe1c717c0814bU, 0xd838e01ad21b3e01U,
  0x40e942dadc0df348U, 0x9aedd9241efcd9e3U, 0xf30ff1e8efbd1339U, 0xfe3a0dfdd8f016ebU,
  0x3061811da940df0U, 0x3614114a51e8951bU, 0x61f1eeed502c38cbU, 0xe5f5628cdabddd48U,
  0xd158f32dcae20420U, 0x2b3e2d81ca0c30f1U, 0xda5fc62840522e10U, 0xa9ae549312bebfcU,
  0xebaf3500cdf11626U, 0xf8c514e9e7d2b2d0U, 0xe4e503e1c9c609d3U, 0x18cde810b1fe43f4U,
  0x5e28049c1b4acd3eU, 0x2c4d0f32c124b129U, 0xddec1feb9148157U, 0xd7e5fbe80ecff22aU,
  0xd1f4094503ef591eU, 0xf6b0131cca4e30d0U, 0xc9a71ae2cea90a03U, 0xf0dfb5c0de1534a0U,
  0xfa07f2acf4fa11baU, 0x21afe52a0a17867fU, 0xdd1546223ad7e95aU, 0x32f20cd8484fb4a9U,
  0xff7b156d86bc2cfaU, 0x8b01bb44fd892f09U, 0x1317f048639b16e2U, 0x75c3993fc0bb9046U,
  0xaa7fa366ad05b6e1U, 0x6c119d0b3cbc0ec2U, 0x95b3ebc1ef6eed56U, 0xf82cc8cadc3c1c06U,
  0xc946cfe6f9b500U, 0xf9d2c116e7a9c41cU, 0x2725cbd142c256e6U, 0x29c008c944dd3740U,
  0xd147e3c7c62eb826U, 0x73c2f72505e00a7fU, 0x2202eaf10de8147eU, 0x1e3c33575310d93aU,
  0x73293136e38f7aebU, 0x6dc7f3361bcfe52dU, 0x5142ef71f8726e5eU, 0x97fb1c2fa2908105U,
  0x587511e1b7a1c892U, 0x44e663fb682942beU, 0x634b8e64322d5a9bU, 0xd78f559acc581227U,
  0xe8492fcc46cfe152U, 0x18811fd4f4dfae35U, 0xecf0b5c56541a96eU, 0x13cd45571095decU,
  0x3ae3e79e5049d56bU, 0xe5eb163809baba14U, 0x34ae08cc0b1bad3dU, 0xa12312ba3fb6bf53U,
  0x2fc611f7b702050bU, 0xd3b450035c7f7d2U, 0x4e8b5d6df1a0bedU, 0xcd3405ccee96a244U,
  0xa8c02e6de91812fcU, 0xe5e75b9d1630e9d3U, 0xf9e8e7f72a21a981U, 0xeff29c3036355ed8U,
  0x32ef20f62d08cbd4U, 0xe91bfef7d992d64aU, 0x9308b8401c2c01caU, 0x7f711ae83aaf1305U,
  0xde6c098216cecef8U, 0x4e4210c6d2e81f0dU, 0x233306042135b90eU, 0xdcaf2a244ccdba59U,
  0x3feafad01f197fc0U, 0xf330641ad6d70c8aU, 0xbbb3c7c0e3f2e1b5U, 0x4edbb3ce07fa53a7U,
  0xdd102a10d450cdb2U, 0xf6ff4722c5eab7edU, 0x7d09de40b1544cdfU, 0x77c6eaf00030de07U,
  0xa14b744e1f2d116U, 0x1653057feff1fa13U, 0x38ff4eb7b3f307b2U, 0x24f33f1b92c5ca3eU,
  0x63f3f442d1152e49U, 0xee1025f1d9e9fb21U, 0xcbcfdb1c1b04cb17U, 0xe3ded86be5cd1127U,
  0x6da59457b559fd56U, 0x120e374753763881U, 0x89c6b4ee66a70d4cU, 0x3d4c992e2c6dbfe3U,
  0x51c75c77bf30bf16U, 0xf2c34ffe3e6e056U, 0x6609fb93201444d5U, 0x360da6d91b9bfccaU,
  0xcf4a14d1aa3ef66fU, 0x2745783ca3cd627fU, 0x129e120ea5e52b11U, 0x8d386b56c50c59b6U,
  0x570ebc092ecff4c0U, 0xd8899a2d65af282cU, 0xff3f8fc54895fd58U, 0x4bc863328d103858U,
  0xe30f43c7e9adcd3bU, 0xc6fdc1a1269e32e1U, 0xe35b2526e0a6fc2cU, 0xede3c0d829f1df0dU,
  0xc4cfe32e430ad5d7U, 0x2a1f0fea0865063eU, 0xcd1fe4ed6d1a0e81U, 0x33e6ca3f17375101U,
  0xd12536232333a928U, 0x18dfeffc390dbdfdU, 0xd1f3a05a7f0d3cd7U, 0xf0fd96106032f5e3U,
  0x131bc51ad32207c2U, 0x42fa17cfa54525f7U, 0x1bf1128f0e2f2f21U, 0xa7de24c323dda1fcU,
  0x4e28387fec27f2e1U, 0xecf70f27cdd94b1fU, 0xb3cca80decf43389U, 0x5843462a12caf5d0U,
  0xe2edefefde438c2U, 0x45f9d19b110c800U, 0x3ad3d43384e99c68U, 0x6fcd1ebcb8fe418U,
  0xd6233a0844ea39f9U, 0x1ab9a4270bc64be1U, 0xcd5e036239cecfcU, 0x214694832e5af9e5U,
  0x1968718455a08159U, 0xdae5072b2b41a82bU, 0x1b1fe1f0ec16f952U, 0x119e32c55cc41dbdU,
  0x2e39c847da1ac7b5U, 0xff23f556d6d0ede3U, 0x635efd339470a81U, 0xc7dffbccd8e2f67eU,
  0xf409a80f245043abU, 0x1318f32cc9b0dc38U, 0x3c9c2806c1350c40U, 0xe0acd2062e1ef832U,
  0x3440f7fa81e7e212U, 0xb241e08e1bf766fU, 0xe1e6866ad0630930U, 0x4a0cfcf0d019afd8U,
  0x3356eeff0e3f26ecU, 0xbb31f3ac0fa2440U, 0x1ad841000608b728U, 0xad9fca45630c8bdfU,
  0xe6620aca6471e45fU, 0x15b6e0f61d1b561dU, 0xb3e24d392a59d8d3U, 0x59cdb44a618a80bU,
  0x7fa2b857b63540fcU, 0xeeaa13120f112d85U, 0x3afc1a834df6732fU, 0xe7352ee11afddf5bU,
  0xc249d22147df43efU, 0x5128e5cc22dd4d96U, 0xf4c3188ad7dede01U, 0xecb61d7f3bdaedb7U,
  0x2585ed37173f7428U, 0xdcdfa03b5ffe2511U, 0x232cde45a402c257U, 0x4fe40fde16c2f009U,
  0x176eb6f6aa06310eU, 0x402824da6d194319U, 0x6e3be4a0dd2c0bdU, 0x1c0181f3f6ba1af9U,
  0x1f1918e51132fcU, 0xe628cb1b21c45a18U, 0xcd6ba3e1297135c2U, 0x26d811e6e5d23f2eU,
  0x2cb31bc39ff6ec23U, 0xe7f11b00bacd5044U, 0x2f22533f20790e5U, 0xee35be131f8504d4U,
  0x7765174dead7149fU, 0x3986d9b8083b1501U, 0xc5ded70e13a8e2d7U, 0x8123605fda390325U,
  0xfbaa27c4b5f6f2b1U, 0xefadc1ebdff23927U, 0xd18cf12fd242dbbU, 0x38220733f3c5b4daU,
  0x2f7fccb406ca0395U, 0xeb08dfe0a2f52341U, 0x4c2ac03e42c0f3d3U, 0xda274c0140f9b6d8U,
  0x1cf2231705f12a23U, 0xb9040adbdd342319U, 0x104fb43301c9453U, 0xe7c5103f2d2423d8U,
  0x36d6b63d2a00b41bU, 0x1ee730fc67c2e0d1U, 0x23ef3b04d50a0781U, 0xc5e2102de360119U,
  0xbfc9334f7fcd6fc8U, 0x411a2e441869c6ddU, 0xf6d09cd85bdd442cU, 0xdd0358ba14dcd153U,
  0x32214fc0ece024f6U, 0x2bf9a5f7b128bbf7U, 0xfbac0618fb2fec17U, 0x58213095fcd2d841U,
  0x24c31cff28e77f2dU, 0x7021b60d7c0c6c1U, 0xacfcdec66a593ba7U, 0x40ead4b86bfaf620U,
  0x280bbd54910e2425U, 0x47cbff191227f411U, 0x3ce2a4dba015cf0eU, 0x49235ccada1427cfU,
  0xb8fb6ffe0b0df013U, 0x240dfd14e0d307U, 0x5f15d3dbfff3399bU, 0x51437b4345b3519U,
  0xd6ebde36eddada0cU, 0x21db5cdfdb3f022cU, 0xb132d0c8fe37ea15U, 0x28e7adae238152ddU,
  0x5dabb4eb08c431d3U, 0xdbed16c52c1c0052U, 0x53a2cdb88021d53U, 0xb4bbc7da10553a5eU,
  0x9f053fed35eaf4b7U, 0x2b4abd8d06f7182cU, 0x39faede5f2c7f483U, 0xe614bc2ad17ff9a7U,
  0x2cf7bc50d8e34647U, 0xfc0337642c037fdbU, 0xa10141195327ba03U, 0xb24d23bc8c4ccU,
  0xe4ff0508c1d4baffU, 0x1c4b1de0f22ccd70U, 0x56fc1a37fe151b48U, 0x44cbef08e3531e3cU,
  0x7cb032fcad6c131U, 0xf8ab5a15cb513068U, 0xf9e5cd7f3e16c2cbU, 0xf731313c52e53f4eU,
  0xd6c4c0cf24d81be2U, 0x9c230101fe9a0ed2U, 0xf80df00bdf050c28U, 0xeb28d9e9b33ef6daU,
  0x531febba907dec0U, 0xcde3ef4c1fd338fbU, 0x1fe43cf1ed1cc515U, 0x50ee1b2d8fc2fdd6U,
  0x7f534fd1390a0107U, 0xf0429c2e5fd1ec2U, 0xcdc0f02cc4ee9929U, 0xbae64f3119a59246U,
  0xe3d30f3d8145dfb6U, 0xe7a1bbe8cf907e3fU, 0xe9eb277f3b22503aU, 0x1553d7232c100a3dU,
  0x301ed7a022e914b8U, 0xd0674bc98ecc0de9U, 0xba4026babefb09ddU, 0xd9bc072638a49fceU,
  0xf4d31fca0f18de46U, 0x104769d47c2822f3U, 0xee648112b2fe0791U, 0x4e30cd61b0c1cec9U,
  0xbae62d40dd0461b1U, 0xe409135e0bb34701U, 0xb0eac2e2ef4a16ecU, 0x7092c9f857f675deU,
  0xc64d193a12ce1b52U, 0x39ef577358ea630dU, 0xe0ebcdc76b539d65U, 0x91debd4041e0fcbU,
  0x3ae1244ba17f1fe5U, 0xe470edf7f8b94805U, 0xbaea2f8cc8f415adU, 0xcfdae05d15be2d25U,
  0xa96be91fdcd1b9bbU, 0xeea2646e954a7f3U, 0xd98a922702023cffU, 0x563b42be3e3309f2U,
  0x3cbc64beb52aec21U, 0xf4e01f630707bcb7U, 0x81ed255ca5f318b7U, 0xdb2621aa1a978bf5U,
  0x9e325e70b6de7c6U, 0x562b161338456517U, 0xf0b5e7af414b24b7U, 0xe2bc3ad1a5ce1dabU,
  0x2024d4dab624fec9U, 0x2ed4e118934515f4U, 0x43b7ae3614f93d7fU, 0xa4425e4cb648d455U,
  0xe2fdb1bb4e3ebc57U, 0xc9273000c92a1c1aU, 0xfb9c2d1dd858f8d0U, 0xedcb16cbe3d83abdU,
  0x456ded03c03ba6c9U, 0x7f0d0aee274c18c9U, 0x35a83fa5cb12d325U, 0x4ff01a6a2e2c34eU,
  0xddf8da81aa1ef721U, 0x7c0f717ecff5bc8U, 0x90ede16de24902fU, 0x42dfcaed0f3d13e5U,
  0x51cff3c723181bfeU, 0xbcc54042436f00caU, 0x30efd02c45f3bf25U, 0xa8d76c0134f0e0c0U,
  0xcd19154b38e62528U, 0x24c81ef915c83cf1U, 0xd5f2bec65ca4269eU, 0x26a632aa5e62ed43U,
  0x9e231d079ffea73aU, 0x530a48bc0a69de63U, 0x5d03c0814ad42fe1U, 0x304129cd23e152a8U,
  0xf3d3929357e0f020U, 0x56ec034ba90c263dU, 0xd51ce753552b22b6U, 0x4171dc9d13b0a030U,
  0x12cf3647f7ccf581U, 0xd5e8c41fdc07f224U, 0x7614f0231100451dU, 0xcdd05d370efe0431U,
  0x2d9c341d0634f21eU, 0xcf2d3200474eee57U, 0xaed8b00bfe21da1cU, 0xfaf3f8e5e4cb1281U,
  0xd3ec0d01200522beU, 0xfe24f0c0ea9832e5U, 0xf413390e341e614aU, 0xdc2cef3ee3264fe5U,
  0xe31f2fd5f1e9c547U, 0x15e94b1113ec3a16U, 0x2f17e805123caec7U, 0xe213043a291433d8U,
  0xd9f5cb160e083610U, 0xf3f0c727ffe8dbaeU, 0xf48b1381f7c61a31U, 0xb3e0dabf02e901ddU,
  0x334aec50263262d2U, 0xd7c02b32dc46cbbaU, 0xf734d30806f2110fU, 0x5b2f2b50eaf4efe2U,
  0xbd900b8d42934faU, 0x4602ef82ebe1cb6U, 0xb611df14d91edcebU, 0xf82ae0027fe52d1eU,
  0x13451cc20e7f41cU, 0x64e7c900da81f71bU, 0xfce619316ac9740aU, 0x4510b0e83931191bU,
  0xd535e6e1d0b937e0U, 0x2c31fcf8263a0befU, 0xb2cc4c94accd2deU, 0xb7a9f9d1fcc5c0e1U,
  0xf6634c20d320fc0eU, 0xce10dd3fe1e9dd21U, 0x1fb4a2d01a3ee3e1U, 0x7b20f3361acbe324U,
  0xec7f2dce8a049cb4U, 0xbd60062335cbbbe3U, 0xbdefd16b33c00e8U, 0x137443bd00ac9b68U,
  0x8121c6d99c47f125U, 0xaf34a812944f0534U, 0x6652cc3aa300e928U, 0xd6ce4b31c6581cbeU,
  0xf8adef1bee54dd56U, 0x6eb5109d320fdU, 0x5ffbcc361c1ce336U, 0x1e5e14d1cf3579cdU,
  0x371c2a65dbfae624U, 0x2dc106efc9d8f701U, 0x19aa1138fc561c2fU, 0x4656d82819da1785U,
  0xe66dd8d7eeeecb31U, 0xda45bbd50eeac9b1U, 0x29221aa0d010dc7fU, 0xc0df91ec198fb3aU,
  0x9ab611dff71c11b0U, 0x15abee34da0b25fcU, 0xdb37d0262f14622bU, 0x20a86900adeeb0d6U,
  0xd0d23e4d30041142U, 0xf7c82401f76623e1U, 0x26bc0181f0880a6bU, 0x7d13c52fe4e1f25U,
  0xd67fffdaa524d640U, 0xc1223b31f63de87cU, 0xd3f91bd2254082f1U, 0xdb0c14f4ed18e324U,
  0x21383360003acd4cU, 0x440b341729f9303fU, 0x5ba019439cf17fbU, 0x99e4b67301a8fc2fU,
  0x2a4e862af2b10c08U, 0x140b266d0c18bdedU, 0xd81d689fcd07c003U, 0x3a09fb1533f73b63U,
  0xe2af4fc05c2d5d11U, 0xce340cbe0febcc1eU, 0xb0c928040ec0ac14U, 0xe714267f1315d611U,
  0xfd4a06b90806eb8bU, 0x4434caf9e9ff311aU, 0xf429e16df5da7ffaU, 0xd23420e44803e53bU,
  0x19ca2d26c8dd31f8U, 0xbfb422b30860e6bdU, 0x363c04c603df0f3dU, 0x26f22d1a31d9aebdU,
  0xe2dbeb0ef70f2e2eU, 0xffaa22cfdf02390aU, 0xb1e5eb225c1f013bU, 0x183a042a2e35fbd0U,
  0xddf40121d904d8f2U, 0xc581e5da15f0dc43U, 0x12064cc4fb95d936U, 0xa828641c464af2c9U,
  0xcd7ff021ab4546c6U, 0x20b10fafb4d382fU, 0xa4d2d83e610bdcf3U, 0xda5e2de01f829edU,
  0xfc730b35a7c7b1d1U, 0x28461b36d323c9d8U, 0xb9cfced9f9052829U, 0x4ce5c6e6be39c706U,
  0x37bf4d2b239e2cffU, 0xec1ccbfabd05413bU, 0xf7e543ede2f9d327U, 0xffdbb8267f101037U,
  0xb1d671e05eab2b11U, 0x272cc8a6184eca4cU, 0xf12cb8fadd33f9b9U, 0x3fe83f03f0651108U,
  0x14efc0ea551c3b9cU, 0x21ec01fef855aab9U, 0xee0102d3c80d392bU, 0xaa954df460fe8d3U,
  0xfdff48b2442ece10U, 0xf81403e2bed40ff2U, 0xd71950ed815dfc10U, 0x30d4592a15d1c3efU,
  0xdc07239c5f34fc21U, 0xdb1df3382f00e3c0U, 0x2d1036c2fbdada31U, 0xb5f84068659e53e6U,
  0xfd81e3cc6b23f7c6U, 0xa0f71c671a49211bU, 0xd5a4c7e99e442a29U, 0x2b94472403d66decU,
  0x3252c4fcd7f142bU, 0xf016e6200b191ae2U, 0x2c1ef6d23aebffb8U, 0x1a812a39de1afd3cU,
  0x27310309fa080e08U, 0x2e18e6522b19eabeU, 0xe99af9e3fc01d546U, 0xf519fdcade091a19U,
  0x130c28fc2cacfcbdU, 0xe13939161a45e42bU, 0xd5fc2c25232efaefU, 0x2f39812cf204e810U,
  0x29c9373bce542814U, 0xc105fb0b1bfb30faU, 0x4322f8e25406ceb9U, 0x2111c82f0809c21cU,
  0x9c43cc2cd274d625U, 0x251cb2b9e252eeacU, 0xf955edc3d4be5cbdU, 0x38bb7fcbecdef3f5U,
  0xecaf0716551038c9U, 0x16162f3499f7199cU, 0xbb718c2e2fae10cU, 0x21f5d632f3fae913U,
  0x5439d016deeae3e5U, 0xd2c654249cce21cU, 0x241526191b42b2U, 0x3bf9eec1f1af81deU,
  0xc90ed13ba2ca2e23U, 0x32eb4e16c617fa4dU, 0x1a02eb50312e03caU, 0x40f2c0dd1c132adeU,
  0x2ad4e2c847333739U, 0xed203571151e935U, 0x1c3f405aecdb4deU, 0x5c417c052cb97144U,
  0x1de754c0b026e54eU, 0x38f3fee6dd2ea83aU, 0xbdebffebbb168101U, 0xef45570bba06fbe3U,
  0xc3c6eb2c0eb95a33U, 0xd71d59f5ad6deea0U, 0xeb11eb4e00a81c6U, 0x7be4443def3f5dbU,
  0xfcbb5bad34012a61U, 0x8f1bbe632dcbdb02U, 0xc5519b76bdece0e7U, 0x84b3d3a653615daU,
  0x28a00ed8addb5200U, 0x38f8369f69e13db8U, 0xd7c616bd2eb3b709U, 0xc060b4d63502bcf6U,
  0xa2e8faff03dcc02aU, 0x7a402c3117ff869U, 0x3f38abe35af1d390U, 0x7937b6afdb16daecU,
  0x20b8b516bd56cc6bU, 0x2c6081fe9fad84bU, 0xaff899f16d3a017fU, 0xd24e75a8f1d52caU,
  0x2517dc2694251c14U, 0xf607da0fc9dff23cU, 0xf64a2d95f2c4fad3U, 0x97db3db2f401f8ceU,
  0x6201a50bd41edf26U, 0x1f66ceeddedb75d7U, 0x25415ffa102f9846U, 0x2815241a05cf2f37U,
  0xf3e1f945a8d61b43U, 0xe5b2be1f2b3cf369U, 0x2b814334280bf5b2U, 0x8c3a194c17261530U,
  0x38035f4f1d3a12feU, 0x81ad3920decfea2aU, 0xf82ace2d82eb08dcU, 0xf7f206b1443dfddbU,
  0xadd5cde938f44704U, 0xdf1f0b4cc013ccd4U, 0xfad80f3917ffeafaU, 0xdfbb2e80234fb1cU,
  0x1a2c0766f0e40441U, 0xd313e106f2b2392eU, 0xe660e9e4effa7206U, 0x709f4f91c62fe939U,
  0xaedd251719ccf8b0U, 0x290ce1acf25b201eU, 0xf20d1808fc114eb9U, 0x790381bb1b3acbe2U,
  0x2b305e681b159f2cU, 0xe93004bb3cc2fc4bU, 0xc5034907b26dbeccU, 0xec1109648e72bdd0U,
  0xe9f6ffddc522191cU, 0xe20ae9e6d53bc081U, 0x311053c134e0270cU, 0xd5acce163eaafb4U,
  0x3272cd1eebebb711U, 0x141a213464d93776U, 0x2ac6c741c27f0cd3U, 0xe838e627e7fb1cd2U,
  0x306bb451954d1f4U, 0x12e800d7e497d19dU, 0xecf1fc95fe2fad26U, 0x57ffc6342ff1c44cU,
  0xf84beb2de9f6fbb7U, 0x3e3e697f4e53ed59U, 0xcedef0ce83ee418U, 0xdf3cf637f9312b1fU,
  0x1b2cd4040643fcd1U, 0x629f7d2329f1160U, 0xdda9fa23c3012908U, 0xd744363abec32c22U,
  0x3bc8dd90d30baedbU, 0x55d3b5654184009U, 0x222b02a51a155242U, 0xe61153209ad9028U,
  0x21b2c537c7d249b9U, 0x4c102ab7e806e87fU, 0x2ebfdf513d53421U, 0xcb2024d2ae80117U,
  0xf82c49f9aa43a002U, 0xbcb627d4f412eec9U, 0x413b2cbb91df3c9dU, 0x55cffeb84a171ad5U,
  0xebb4c5d60131e7cfU, 0xf331e977bbe6cae7U, 0xde8f54138120e834U, 0xcd3d6361dd430f9U,
  0x7fb6e65a05e0e04eU, 0x1d2a1743e40c3528U, 0x14d6e3f1b8f608d8U, 0xbdf5285fabed1fd6U,
  0x15c814b7db1069b4U, 0x4f7231f0bc83f0aU, 0x75e4d8f2461d1156U, 0x6304d0d1bdb0f02U,
  0xc3afe463d6204e26U, 0xf183edd91ad525aeU, 0x5853d700d6a446fcU, 0x49b27815f79cd56U,
  0x8e6fffcbf96ade9U, 0x16131c23275f0cd8U, 0x5469055ed13b1004U, 0xdacf9b214d5e3205U,
  0x4033ee05000ed95eU, 0x15395b7fd70f4cf6U, 0x8c8419bb448cd15U, 0x1a112037e81c01e9U,
  0xf836fe260619ea34U, 0xc11fd0d921f4d1dfU, 0x321ef11c0506f3dfU, 0x1f31e4043818fd0bU,
  0xe4ee235e1ab23557U, 0x3bea65462a3abe21U, 0x34fdc3244a0c38bcU, 0x542729500cb2dbc9U,
  0xf50febafb741f9d9U, 0x2572f5f2f90f4acdU, 0x3401b40ff97f193eU, 0x55edd7b3e1a419e0U,
  0x358a34250305fb19U, 0x89cdebd4f1ed480cU, 0xee23f1f8818b53d1U, 0xe0bca3bd14429deU,
  0x95afcc28d90e54ddU, 0x1b02fc43503b43feU, 0x9dd00a50b62db2a6U, 0xfbc1e21bf8ac2fbfU,
  0x904024dfaf99b01U, 0xfe0047a0f5ed0627U, 0x3720cfcc3dbf0d4U, 0xc4d4b03bc4fcd557U,
  0x23d0ea4aa0c62aefU, 0xc0deec34f1d0f29bU, 0x7f4f9d4c454aeee4U, 0x431de519a4565bf9U,
  0xffe31dc3f5e5979eU, 0xf7de2628f6d8081dU, 0xe422aefc04e9fd93U, 0xe029310e09ec1a45U,
  0x2f4d06cd394357b8U, 0x4a45faf7eb11f8d4U, 0x55bd28b8814ad420U, 0xedb11ae346f0d2ecU,
  0xc9e3cfc513d3c4d5U, 0x5b2f46d20ae0c003U, 0xf50fb40c2c1f4bf6U, 0xe48f60e01c09a644U,
  0x64a17d3eeba0bfdU, 0xf844c40d0c1123eaU, 0xfb7602a00d6e24e2U, 0xe6acbdc17fcdedb5U,
  0xd254bfdf40c1e778U, 0xedbd71002df2061eU, 0x10e13d22fc732351U, 0xa65c24db4cc14bacU,
  0x2e1a20407f42e67U, 0xdd430b5c33f950e1U, 0x2aefdf90fa21182dU, 0x18bbb61581f8b4a6U,
  0xfd3422c01a04e003U, 0xfe331cc508347ccbU, 0x2fec29b20723d0a2U, 0x9df5431d0096c8e2U,
  0xf6813f51ebde220aU, 0xa6e7c8752b1158c3U, 0xff1c35bc52d34c3U, 0x11d46b31981174f6U,
  0x29024c51d626d5ddU, 0x99ab1304a5e21f39U, 0x173d8143c8b2c6a8U, 0xe5f3bbf22c41efafU,
  0x883625060c0df906U, 0x2038d02db7ffd14fU, 0x169cf96e32d55bd1U, 0xfd4213151dfe42e2U,
  0x2d26d8b4e6572f05U, 0xa086ba8102fd4effU, 0xcd1eb06906c582e9U, 0xc831866668e63cb7U,
  0x4d2aab7b72b1dc67U, 0x28b9e5e95e577969U, 0xc81f11584e151ab9U, 0xfd310a72ef5152c0U,
  0xe5855af10a862723U, 0x9dc61006e753dfdfU, 0x169c931999c3812fU, 0xc6eb3e2e29af2aafU,
  0x7dcf0ec21f0e1a9U, 0xe1a8890821ca0257U, 0xcd21ce63c09cbfcU, 0x891cdb5ca6301cefU,
  0xad219fae99b1a37U, 0x7d324bfce32ccc8U, 0x49ffc04a3d644418U, 0xcdc4d5e5d4d1abf4U,
  0x20bb0144ea15281U, 0xb62894d3b6d8f4faU, 0x36def7d640c67542U, 0xe8210c26ef7b2229U,
  0x57fcbaedbaa96500U, 0xff4d231a2f0506cbU, 0x25e9b1ec021a816bU, 0xeb0bdc09394947baU,
  0x47e03f41f00bfe3bU, 0x326295339edf1feU, 0xcc083761e322c2a8U, 0x32eaf73749010109U,
  0xc42ed805b012f4f2U, 0x384b077f3cf62e4fU, 0x2e07e9fc1325e3U, 0xfbf42417db13e239U,
  0x23e9de2a19d7fdc1U, 0xe7d5faaee82b2d36U, 0xe2082b1722c0c145U, 0xd0ff6363130d33ffU,
  0x25cffe26b42d3e2fU, 0xe2f71cc00b22063cU, 0xdfb3ea7f23603829U, 0x4c0c84e7f0cf06ecU,
  0xe81ff2d194311426U, 0x30f4f108d6d049b2U, 0x328271e5e1ae828U, 0xa9ead2c0f0ae98f0U,
  0xddc8ccff1a350c56U, 0x484d7c5ef736d91aU, 0x1ffbbf09d00b23d5U, 0xcc16af886433563U,
  0xf82ee1d8e5e0dbf5U, 0x57053f811532bacaU, 0x86a0ed6650e4a9cU, 0x219b966e77d10ce6U,
  0x351e03e3e43beb26U, 0xe8f31fa632264740U, 0x2a08c5021abdce31U, 0xab1691fff33cf51eU,
  0xdac7f352d6cef521U, 0xee012b292dbb0c1eU, 0xd9dbf9f8290af181U, 0x12082f04f9fb16d0U,
  0xe666a9b21fbad546U, 0x3cdf212935cea429U, 0x29e70df60411205aU, 0xb8da7f03238c3449U,
  0xd33bf5f173ce1e1fU, 0x3fa5b6e42e3bf0f2U, 0xf5fdba3bd33ce3d5U, 0x28aa2b5836abdd16U,
  0xeee5d8fdd9e97f91U, 0x23a42c3bc053b02cU, 0x471cc6c91ee41857U, 0x9d071c430050bc0U,
  0xe3f670cb23d3c986U, 0xf03d71dd7d9bd5dU, 0xc911d11b1c85e4d3U, 0xde75d60a5522b010U,
  0x8146c72a5adfbcbaU, 0xe04cfedb519391aU, 0xf5cd5fb31e1af3bfU, 0x4ab37abeba41f757U,
  0xdcf1bce2e2f7c02cU, 0xf838e0b69dfaf6cdU, 0xe000e0c9cca24e04U, 0x1fcb1a1ea82d3ce1U,
  0xfaf68e3a448e6f81U, 0xf9d301ddc3d39da9U, 0xe51216b058234174U, 0xa0110f1b60db4d7U,
  0x54cd6bb321dd8225U, 0x3920fcb05ce9441U, 0xafd471d5608cad78U, 0x615083156ddaccaU,
  0xf5ffe3e829ed232aU, 0xef114c2b100c3b50U, 0xefce3f2226fd811fU, 0x3b0d1534c42cc0c3U,
  0x3304e2e2b472e158U, 0xa5fc1c0d4215db2aU, 0x7f5831e523cf1728U, 0x24ed0233e2d2fc29U,
  0xfe227f372ddd42daU, 0x3310f34bb002e964U, 0x74bbf2a38f26c23U, 0x7fcb4584df172fdfU,
  0x1ed4b9a56f41a30dU, 0x4c2bae3be8f6f74bU, 0xc8385012b5364a6bU, 0x9fc6e6ce640dc2aeU,
  0x2aa7fe1ed544151eU, 0x750c337f3b2159caU, 0x25c2c1f3113fdf1dU, 0xa1d20c2bf9de2b43U,
  0x2406c9bece0a0100U, 0xbfdf9933de353f16U, 0x35e2c557d44df20cU, 0xf7d2629cea49d93bU,
  0xda3ad80513e4b74bU, 0xf8b6f1442aedefe5U, 0xb50bfcb852ed942dU, 0xdf069e2ce106d513U,
  0x784f28d41020e15dU, 0xb560493b0bfefd0eU, 0x28d657813008010cU, 0xa2c7fa26cf9ab14dU,
  0x492c83adc2a424fbU, 0x27bdf0edf11d432cU, 0xb9e9ccae1bdbeeU, 0x88e805f91caf4decU,
  0x6ec7c705330a3f29U, 0x2681beb526c53613U, 0xbae3d28cadb60d4aU, 0xd6ce575d4abb59c1U,
  0xf83481dbfcffd93fU, 0x1e18d81dddabdb17U, 0xf1d8e4c9fc2af455U, 0xfec721d214e4d254U,
  0x321f1c4039f9f03cU, 0x31b7feb6cf1f3029U, 0x9d0d29ed143641ceU, 0x42fe5101000740ceU,
  0x1f0bfbdafce90546U, 0xe2ed04ecf01b0df9U, 0x935dd0e17ba3941U, 0x63be293ae44f0bdfU,
  0x3030f2150c27ed4bU, 0x59d8e8efcf5f5e1eU, 0x1220df457fc2faa9U, 0xb5dced39fd1102a3U,
  0xf0fdea0f260ca7d9U, 0x39161e030b16f84aU, 0x40d6480bfab7052aU, 0xd72ae303e8c32547U,
  0x37c9f40eab7fe333U, 0x100a6022399f3d2aU, 0x2c7fcf6c42824f0U, 0x33264dff9110fe1aU,
  0xb2916715f047b5deU, 0x36d496943921e902U, 0x4c571a0e1ff93c14U, 0xe8e3e1c6c51d4ac3U,
  0xc29ab3cd1110da62U, 0xc3fa7f7b2ee963f2U, 0xf0ceefd3f2c43da2U, 0xea114d1cf3ef55b1U,
  0xdefeebe97ffb2251U, 0x5445111fcd021ea5U, 0xf5ec00d01f01296cU, 0xf7ef6ae1ebb3b4e3U,
  0x90c580650cb002aU, 0xcbbf131317bbb1eeU, 0xe855f45dd73cc7e9U, 0x2acd3ce116df1d43U,
  0xda050ccfd0a1f3d2U, 0xe1fd57410de8f85aU, 0xfcd4b9370c1dbb42U, 0xaa2529b519d35d0cU,
  0x49f40e0a382e1641U, 0xfe48d3272513a9d4U, 0x81f7700bce97eb22U, 0x29213e48d7cdf0d0U,
  0x433f2abd7fe90a22U, 0x10330c6223e53104U, 0x47e3dff4e8c85c0cU, 0xf42c2b38dbc98243U,
  0x35e6b06fabaa4bcdU, 0x28a730a9fdf217cdU, 0xff35a3e025e8ea09U, 0x5dc174cff0f221e7U,
  0x5ac60fd7f4322599U, 0xafa07f0126514263U, 0xcb0a8e49aa0f1fc4U, 0xd04d1e5720cabbeaU,
  0x15d1b1bd8cec5f15U, 0x26d8e7f4bf852701U, 0x1033d1037f7bc29U, 0xca0ff3dc2c03e02eU,
  0x341658212c2ff2f7U, 0xe1810bbb29e2a45aU, 0xff17cb5c20e2cdc6U, 0xedfc8b5004b8cc01U,
  0x3b0395dbb3f60d07U, 0x993124d7e7be3d86U, 0xa2130fb50fc702f7U, 0xeffdc6f0dd0fc45aU,
  0xd7f19fc2f0400caU, 0x3707d46531bff866U, 0x30cbf4eb31f22413U, 0x451defc3c4ffa714U,
  0xef1dc2ff4ada3bfcU, 0xe4d6a81fb05f5bb7U, 0x241832eb0bdb2568U, 0x73a5ff2ad41f6bb6U,
  0xa1edeb02d379d586U, 0x2d128c4c218d2e3U, 0x627c16c8fd17f8e2U, 0x7812cd6ea24420eU,
  0xbde12ac5baf83ec3U, 0x38d43c62415ab6cbU, 0x93982355beea14bdU, 0x163e2eb0142b0401U,
  0xf50d4a5672499c42U, 0xfa62c347dbdf2fdcU, 0xee24e39ec2201ec0U, 0xc2cc7df222445c16U,
  0xdfa003d13824f44dU, 0xe724f403bbc5b38eU, 0xcb96300cd6eee97fU, 0xe8fb00aaf9f9f430U,
  0xa059f7cd7f5dc3d8U, 0x5ac6f8fdd812c124U, 0x3003c000b91b123bU, 0x3e4569854fd23edU,
  0xd0d0cb191c3c14d3U, 0xedabd85bdadad5f9U, 0xdfb170ca4bf1073U, 0x4dde25516345f91bU,
  0xec1425272ff70b20U, 0x21e7faf307ded6f8U, 0x2cd9a2081ff22738U, 0xe33df2e7f1a0010U,
  0xe9f2e1e74546c70dU, 0x516dd15cbc619eeU, 0xa9d9daeec81cdaecU, 0x42ffd6031dc9a6edU,
  0x1a81f8d4fbf05702U, 0xb6ba04e9e0f2292dU, 0x92dea402b42b11f9U, 0x1cc926eeb6f70c38U,
  0x354deaaf352ed8b2U, 0xf43ada62e51accedU, 0x56a7ef3a94aebb3eU, 0xfeed2a2f9b1dd6efU,
  0xe2f395991ad2bd7fU, 0x2f1dbf0f09dbd44aU, 0x3b10efcc6ce3342fU, 0x3c30fb1e37ef86c1U,
  0xe63438f9cc31e8b1U, 0xdccb22a409f65e6eU, 0xfa4dee1b54f83de9U, 0x3ca0350a3247e4daU,
  0x462edbe51738f7e5U, 0xe61254e366e135U, 0xd7bde4e4fa1be3c0U, 0x4f723f157fda0f0cU,
  0x56d228bcb3e35fc5U, 0xb51b1220e5985a58U, 0x22e1c13bce20e028U, 0xf91a1b09d00fd2e2U,
  0xb247e4f92e6225c5U, 0xef06cf44f429d446U, 0x324081cfc54066fcU, 0xdf19fdbf3a733006U,
  0xc0f5b8f8d90de675U, 0x477cf632e2d5d992U, 0xe69ffea1aff7af6bU, 0xe49605e954d0dbecU,
