/**
  ******************************************************************************
  * @file    network_data.c
  * @author  AST Embedded Analytics Research Platform
  * @date    2025-12-31T12:37:37+0000
  * @brief   AI Tool Automatic Code Generator for Embedded NN computing
  ******************************************************************************
  * Copyright (c) 2025 STMicroelectronics.
  * All rights reserved.
  *
  * This software is licensed under terms that can be found in the LICENSE file
  * in the root directory of this software component.
  * If no LICENSE file comes with this software, it is provided AS-IS.
  ******************************************************************************
  */

#include "network_data.h"
STAI_ALIGNED(8)
const uint64_t g_network_conv2d_1_weights_array[27] = {
  0x13c3003aeaf4f465U, 0x9bd18311db16cdfcU, 0xe65e4581c4b6a1cfU, 0xd305e8415f075c13U,
  0x914bf283eb1a03cU, 0x65d65a0e81d25a34U, 0xbc4582e1bd3211dbU, 0x13c3d4d2b5cf3cd6U,
  0x294295c9d68b7b7fU, 0x14b09c9ea55d7805U, 0xe042d2c35592420U, 0x530b7a69f3473181U,
  0x99905e8d100205efU, 0x4f063fc503cb724cU, 0xe2447fa3a02195adU, 0xffa052f7c2300368U,
  0xdbfd4ced473dbf06U, 0xbce0f31449d80ea8U, 0x9ad44d81c8fdb02fU, 0x81a2043146efe8e6U,
  0x24b3f7e5d93ac6fcU, 0x54e1d37fd2170ac0U, 0x53f25c3aabf10938U, 0xf6b3f6332f535947U,
  0xf2368d93a319f6a0U, 0xf21fbb2dbb235359U, 0x4931547ffdcc79abU,
};

STAI_ALIGNED(8)
const uint64_t g_network_conv2d_1_bias_array[4] = {
  0x4a700004f48U, 0xfffffd8100003239U, 0x661cffffeca6U, 0x1f55000011f1U,
};

STAI_ALIGNED(8)
const uint64_t g_network_conv2d_2_weights_array[9] = {
  0xb820105b70a705fbU, 0xadf7dbbfcf1928cfU, 0x8147b7836471551bU, 0x14c602176639a6cfU,
  0x763c411381ca7fffU, 0x87f4b7fde7f5c0aU, 0xc19651251f9d0c4fU, 0x4c348147fc2e5a7bU,
  0x1f6b9ecbb433fd7fU,
};

STAI_ALIGNED(8)
const uint64_t g_network_conv2d_2_bias_array[4] = {
  0xfffff5ebfffff063U, 0xffffffd4fffff6d2U, 0x4e7fffffaadU, 0x1fbfffffaafU,
};

STAI_ALIGNED(8)
const uint64_t g_network_conv2d_3_weights_array[16] = {
  0xd7e287e7c77f7b6bU, 0x49b0ab8e7f3e11e2U, 0xf61b4a33346c5881U, 0x62d542a24e81c91cU,
  0xfe81dcd7df415535U, 0x88e8b5a93b968100U, 0x318111ba57c56fbfU, 0x9d67917fe2d549a7U,
  0x23202ea86de3407fU, 0x7f4a3058b83b0510U, 0x8f3001e6d8f01881U, 0x81744d0d27c0f1c3U,
  0x3e4237f28120ede4U, 0x1d17eab8c27f33a8U, 0x5d8128f2bc44dc06U, 0xeac6019beb5d7f5cU,
};

STAI_ALIGNED(8)
const uint64_t g_network_conv2d_3_bias_array[8] = {
  0x3f7fffff31fU, 0x5c2fffff2e4U, 0x1c41000004f9U, 0x8a600000a2dU,
  0xfffff4eafffff33bU, 0xfffff72400001198U, 0xef00000525U, 0xfffff66800000b1cU,
};

STAI_ALIGNED(8)
const uint64_t g_network_conv2d_4_weights_array[18] = {
  0xef91b0bc314a3900U, 0x34c5b7b52fea2181U, 0xb1a88181f9557a7fU, 0x7fb8ad387fde748dU,
  0xd5fb989a81dcb034U, 0x678190579d7c7fe9U, 0xf881fc444f2d65feU, 0x15d381a1a3dd23beU,
  0xc4db32de3f7f7f62U, 0x2acae1e2314746bfU, 0x6ceffa20237c66cU, 0x3bec0e5af27f6f91U,
  0x84d84b142e2ce3bbU, 0x19feb5e4cae3d1a6U, 0x811419fa3a4fa1e2U, 0xed44ca810164eab2U,
  0x281c29e8122a9203U, 0x148c3f1a22a3007U,
};

STAI_ALIGNED(8)
const uint64_t g_network_conv2d_4_bias_array[8] = {
  0xfffffebffffff84eU, 0xfffff740ffffe3d1U, 0x815000019b1U, 0x14aa000018c5U,
  0xffffea6e000028daU, 0x31dffffecf4U, 0x216400000855U, 0xfffff88300000f23U,
};

STAI_ALIGNED(8)
const uint64_t g_network_conv2d_5_weights_array[64] = {
  0xf657d6ba140f7ac9U, 0x56dd81325ac43b2dU, 0xd3480b0715b2afc1U, 0x1b341cb604407f91U,
  0xc07ff61becc7c95bU, 0xa540ffa3e7d348b5U, 0xa7ca32404e2659b2U, 0x7f051f35f20703U,
  0xef0e168f09119c7fU, 0x3f2fb6e068d3f708U, 0x1bc6e3ee1b19e73eU, 0xc1fcd9411c7f15e9U,
  0x9334e33736ee7a40U, 0x650a1e4d7f02e3a4U, 0xd8cd584b1eb6a5f9U, 0x997f5c2a0db336ebU,
  0x109318b8eddb1937U, 0x4008bf00073ea481U, 0x1c6f8e71d30ba25dU, 0x61d88ad67ffa3828U,
  0x4b7f66505798a518U, 0x1a5ae90f46f0c3cdU, 0x1a63be41d97fabaaU, 0xbdd167f3838220aU,
  0xc8c156d7aaca8125U, 0xdc5e0527f07eed2bU, 0x2816bbca5c6cb96U, 0xe29b0d6c01e67ac6U,
  0xc37bf0b351dd32e0U, 0xea1a9f81120943fdU, 0xe71a12cad17f17ceU, 0xf41c97f62b122c2dU,
  0x467fff481dacc318U, 0x4b3450b9de96e077U, 0x592f0396ccd081b9U, 0xd8f869c71448e21aU,
  0xd9bfa0fd154c2a4bU, 0xe8ce8ce540e1e081U, 0x252229ae6f174bc4U, 0xb91e7fce9c4b7001U,
  0xd8cc11d9d203dacbU, 0xcec5d9e0d2c48104U, 0x81206c13c0f4268cU, 0x691bb3dde25779cfU,
  0x2f4d15ec4e580a05U, 0x62da646950077fa7U, 0xca15d3d2eca03801U, 0x7ba0fc81b60212bbU,
  0x4836b36edd93811eU, 0x53c45467597248feU, 0x8fd1d130ea52be16U, 0x440fdddeb5b07fc4U,
  0x3cc13acdcadb151fU, 0x5c0bb6b923feba81U, 0xe63ed334e95e3e1eU, 0x23fa1338c87f1448U,
  0x25afec42b07faf05U, 0x1731be01e0dd15d2U, 0xbdf044e4297ae2d7U, 0x9d4a818ad15cd8acU,
  0xe3d99ac217d86b29U, 0x93340c93e28123d1U, 0x910b10dda186216bU, 0x50eddcc7c97f45d4U,
};

STAI_ALIGNED(8)
const uint64_t g_network_conv2d_5_bias_array[16] = {
  0x7ffffffcf6U, 0xfffff09800000a80U, 0xfffffcfb00000abfU, 0xfffffdccffffea43U,
  0xfffff24b000020d3U, 0xfffff049ffffebeeU, 0x133d000013aeU, 0xfffffeb30000081fU,
  0xb91ffffeb0aU, 0xffffe9cb0000224eU, 0x32c00002b9aU, 0x1acfffffd1c3U,
  0xcfeffffe5ccU, 0xffffdd7e0000133cU, 0x11ec0000078dU, 0x494000023d6U,
};

STAI_ALIGNED(8)
const uint64_t g_network_conv2d_6_weights_array[36] = {
  0xecf7f4cdbf4cc68U, 0xaa42d6f496b8fbc8U, 0xcfb4b87126c5401bU, 0x7882fe0592542029U,
  0xda31c2259d05e1fdU, 0x71484e0c6d8c4a4U, 0x8181f077015c44e1U, 0xbd68a818de90ce3U,
  0xacfbe03fa9c6f333U, 0x7d0ce9d6191bcdcfU, 0x9ddc4f5ecd76476aU, 0x41472bcc57af4f36U,
  0xd7fb679d0198eb34U, 0x92f73baef67f7f52U, 0x6d42e4525e5daf7U, 0xc8de314c7f7f8b2fU,
  0x81ed289aea2416b5U, 0x3581187f0d245b53U, 0xb59de73d81817ffdU, 0xecd6d2fb17f1109cU,
  0xe817da7f2d810282U, 0x7f4d814af623180cU, 0x18127224b1f92947U, 0x4ffbe8e48300652fU,
  0xdfb7e2d932edbefdU, 0xfb17cf3b81c5227fU, 0xdc2719d4c2b20ee3U, 0x4181810ac5d9811cU,
  0xc5811b606f38f681U, 0x1902ce1aba8ffb6fU, 0x96e67798e54823d7U, 0x7f1e14b629dee081U,
  0x220e272d7f3f7fcbU, 0x97f430e3677b341eU, 0xe5f37f7fc73d067fU, 0x1801ddafa64a3015U,
};

STAI_ALIGNED(8)
const uint64_t g_network_conv2d_6_bias_array[16] = {
  0x3ba00000cb4U, 0xfffffe27000007dcU, 0xfffffb87fffffaf4U, 0x1f3500000a8fU,
  0xfffff73efffff84bU, 0x10ecfffffdc7U, 0xf85fffffab0U, 0xfffffc7ffffffaecU,
  0xffffe3eefffff887U, 0x1594000001d2U, 0xffffe67bffffe485U, 0x1e3c00001ff8U,
  0xffffffb100000703U, 0xf31ffffffe1U, 0x109c0000173fU, 0xffffe2b4000013ffU,
};

STAI_ALIGNED(8)
const uint64_t g_network_conv2d_7_weights_array[128] = {
  0x56e0cc2a320f92ceU, 0x2b1ee2f1bada347fU, 0x870071aaa16d01aU, 0x161d15113ac2e636U,
  0xa3041a0b19b954d1U, 0xada2eb0feeb69df9U, 0xa4eaf4ade2db8e8U, 0x25810c79eb9e99b2U,
  0xf6e43a29f132b210U, 0x3794c3e306acf5caU, 0x7b149f0b7673fdecU, 0x110e16bb21814b86U,
  0xb4ac81d7e300bd2dU, 0x984adbb53244c4baU, 0xfe940ccf23b093e2U, 0xc8cb383f28d942fbU,
  0x4f2e449005dceadfU, 0xf13bfdb2b6d2613bU, 0xdfea812da9e4d519U, 0x40242e5e105a3347U,
  0xda1afe1ed0d6096bU, 0x2df4dae4c307d9c7U, 0x2e139513af2e1869U, 0xe5d8260fb06681a6U,
  0x53f5ad9474f6015U, 0xe8fea0bd81c1df67U, 0x2ea84e3cd4e30f41U, 0xe01fe0c3eed52ccdU,
  0x81c50f67eedcc812U, 0xf3ec30caf63006c2U, 0x11ab54e5374bd0baU, 0x3ee524f6e80b2140U,
  0x2ce3a5b990deddf7U, 0x738f2af484ede39cU, 0x44c97f5f0097b7fU, 0x3c509ed4694f791aU,
  0x8e2a87426bfb924U, 0xe0b52e7f5ee536e6U, 0x41db2fdde82ff9a1U, 0xafd56f9c8db68dcU,
  0x2bc27fb40b1a205aU, 0x39ed0a02ac141617U, 0x372ecf5a4b2ec92cU, 0x116306f5f1e7ee27U,
  0xee2d4f3fdb948f7U, 0xf0301b9b1cd5d17fU, 0x9b1113ed0e3b2e41U, 0x89f23a2d33971821U,
  0x5b1d52f4492f9eeaU, 0x3ded11d7df0ad63fU, 0x101ff817e42e15ceU, 0x867f3296afcc28e5U,
  0xfffa0c437fe12be5U, 0x191a2e221d250ec2U, 0xee024adad85ebc15U, 0xd135439448c43cebU,
  0xf51602c91f265cd9U, 0xd0f8392f18e1da81U, 0xe2d61dbcd1c0ece8U, 0x9b2228ff04c447e0U,
  0x2d47bed75947f9e9U, 0x12031619030d1f0cU, 0xfb061f5959ed35edU, 0x992011544f813d34U,
  0x48e5a8d1aea1c00fU, 0x7019c065ba77694aU, 0x415250f53181ae51U, 0xd4f11eb2f06be73cU,
  0xd039e1d926d6180dU, 0x1c212581f1e822e7U, 0x5fefb6d11bd0e1aaU, 0xc51d142af7f7ec49U,
  0x91a781e6cca13462U, 0xf62e76b6e1dce8c7U, 0x5cbc5edbdbc9e4fcU, 0x10ef95e0fbdc70fU,
  0x69c9df4622113938U, 0xf7e24a3ccad7b9e2U, 0x846148581ab97fafU, 0xa32562d2deb2ae2U,
  0x756b24baac8df076U, 0x376cb46a18d70cceU, 0x6a8158d06813e58eU, 0xaf1e0a8ea892d4abU,
  0xdbfb00fee1044bf9U, 0x25069d07414fc73dU, 0xf7b6ff0c111e1e0aU, 0x7fa124cebc4cd9eaU,
  0xe5b2e028b2810e0aU, 0x6fe5ae0e5ce47ed3U, 0x423da6e6a7c5a639U, 0xf9db4816058df744U,
  0x174e7247f8ded8ffU, 0x32fef410fd2844d1U, 0x10eb0f4f81ae514cU, 0x4c10361c28375447U,
  0xf4b94d16f6d01dfbU, 0x14d1160af1d7347fU, 0x1dd7cbfb1afdfa22U, 0xc92b1f18d145213dU,
  0x5be8cb0cc53d2181U, 0xfd5404c7dae22659U, 0xc3da2838d8d1db89U, 0x48f1f21a34182808U,
  0x881fc92a9f101d32U, 0x81e80dc1a668cb89U, 0xebbc2dedfb8bde4aU, 0x54c55815e916fba7U,
  0x38e4cc69810fe1b6U, 0xdea244394b2f4c46U, 0xfaf701437143eaf7U, 0x6a74f390d0dca8cdU,
  0x7bac3a130f50a081U, 0x22feea340ff4e531U, 0x14ee5dc4d496f5baU, 0x113c1b2f2b93237U,
  0xef03a639f3fd2c10U, 0xe4e4daef9bef210dU, 0xd717363d17ed7ffcU, 0x19fdedf1f51fdbb2U,
  0x98a37faf22f8d8e7U, 0xd2adaf1f9dfbe6aaU, 0x6040bc23531be7f3U, 0x3567dfa3fa101c45U,
  0xce24ece5d5360c10U, 0xcdcb7fbce42adb06U, 0xd319f540141cf00eU, 0xf29b640756d94b02U,
};

STAI_ALIGNED(8)
const uint64_t g_network_conv2d_7_bias_array[16] = {
  0x2dc2fffff6b0U, 0x4f03000013f4U, 0x1161fffff064U, 0xed70000049eU,
  0xfffff8df0000046bU, 0x41fffffd958U, 0xffffff73fffffc92U, 0xffffe05d00001ff0U,
  0x1a29ffffe91dU, 0xffffda3c00002c33U, 0x7600001cedU, 0xffffd79a0000186dU,
  0x1053ffffe938U, 0xfffff19000003eb2U, 0x46f0000101fU, 0xf000015c1U,
};

STAI_ALIGNED(8)
const uint64_t g_network_conv2d_8_weights_array[36] = {
  0x7f2cc016bc523806U, 0xc46df77f7fc5cd17U, 0xda819fb95848ae00U, 0x26321181a9b7aefaU,
  0x44aa81fcdf7f8a1fU, 0xd74f47bb28ee57cdU, 0x8bb1fc327f7f8d81U, 0x7f3204fd8181ab7fU,
  0xf630a323093b83ffU, 0xd75d093dc4017f14U, 0x811c0a783c34d612U, 0x2ce000e5c3a0d358U,
  0x29eab66353d2eb99U, 0x8168528aceab0ac2U, 0x7ba079d46ba4543U, 0xec2d7f8bca8463dbU,
  0x1181390d7662c681U, 0xb7f7fa5b24613fdU, 0xb5c444296afadd32U, 0xf87ff705a88e7f43U,
  0x3790c4e97f200148U, 0xb2b4e440e5ef736U, 0xa3d47f57222414a0U, 0xa1f9e71f3dc92e4aU,
  0x16c1d97f61f7eb76U, 0x6f39bc9ca8e51430U, 0x5ffb2f810d0ba455U, 0xd101c4b32f561e3U,
  0xda2638ea72138103U, 0x4a34bd15eb7fe27fU, 0xf3e73ca8fffa81b4U, 0xf816d1300ae63310U,
  0xe4f0e5d8640cd835U, 0xf003d210094ade26U, 0xfe2a21bbfd55d2b1U, 0x13fdd468f514c01fU,
};

STAI_ALIGNED(8)
const uint64_t g_network_conv2d_8_bias_array[16] = {
  0x1b3e00000241U, 0xffffe515ffffe910U, 0x1e0ffffff228U, 0xffffec5200001820U,
  0xfffff989fffff356U, 0x7690000048dU, 0xfffff42a00000992U, 0xf91ffffd79cU,
  0x20ed00000924U, 0xffffe71fffffef93U, 0xfffff37a000008c9U, 0x1e4000001946U,
  0xfffffa89fffff252U, 0x16f300003d02U, 0xfffffae600000309U, 0xfffff9c5ffffec54U,
};

STAI_ALIGNED(8)
const uint64_t g_network_conv2d_9_weights_array[256] = {
  0xd8df3f9bd927fe9fU, 0xcab326a17f230e4eU, 0xd44a964b1e3afd22U, 0xc50018bfae019f7cU,
  0x81e513a041ed30a5U, 0xf6db611a260038b6U, 0xff05b86105c6cf32U, 0xf33cb1f60fa7f08eU,
  0xf1bfdb81e291563cU, 0x273bdb4f139fecfeU, 0xd0d20c0eecae66e2U, 0x2ac42d2ce8ade0d3U,
  0xe226f2bfec11f5ecU, 0x6324f8733d673ec4U, 0xbfb22d487fd89102U, 0xa350857ef2807bfU,
  0xcdc6f210ca15efddU, 0x9f2d81eaabbe5a3eU, 0x6601d6e706ff0a11U, 0x20f25ae6cfcf26ddU,
  0xfb885f1ad808ff25U, 0x95c999d8ecfdb1bbU, 0x819efcc1274eb411U, 0x252103f2066b36feU,
  0xdd8102f7e920da34U, 0x2a5b24c9f88e0525U, 0xdbbb41db2b5f130dU, 0xf3c12cf4f8baed3aU,
  0xcafed5caafef13cdU, 0x4c36f4d9eb29e1deU, 0x79ea811c403cdba0U, 0xf3353310d571a20dU,
  0xda31e16ec6d543a5U, 0xe4d9811eed851b52U, 0xfa3c964a15fcbba7U, 0xc33b5926369fcc9bU,
  0x1b04ceb33a3017e5U, 0x2db37ae23b420d3U, 0x4df030910d3e230U, 0x3522ee0536f1ce7fU,
  0xc7db7f1ff2c8e823U, 0xb14f220ca125bcdcU, 0x322b102eb628151dU, 0xd11071344482bb0U,
  0xcd0839c92a890bc9U, 0xd961e34757aa47e1U, 0x6429d8cb19d4ea04U, 0x2c0fee0f21af81c5U,
  0x21e635e4fc013148U, 0x213428c4daf724e0U, 0x2d5ff8176dafd6ffU, 0xc0e0ce0ae77fd5b3U,
  0xd3a834d04308f5adU, 0xf535ce16d0ddfab9U, 0x6de5fdc78a0ac5eeU, 0xfe0bd52dfe7f54cdU,
  0x3f472cc5459539f5U, 0xdf872f3459b0ceb6U, 0x71ce7f8b6521939U, 0xd68130031b222aecU,
  0xf7b10fca4912ff81U, 0x47c9b7c2305a305U, 0xf42ffb1faa8b63a0U, 0xc7dafc04ab8d2d5aU,
  0xdd15a5cb967f0749U, 0xddc2d1fac3f0302dU, 0x3635f5c52926492dU, 0x9b294c5faa10cbabU,
  0xc8961f4cc005c2e2U, 0xb27f060671090de7U, 0x1528f2121cffe910U, 0x27a3fb1231c5f7a2U,
  0xe71a66f6c98445d2U, 0x7f60f7e89af5bcd7U, 0x3efccd21fa0f22faU, 0x46afc7f35efcfae6U,
  0xdfd71536e3e32dc1U, 0x81102b0498d31314U, 0xeef717003630301cU, 0xe1f2bea6cf3b2a0aU,
  0xcb0d1cfe4000bcb6U, 0x9842f105e0d5d1e1U, 0x30e13132bc281f4U, 0xbf2c02d3e01cf1e3U,
  0x3be95474c148db15U, 0x5c1bb2b5cf23332eU, 0x19d5033bb97f03e4U, 0xec6aa6d42fedbd3U,
  0xe08ebb440c5cc4c7U, 0xa6ef37a09af9db33U, 0x47feacd186dae6f4U, 0x9b7fef5626e18355U,
  0x5a3538cc2e00e613U, 0x22534ad4e77c1015U, 0xbae6d43a6a0eb640U, 0xe29c396ab37fc106U,
  0xe93ce64f4e8efc1dU, 0xa806322031462b61U, 0xe3e193a31011ce49U, 0xdae026d459c8981U,
  0x42445935016b5728U, 0xaa673f6a8c7f2127U, 0xdeeddc20c69f0040U, 0x282dcae5ab15d01fU,
  0x1d0e29cf310eda0bU, 0xdf97022cda345de6U, 0x11d23fc65d21319U, 0xcc12221ed67f2712U,
  0x4cb438f7ba2f2ffeU, 0x17f1db40f4cbb3eU, 0xbd18388e15a220d8U, 0xf720f70c403e079bU,
  0xbec47fb2479702cdU, 0xc8df2cadb3f9e7a9U, 0x204009202eb8a936U, 0xda00e91154081dc1U,
  0x4374c65444db881U, 0x1a190ec4c904c3ebU, 0xac4b33e873d8f7d1U, 0xb60ceeb5e14468c5U,
  0xfd11db2528e0f2b7U, 0x2dcdf5e40de112cbU, 0x1afbcbcc57102b2cU, 0xdfd3231627c34281U,
  0xfd0d9c439deb21f8U, 0x42999ef4257f8dc5U, 0x18c2cb042726f6c3U, 0xb6d6da5b56b72bbeU,
  0x18d4184ea7f03a86U, 0xabc1d3d8353f4d09U, 0xc011f4e7923c27caU, 0xc83f7fda0bdf2b37U,
  0x75815944c424fc4aU, 0x181beb38764b1043U, 0x6ad33e5554310d78U, 0x70f8fb6cb26cbe39U,
  0xec3b4c58f80235c2U, 0x5fe09516fefcf42bU, 0x3d0f3ccc35011dcbU, 0xe5df42cdd743337fU,
  0x36dee85117a82488U, 0xa9c8134e6164114U, 0xeed39106990f69eeU, 0xfcf9ad119aceee3bU,
  0xafcc2ad6fd2db1f5U, 0xd129c8c60bde0d26U, 0xa488e62718295ab3U, 0xdd4d27ce816c1622U,
  0xdfd90738f24defdeU, 0x26c59fd7ae400998U, 0x3e45b181d6f4004cU, 0xb108131e58544b27U,
  0x7f328df13823ebd6U, 0x40902216ac13410dU, 0x5718fb9991104b2aU, 0x72458df725917cbaU,
  0x34d50d373959fb67U, 0x2b5f3ac381eace1bU, 0xe5afe70d9b3b2544U, 0xca25e7fbf3af3b4dU,
  0xfe2fcae304482922U, 0xd9bedc4b36c9f021U, 0xec2065fde4f507e7U, 0xcfeac0a71dd9cd7fU,
  0x23ebc8294655d9d5U, 0x4d1f444fb4e8715bU, 0x307f2dbfdfa7dcabU, 0x3ccac05646c95ea1U,
  0x1d45fbc7e841f80fU, 0xc8c981f6f2d601bbU, 0x14e6073f0fc8eacbU, 0xf3c154231ff021dbU,
  0x38d01d36debdca5aU, 0xe49d5df2950fbcbU, 0x511bea8bd52dd7fU, 0xf329dde80c64c2d0U,
  0xf7062a5e2f14faeeU, 0x1181b204e6b9c720U, 0x31fa013f1d240032U, 0xf0da02bed627f144U,
  0xf438457fbdc522e7U, 0x1564000ef0c724eU, 0xb0c1b364532a3715U, 0xf81bcd2cab6d8903U,
  0x58347081cb180e22U, 0x3b08414f20085beaU, 0xafbb115815d827fbU, 0x1f821f63fe27c8d1U,
  0x7fe8082af924562aU, 0x2a17420cc5ef1929U, 0x3107118dc7302daaU, 0xeaad0c24c3b6c8e0U,
  0xbe247f43113cf0cfU, 0x1ce2a142730aa0e1U, 0xe6c627ede5cdfb23U, 0x51dc46f548224d00U,
  0xb581c147a2e9b4e7U, 0xe627f326f3db546bU, 0xd558e4d57924fe58U, 0x3332f3385d883274U,
  0xaad6d5e13ae544f1U, 0xf73c19100219c8e5U, 0x184bdc150052dcf6U, 0x2cee7f2f26f6061cU,
  0x20db9dd81b8593aU, 0x70d839ff55001cccU, 0xedfdb70300f25ae3U, 0xabcc2314d525e7bbU,
  0xfffcc0cd851d2ef7U, 0x291acbf0f2711deaU, 0xe4ef4c26e6daadddU, 0x811d23eccb74555dU,
  0x170e133d32cf29b9U, 0xe87847e0ebe511ddU, 0x44565aeb335caa81U, 0x594a6fc52a3015b3U,
  0xf5300154ceda2321U, 0x1c9ec90a2813f27fU, 0xa3f2ce37a6eb4535U, 0x1c1bc9e2f6f26344U,
  0x7fa6b1e5ed972d50U, 0x44a4d3ccdd23b5e8U, 0x1b722627e8dfc8c1U, 0xfdb6161e2bb005fbU,
  0xbd1e23c451517fa6U, 0xaa57cd81109af2fU, 0x782f0512c4f0f634U, 0x44b0bd17a686e8f9U,
  0x109f1abde6ace209U, 0xd50eb733e3e25829U, 0x20444c9938d30fe1U, 0xe1d84459c1207ff2U,
  0x6c0f2314b5f522cdU, 0x2e481d9cf63671bcU, 0xcf22d91cc4031e46U, 0xf47f999bae3be5f3U,
  0xb4d3eebccf39413bU, 0x3ab03a4daf374136U, 0xb2182c7f692af1d5U, 0xdd16b633fd1f93eaU,
  0x8a5ece054c0181b6U, 0xf32061053090f6d6U, 0x46f108c6e6480b41U, 0x5487f5f0ddceb9e2U,
  0xcd8d8197afaf9e0bU, 0xf608d4d4bc18ae1dU, 0xcbcf2ab95c3447d0U, 0xf1cb6b2662c6e066U,
  0x340a3449c07fdcc7U, 0x1bd6eed21d41d61cU, 0xb1a89f99bfd04912U, 0x49128f4d8d352d49U,
  0x9acde3a7d0284cb7U, 0x5be8c6d4063481daU, 0x2c14cbc3d00ee7beU, 0x14728eee0cb5e809U,
};

STAI_ALIGNED(8)
const uint64_t g_network_conv2d_9_bias_array[32] = {
  0x290700001440U, 0xffffec0300002376U, 0x24d300002007U, 0x11600000bf2U,
  0xfffffcf900002f7dU, 0xf86fffff03fU, 0xeaeffffec01U, 0x1ab00000082fU,
  0xf2f00000876U, 0x1362fffffe11U, 0xfffff25f000026f9U, 0xffffdee600002de0U,
  0xffffeb8e00001d0eU, 0x8a5ffffe6beU, 0xfffffa98000024f2U, 0x256e000014d7U,
  0xffffaf63000012a3U, 0x32d7ffffd57eU, 0x57b00000d61U, 0xfffff17400000722U,
  0xffffec9100000350U, 0xfffffe75000015e7U, 0xffffe7ff000000bbU, 0x276fffff153U,
  0x106ffffe4deU, 0xf4dffffe9adU, 0xffffdea10000050bU, 0x1e84fffff93eU,
  0xc8a00000ba3U, 0xffffff84fffffa9eU, 0x30d7000017ffU, 0x31de00000832U,
};

STAI_ALIGNED(8)
const uint64_t g_network_conv2d_10_weights_array[72] = {
  0xfad3f32445a68137U, 0xae8c060b4d2df1dcU, 0x7bd0327fe87feb5bU, 0x1c4a7e099e7fca0eU,
  0x26cc2fb41025dca8U, 0xebb970567c573ac6U, 0x169b941afbe9c0c4U, 0xe383fbcf370c7f2dU,
  0x71817f1cb90c0f3dU, 0x4f07f2037b981f4U, 0xb7e654a2941e550eU, 0x713decdc7f043781U,
  0x25157f093c7f8130U, 0x19e2c8187d066ecU, 0xf63294ec1ca2cf8eU, 0xbab093f344c14303U,
  0x7fd52a24eeabc62fU, 0xf6c964027fc3ffe6U, 0x6b8cef3a28c0b224U, 0x4030811a28814fU,
  0x750542750553112cU, 0x19584a35122de211U, 0xb25a26c152de45acU, 0xa8efc718067f2f0aU,
  0x1bfa9474ede215eU, 0x7f7f2c7fcc7fc57fU, 0xc0c27f8a196f0e7fU, 0xeeef9f323216bf05U,
  0x367f462b810df62aU, 0xad8193abaada0981U, 0x14667f7f7c182512U, 0x54b7817f7f33633aU,
  0xe2d2f193d081d9a3U, 0xa6baa4ddad6cdbc4U, 0xe181514f7fe481f7U, 0xfe8aee7e27231d2cU,
  0x19ebe8d2dcae0837U, 0xd6ff81c08118f689U, 0xf0df9a1f4ccf42fdU, 0x1646b1b47121c2faU,
  0xfdd8f56cb1f20d7fU, 0xfb9d35ecd7ffebb3U, 0x810bef3ab3ff43e4U, 0x8171326a26baf9f3U,
  0x81a5faf6150908f1U, 0x7f7a057fe47f8199U, 0x2981fc17335e22a6U, 0xc87fafd827ef5bdcU,
  0xbe301afd7f08cc0aU, 0xb62517d8c1161155U, 0x83308818a4d3f98fU, 0x4b204719e2f8071aU,
  0xb2b75581e6dd1bf1U, 0x5aeed20dfdde6056U, 0x7f49cf08a5f8cf0cU, 0xf404123d2fad172fU,
  0x3657c17f3641499fU, 0xe73c64f532b2b6ebU, 0x4e5cdd31144a3719U, 0x3a7f1129cffed8e0U,
  0xaa1c4fc820d5e623U, 0x3cb76c0a5fa5bbffU, 0x1d4ce50be3817febU, 0x814e31d8bff1461eU,
  0xf5db1101dc04eed0U, 0xe927f5dba34fab87U, 0x972052faac4babd0U, 0x3a547f580b27210aU,
  0xdce03640dd134681U, 0xf3086308c5d36c3fU, 0xf07174eb81ff3a7fU, 0xdf09a550d90d2381U,
};

STAI_ALIGNED(8)
const uint64_t g_network_conv2d_10_bias_array[32] = {
  0x323fffff98eU, 0xfffffb29000013c5U, 0xc2fffff592U, 0xfffff50500001c18U,
  0x214a00000c30U, 0x477fffff935U, 0xffffefadfffffcd3U, 0xd4e000007caU,
  0x6a9fffffb6dU, 0xd45fffff77dU, 0xffffec28fffff942U, 0xbcc0000150dU,
  0xa13000002d7U, 0xfffffa16fffff24bU, 0xfffff65cffffefd6U, 0xfffffb58ffffe724U,
  0x6690000004dU, 0x926fffff502U, 0xffffe34100000a0cU, 0xb40000087aU,
  0xfffff9e90000150cU, 0xe1400000303U, 0x394000001c5U, 0xfffff766000014ecU,
  0xfffff4a300001074U, 0xfffff33a00000c38U, 0x135ffffff7d9U, 0xfffff8e7fffff081U,
  0xffffe63e00000033U, 0xffffe6edfffffd3cU, 0x2401000004cbU, 0x123e000004b3U,
};

STAI_ALIGNED(8)
const uint64_t g_network_conv2d_11_weights_array[512] = {
  0x5d21094491193827U, 0xe50e03c8c935c340U, 0x1efb7c73802e3b0U, 0xddb5d10e4bfff814U,
  0x9d2daba3e4344005U, 0x2bcb12f3abd192f3U, 0x1db60ec024011b0fU, 0xb45d3d558140bcf3U,
  0x250c37e717143056U, 0x1534648123d6d0U, 0xf5d534bee015b950U, 0x14f404e7e97405ceU,
  0xc5cc49d61b320c5fU, 0xe8efecded6e230e1U, 0x30c91e4dc125a818U, 0xfbc0ec3c041aecf0U,
  0x38bcf703feec19eaU, 0x7f316847eef01ac3U, 0x9152ef7390ab4bfU, 0x442be100c244deecU,
  0x2c36b2151bd6fbe7U, 0x15d9e1091cc10f27U, 0x3a012affff352204U, 0xde19b008fdaff80eU,
  0x955aa65350ffcb5U, 0x2fbe2d99ba1bf5afU, 0xa946e6cd4783b1f2U, 0x7a496cf1cee82c32U,
  0x36f3110cbc30cf0bU, 0x324d214c10cdd5bbU, 0x4c3af6b7ffeaf8ccU, 0xd9ead7c4fb7fea0dU,
  0x50d1acc07ddb30eU, 0xdbf22ae21622ed22U, 0x13fd00fdd91ad415U, 0x90002c0337300f21U,
  0x36bd81fa0ebbd8e2U, 0xeddf4716e21d0930U, 0x2bd33213ce180b3eU, 0xf2f6f814e92b1032U,
  0xad06ba061d35d640U, 0x2bd01acb81dca535U, 0xff16fcac8bb1a602U, 0x3e062ba2aed208dcU,
  0xceda041cefeb3fe9U, 0x521d8bcf4cdfa3bU, 0xb6f1ea48368f0320U, 0x1ee8010b1e38dd58U,
  0x9ee683beeefc6faU, 0x36bbc90209fa7f0eU, 0xbf5edd736e36f4cU, 0xd5f60cdde83032daU,
  0xc5dbf83423fff6c3U, 0xf8caf3b60dbae534U, 0xb004aa09d263c533U, 0xbc33dcdebb493307U,
  0x1bd4b7b723eef207U, 0x534fe2541e111cbU, 0x61231d81a9a606eeU, 0xe53720adf947bd3aU,
  0xd5b74ae8cfb5d1f5U, 0xd02fccdd17d93150U, 0xec907e2fa23b30fU, 0xfd210cd32cd3fa1eU,
  0x302ea71b591907eeU, 0xde45db337f216b23U, 0xccf64960004473a4U, 0xb7db313804185bd4U,
  0x11cefbf43d903c22U, 0x33b6b7b6321625faU, 0x2b0b37993223a56U, 0x20ff8ec56ed01f4cU,
  0xac81bf29e8bf20c1U, 0xf12be3f6c394ccdU, 0x322312c6d74fd322U, 0xe40e01f8304c394fU,
  0x910da41b0cf30ac2U, 0xd6f1d105fe4df906U, 0xcbeff9c549d9e777U, 0xece996dd2cdfffccU,
  0xa0166fc6555bdf31U, 0x592bd7c3ade363eaU, 0xbc3039cf350ff709U, 0x5f26143b22182effU,
  0xfc6b0d2799bc230aU, 0x9d818c13fdd62dcfU, 0xa0a2002ee3633edU, 0xe2b525f4e92e12b2U,
  0x5981b59bc400e235U, 0xdd1adcc0c9fcbd1aU, 0x5194ee60eed37e5U, 0x820b073d43c7fe31U,
  0xbd16ac38e000ad23U, 0x97db34c729d6545fU, 0x17000bd010eaff06U, 0x2f2ab242d3efb01cU,
  0xd214119a44421bdU, 0xe60edb5638572dbcU, 0x1fd2ac1f1a0f0d1aU, 0xd40f250d1e254ed4U,
  0x2cce104a48a9bb14U, 0x17f27f38a2f9e937U, 0xfc0d0ce4d6bd3929U, 0x3c12e3ed6cad842U,
  0x21b04910f8b4373eU, 0xcbc1b0d9b61581d7U, 0x3734f0da3db40eebU, 0xdbdff4379bddd0d5U,
  0x501e0516bd0b5109U, 0x300b34e421f0e0cbU, 0xae753dc8c0aaf3e1U, 0x54a5ade2d096bccaU,
  0x758144fe33da32deU, 0x161a034323e9dabeU, 0x292c4bf60b60b9a7U, 0xb53e09b9011337b6U,
  0x9fc0cdcf3f1841baU, 0x14534ec617fa32f8U, 0x4276f34e63e2140U, 0x1b2bce692012df2aU,
  0x1392021cee3e19d5U, 0xf60713f42c81ea03U, 0xc3da3c21ec1bf237U, 0x17244cb8233e3a24U,
  0xe41049f9d40a0b93U, 0x343d025d11061ca1U, 0x16d0ce01f944d4d1U, 0x9d0fae55dccb41fcU,
  0xb81ca200bb79fee7U, 0x57512bf03816f060U, 0xdcf44af8ffee2599U, 0xc8d618ceb6ced8ccU,
  0xcd11f02598f3eb9cU, 0xc1ec37f5cc023e10U, 0x20848cef2f87ee7U, 0x81521638a73fd745U,
  0x9612acf012c63a56U, 0x93b9386aa4f5a60fU, 0xf220cbc1735fef2U, 0xf036220058bc1cb7U,
  0xe7ad21f07fff3e20U, 0x1bfc8b02e7072124U, 0xd01943bde2f39ba4U, 0x9b08baddf2214f03U,
  0xc981874cf000f1b6U, 0x220d29e4eb573ad4U, 0x850fdeee0bff42dfU, 0xee25623a4faee5f8U,
  0xf9dac10e2798d7d6U, 0x1ec518510aa9221dU, 0xa82a0cdce019550cU, 0xea038b66e4f1e0cbU,
  0x1a11d517b756fecdU, 0x1a24f50af5c2ede4U, 0xe612fda6c70dcfa2U, 0xdbe54313067138eeU,
  0x28c601e6521c1a3eU, 0x74c81c7f07250822U, 0xbfa1dc58fa38f032U, 0x18eb060d27f41919U,
  0x71ec9de311f10d03U, 0xec402bccdb2cefecU, 0x8c4f404afa2e816U, 0xb8db06af30f388e0U,
  0x4d74cb4309e40481U, 0x11a772bc12e7df49U, 0x35d6e4ce9a4de455U, 0x7365746df3cb537U,
  0xe353bddf1b9c104U, 0xd5392d3fb0f6b91bU, 0xf618d656d707143cU, 0xf84dec1aaa0a1435U,
  0xfbca5905e965fbecU, 0xf5eed7d0f3f4ac09U, 0x26ff23fb182ee681U, 0xe5cef7fc09f79e2fU,
  0xe64fa5ff813808d6U, 0x4e2a18af13f252d7U, 0xf13aeb566a920ae9U, 0x33a3424b35c515b1U,
  0xd23e1745fc493de9U, 0xb43728b3f2b30d02U, 0x54cf90bedb423852U, 0x3994c8392cb71a0cU,
  0x99233fe381fec518U, 0x4b974dc204dd2b03U, 0xfe20f8f3070f282cU, 0x44d41dfffec10dc6U,
  0x520fae26b8d5d9e8U, 0xf30ebb115b821649U, 0x5bf025f5beab0dd1U, 0xe8f556d988579d0fU,
  0xf241841565bfca24U, 0xa1c9fb5ce60a3e25U, 0x4f1718f0f1530829U, 0x377f177ea708d422U,
  0xc004e3fff793fc84U, 0xdae40c40a55dcceU, 0xf6ff160e0921b1fbU, 0xefdd8d9f733eae4U,
  0x8b330f1dd2a1930U, 0x5fbe0befe5e18e18U, 0xb64dcff4c4f6ff02U, 0xffc0ae5177152811U,
  0x81c1eec7079abd0bU, 0xb3dd6b96433abbeU, 0x4e273d9a3002caedU, 0x9222b202b2c31726U,
  0xc2e08642f4ad875dU, 0xfaf6c4f31855c746U, 0xb11b3766933ec497U, 0x74dd10453df402bdU,
  0xf544d716be5dd4ddU, 0xbfa583040a7f7d38U, 0x2019ad38ec16300fU, 0xe6602e48f9d11d1cU,
  0x2c204658ef4255ccU, 0xe9f5132bb91795b2U, 0xce0a6f62e4cdea2bU, 0x4f692a1fc2de01e5U,
  0xf6f6191fe701dc8aU, 0xf29dd2f5fa3bea08U, 0xbc81b432025a33e8U, 0x1b5e2325bf1f4e1U,
  0x1d342c29c19a2b37U, 0x16cfd1b916ed06d4U, 0x644ed04ec38ba1bU, 0xb517c10e22a6f935U,
  0x296eabe981fa2322U, 0x1fbff000bc4bc09cU, 0xe1e207bf61dbe308U, 0xfd172ca8f61e310fU,
  0xf7ab47a92b53bfefU, 0x213f3db42518baf3U, 0x3140b4d9da33e614U, 0x5d09ea0f48091ee8U,
  0xcab0b204fedf0c28U, 0xbf52810b0f21f62fU, 0xa32af6efec16b148U, 0xe861cf36f5e80d31U,
  0xb4d51c5ea0c9fb81U, 0xce41e7ff2c6bafeaU, 0xd129f7f9d90242ccU, 0xec12e2d126decc67U,
  0x1c2dba6320a165dU, 0xd96bd37df2b0d800U, 0xcd5805b9f8211b03U, 0x52f84b7dcb0a1242U,
  0xeddae19a1e290a51U, 0x2048141af9da34baU, 0x2bd0277f26e3ab28U, 0x10ceb336c61c0fedU,
  0x7603f52f2b310338U, 0x4769e6df2b734222U, 0xbdb1e3d1d8f1b3edU, 0x2e93e1ddd51110e8U,
  0xed294822140be9f6U, 0x2fc50f4c1ed3e0eU, 0x4881da38b11db7dbU, 0xd9193801da59154cU,
  0xf044cca9cde2130U, 0x15a322433a2daed4U, 0xc4f016e3d5ebea4cU, 0xfd103291335261bU,
  0x67dc0ce4bf3718b0U, 0x312f02d1f5e6e20dU, 0xd9e2c0673ffb4839U, 0x1a4e000a4af1d285U,
  0x5e0028f6dbb1ab57U, 0xb8f7fe67e1f4f3f4U, 0xcf4e29d118f1d697U, 0xe404811b3c1da244U,
  0x61ce2835e702cf4fU, 0x554dd1b4c581eaabU, 0xd9b9ef39cb30d84dU, 0xdb9803550340025bU,
  0x3ac3d9dce457e0d5U, 0x19efd7e6bc3fcfebU, 0x35d2ccc1e6451b20U, 0x1e9591000733b0ebU,
  0xc32122bc65cac5b4U, 0x10edfed6d71eee0eU, 0xc01f001ffadd033bU, 0xc912212681fa0048U,
  0xb4a2131dd4faceedU, 0x350da424280e1427U, 0xeeabd0cd228fee7U, 0xe7f8d92a20ac57ddU,
  0x815fc31e4171533U, 0x2cbd09a2fcc4fcc5U, 0xdb07260e0411dbd9U, 0x81823ddf0f5dbe4U,
  0xd109e214f71e05faU, 0xd36dffec2f5d1cd2U, 0xd415e337f8e43bf6U, 0xff06190f813cf3c7U,
  0x38eb11dbf54bec18U, 0x51251fd5c21eddaU, 0xe0da263c49f21a3aU, 0x2aecd5b6ea05f7fdU,
  0x19e9d11ddc33030dU, 0x10e840ea7ff13208U, 0xf6f6f84ce0b143cbU, 0xe135cf4e0fdf641fU,
  0xdda2fa28cacff8ecU, 0x24760adae2ce6bfU, 0xf4a211cacf26ccfeU, 0x51450c0b53093408U,
  0x3403322009175aebU, 0x214f54045ced2bfeU, 0xec7f46badb5406a6U, 0xe1c3ec6a0ec348e7U,
  0x4fdc12250211e9d8U, 0xf2d5e6e3330af4f2U, 0xc2d84b3f0bfe2912U, 0x13e9c0ff7f200521U,
  0xe5a8dbdb3e28fdf2U, 0xc40a352edfb12ff2U, 0xdec303d831b75101U, 0x228d00a3817e2f9U,
  0x60fc30f210deba3cU, 0x3cc2e516efd12807U, 0x4885d17f94bdb3f9U, 0x464e09c232601d4dU,
  0x38d168533a479c45U, 0x2be938f4192838e0U, 0xef02e7ea04ed13d3U, 0xad4505b91cf42e2aU,
  0xc1aacbe7522922d4U, 0xd9f7ef99be41e8a7U, 0x223c4001f359fb97U, 0x2fc97fff03d034cfU,
  0x138789be3cbff26dU, 0xea3cc46d49526bdU, 0x18adf8b14c32deebU, 0x8337f4f6be0ec6d5U,
  0xfdd2e7ca3081e5caU, 0x1a14c9d5bbdffc8aU, 0xbf330845131ae202U, 0x333124fbd0d3300dU,
  0xd76b1af6c7d6200cU, 0xeba8addaf93bfff0U, 0x63590c6fef2109daU, 0xf1a1ecfaefdd5f38U,
  0x19b433ea05c8e5d3U, 0xc6b71d0d0cfcfff6U, 0x58f41ddf49ef19d6U, 0x4356ef0aea4cbfe6U,
  0x47c6bd7ffa1cb6c2U, 0xc9b197c90c4009b2U, 0xe2f605af7dbc3f22U, 0xfc44647274224c6U,
  0x1d25cdfdeffb4594U, 0x5254fc47a6290148U, 0xc2adc9ad81e52992U, 0xdcbd17b14e46f5d6U,
  0xa633de9f2512a816U, 0xddbcb4d30cbbf50U, 0xb4e12d08dc1f10feU, 0x5023cad87fbb06e0U,
  0xf71bf1de4b02d558U, 0x2696d9a9dbc37fb3U, 0xc42beef7a4b22758U, 0xdf343cedb32ef63eU,
  0xbf135463c2028b8U, 0xf1dabea2ebef09cdU, 0xf6a5fe2b4ea25d26U, 0x2cc5eadd7c3e521fU,
  0xc89e8565bba076dfU, 0x9935050946bac6f8U, 0xe305f68aec552efbU, 0xbecb9defe7fc1c32U,
  0xcb05bb8b4ff8f8f2U, 0xf6d9faf8aacda27fU, 0x1f2e2fbf7a4940cfU, 0x1594116423362f24U,
  0x1f4082dbd3d2ef98U, 0xfa1dbbfc5ef34e27U, 0xc547e7fe39ff5d05U, 0x96c850e9a00dccccU,
  0xdb64c4a530c8fef1U, 0xdd1d65eaf12adb7eU, 0x1e2a2d431e4e2200U, 0x7f65143918b423b9U,
  0x179db509cbb818bbU, 0x8f81cf9c15e2f9b9U, 0xe665011d203000ddU, 0x4b6146f39bcb8947U,
  0xde2fd8f2e395b0ebU, 0x321c53e5622258acU, 0x54aad9ede7f6fb2eU, 0xcd1cf8d8c0479c33U,
  0x51150f078f16b9f1U, 0x2e1b17953b2318d8U, 0xbfe3f068f52ee2a8U, 0x27c71701ee0af0f0U,
  0xb09f1f19dcc4eb8eU, 0x507fcff7c2e21998U, 0xc013f1f122083040U, 0x4bb55990fb82d0cU,
  0x251ccc862c22c17U, 0xf418ad134d34c31dU, 0x25f30f1e990d81fdU, 0x1c0337cf9b5820d0U,
  0xf876dd00e1132624U, 0x18e928d12a1ed90bU, 0xaa2f3af80121ead2U, 0xe11ef6064d5dbe08U,
  0x2617380dd4c3bed4U, 0xb8260945c9fc3be9U, 0xc11bf3f2399e294cU, 0x47ecfec4c201f9c9U,
  0xf8f900d02e0ae821U, 0x1db3a8dbe7fc2739U, 0xef436cd97fdaf331U, 0xb9b517372cf917f7U,
  0xde13d136d0e381d3U, 0x1c3be0ce717ed43U, 0xae44bf0eebc56ae0U, 0x1ef61b3eb118dfd7U,
  0xc4fdd9e81967b6afU, 0x24efd923f8e1d2b5U, 0x1c4159fb55e8b8b1U, 0xd3faf85d1ddb38daU,
  0x96c6e74ed8aee056U, 0xcf0bf0b312dbcaf6U, 0xdc7f5213b05115c3U, 0x42750ff712c1b400U,
  0x60edecf5da10384bU, 0xff5c0ddb35c20739U, 0xe43b84ae3e391821U, 0x5e1359c96f0a84bU,
  0xe372d9efc5201dfU, 0x24d03b1d21f6cebaU, 0xa1ace524d727abb8U, 0xf3d548f578ae7fe5U,
  0x1ce10b353507e31aU, 0xe2b3d81433250d11U, 0xd5d7c5c61bcdafe4U, 0xde3658fd0d2dc21eU,
  0xa4c40e2ff82b22e5U, 0x15f739d447421d2dU, 0xefd91a035cfe4cc8U, 0x715d5a94f1c6fc9U,
  0x243823a725e0dfd6U, 0x98dad449efc6f4dbU, 0x5ce66b0af8562de7U, 0x9449684e1db75081U,
  0xe8d80e5304c520cdU, 0xa2cdce23af04e10dU, 0x4cdf02910e251127U, 0xccf338b3da06f53cU,
  0xac38decef0edd110U, 0x517d2dcca4faffdU, 0x292c7f11d65316f0U, 0xe63d150ed70cf8feU,
  0x2ee522b709bb3546U, 0xe60b5f2224a63522U, 0x81060f327216dce3U, 0x2d21f11f042231f1U,
  0xb103a2be531fb2dU, 0x5520a1c9b4f3fb39U, 0xc630e6cb4b2a23f6U, 0x882030c6646f130aU,
  0xb302b29110fba49U, 0x14fe41ccdcb73f75U, 0xd65fdea00b0b2b27U, 0x3c1eaa33d449009dU,
  0xcf760bbf2750182aU, 0x37fbc63ab493eeU, 0xcbe0bc5add9c4abU, 0x45a77fe7034bf5c6U,
  0x1a05dd0fe6e3e0f1U, 0x4511613a3b23f93dU, 0xf7e31ce0a846db11U, 0xf5d1c2d738d13ae8U,
  0x21d1e6320d07b6daU, 0x491318fcb7c0e616U, 0xd82ec2b3fdb28130U, 0x311be3fc24ccf2f0U,
  0x22cf47bc6ad7f19bU, 0xe1cff2141e0f6acaU, 0xca9dfe3c2537f0b0U, 0x3214f016da816508U,
  0x9203e603200a1e5bU, 0xf4fbddf91de5e695U, 0xfa16ffcfebf2b5d4U, 0xc405f7cf2be01be3U,
  0xa7a835040ff87b38U, 0x9cfe8856aea77ffU, 0x93604a57b43bb826U, 0x67f8eb1bc069b416U,
  0x831366bc0f2f6369U, 0x32bda907f6812e25U, 0x2fe6ad1cb1d0b4bbU, 0xdddd5bd602fc7c8U,
  0x1c2b02301c4754dbU, 0x655a3d90ffcdc7a5U, 0x7ff3c32a2c8b2a05U, 0xd073a183f5c1bdbU,
  0xc1abf3ce9cfa0cc9U, 0xcd317642554d7736U, 0xbe7be0d03bd4fc1U, 0x7a57c02c36e0ca24U,
  0x20386c691af2fcbaU, 0x2d22fa204f9d15bdU, 0xd7e0f74154e1d44eU, 0xe512dbd3c65670cbU,
  0x185b351d1ed2bdf4U, 0xa001ba01b53f3ed7U, 0x23e2e2d47a29feccU, 0x2bba7f1bd7c1d7f7U,
};

STAI_ALIGNED(8)
const uint64_t g_network_conv2d_11_bias_array[32] = {
  0xfffffb7d0000383dU, 0x48dfffff91aU, 0x3e59fffffb1aU, 0x217800000c39U,
  0x154cffffd7bbU, 0x287afffff0d9U, 0x4811ffffdd51U, 0xfffffe31ffffdb2dU,
  0x24660000170bU, 0xffffe96b0000289cU, 0x13b10000188aU, 0x3036fffff3cbU,
  0x38e600000381U, 0xffffffdcfffffebcU, 0xffffffdd00001beeU, 0xfffffe8a0000093aU,
  0x3baffffeea1U, 0x220400002ad0U, 0xffffd5c50000082fU, 0xfffff47affffef75U,
  0x4cc7ffffd3f5U, 0xf5600001dedU, 0xffffff9b00001fa0U, 0xffffd90f00002bd5U,
  0x220900004627U, 0x6f8ffffed70U, 0x16e4000022a3U, 0xfffff07800000d16U,
  0xffffea8a00002332U, 0x13d2fffff6ffU, 0x121600002b21U, 0xfffff1b7ffffcdb1U,
};

STAI_ALIGNED(8)
const uint64_t g_network_conv2d_12_weights_array[72] = {
  0x9981c442b9ff0fa0U, 0x8181d2869ba023adU, 0xc088d2811c987f81U, 0xac0bbb1bd5f7cd5cU,
  0x7fc5c41c7fd27f34U, 0x7b95195bbff2dd7fU, 0xa12ac0e8aca4813eU, 0xbbae81f0cb9e0540U,
  0x3d4581817f813094U, 0xffedc9d224817f7cU, 0x98138cf5636c736U, 0x5e7ffe09d43adc7fU,
  0xe32deb5a907f23faU, 0x6edf7d4b1a6f7f28U, 0x2ad2f07fd43df4e6U, 0xe9278957e3042a33U,
  0xd8ec0fc915bd816cU, 0x4ba2ed142c6b40eeU, 0x6645121397f3692bU, 0x818b310284a2e33eU,
  0xf3d3dcb11736e890U, 0x86b47f04e5e3fc2cU, 0x1f2fea2702f9c750U, 0xe82e127f02d5cffdU,
  0xadaa928a64ec4b7fU, 0x3dbaff818121248fU, 0x390cb563bb2926eeU, 0xa634b298f40dce19U,
  0x87557f71585ac981U, 0xb70e023981c92fd7U, 0x1b7f7f5d0d4a6781U, 0x81e9870a0b0c8119U,
  0xd708d0ef2c1855b2U, 0xf6476c146fe37f81U, 0x81d125417f06d032U, 0xa752217fafca7802U,
  0x5c7ff17a3626f8daU, 0x818166811ed32c25U, 0x81f5530b7f2cde59U, 0x43a44aef7f84dea0U,
  0x7f3a082fd3d80c37U, 0xc8b87feb05a4ec23U, 0x5253875ce9f69ab8U, 0x59c91f24811be7efU,
  0x303df581f906ba46U, 0x34ed41fa44a45029U, 0xc3edffd4e92ac117U, 0xe762e8c1d8d60981U,
  0x7908f54004bcf818U, 0xccbee814fab6076cU, 0xcb014ca65a7f1b58U, 0x11017fe46ff37f98U,
  0xe2fedf29d9fac32U, 0xc0e85333e31ed61fU, 0xfe3f33e9fabb0d8dU, 0x2c8168531e13fb5aU,
  0x8c3303de1139fa8eU, 0xf547d51db008ed45U, 0x11dd5443f8c19d43U, 0xa573181cf9eac5dcU,
  0x3afc08dd59e3f4e2U, 0x8baa56549b81c4afU, 0x35141cf802b62aebU, 0xce7a58ecf67f2d8eU,
  0xb50789cdc035d623U, 0x64ecb6d6dd5343ddU, 0xf32681030bcb9022U, 0xfeeb2c4a7d7f1449U,
  0xbef2390f61d657b4U, 0xf8922d3408bbc824U, 0x35ff0eb80881eafcU, 0xaab1fe16d3ca2b44U,
};

STAI_ALIGNED(8)
const uint64_t g_network_conv2d_12_bias_array[32] = {
  0xffffffda000012d2U, 0xfffff60000001601U, 0x1b8b00001192U, 0xbaa0000118fU,
  0xffffe54600000a5bU, 0x88a00001673U, 0xfffff91500001fa4U, 0x4380000155dU,
  0x7d8fffffdcfU, 0xfffff77b00000a06U, 0x6da00000357U, 0x9e5000019c1U,
  0x55bfffff037U, 0xa6affffffecU, 0xfffffc4ffffffe71U, 0x1641fffffa12U,
  0x5c8000014caU, 0xfffff74efffff5afU, 0xfffffbfcfffff44dU, 0xfffffcfbfffff105U,
  0xfffff710fffff607U, 0x147c00000ffdU, 0xffffdd73fffff0b7U, 0xfffffc8200002564U,
  0x54300000be4U, 0x73cfffffb53U, 0xfffff4dcfffff3c4U, 0x6d0ffffee5fU,
  0x112400000007U, 0xfffff3fe00000a73U, 0xee6fffff7e2U, 0x151300000a00U,
};

STAI_ALIGNED(8)
const uint64_t g_network_conv2d_13_weights_array[1024] = {
  0x81fc49b4d1419eeaU, 0x33998708ec325ef9U, 0xc1cb7d2137279505U, 0xaba63311312d31caU,
  0x13195545f834db13U, 0xe0e4dded540334edU, 0x1a04e0caf32524f8U, 0x41000ef761634f9dU,
  0xce0805c958eabbc5U, 0x26022f46f455d781U, 0xf5c3252de4ef29e2U, 0x1360480a2cd8fca1U,
  0x11df98cbc756404bU, 0x2758b3e62254b311U, 0xb0e3553f931af0acU, 0xc3cf3ef11c27f835U,
  0x3f534ec48fbe181U, 0xc54736dedd1e2a1fU, 0x17f10a194c56b7a3U, 0x310fce33b02b382aU,
  0x2949e2ae3216f8bdU, 0xf7f3f92c10294b1bU, 0x61a0be926f31118U, 0xfb41070dc54bdc08U,
  0x4f1ee914fcf90744U, 0x7330057f0126f7f5U, 0x5bf804f71a029b29U, 0xd4410da44b57f35dU,
  0xdac41a1208dcb731U, 0xa32bfb1ce01cee13U, 0x2978cff6b5bf3bc2U, 0x4e4d6f3002111f3U,
  0x1d1eb0d8856fcfcU, 0xa0ea4b3aeb1c0bd5U, 0xbffa8534fddc01caU, 0xcad6eb2af03a5af8U,
  0x2911d7f418e80853U, 0xadd421dcc8f531caU, 0x36a1c12028fad05aU, 0x2a01811defc825adU,
  0x11fee5eab9fd1b36U, 0x3d19e23dfcfade13U, 0x5c1227eec7330f16U, 0x1330ea2d3a208efbU,
  0xacf6c43dc7f90605U, 0xebb7279652fa56cbU, 0xd42dd07734fa54baU, 0xe34cf0ca61f5812dU,
  0x329d1bf382522f4U, 0x15032ff642233b1eU, 0x381011b02c311737U, 0x3feaeb3ae015f5f6U,
  0xf5da1f28f941f0cfU, 0x44101c37e234eeU, 0x7ff725cddc141422U, 0xb73ab0c21f45bae2U,
  0x622ab943cdc5e8d4U, 0x13a62aace68ed5U, 0xddf2050550e129fbU, 0xfa47e2b91a2aec8fU,
  0x38eee408d1ce3392U, 0xa0e12b75881e0fbU, 0x3e071b280f4e6194U, 0xf83515dbe41ca9d7U,
  0x19e22bf7240219b0U, 0x1636c27f66bcd5f8U, 0x27c5b72531d528deU, 0x1fe8eb0a22e9e7d6U,
  0xe3a59ed11459eae9U, 0x9a1d502ed3a524ccU, 0x5ed3b5332712e2b9U, 0xb4fc20104f79cdc3U,
  0x3207e59c5dbf0130U, 0xebe5ed2c2074ff04U, 0xce10f3eb353ce4e3U, 0x861b98f1ef67e43aU,
  0xbe7c5f0e6fa0d18U, 0x2e3e0b9f06f70f36U, 0xf5521bb632247fcbU, 0xcd0cfeec4df3a0e3U,
  0x9227a82e43600c99U, 0xc93d3b9934c3f34eU, 0xc450e8b4e2b4d853U, 0xc942825c2741dfcaU,
  0xf0b5dc4dda04c457U, 0xd33ec41e4ce34cb3U, 0x321102abf3b3fa38U, 0x51a52081230ac23cU,
  0xe401fc07efd326f8U, 0x34eeed58f929361cU, 0x2701aa31f31fca33U, 0xb6e5095eeafb2ef2U,
  0xf9e9a9d1cbf1d616U, 0xa2bf062515a0220cU, 0x18f2f3d151e30af0U, 0x3fffd5b07fb49b9eU,
  0x1e14e10d813eedabU, 0x183fc9dc1ffcda9dU, 0x930ca6dab9cee445U, 0xcad1a0ffb7b1fc17U,
  0x41b8d3cfd505e4dbU, 0x1e0736235a1bda97U, 0x85a900037eb4a266U, 0x5300816dbe54069U,
  0xe7e83d32fec9ea0eU, 0x51b9bcfbebcc1853U, 0xc58a45fa1cb50729U, 0x410309e9e9180aceU,
  0xb84581cb00112ad4U, 0xdd90511e43b44baU, 0x31c9b09b070404f6U, 0x5067c731d0753765U,
  0xf87fb94d8e042d3fU, 0x30ea9fd357360403U, 0x3cd7f2c91ef8289bU, 0xf0377623c7883c89U,
  0xd438c9de212ddbdaU, 0x3722f71e9652f617U, 0x23e1c2b015d02a0dU, 0x2c2f1cca4c24fcd0U,
  0xaa532226e14c3830U, 0xee03bf38babdd4e0U, 0x4646ed252308fce4U, 0xef1e3e27cef86015U,
  0xff43f341fdfbb209U, 0xfe1debcf5205f6d7U, 0xf422c9151bdb121bU, 0x3716ffecf0814e0bU,
  0x18111bca980445f8U, 0x11cefb7f03c2d848U, 0x3038deeb32bffdf6U, 0xd0e1022bb54d86efU,
  0xc91a1dec2637aca6U, 0xb0f0fcf6eee8c30bU, 0x5e07c1a307ab3116U, 0x235dd494305a709U,
  0x96bedac92723bd08U, 0xe0aef1fc0e4f08ddU, 0x17efcd8100fe0ed8U, 0xcdf6fe1b35fd1edfU,
  0x27beeae0f22ce041U, 0xfb616044ae329b9U, 0xa9d514e523982635U, 0x561116d5df2e04d3U,
  0xcccfade715f8e237U, 0x347b7fa71f60d931U, 0x48402c9911f19652U, 0x412a41d6f00aa1d8U,
  0x3a2af2e420c9ea15U, 0xce01090ef5c22d6eU, 0x501f0458622cc42fU, 0x4efff91fe5e7e3cfU,
  0xcd6e00ff062b0a00U, 0xf537ceb0ea42a8e5U, 0xd3effedf194feac9U, 0xde0c32cd25dc27e1U,
  0x3611a5410fcc1281U, 0x3043b2820486826U, 0xac91dbd1461083abU, 0x3401b223baabd637U,
  0x7babbbabfa2cb4aU, 0xd55cca3e3bbd30f8U, 0x19de51610a081e06U, 0x4433f6f71202080cU,
  0xcfe681373650dad3U, 0xd64d17019bce04f9U, 0x20b3cffcf30bb44bU, 0xfe72ee2290d4f11U,
  0xf9d3e62c40c281e9U, 0x22d0b4e609142514U, 0x19091ce0e4123dfcU, 0x65ae21224dc11120U,
  0x30dcd7a70b1017e3U, 0xf69c1d00d2e832eeU, 0xdb8f0fb62fd334f6U, 0xb002cf352400d534U,
  0xf2fd2517c00351eaU, 0xf7255e2e0afe21b5U, 0x46d038d41f52f4bdU, 0xd4d3cec42729fb45U,
  0x4bcb3a1d562d3fcdU, 0x293933e36bfdb8c9U, 0xeef5b8ff45dec627U, 0x12b27ff21526fd5aU,
  0x18f153f5e1d1c4e3U, 0xf8fd1299dffa0cf9U, 0x48271fe102eb20faU, 0x5d62f4e412f0a0a3U,
  0x6021758101ba420bU, 0xa8dfa6f0280ee15cU, 0x1bb301f2104ef0e7U, 0x17e92df3f32efdcfU,
  0x22d61941e3361d6dU, 0x2fcdac25c6184f47U, 0xffe12627c3fbe268U, 0xf4e1392d1d193c26U,
  0x9c13f1cfe73bc41aU, 0xf1eadafb1ffdcfbaU, 0xd534ae8149c6414fU, 0x33ffda3faa5e4f2fU,
  0x33ece93735520fe5U, 0x235df3f1f4068c63U, 0xe607edcb28261d81U, 0x52fe904cccfb8f33U,
  0xe339ea17b9db080aU, 0xec4e3c1130fd12f2U, 0xa73ae75667f34131U, 0xff43e8bacd058214U,
  0x4548d7280caef846U, 0xe505df2c31f4e4e9U, 0xfeae1d2253f2bb3U, 0x5811e750ef3902fbU,
  0x2fe88f0156a9c995U, 0x3b81ffbe021040b1U, 0x32b30c3fce602a5U, 0x10556cfbcadcfcc2U,
  0xd33aaa44ff0af741U, 0x36ff147abc9edd17U, 0x2542e52b3724d2d6U, 0x130c0608c0fb3628U,
  0x8b08e7d3d4819edfU, 0xcbfb4a02f215fc25U, 0x1f08ecf850eb3fa3U, 0x153644d81e3dbad3U,
  0xe803f803f2e306d2U, 0xf0f031f329d0dcf8U, 0xf57f2016e2dfd618U, 0xfe5bfd10f6d8e8f1U,
  0xe12113eb17fcfcfeU, 0xac2ad7b9d8fff3e9U, 0xf8b92925f6b3d61dU, 0x3f40cec9ebdbc3e2U,
  0x27120e3505f02fd7U, 0xbc22013ec806e0f7U, 0x2008e5f2ef8c01fcU, 0xc2b316bdda4d10f4U,
  0xf7bd271d00d448deU, 0x1c3c8137c8de98dfU, 0x16f3f42c8c084257U, 0xdff4c44fe30534edU,
  0xfc1b08d020dacf46U, 0xbbe2b7dd3fd5ddbbU, 0x22e8e23513c70895U, 0x9b75e5d71844dc13U,
  0xb60c26d41622e92bU, 0xe4c4dedaf668aeb3U, 0x3a142fc600360d7fU, 0xc43c293cfce634c2U,
  0xecdbbf30531a0ddbU, 0xe1575408bdafe956U, 0x479cd47f2f07e1cbU, 0xe215e3cef0fbf807U,
  0x430415e4c9dd4ae4U, 0x52fd154ff2250d28U, 0xac08c521f7040bbeU, 0xa3d0b3d80ee9acf4U,
  0xcaf6e15a0a030c27U, 0x30e8d624f6e4e0f7U, 0x56d42d374634f7deU, 0xce21e54ef0ea253fU,
  0xf3e0d5b5e9dc1fa8U, 0xf3157feccdf866daU, 0x24d34d3153010727U, 0x273a30729808f5c6U,
  0xd6d306564c0756e0U, 0x2b2ca779fe84cdf1U, 0xb632d31f32190698U, 0x130afe1f7f7d339U,
  0x333cd612d22989d0U, 0x63195ce8b33dd761U, 0x7f58ec466dade107U, 0xc24d56b8b3a3e9d0U,
  0xe8d10bf3cdca08ccU, 0xd52be2db1ae1d34fU, 0x3c3406f93b50fa0eU, 0xe026cf38281fe402U,
  0x1937cdd435f6bd81U, 0xf0f3258cdaf46c9U, 0x27f61ce701ffc805U, 0xd6f31900131568d9U,
  0x1f5fe2195f00d5b7U, 0xa61eeeeefb0b57caU, 0x27e58ac9def43f42U, 0x15f7ccbbbfd0718bU,
  0xa4cd2ff72e26cc3eU, 0x335bee5223557edU, 0x81c4dae1f1410f97U, 0xccd3a6cdc5dc63b0U,
  0x3f02a8e7f3214dd8U, 0xe6e1e8d105bfe1c8U, 0xcdc10b11182f441bU, 0x2defd1d2de0b1cc4U,
  0x72bf9cd3fe1dc03U, 0xc9efae1edd813841U, 0xf6192239cf1ca401U, 0xbb354fe510c63748U,
  0xfa4cfcd33f34dcd9U, 0x81e2e7b501f02ecdU, 0x29130af9ef44bac9U, 0x28273474d11305a9U,
  0x2dd3d831c8f644f6U, 0xc5ecf66747dd0d21U, 0x15c142c9fdff0f95U, 0x2d22e023fad84ebdU,
  0x39471f1ff84c4243U, 0xf943c2ba9badd872U, 0xfb2dce0fd6fe1201U, 0xea90432a39cc1606U,
  0xec532f17e6beb66bU, 0xfade1f13ba4be100U, 0x257fc72317dc0cfdU, 0xfa0837fef72620acU,
  0x6fd08fcc2da2daaU, 0x2127c4f4f9ace3d4U, 0xee21ed8ea2db07fU, 0xeedfddce06ef2847U,
  0xe23aedf20cea2b41U, 0x1ec71d106d59bb00U, 0xccedb51d4dfad0c0U, 0x11513aade3eaf42aU,
  0x11c151c435e5c5e3U, 0x3fe007d1ca4f1f81U, 0x1115f1e7b6d81f3dU, 0x18301ebfd4f7b9b7U,
  0xd5bfddc6f8e734f5U, 0x9b3459372e81bd3dU, 0x2e3f52cbd03fece2U, 0x2717e7b9d23606c0U,
  0x630020d8d13d43a5U, 0xd95705d812258d0aU, 0xd507da18c533d5bfU, 0x473fb215bb058c3bU,
  0xbef81a029ec2b7c6U, 0xdbdbbdae1aecee27U, 0xcce9fcd77f59d10dU, 0x363f133d26fdec04U,
  0xee63f9b51bfbd5f3U, 0xf5ef1b05f126e0e0U, 0xe23a5d0a251a16d4U, 0x2312ef4f04c642fbU,
  0xb6ec03dbcce7bf3fU, 0xc0c516d9c3138a27U, 0xf5eff3321aeeecccU, 0x7fee3d1fe40c12ebU,
  0xbe5c015daef2915U, 0xcd81c157dce6e0f5U, 0x4845c4ff0eceb2f0U, 0xe01b26fd1fef5897U,
  0xd90af8f206bb1deeU, 0x230b20ec4aa8c301U, 0xa99f0fa4dd09d7e8U, 0xd4bfd696f1d4bb15U,
  0xa914c4d3d8a10cf7U, 0x7390b3e2b99dd0cU, 0x47cc19c8fe2de1beU, 0x81c3edb6ce34df39U,
  0xd0b5dd137fa2807U, 0x5608ac53c62df5caU, 0x11ec2dfdcb9e679bU, 0x2214c731f4be4e5dU,
  0x4522ecccdb261064U, 0xfadf011cb59946e6U, 0xc43f812117f0d12bU, 0xeaca5be3fc0e0d49U,
  0x11b6d536c939063aU, 0xca480beaa22e6c5dU, 0xed0f1ce7910ce7c0U, 0xbf1f0ae5669bf290U,
  0xc00a7fe4fcd60228U, 0x3f2e3dbd32450bb5U, 0x300d490a17418fdbU, 0xae0b10243f97dfdfU,
  0x43f369b6b4ddce3eU, 0x15dca0470ecb32ffU, 0xfa41d5c5a090aa73U, 0x354e3d04e3162c21U,
  0x50f13a47c0cc84d8U, 0xc3f2bbc015bd2604U, 0xdb3941fce9b708deU, 0x6de0d4ea495e0f9U,
  0xc784c6269a550deaU, 0xb6d0fcfd1f55ac03U, 0xb381d94efed5e717U, 0x3559f84f1b3b31d7U,
  0x19240ff7ebb9ebceU, 0xb0cfe0c3232fe0eU, 0xcdcf472ac1001af7U, 0xcd30200a1a0f1af6U,
  0x812cd125411aa6f4U, 0xe43dcad2200beff6U, 0x37d8f11ed5fc1c0bU, 0xee10f04a010bf2c3U,
  0xdd03fa5c0a1b3bdfU, 0xf1acf315eff80601U, 0xca620634620261f6U, 0x114dd02301223dcfU,
  0xcdf3149f3537e538U, 0x3110073bd77fab00U, 0x4941232f2941d806U, 0x4e5109681c083ef9U,
  0xa99c600a26add139U, 0xde28dbe7074ddd11U, 0xf0ee10d9c3bbd921U, 0xeab6b7caebcdc4cdU,
  0x47d837242f1c7fb6U, 0x47710cc4af26b6e5U, 0xdb180604c26d312aU, 0xce19f2425ae849e8U,
  0x5dc1df2c9d80936U, 0xcfca0ee7df1611U, 0x5d8574444221710U, 0xbd21c7f40435abefU,
  0xfa2512ed3dd41281U, 0x3139faf7f8aa3211U, 0x2e13b99db6d129d9U, 0xfb59ee32fc10ae23U,
  0x161fe7aa3343c14eU, 0xf303d02e81ec280bU, 0xc3b6e556302e0606U, 0xfe8f0f0e8cfea40U,
  0xacfe322806e2adf0U, 0x121613c7d55935e1U, 0x1d35c0fe270039e4U, 0x6e1f20a3d17fe27U,
  0xf6cf06fbd6d8f3cdU, 0x1d01f2c008c54219U, 0xffc2c5092361a9e4U, 0xccc81131b9a3dcceU,
  0xb526edb9eff51a4eU, 0x3ec320a881f909b2U, 0x1b44fb3fefcccadcU, 0xf15f8c7123d6524U,
  0x465230fadef5ddafU, 0xfa0b8f0b0003cfaU, 0x9af7085a1529d16cU, 0x242055047b23e565U,
  0xbed57f59d63f1208U, 0xddd1bdee39cebbf0U, 0xd4e52c0aecdc4c17U, 0xd7ede6ec3105afbcU,
  0xf3f9f1e61002792aU, 0x66fb9cc059eb3450U, 0xf0a52b40027f44e9U, 0xc6bb0eda10372ff8U,
  0x283b5eb0413cc9f3U, 0xddf6bf41ee2d2025U, 0xebcc00cbd3ee3ec9U, 0x3050e1c2c1c2a28U,
  0xe31bebcf125e1c22U, 0x4112284ade0be20bU, 0x2d18fb3fd00b07b8U, 0xc8061ac3fc1439d5U,
  0x16f0f42830d2ea27U, 0x12e8c715f5bc1208U, 0x9c2bdc7fe106fbf2U, 0x42f70cdf0c06d00aU,
  0x2047a62d22eeb741U, 0x32ecd965e15048d9U, 0xbe5d2b91ef028d2U, 0x6afa00d9a509ccd9U,
  0x2186c029e4ae118eU, 0xdc815ac8204319c6U, 0xd6d2e502250d1ec5U, 0xfb30c54c20bdf958U,
  0xf833e0ab6c43fb48U, 0x8b0205babb4afbfbU, 0x5fcf6f1219c7003fU, 0x4c8139d8d7e2b458U,
  0x65e14aead60873f8U, 0xbe54fe78f14de747U, 0xd3da9f5adf2a92aU, 0x1eaca077600e319cU,
  0x437b1573c4672762U, 0x42e655c2215bd1ecU, 0x1b8e2c2bdc8145f5U, 0xbae2ae2f46570a22U,
  0x55bb888112549abU, 0x328f38d7d5f8c4fbU, 0xecea63c24ce55dd9U, 0x5d481274f379eaf1U,
  0xb3f44a19bf3729e0U, 0x7f27f82c0acec34aU, 0xe9f6d44a13c62e9bU, 0x9df3a32c7eec867U,
  0x3b944af2b075cccU, 0xf1fadcf7e5cd9f2dU, 0xff28151002f86e58U, 0xe5eb1cd7dd1656daU,
  0xbfd233fd1de6e43eU, 0x27c1acfa20c313b2U, 0xaab71d0fdf0313beU, 0x5822d411d1e7f51aU,
  0xd022d60e097f00a6U, 0xa92751f8a74bd229U, 0xdcc78ee42f57fad1U, 0xfcf1b53eb786d1f8U,
  0xf8932553b1e4ed38U, 0x592e163ef427ea51U, 0xec0da220480105daU, 0xd5c3163a1e7f16cfU,
  0x13038df70cecccd8U, 0xe4d00a3a8dd244f6U, 0xd348d0b104f3ef1bU, 0xf3b7a3c2e6949fc5U,
  0xfff7039d4f2f26e2U, 0xaa0ce300c2f5fcf6U, 0xf2ae556bd6a5719U, 0xe5cbff3a5deda9fdU,
  0xf704d80a1abc143aU, 0xbad90e81d2f0039bU, 0xac4135ff1dcf3c05U, 0x11400f9a1fafbe1bU,
  0xaed84edf0fb1d806U, 0xcc0a3d8ee4d42aeaU, 0x135269e7120abc19U, 0x1cfc994d1b22c181U,
  0xe2f2b690b1673913U, 0x9eabfda7805cf09U, 0x214d50d001c25dc3U, 0x50741af01eb02dcU,
  0x38e928f517923fa8U, 0x76db18bb1d05b50dU, 0x50b41303d0fe080eU, 0xf802e0cc040405e6U,
  0xf10f1f35c1c237a1U, 0x1d2e9b2e4726c55fU, 0x47f610bc81fc2ad7U, 0xcf1b10f4bd27f9bfU,
  0xe14d41cdf5ea3538U, 0xf125fb4ba85a2915U, 0x740e5450f416ba1aU, 0xf920b3eada59b87cU,
  0x6cd74a93f5f31eb8U, 0xdc40b0e851debb28U, 0x1a2e81be0d2328f9U, 0xdaffbff70b222ecaU,
  0xb95d2a54df082021U, 0x5099e35f3a7252fU, 0xd137b43c1af2a5d3U, 0xabf3512bfa43fc30U,
  0x5b37eecba835b14dU, 0xb60315395db0d1cdU, 0xa37faee94bbc2de4U, 0x12c4f7255501b33cU,
  0xc1ccdf6bb252592dU, 0x770f8ce2c71b08ceU, 0xabe5e4e929811bd1U, 0x4f9a2cb22ef0d301U,
  0xd4e300e46116c3d8U, 0x721d3202d5c4cbc3U, 0x1025f9bce1ede327U, 0xc8ffe362ec2b28ffU,
  0xbd17ee010392cb53U, 0x23d9ad5cdc8c5dfeU, 0x39d0f9a802d81de2U, 0xc3f4af0d7138d2c4U,
  0x9be72df0ea66d308U, 0x902625ae1aa40ec4U, 0xf5eaf567b5b25af3U, 0x7f2eb0651449e021U,
  0xd3f3d281273fa0dbU, 0x2af62f28ca39f7a5U, 0xc26f6e4a1d15f29U, 0x269122cd0dfc42U,
  0xb2ce7d54911c0afU, 0xa6f2f8ae00f8302dU, 0xded7d3ab415cf3d3U, 0x5507c502e2c4361aU,
  0xda12a2f820f83509U, 0x48e6e5360f48853aU, 0x1631ede42e2039ffU, 0xf6f0e2fae20411d3U,
  0x4315bfefdead2b03U, 0xb29fa16310c813dU, 0x1e441a1b1bc905f7U, 0xf9e613ede0051df1U,
  0x552e3f4b4848eb7eU, 0xcd229b65ae41f66bU, 0x2335042b08510e5dU, 0x3edad5c3a517ed7fU,
  0xbcecf69eb8fa2bf9U, 0x68abd8cc53e768ffU, 0xe4108c4e0cab5a39U, 0x44ebbe4d5d93a2fcU,
  0xd5c5cc2809bb3236U, 0x4ec9d41bb1f3091dU, 0x39f3b6e8d302c957U, 0xee3b10de2ef7b0ddU,
  0xe5d7d2150bc02b0aU, 0xded3eadf26ae2932U, 0x7f0615ffe8261404U, 0x6eadb1d0514e72aU,
  0x8e15b01ab5f14c11U, 0x1d26257100814a16U, 0xe90dae93a03f26a0U, 0x25df5b3275c7ee51U,
  0xcac7ce5b25172741U, 0x371278f3f91ab542U, 0x48af21331eb00f37U, 0xc9093d5fb51f61d9U,
  0x6a09bbe0d30bceU, 0x2ae3ebe50a2cf554U, 0xc80bbce3a43ac826U, 0x2536fedde1cddb11U,
  0x1770bfe0b0a3ff5bU, 0x81e9c337ead0d122U, 0xe92c3609f0ea14cfU, 0x42e91994e69a2fc8U,
  0xef208071b4e3919U, 0x6d61d089cd71c75U, 0xe81bbae03adf092fU, 0x3581e128fa1d3202U,
  0x16eccd251b1d1504U, 0x4ac92847ddd4bc31U, 0x461ce6e255520bc3U, 0xeb1fea03cf38e9e5U,
  0x7f0c2dcf3e42dc6U, 0xa00b8dfcbcc61bf2U, 0x784b253b67f727edU, 0x2753d25c1162d319U,
  0x8e10b610df01acbU, 0xbb2668ec0cd32becU, 0x3109f2b4a307b605U, 0x964749396813814U,
  0xc42a182009a3bce3U, 0xe732c4fffa273e10U, 0x28fb2de03923565dU, 0x1615da23191a8159U,
  0x220ef1d128ee231eU, 0xb6b8a3364736e603U, 0x3fe22219c0c04d4U, 0xd5f00d0c19c52ecdU,
  0x3142d9ecc1ab1c75U, 0x1b09c4001ef4ecb2U, 0xded1592db8fe05beU, 0xb1f5ac4e56e0f412U,
  0xda425f34720dfde4U, 0x628f7b625ed1907U, 0x981e1e545eedf2eU, 0x2dbc69fd8f351c2aU,
  0xe843c210b9d9f31dU, 0xf820007c2e2be6daU, 0x6bb933b4b106bc98U, 0xdfccc038f1edc267U,
  0xc500990ec881c11fU, 0x14d62718d9124938U, 0x1a1b7f06fa05411U, 0xb822b43220621bd2U,
  0xff75ac0ef7f2ff30U, 0xf507ce20f7d3bf7fU, 0xeb25a0ddd83549d9U, 0xc0c2e3ad00e50912U,
  0xf1e49c3468f4e6f9U, 0xe0d52d1205b331e3U, 0xfbd5362ffeb1c7b6U, 0xd7c9f7fe19d2bffdU,
  0xb82ad261b54f2ff6U, 0x15cadd136713c8e4U, 0x413269e38d90ae2U, 0xe6e4d31225d1e34dU,
  0x282ce0412d59e621U, 0x1cf23f174bdd1e7fU, 0xc4ef0bbc4522f09aU, 0x4bec1141b11c055fU,
  0xfb62cf319934eda5U, 0x1298a9bf1835aaf0U, 0xf537f2c6e75d9814U, 0xd45ab5e02215e4a5U,
  0xe17f001c11ae365dU, 0x41f10a370b10302aU, 0xdc03d3a21ca8b51eU, 0xe42e67da22b4115aU,
  0x2cdce80e4033f0deU, 0x2ff3f3cc37f83b43U, 0xf7d01ee549d7d510U, 0x432337c9d3ea1b07U,
  0xf901df4620b422cbU, 0x2d00fe7f16ee38e8U, 0x2ee11416f9be181eU, 0x35dae3f8370d1410U,
  0xdbf2e8396a1ac2f7U, 0x430800200e1cc6f4U, 0x170adce64736cb09U, 0x113a20f500165ccdU,
  0x587f28315831163dU, 0x6092c041df5fa28U, 0x4a2145060c24a104U, 0x312042bcfdc66308U,
  0xaa42522f2f3f6c2U, 0x29b8f7f7058ac2feU, 0x1c3cddbf5844ec57U, 0xea5ce045b5b9ffe4U,
  0x9ebb68180435da51U, 0xadc7812c174f28dcU, 0xc3122561eaa44a5aU, 0x31111f3132ff4e53U,
  0x46262428b2bd36dbU, 0xfdd3dd20e84be4f3U, 0x64c7ff0a1eca551eU, 0xe023ba360ab022cdU,
  0xf82e0cd86a14f381U, 0xe94eee2e030d3cf7U, 0x4546e9eedddd0933U, 0xf0c41d2e9c0ee127U,
  0x251a9be344edcb25U, 0xe7e2964b2fbc4ce8U, 0xd50172fb20e730e7U, 0xc31fc3226dfcc3ffU,
  0x81cd5105eadc1bc1U, 0xcfb7c4d3fff31fd0U, 0xed817293d934352U, 0x47280a293d06193dU,
  0xd8230dfcfee2813cU, 0xcc2fd6fae0e5e81dU, 0x42eee4c2dad0cd03U, 0x30fd9ac8d6382df2U,
  0xbcad32f19f16dc2U, 0xe9f7190e1a2eff50U, 0xd508ce0b161f0404U, 0xf7ec9646d1bcf141U,
  0xcf6345497f4f234U, 0x25c04e2381b0144dU, 0xe0223af2df9d50d9U, 0x21bfc3673144452aU,
  0x58e4f6c6fc10321cU, 0x54d4fffdc410b4a6U, 0x42b3c64cebe5de5eU, 0x1d0a76f104e9414aU,
  0xea14f9c0f2813409U, 0xe2c5e3c6202e2edfU, 0xc817b6f4ef34e221U, 0xe033f30ebe0d0ab2U,
  0x6849dad55f323cb6U, 0x49c0a9e2f515ab9cU, 0xf90f3db0b91d12d8U, 0x401bc70327c03734U,
  0x2e4db7ea31f73a25U, 0xe2071e122b3305adU, 0xef0b7e505351613U, 0xfbcb9d81a5a6c3dfU,
  0x11252d641b481402U, 0x1d64140a1f06ce4fU, 0xc238eb31d4e9dce8U, 0xf8fa20cece0315e9U,
  0x81e5f31ff129ddcdU, 0x2460c15d6263945U, 0x29341e070500f7faU, 0x1332ad02d2a17caU,
  0x8fd15421858fc3eU, 0x1c113142fbc6e7d9U, 0x19dc07273f02fcd2U, 0xecc6171adff71009U,
  0x31fac5dabf02fccbU, 0xb9dd1ddf44b038cfU, 0x2ca9d2e6cc423d07U, 0xb8041bffda061ad0U,
  0x701374af0bcc15bU, 0xb143321700ed0927U, 0xc1f74541813fe8b6U, 0xbccd10b903a0b4e0U,
  0x172c0ad92ece1401U, 0xbff1becec00a1aedU, 0x7d60c47f92f1c43U, 0xf90ae6cef2b2f70aU,
  0xa52658d4360dcdd3U, 0xe1aedd81f3ac05cdU, 0x19f5da2a25041916U, 0x1b021fc5fbdbbeccU,
  0xc0525916d047d028U, 0xd7eb19abf70315efU, 0xa8ddec470729cb08U, 0x7feb444a401ec4daU,
  0x3bc30bd8f0d21108U, 0xf8ea7f9fca2a4b06U, 0x4a459b4f30eef83eU, 0xd1cce2fdf2decdb1U,
  0x9bb815e8ce2a6b0dU, 0x414fa2cda93ad86eU, 0x7f42559f23bfbdc1U, 0xa7d5b22d01e4dbd2U,
  0x40575ba7bc8800efU, 0x163829ff5eeface5U, 0xd8d83401f2912defU, 0x30a4e95f657d734U,
  0x1c40ebc6ab81dcc8U, 0xbefcfcae29dbbdbbU, 0xd1dd07a13db3edb7U, 0xc1eaddbd0489b6a9U,
  0xdcc6fb15da15ffc6U, 0xffdc04e35223052cU, 0xb41b5ed6d4e0cbcbU, 0x1ef2c923f712ef27U,
  0x2ef51a23c80e27efU, 0xbef10bccfe4825U, 0x8b22a1dbfe3ddb2U, 0x13ddfd40f4f731deU,
  0x73f270edd527fbbU, 0x3d23b0f4c80ef1cfU, 0xf322ea96b0192d44U, 0xc8ba1905d8dd362bU,
  0x8618f022059bcfd1U, 0x281776db28ecf4f4U, 0x94f1fb03fb91c7bfU, 0x1b34b03affe8b489U,
  0x931d0aa057347ff6U, 0xe7199522d2b1e81bU, 0x1928ee128ce723ecU, 0xada920c8a3e54258U,
  0xe331f504aaf942e3U, 0xf40266b6bae9c0U, 0x1a12e7dcc3bf4811U, 0x3afaa5b85d07dce9U,
  0x26fbd0436601c4e5U, 0xaf05af22f81244bU, 0xccd3de590a03c337U, 0xaadb3230e52d2001U,
  0x1341bcbef5f25b46U, 0xf7e51ef1ff403722U, 0x126cda12b51de320U, 0xc5b2fd0007e7e0d0U,
  0xdfe4de500148f70bU, 0x856cec4fea24217U, 0xd429ab3474517fbaU, 0xa23cc1b5e105e402U,
  0xe11edb003cc93175U, 0xd34d3e1ae4290d48U, 0x81453ffa02b2053U, 0x129f10f646bdd602U,
  0xea0f34a2131a7fd5U, 0xed30d45f3893c21cU, 0xc45dc6d2435f3242U, 0x31a346a21b8aeaeaU,
  0x5c404c2c9382137U, 0x1129d405ccfa5c9eU, 0x4adf3b2e070bb4ebU, 0xbab7381d2ad20e04U,
  0xb6b8183302283e81U, 0xd216e1b62b49feffU, 0x3deed5e5551623f8U, 0xd1fed7563dc3cf14U,
  0xfff7cd4736ca170aU, 0xd381a23f27ee2701U, 0xfafb01f81719d0abU, 0xc9e2131a0121fd05U,
  0x27e2fec900c5a335U, 0x12bf041e19024700U, 0xabfae8efc1ec47aaU, 0xbe3deed03433e765U,
  0x3ddce1e2b222d345U, 0x272ea9eaa9e5c9c7U, 0xbc45c07f1b370ab2U, 0x315ff6ace50d6608U,
  0x84f7bae09dfb8fb2U, 0x4cb810f768bf2e44U, 0x5aefb49ace8233d5U, 0xfde519f345c8b110U,
  0xbed2f013d72ddc35U, 0x40796081bb855eeU, 0xf1d5dd9536ffb04bU, 0xcac1ef170deb0fecU,
  0xe73e2c0d38feb713U, 0x9310f3718345db81U, 0x1bb82f55fac2ae3aU, 0x104448c6a174500bU,
  0x2a114713c322c752U, 0x24f60bd4b7ceb85bU, 0xd840fa1d280d2afdU, 0x11f2fba304d2d918U,
  0xa80b36c4a7059b7fU, 0x13c8e60d175f10f9U, 0xbd44c1f6071cc345U, 0xd7c6101f2ca8c21dU,
  0x61c07e03cfffef4U, 0xb0e5edf9f0132deaU, 0xa5e029a81144a4d2U, 0xcdeed4c1ef120212U,
  0xf07ff5e37c30900U, 0xa1190cc207c8f27fU, 0xc601fedd42fb0004U, 0xecc4b3c2a60e26fdU,
  0x1951970fba4730ebU, 0xced69adee1dfad50U, 0xef4046d8ad2fc6c9U, 0x64018c9c5031c3eU,
  0x9fd386d42ab950bU, 0x7f48ced49f586d2bU, 0xc1bf8f62cf3e504U, 0xc51ff4284fd00accU,
  0xf218dd200e27e01eU, 0x4f05630819dd1dc2U, 0x1e10f8ef4004c6d5U, 0xe4d4ef17c921b081U,
  0xa8c7f506b6140dbfU, 0xf747632aa103fb0dU, 0x29ffb031b8e1f22cU, 0xe833172829aa18bcU,
  0x938cfe7f3cdc9bfU, 0x318c315497fe005U, 0xd9100dabec33c637U, 0xf13118c91eee00d3U,
  0x380f2955201711e7U, 0xdc4e1e2a13d24635U, 0xd1c653e30d4e0e13U, 0x33e8db123801daf1U,
  0xf2bd08c7ddc312a2U, 0xe2e10015eb152832U, 0x1620fa2a01a2fc48U, 0xdf2b81fb320eaa3bU,
  0x3616ef3e5fcee2edU, 0xfc3da2db2a0b5337U, 0xe7c3ed2fdc40e712U, 0x3f08c215f8e1c9cdU,
  0x54de9ff617305aecU, 0xd4e8d3b827002b3eU, 0xf4051237f22e31e5U, 0xc1c8d9ffb9e72b4dU,
  0x4cbef3ef15696445U, 0xd86113c85dca570aU, 0x811ef39e00acc817U, 0xb6f3d5d734e2bb15U,
  0x88d70f25555fc461U, 0xeca9e9faeb401755U, 0x18153d77923b0d0U, 0x49110bf20fc610c1U,
  0xf38201d2d72b4395U, 0x3b703330669445fU, 0xe5d13fb231ef2831U, 0x1d129ed2439ec9d1U,
  0x1916e363162634bbU, 0xcabdba239f7effeU, 0xdae026a3f65e39f5U, 0x813e3bb01119383dU,
  0x5ef400ef17c20e27U, 0xe61d0122ebb60d28U, 0xc6cc3449f220d218U, 0xbc857d03bec4c39U,
  0x3b19b4c60140243dU, 0xfe2e5c593224e209U, 0x44022df232f5d720U, 0xf502e8111437e40cU,
  0x1a113d1efd11e101U, 0x22d2d4b08fcd1e8U, 0x47f202e08e72f1bU, 0xd4092b310cb8c301U,
  0xd3eb2e03ebdc81f0U, 0x6fc149df2661ff23U, 0xe841d8d37297cb01U, 0xc52994cdce7abb1U,
  0xa2b4d58dc2c1ff44U, 0xfdcd01fced36253fU, 0x65927b1f133f1405U, 0x5864fe24cc381bcbU,
  0xa281cd1601050dbdU, 0xf8f6334052dce209U, 0xe4c223dec5e30b21U, 0xcaab03161b2ef329U,
  0x22e928d409f81351U, 0x17485762ef1f131cU, 0x41d0165ba0480443U, 0xeefdf2ea1f6aa5cdU,
  0xed1e25a00433a93U, 0xc8243222633e4341U, 0xace93a342135e319U, 0x3536b77ccb30e9c0U,
  0x11cc004c183044b1U, 0xad09ed7f3315880bU, 0xbc081df81f5a2bd1U, 0x55c387dca1fe2b54U,
  0x1e53e639e9c930d5U, 0x110f57ee52b812eeU, 0xdccce319daa9191bU, 0x418e703d2103dc9U,
  0xf2f4f8b70d2008fcU, 0x6526e6251e39d4ecU, 0xed34fa81b7ed3303U, 0xe34417bac61cabc8U,
  0xdb020ed1367fe44bU, 0xbcbaafc2fe930e0U, 0xfa01f42b16f423d2U, 0xe81b2335e3e4e0b0U,
  0xff0965190825c0f7U, 0xee0c1e252ab9114dU, 0x9f9bca5ecddc1394U, 0xdbd96f2c57f80012U,
  0x31c098275edd9ac4U, 0xc158c007ae3390beU, 0xddda1118290ce2eaU, 0x22270bf3cd2508f1U,
  0x3f21ea037ffe0317U, 0x92d64dbecb829edU, 0xfc19e715955bcef4U, 0xd3fe0da0aa28abc2U,
  0xb65321c0c9ddd1dcU, 0xe6241fbd14b01520U, 0xe4c016f23f15f831U, 0xcae7217ff8af270bU,
  0x22e9a92506078300U, 0xd2265c45f6b8a647U, 0x3cb12131f5c3acbdU, 0x30233df2e297c8f2U,
  0x10c240d2f7f929d7U, 0xbdc4c8b2de4ec224U, 0xde5c220901402a81U, 0x5ed409e0eef351d5U,
  0x2e3b49318eefd512U, 0xd026170dd7d71ed8U, 0x7a2060301f52b11U, 0xf02124ae06d71a3fU,
  0x1d360c8117de9617U, 0x2a3760d70ce526f3U, 0x17d1d443345ecfbdU, 0xde8eba0dc2f0259U,
  0x31326aeedeee80cU, 0xc5f096bdebec4309U, 0x2d39f240f9c8cf22U, 0xf23de0e0d3de0f32U,
  0x8c72dcfedcbc53bU, 0xf7d7fff32e3d5004U, 0x61b862e4b7b92df7U, 0xd981ffd442ccf71aU,
  0x4006f235aed5d6c0U, 0xc3f8c1e919e4b320U, 0xaae8de3cfc3318e7U, 0xf207e51e0ce24af9U,
};

STAI_ALIGNED(8)
const uint64_t g_network_conv2d_13_bias_array[64] = {
  0xac3fffff131U, 0xffffc9bcffffd831U, 0xfffff0c0000020d0U, 0x35f6ffffca45U,
  0xfffffa9000001a1eU, 0x2e7200001b16U, 0x80d000038aaU, 0xffffd991fffff36eU,
  0x28f800002d30U, 0x2285ffffd38dU, 0x2507000005f3U, 0x16edffffc059U,
  0xffffe3bcffffd616U, 0x55000015e9U, 0x1c9e00002f4aU, 0x14c700001ad0U,
  0xfffff0b4ffffd76dU, 0x324a000008feU, 0xd8d000015fbU, 0xc65ffffd666U,
  0x1d81000035e4U, 0x63ab00000eb4U, 0x17d0000020dbU, 0x4016fffff0cfU,
  0xffffa014000007b4U, 0x154a00000a83U, 0x32f0fffff287U, 0xffffd0b10000086fU,
  0x213effffebd8U, 0xffffc705ffffe6feU, 0x4402ffffe7ecU, 0x1d7f00003a5fU,
  0x1f2900002816U, 0xfffffa16ffffe4f9U, 0x230300002c10U, 0xffffec1d0000290eU,
  0x806ffffc1f3U, 0x2fd6ffffc39dU, 0xda7ffffdb3fU, 0xfffff32cffffff8fU,
  0x2d2000001f07U, 0x5d8ffffd4d8U, 0xffff9c8effffd70eU, 0xffffedccffffe830U,
  0x1fd7000005caU, 0x2587ffffdac1U, 0xffffd3bcfffff2e4U, 0x3ae70000382dU,
  0x1973fffff0eeU, 0xa0000007ee6U, 0xacc00005c48U, 0xffffdb09fffff5ecU,
  0x26e000000422U, 0x2349000046e6U, 0x2a7f0000054cU, 0x1ef30000051cU,
  0x1a48ffffdd2cU, 0x277fffff97bU, 0xffffaf36ffffe76fU, 0xfffff26500000a86U,
  0x133dffffd045U, 0x304dfffffdd8U, 0x141d00002990U, 0x2bdc000012e1U,
};

STAI_ALIGNED(8)
const uint64_t g_network_conv2d_14_weights_array[144] = {
  0x7feba0ed98ce6656U, 0x7fe3d8d4c7f39e33U, 0x4ef11809ecb0e567U, 0x9aeccec8cd44e57fU,
  0x9e7fd5adc7bb62dfU, 0x12ec470f7f1b91b0U, 0x1acf81bcd7f7d3cbU, 0xea21a3fc7fe8d169U,
  0x7fd721368181126cU, 0xff3da1a0f898d3e0U, 0xccdb8f31f2d8467fU, 0xd97fc4e5f5b3c20cU,
  0xabd6133362ad6981U, 0x5b8b410ad14e1aebU, 0x770b2a2bfc1419ebU, 0xd63a1a1fe8601e38U,
  0x10e9b6e456eef5caU, 0x5f407a63f1cb81faU, 0x817f7032f719b1c8U, 0xf3ebfe007ff050ffU,
  0x3b12da087faa143bU, 0xe3ea2c7f4e0ed02fU, 0x11dfe2557ffe7ef7U, 0xca18fe0821f749bfU,
  0x10dd7be2d7de2408U, 0x73ee87987f99da94U, 0xa1e3cd72985068c0U, 0xd32afe4a1bb3dd81U,
  0x2d6cd48181057f3aU, 0x67c507fe71812d4fU, 0x3aebfa9f17a8c009U, 0x200def5850ecce01U,
  0x121d60c88aff0e58U, 0xcc4631d34f1ffe7fU, 0x2d671537e802b181U, 0xf8fe47c2beb7023cU,
  0xc9cb6ea9df0813a5U, 0x2df1354307fd4bdU, 0x81c6fd004b330531U, 0x76f0d3de62d8f609U,
  0xcdefe166a3e02599U, 0x7fb53e981a4b5a19U, 0x8bce2e7f81cf1fe3U, 0x13ce2f50e899be40U,
  0xc2f4b4d608879cf3U, 0x597f81c1e5853d1eU, 0x6141c50ad9d2fae1U, 0xfe7fd3a7f97f7fc0U,
  0xff2d819d9d7f0ef2U, 0x193e818a3522bde3U, 0xefd2757f06f2e3cdU, 0xc83d7fe2f57f2314U,
  0x811193ca5eb37f8dU, 0xc9430337e7067f7fU, 0x51a9e8c4871330e0U, 0xbe24212afbd820efU,
  0xd6dde132f0200775U, 0xb0a647bbe220817fU, 0xde818af5518181ecU, 0xf8ebb7c81c7fe957U,
  0x70bb7f02fd2e1449U, 0x9496487ff135aee6U, 0xe5e5a37f22c7e07fU, 0x7fca917fc139c3f6U,
  0x5ce2b481810a7f29U, 0x3f422f157f81b226U, 0x66e37fd27f8455e8U, 0xb37fa81498dc7fc4U,
  0x4ce6537fd77fb37fU, 0xb57ff1d0dfd61707U, 0xed51154f17ef1c7fU, 0x21f2fa7f0b7f0f07U,
  0xaf2d7bd55d6f939U, 0x8617fffeb7fc059U, 0x75d47fb785e88de6U, 0xd4c8e0138139f7ecU,
  0xec0f44310b2ae7a3U, 0x688d892434fd2813U, 0xa77ffdc57fbe8104U, 0xf0a2814c81e7a0cfU,
  0xc104c9434aeb28dbU, 0xb47c96d3b71cfbdcU, 0xa2c84199fa0e3652U, 0x7f1f104f52cc10fcU,
  0x3a1181a00d34d53aU, 0xb4cc81e2253a9bd6U, 0x297ff211d7f51afeU, 0xa941e40838e5bb2bU,
  0xdd7ffbc4f219c97fU, 0xb0a138b42f5dace7U, 0x6af53bbc5d159810U, 0x7fb39f10c1d0c96fU,
  0x10633b27834c87cfU, 0xfdcd1cb6343e7fd2U, 0x7fef4d8b016f4334U, 0xf05c6a4c2d05b10bU,
  0x437f4cce5aeb5b08U, 0x94dff27f890e20d0U, 0x6cfffa2fc2a67f05U, 0x6025c5adea9333caU,
  0xeaedf152cd675eb5U, 0x7ff3ea1710f13b04U, 0xf1d630cee57f7f0dU, 0x817fc508fa29ccf8U,
  0xcc08817fbeaf5558U, 0xb87f487fbf1d0adfU, 0x81dda63f0bfacee0U, 0x15fe07a410c681b4U,
  0x7f8205172f97ab25U, 0x700c6b2c5e50277fU, 0x15da19463dc7c881U, 0xb3764de8b69d37a9U,
  0xf0d716d0b06f481U, 0xc381c5d44c2f0923U, 0xe2f1fd0009813834U, 0x29240b7fb4e4069fU,
  0x4a18ba53d41f3ddaU, 0xac1eddafdc54d11fU, 0x4c1d610bc5fad04aU, 0xbcd67ff5e0cf7f7fU,
  0xd31c0929d931e583U, 0x29f720a81e7cca5eU, 0xaf543bb6ab2d9b27U, 0xdc87f7f33f96c3dU,
  0x217f2449fb7f1b44U, 0x632c4b0be41eca74U, 0x50f37f811ad7e60eU, 0xfa44df6863143b81U,
  0x16e1dad8bf09d5deU, 0x4c08e1ee8d9fbd24U, 0x4027b40e1e2127e2U, 0x230ba9c50dce0f4bU,
  0x9b32be0392ff3dcfU, 0xbe3f4f895b7d52bU, 0x24b1007fb011a802U, 0x5cff1942e32cd433U,
  0x8ffc3ded431081aaU, 0x114137ddda6b3691U, 0xdf17fbfcef05ebb6U, 0x2c5e3d6b71b1e0f4U,
  0xca437c1aeda81a34U, 0x8159b13f81701d1dU, 0x33e0023157f9b74U, 0xc53d09fa29ebc40aU,
};

STAI_ALIGNED(8)
const uint64_t g_network_conv2d_14_bias_array[64] = {
  0xfffff053fffffc5bU, 0xc32fffff5e9U, 0x176700000a2cU, 0xfffff688fffff836U,
  0x1682fffffa91U, 0xfffff6e100000999U, 0xc40000035bU, 0xfffff378ffffefcaU,
  0xfffffa29000003c9U, 0xfffff941000019c5U, 0xffffe7cbfffffff3U, 0xfffff9bbfffffbccU,
  0xfffff1b8fffffcdaU, 0x296000000f0U, 0x8c1fffff9eaU, 0x330fffff1deU,
  0xfffff86dfffffd1eU, 0x46efffffe2bU, 0xc74fffffd95U, 0xfffff7f9fffff9aeU,
  0xfffffbdcfffff71aU, 0xfffffd4afffff6aaU, 0x3f5fffffdfcU, 0xf43fffff45aU,
  0xfffff2effffff339U, 0xfffffe22fffffb67U, 0x132fffffb61U, 0xfffffbe4000000cfU,
  0xfffffb68fffff7abU, 0xfffff461fffffabcU, 0xfffff929fffff34dU, 0x77efffff9c9U,
  0x116fffff9feU, 0x6ac000006c4U, 0xfffffd9b000005cfU, 0x838fffffe61U,
  0xb6ffffff5ceU, 0xfffffec1ffffef9bU, 0xfffff35200000c17U, 0xfffff772fffffce8U,
  0x10cd0000020eU, 0xefd000005c3U, 0x85dfffff7d0U, 0x1970000068eU,
  0x40c00000080U, 0x769ffffffefU, 0x32ffffff487U, 0x1f4000002d5U,
  0xfffffd66fffffe95U, 0xb68fffffa4fU, 0xfffff16bfffff7f5U, 0xfffff4ddfffff8a7U,
  0xfffff4dffffff918U, 0xfffff96800000424U, 0x3eafffff78dU, 0xfffff01500001a08U,
  0x138efffff951U, 0xffffef05000006afU, 0xffffffb900000d29U, 0xfffff66bfffffcb1U,
  0xdf100000bfaU, 0x44efffffa69U, 0xe05ffffebb1U, 0xfffffc8700000328U,
};

STAI_ALIGNED(8)
const uint64_t g_network_conv2d_15_weights_array[2048] = {
  0x22aac9f4eee02df8U, 0xffbbb931e347eba4U, 0x217fbddb9af8eadaU, 0x4d0fb629324ad052U,
  0xd51ec91431c447e5U, 0x32f1c6cc25af0746U, 0x182242f720481184U, 0xedef8d392f2da3e8U,
  0x34cfc31bae071438U, 0x5b24d102f0b5ef3cU, 0x391ab1ecb8cc2470U, 0x3da5da8ee1f72359U,
  0x47d6e3f870391defU, 0xdf7612cc7278d1eU, 0x73e0f4720e8e0e3U, 0xd70007aa3097cfb2U,
  0xb604f8e5074f3306U, 0xf71c6410f4fde3d2U, 0xdb341e0ac73b1b45U, 0xd631dbe83af60e7fU,
  0xe27c8f0d3f5ea44U, 0xfee9122deabc1cffU, 0xf503e1b43c102c1eU, 0xf21c03350ed9e322U,
  0x49f945e2e7e2f01fU, 0x356b21e42e2ffa07U, 0xf8e7161dcf35e34fU, 0xc62ec305135b01fdU,
  0x20d639dc15e651faU, 0x5016ecf143034417U, 0x455e0ccc18d576e9U, 0xfe35f136def509f8U,
  0xacc5c834bdaca101U, 0x27781bec4ff6be17U, 0xfae503ef472aebe7U, 0x113216d3102ea6b1U,
  0x2bd4dede15c2dfd8U, 0xcaf24931cdc6c7d7U, 0xf77bca70d6c2c3f4U, 0x2307325a20fdf639U,
  0x37ec720176179020U, 0x95f715f3f2a3f067U, 0xb2d90d133207d73cU, 0x1f99d1c654e408e4U,
  0xb619c3efcc27e7aeU, 0xede61f46ccf66602U, 0xe58115cf5ae5eed5U, 0x45cd57e8ca1df401U,
  0x21b5c9d3fe18caf6U, 0x8f7da3c18f7302dU, 0x1ae504e4ea332044U, 0x11f806d8196e2406U,
  0xecddc9ddb2b9e7feU, 0x29f5e210f31ede85U, 0x3be3bfe207371881U, 0xd20e30c4d7e930ceU,
  0xf6d1ee3321192adeU, 0x134235f909362337U, 0xfac404432033dbbcU, 0xd346f3d912f8d2b8U,
  0xf0e00d93bd9d4b9U, 0x12222a251003e617U, 0xc4c83c79db0ad125U, 0xccd2cad7dd02fee9U,
  0xfde5d2bc02d0bd08U, 0xf3e3e40c3497f8f0U, 0xae0dc5120b0d21cfU, 0x3c1f8c6e4353223U,
  0x2d523e01ddffd3e4U, 0xfc0c59fabe08ebd7U, 0xd9f7331034f330c3U, 0x430c37170381c107U,
  0xcf51d2b0feadfcdU, 0xa7f8e5eefffffff9U, 0x1607e509f7c20339U, 0xb91dbc26c617f3e9U,
  0x1229e60ae9d3d3eaU, 0xe0ff1af1fce931e1U, 0x1a01b91613041ab3U, 0x8ef31d20dd8a00aU,
  0xfc2ddaddebc247dfU, 0x23b831f8cf3d021bU, 0x152df1f22ce924d1U, 0xd41fe0f8e0f7423cU,
  0x4a42e6229604d523U, 0x18dee41d019beae2U, 0xbc27c4e3fa072405U, 0xd2ffc4170419f7ecU,
  0x64eef342623efa7U, 0xe4512d919eaf2fbU, 0xddfa00e5177fd101U, 0x8ecb815fe2ffa0cU,
  0x500432f2faf216efU, 0xd0f0d923dee9c4e6U, 0x1804ebd754d8dfbaU, 0xf9f8ece036fb13c0U,
  0xf1fae145b54eb4f2U, 0x2df305be658cf7c6U, 0xfbfe3ea3abf8e20eU, 0x4da73004ee73b9dcU,
  0xc0e1ec2ef6f146aaU, 0x15de8afcf4a617d3U, 0x725fa94047fcf34U, 0x16b80d9effa0a813U,
  0x188a37f31a9e5c1cU, 0xdcf8d7423da21ef2U, 0xadd1c80c2e123016U, 0xbcd05ed25d5aaff0U,
  0x52ec1a0413cf4751U, 0x3151754238c822f6U, 0x3e0a32f1f8dac716U, 0x18a1eafeece9fa03U,
  0xc614eb184213c0c1U, 0x1adff5ebdc079eeaU, 0x2913ca000b033ebeU, 0x14ccde6224133720U,
  0x32dfb51d2048f6d6U, 0xde2ef60a26b42133U, 0x3b1513583712f6fbU, 0xc215db48f53f15deU,
  0x28ede452efc44ed8U, 0x2af313d97f3ede20U, 0x3509d82fdf04efecU, 0x3c2030fa1242d52eU,
  0x2c43cc1525a1d5f5U, 0xa90351e8f42f4438U, 0xb2e0dce1461ae1ddU, 0xe5e555b61de63f19U,
  0x4a1df2f128ec0511U, 0xf01eaded2face01dU, 0xfb001201c72dc43fU, 0xdc17395c414026ceU,
  0xe7e1d7d6df0c4f0bU, 0x3f060e2a19473a43U, 0xf615d02b41d71f20U, 0xcf15b8d2dcd02519U,
  0xc8e0f80ff007da0aU, 0x888fd2807da551eU, 0x3e135e00b32debaU, 0xbdcbe7edcbf1bef8U,
  0xee03753add30c006U, 0xe59ae915812154f7U, 0x26470dc13b3b021eU, 0xc21dde3b78f1dd18U,
  0x133e0538b226f1f3U, 0xbaa8ddca172702d8U, 0x252c1524f62ff9feU, 0x58f61f58b13a1507U,
  0xcdd2f4f12acf3f9U, 0x17602bd51407d5feU, 0xd0260afbff2830d6U, 0xb0f0b81aac3a990bU,
  0xe238d5cf2b2dc4aaU, 0xdae32540ecf4fcdeU, 0x1ff042d2e8b8f7c3U, 0x4f9d21c8d13a9f42U,
  0x2c1ed3264f81e603U, 0x10f6660c02fc9c1fU, 0xdce9d9bffbad36f5U, 0x3cb7f9e53cbce4edU,
  0xeded2df9d62dd81bU, 0x141feadbbe29ecc3U, 0x99020ceaa22edf02U, 0x211e742e401184cU,
  0x3835b6392ff436bdU, 0xeceff52c1214dc22U, 0xa16e7fe2e1fe020U, 0x1410d9e92eeaf6c7U,
  0xf8f10c1516230fdfU, 0xc6b825bcd12924c7U, 0xc063d0b44d7cd66U, 0x34f908ba3538ef40U,
  0x5d1fa08c7e31ad3U, 0x1df538bac0a7d9dbU, 0xd781e5ec0728ef32U, 0xefb82bd0b9c21012U,
  0xe2d801f2d7e7c9cdU, 0xe309f81deadf0a08U, 0xdb274be609f224ecU, 0xf00b3027211d13ecU,
  0x2ae0ae074f16abdeU, 0xe7b6f0f7c415fee6U, 0x24e708fecd020fe5U, 0xea2cf8130a3eebceU,
  0xeb3a1cf72ef8038fU, 0xca10e80481fdf2e5U, 0xdfedccfc11c7fd58U, 0x5401ed61b3a05eeU,
  0xefd3e4cd2d30faf4U, 0x7d35e182611c4c8U, 0xcbf4f43617d6c468U, 0x1dfa110e3fe4c9eeU,
  0xefa643f55134f449U, 0x902bcb0f37d4ecdfU, 0xfcd8e8002dc666f9U, 0x919da15291220daU,
  0xa9f427ddc0dcdf07U, 0xdcd0b0dc1331ec0bU, 0xf5d4cbfa5009a11fU, 0x2f05080d00af5d48U,
  0xa5140c2acde7fdacU, 0x2b2dd3411327ebeeU, 0x524611c7fed3ef2bU, 0x27c8ea7fda17063cU,
  0xdb3060102931c21dU, 0xdf1aeed027e163e7U, 0xf81339da1c2ad0cdU, 0x820dce8fec300cfU,
  0x49f9e13cef31ac2eU, 0x25f5230327232004U, 0xef1ee511ee00a8fdU, 0xd7cf1ab8c6f15b10U,
  0xf6e735e0ca3e133aU, 0x481c201b14f761e7U, 0x407fa06e6d809U, 0x1c0208d354a6e848U,
  0xe5c243c32438e10dU, 0xb4d9d70da9f72c3aU, 0x12cfeb04d9fc1b7fU, 0xfc5189ff7daaa05U,
  0x331418dbf9bf2917U, 0x31cb205207f71b94U, 0x5e1dcfe1de102652U, 0x1ce865e119d9dd0aU,
  0xc205d90dace72a48U, 0x40ebf42aaf1ae428U, 0x4824eaef3068f1e2U, 0xb6f73105ccdb0850U,
  0xe28ef24293c9820U, 0x3d2b6266e628c87fU, 0x9614ccd92a03a6f8U, 0x7eed72bd41903deU,
  0xb0f341dbf8cd1c4fU, 0xc75203c8b9aae0a2U, 0x1b00ff46ddd54936U, 0xeddd1b27c7c127a4U,
  0x14d6b2cdfa29f00fU, 0xe51c2018d309b80cU, 0xb19d1ff0ea096f6U, 0x3402dc05dcd64546U,
  0x21c039baccaccc15U, 0x210d9532f0e6074dU, 0x1ad423cbe5e121cbU, 0x6c43bca59a210114U,
  0xcfbebd10bb81da0fU, 0xdee3edefdb00b558U, 0x3017cfdeb20f51d5U, 0xe15c44b6f7c2ed39U,
  0xb5e3b8d4681acecbU, 0xe0ed24233d2de21aU, 0x4629dbd0fbff0ad2U, 0x6545bde53fc0c50U,
  0x5464f113359ce9e9U, 0x18ec49e3a4cbe711U, 0x8db48fe1e462d90U, 0xc4b90b3f461f1dedU,
  0xee01e733f1f1b1c9U, 0x2b8a0fc54ce4d249U, 0x46cc34d333d05b0aU, 0x1f5f207f421d637U,
  0xa900a5c4513eeb4fU, 0x162bd83132f01c3dU, 0x21161c2ff6c801dcU, 0xbbb91ca90ae9042eU,
  0x32f82e40fcf11292U, 0x26eaf946b95bc231U, 0xd9dc6fce1abc4244U, 0x3f8e594c3423e945U,
  0x2c3348a6bba7ce09U, 0xea2cccf5f9f7fc9cU, 0x18316f8139020612U, 0x272346eddc12fa2fU,
  0xbfe819591cd6cb20U, 0xc50be90818c6f300U, 0xd32322f09510d51bU, 0x2c0cd8ea36bc81e9U,
  0xf2d3051a14e9160eU, 0xea14da163efcb4c9U, 0xef5403d82ecbbe18U, 0xdb06f208e71f5cf6U,
  0xbda1b1727c3cf3dU, 0xfe5627fc2b2bbeebU, 0xc2d72e11e821f4f8U, 0xff101412f4e5192fU,
  0x60509181e1dc705U, 0xc85e1de301ee2ebfU, 0xd61ddb0e2116db05U, 0xcedf1c1dedc9f5c6U,
  0xadfc3bca1b132542U, 0xedc23910cdd0110fU, 0x320de3f9f20f042U, 0xa3612c06b2e4d22cU,
  0xe550fcc908ecfff6U, 0xd02ee615fae1a909U, 0x2fb3eff826fb04adU, 0x1fdd1b3ef5f81714U,
  0xebc205f7afc2ed4cU, 0x33f299011d0b20f3U, 0xcee79ef61a3715e0U, 0x12ddc6dfd64423fcU,
  0x28e7ff1fadfdc228U, 0x121d15c041e80144U, 0xc8e2d3e324cadefbU, 0xc681291af03ff508U,
  0xbed9bbadf3a82b2dU, 0x301b280aad2c01dfU, 0xaddde80e1ae2b331U, 0xb81f94c0c1236c3eU,
  0x12011c9503f183d6U, 0xe308fc1ac58be6beU, 0x3b9bf13fa633c6a0U, 0x1a667f9144d1016U,
  0xc32c24cc0008a202U, 0xcd03008432170aefU, 0x7d4b1cadb9ce26b4U, 0x4e67107f180935b0U,
  0xd92071ee53e0b451U, 0x13d92ef13bdd99eaU, 0xc1e009d9302842f6U, 0x1812d5e7f740cdd6U,
  0x1e28ffae2a44e60dU, 0x9d04695595dc311bU, 0xd6e246e2562d5d36U, 0xdec64504e52a1b1eU,
  0x33b9ba2debe7e736U, 0x1cb6ae20300637ebU, 0xc9e7cf35303debfaU, 0xd0ddc25e480cdaf6U,
  0xa610eff0a82a59abU, 0xe6f42dee333af03dU, 0xb7e64cd62bc5ce48U, 0xe8c1d752166e1d06U,
  0xb3d6de0c7f3dbdfaU, 0xe4ca630e361f2d1fU, 0x6b2a0c2c0d1a2261U, 0xd530ebf6f0e76b35U,
  0x45d54fea0e0a2cedU, 0xcf3110bfafd9e8U, 0xfed56c8cfd4e0e3U, 0x510f117fb896d1edU,
  0xf9e8f840b23839f0U, 0x33bfb9f3f30918c5U, 0xb9a32aeaf6e21305U, 0x42669e1f7e14014U,
  0x9453ff3ceced23ecU, 0xd0e6f1d6f14112d5U, 0x50044f6e7da83baU, 0x37a62f52f1223c33U,
  0x85b909a3d8fb8e1dU, 0xc2d80ecbce0acf34U, 0x4b310a12c507a12eU, 0x64bfc3723a30cccU,
  0x3a132e53dee61304U, 0xc9ecebe3103d3debU, 0x4604edf7f5f9f5e4U, 0xe5d402f3fcb6b3abU,
  0xf3f1c66ef45313b4U, 0xf4ad6d1cc187fcaU, 0xd512dca1e7371ef4U, 0xecc12488acdd0970U,
  0xab33e2271ae9e348U, 0xccdc0fdd00d40d09U, 0x3a5724aa64fdd91fU, 0xd00b012622f6fa37U,
  0x3e0e1a5ecebf1613U, 0x38d54b30d9721528U, 0xf012444e83010ecU, 0xcb4113c0fddebff0U,
  0x18e1e80b71d737fdU, 0xcefed351ee912212U, 0xae56f9e3610ac6d1U, 0x649a5a452b39fedfU,
  0xd213343a3f8d767eU, 0x6831dc7fedd2de08U, 0xed1f28fe08c3d801U, 0x4018b8df2ae154U,
  0xc46adc3d536bdffdU, 0xd7f37f660340c09eU, 0xe0b8b322a30e5328U, 0xdd06e71709430e1fU,
  0xde32219f9fee247U, 0x35b51ea5ec460e3dU, 0xff4500f0786b36deU, 0x25be921ddee63a33U,
  0x38e642a8f1300c11U, 0xb9121733e2ef17dcU, 0x19f90bf7ca320f1bU, 0xac914df2f8fd10ffU,
  0xe7b058e8e3f8e3f7U, 0x5fc50ccde192754U, 0xeee1d6dd0181d8deU, 0x4f2115ae11110fddU,
  0xecd1c2e538f212d4U, 0xd2dd42a4f6fae7f6U, 0xf9b12d6c0ea6b6cbU, 0xd319feea42100ff9U,
  0xd9d6d2d7f30feaeaU, 0xbe0404283d0b2f16U, 0x2b14d3e0f51de416U, 0xcfd9c350c62c37fcU,
  0x194c1bc635692a20U, 0x94f75a05f133f24dU, 0xc21baab3004712caU, 0x2617739df14d2ab9U,
  0x39efeee2f8232955U, 0xb7530ae3a5e5cfbeU, 0x33b41efdb1641881U, 0xd3a1ebf2f8ebd05aU,
  0xe81890ea07385a2dU, 0xef5fb27de33955U, 0xfee0efbefd00f0e1U, 0xbbe7c22d12f7d53dU,
  0xda00b4fcd1b5bb50U, 0x18ff120ff1d911f3U, 0x2dcf19dc0ea20731U, 0x9d2802ffecc23819U,
  0x15c54a14ef0003bbU, 0xc81ae4fdfcd2edcaU, 0xa7ecdd16b0afd726U, 0xcd1dd95af72f03f4U,
  0xd4be09002418412fU, 0xe90145e51713c80dU, 0xde16cd12eee90b20U, 0xfe062f131f477fe1U,
  0xd70d142c1d072d35U, 0xf1c81231282d1732U, 0x24f93f34b803971eU, 0x51181afaeed7351cU,
  0x244d6dd20116b62eU, 0xdc3dddf2d02baecbU, 0xc0d9d90b171c0d31U, 0xf490c6e749e715b0U,
  0x81bc1a0135cd9631U, 0x7fc3e34c8c87b1aU, 0x3dcdeb060a28dd2aU, 0x9ac82ebb19f61a30U,
  0x4b76c5d10ac32dcdU, 0x29d84405a29dd83aU, 0x27e41001c4c609b6U, 0x1a44f6633b0217d9U,
  0x4c2b90ad0626e914U, 0x1cbcebff4fece5dcU, 0xa926963e02fc31dcU, 0xd8430ed104433700U,
  0x2e471924a9e250e8U, 0xd51f051939f2cbfcU, 0x99139cf7fdde37aeU, 0xc6f01b00cf0e4c22U,
  0x2505a42e31dc35fdU, 0xfe2eca9f5320cbcaU, 0x33de33ff31d0e4e3U, 0xf4041bda07e2d518U,
  0xfcd9171c31ffc412U, 0x2ed500cae2cab126U, 0xb9f30c3ae8cd1b04U, 0x4de0cbfc69724ffU,
  0xc019f5ef66e4dab9U, 0x181acfe116360032U, 0x28ed1637322fab1cU, 0x1b15ef52a0b83d24U,
  0x5d7e7f03b3f262aU, 0xca85838d9160c03U, 0x32f815f353f9e57fU, 0xf801a7fe652ed1d1U,
  0xf90f03f00df4bdccU, 0xeaf449d8583935f9U, 0xf1c70e0ecf2c3036U, 0xa21534f230c2f626U,
  0xdd3de902d0b3e9e7U, 0xd420c0ead4d80f46U, 0x1c3d02b24cf50a24U, 0xe5f6271d43ea4249U,
  0x160c705306d61500U, 0xe901091e032b40b6U, 0xe5f0d95179ebc024U, 0xb2039601c9e8d28cU,
  0xab2e062a42ba1241U, 0x136ec5a27f1b462dU, 0x7d1fdfba51695U, 0x4dd615241a00dedbU,
  0x303ae5ce2ce2baf1U, 0xd3e7fdb2e4981ff8U, 0xe91057cd0ec1fce1U, 0xe18ce515dac12932U,
  0x1ac8f1f9d612c9dbU, 0xe1eb1d0de0ff16ddU, 0x2501fdc8e70ab711U, 0x48f9012625b9f1f2U,
  0x2cbccb08fdbc39dcU, 0xf827eb1b7f48310dU, 0xd2d8ff0112d8edccU, 0xd736facffa14ea29U,
  0xd9f1d1e10befc216U, 0xd9d2ede500f225e4U, 0x3f33cb3518eec806U, 0x9b2706c3d1e2f73aU,
  0x2563b34ad324d8a6U, 0xc52162b7d6cee2a8U, 0x61bba350f36e91fU, 0xe81cea231f1b519cU,
  0x3fd4e42e3c54c819U, 0x68f8aaffd6b11ff0U, 0x38b710143f6c33fcU, 0xb2a38144313520ccU,
  0xcafdb2defa336360U, 0x4f0a55292fc2ebe6U, 0x69c4a904df3fc4e2U, 0xf0f7f3bfb40ac01fU,
  0x470407f3dd25152bU, 0xd9436f92180eb859U, 0x1d0232b8a41822eeU, 0x31b0d5c50ade4aebU,
  0x413a0a58db001206U, 0xb5cbfbd18259fe3fU, 0x162afc00fa19cfd9U, 0xb641daf93858c915U,
  0xce9595081d350c7U, 0x2f09f41623656bd9U, 0xa339e8031ae969cfU, 0xcc1809152bfb3182U,
  0x322ed709f7c5e8f6U, 0xcf166121ab590fbdU, 0x72765eeefe3a2d6U, 0x3601d218ad3cbbf8U,
  0xeb0e79f5f9aed8feU, 0xf40916d12d28fa03U, 0x9d4bd29c23903edU, 0xa388321807bdd6e7U,
  0x98164c54ae5202fU, 0x62e5fa14e6eb4143U, 0x130e24a7f5cf11d8U, 0xd51dbae0180ed4e6U,
  0x1efce13314f4fbecU, 0xfa1deb197ddefcdbU, 0xd4f1eb0b32e9ec3cU, 0x2e15cbd3c607d50aU,
  0x1bcdaeeab2ef7b1U, 0x59bc14323d130ad2U, 0xe81d361fbe7d02bbU, 0xde7647f6083eeeffU,
  0x9e39d81edec3d1f0U, 0x2d22ef0804ab48b4U, 0xbc813b4c3e8b8feU, 0x17e4dff9d04b1537U,
  0xe7ec460fbc3227f8U, 0x27302be8b31a1637U, 0xbffc4344e02409dcU, 0xec27fc2ce5fdbbb4U,
  0x2ecb86d3eafeee3aU, 0xbf37ca142509f110U, 0x72cfdd701fa4ffbU, 0x2391ebebeb5ae114U,
  0x2ffef681f81bdbaeU, 0xb0fad3d1f50ed1d4U, 0x9e2200f364559e6U, 0xca6b3d3219e528eaU,
  0xbfdd22e3c5472be7U, 0xf4182ddc2d2a2b0cU, 0x1974501244d182aU, 0x197ff15ec250d2eU,
  0x443ff609f6d94133U, 0x615514d309f3f3caU, 0xdbe81ce0f1f2f8efU, 0x521213ea08231015U,
  0x1fc7e0c514e72d14U, 0x2205531345c20faaU, 0xcc2fed001ec2ff07U, 0xd71b034f16f5ccf9U,
  0x7f0fc2bea1691b25U, 0xe6ed531df1f6ffe4U, 0xd33457cedac514c7U, 0xfa40faeff645601cU,
  0x4ecfceffc41938cbU, 0xea241740f4482cc7U, 0xe71f1ce81ae8e2cdU, 0x2702dd120b030524U,
  0xe900dc0538e10216U, 0x36e70505e61c340cU, 0x144a3e2235af63ddU, 0xfcbf0f9ff1a3924U,
  0x2fe0ff22e536ee25U, 0xd800a2e8be06f8a9U, 0xc1f6fdc6260e3de9U, 0x2c493ef50b624822U,
  0xe5af0429aeb951e1U, 0xa3c167fbceabd15U, 0x2e3218d8e40af2e0U, 0xf2bde3acf7d0bbe8U,
  0x411e300ccef8182bU, 0xfcd40427401e0128U, 0x11f5c6f6300ff7U, 0x130a0b04c3965522U,
  0xce15cdb7de01cefdU, 0xd42c34c1c1db21b4U, 0xf1c50116dfe90922U, 0xe1d5d8f6ecd2c308U,
  0xc2f81be80e13373cU, 0x4370d1b2de8e83bU, 0x1c150f0e03ffd61bU, 0xa904e33d3bfb0307U,
  0x4537f703d21136f3U, 0xbc140f121ae72e20U, 0x12cad611fc0b4311U, 0xf1f001241c1ec51bU,
  0x1d4e9d201c4cbdbU, 0xfbc517d6f9f33c54U, 0xf00633a2020ecffbU, 0x14163b372de67fefU,
  0x15c524b3c819cdffU, 0x34842c14b923d14eU, 0x6d81f0e764ae332U, 0x28f3343038f53ff5U,
  0x100efef200bef7f6U, 0x2500c506fb3924e4U, 0xf1f422398f32dd12U, 0x6b9754be469cd11U,
  0x34a5f2e3d0d51521U, 0xc28a07c86e4ca2f6U, 0x2f1304b11e521821U, 0x34fcc81f6f251466U,
  0xd1deb8a1079ae71fU, 0xca921723c1faca9cU, 0x71a5debc185bf00dU, 0x6a91234812a122bU,
  0x29b41daac7d2f3b8U, 0xd6e317d73c3c300aU, 0xb93f0e49da0f6936U, 0xc42aea61af1ac000U,
  0xc90906ed6f3ee8f4U, 0xcc14f12579ebca93U, 0xa5fb62c10bae1f3fU, 0x2b01d981ed5cf6e3U,
  0xf318c01e1035b4a3U, 0xe003db4f02f72fcfU, 0xebf81fc8f4233a39U, 0xf6c0d1f3e8cbfbc0U,
  0xc2c4ca82daf7f42bU, 0xf44fd9b7f4e91d32U, 0xd2f4dbd964bc3112U, 0x2817e33e4a98f644U,
  0xa20b5200fc001645U, 0xf1f236f4e51b2c38U, 0xb1dc061e01e2bd14U, 0xc820812df700d017U,
  0xf012c92326aad014U, 0xecfe2127fd4127b8U, 0x1b11ce13e9d016c4U, 0xd8cf14ed182ad4a6U,
  0xc449fe0dc5e9b6e5U, 0x620d532ebd9c601U, 0xef10ceff2aff18f2U, 0xe7f0f2eb30df32f8U,
  0xa9e838ffdbf5eefbU, 0xfef6e70beafe4bd9U, 0x2c980eefb4f7310dU, 0xed0e21fecf14080eU,
  0x38c981ccd9af0924U, 0x2440e7c92fc14efaU, 0xcf2a03b2f3cd933eU, 0x58e53034f9125c36U,
  0xe8cfffc62df93ff2U, 0x53104e7eadf31a8U, 0xb426f563310b1eb4U, 0xbc3bd06bfe26cb89U,
  0xe0220cfc573dec29U, 0xe4d44c5c082c2523U, 0xd6f9183e2bde22f5U, 0x19b55222f4b22d26U,
  0xa3b81cefdb010bc8U, 0xf0f21127ca35bbbbU, 0xb8ab033317e6f90eU, 0x2cec005339bb19ccU,
  0x3e5ed46b0370632U, 0xca174207c023ad38U, 0xeabbc3b5ec22e3e2U, 0x28ccf1e82a181424U,
  0xd3d91f14196762ffU, 0x4fd3b21002581609U, 0xc9250f101a0f401eU, 0x3cf546132d3116c9U,
  0xd8f32881ba0bea15U, 0xd9dc3d3c8da7ac06U, 0xc2c9d72f2258151eU, 0xa71efaddbeab3bd4U,
  0xe0ad8e532cafa21U, 0x194a5eeff92f073dU, 0xfc4d1a9de24f1bcU, 0xabb847e3b40bf9fcU,
  0xe0e5ded3edd4c821U, 0x2111ecbd52e8cef8U, 0xd5f50123cc43cc3fU, 0x13abef0bf5fd0a5dU,
  0xe93f2fff2cfa2ae4U, 0x28a9bec4d6ebb61aU, 0x16430c70a0f33ddeU, 0x7fd1c909dced16ffU,
  0x170834ebdb2ed6f5U, 0x2dcc1fbff3e7fc25U, 0x18ed16f65d4c22ccU, 0x2ad03f4060d51cdU,
  0xdf030eeef9492b1fU, 0xf9b6e609012eed22U, 0x37e5cdc53322ddffU, 0x25a6dad9aae1db3fU,
  0xbd2856c7ecf5d117U, 0xe0ade3d718f8fd12U, 0xf654200a0823cc16U, 0xec793a9622d8cffeU,
  0xf1f0e7f9fbded463U, 0xbbbce4130bc9ff1eU, 0xd614000af6c11b27U, 0xaf1cafcc4c2a0cfcU,
  0xeb5d1466f014f1a4U, 0x4de3cb08ff0f240cU, 0xbe4f7dbe3f3ed28U, 0x2aee34fc7f3736faU,
  0xe05f1e643d7e11eU, 0xe4c9e61c2821349bU, 0x1e2210d73e1ef911U, 0xdd065021d5317336U,
  0x14c8c026363b51f9U, 0x13d52bbc4f22efe8U, 0x2e42f5d8d00b15c8U, 0x1b437f0e12141b3U,
  0xb096dfc05a70d11U, 0xe0f510171803e401U, 0x37bdb04b36b8b709U, 0x472d3942fcee1f4cU,
  0xdb2673a0502b0381U, 0xf1cbf01498f9d134U, 0x16210306f3f5bdbdU, 0x1a01151edac30dafU,
  0x1d6dbe084bc825fcU, 0x4ef5a9c52edbb011U, 0xb324e93352f542dcU, 0xc9260fb617df20e4U,
  0xd1916e09d675b84cU, 0xd2ffc12531e9d853U, 0xcedc0dd50407e90cU, 0xe5dc040fdd3260b0U,
  0xf485ddd7f7ff3ef5U, 0x6546fd26fdf76625U, 0xf02422ecb5160e43U, 0xe081f1be92def103U,
  0x9fd82b1c31580139U, 0xf02dcefc28412e03U, 0x2b04e20cc7a6ca33U, 0xeb2cfcd21a1dd2e7U,
  0x9e3902ddf9f213bdU, 0x2bf723daa037f744U, 0xe089605d7de081eU, 0x2914160e19158424U,
  0xedfca041bd0e333eU, 0xd9d00209b309ccb5U, 0x36e26f1f15b64045U, 0xa0c0ed144512c372U,
  0x14d2e93101c0fc4bU, 0xf08d31bee29de1cU, 0x40e8e4217ad72881U, 0x490cbb464e4e0bd8U,
  0xb5d63ec5e6075331U, 0x48e4db47f10ae3c6U, 0xd90d1e34065fd224U, 0x27cb13c12b6701f4U,
  0x3ec3b8e1592813e8U, 0x22b810353cf31b29U, 0x1f36e4e3770365aeU, 0x2abdaff0cff134f0U,
  0xf522dc0a3e140d23U, 0x63e7fecfb2fe537U, 0x23e8d212462a1f13U, 0xee0a5ed7f81d27dbU,
  0x4cdd352df0aff436U, 0xe1db342ff2d8fa4bU, 0x24cac8d6312959eaU, 0x6dd1a1cfc1aa6ccU,
  0xcfc2e50beae758baU, 0xe3e92eff4718070eU, 0x1d2122f00522d231U, 0xd2f61deb0e1319d2U,
  0x430012e2340faaU, 0x25ddfdb244f0e1f9U, 0x1de9e84a2d294b24U, 0x4b11f3061e36e0c7U,
  0xb06000091cccd708U, 0x31f9ed0a46c3ced6U, 0xf662c2013ae71909U, 0xef044ab5f0e7a023U,
  0xa3d4fe2900411804U, 0x33e4eac117ee6520U, 0xdb8d6fcdab903fcU, 0x7f15d0bce139465fU,
  0x1c977ffc3508ecfaU, 0x7afc1eb2cca9d346U, 0xc3b04039d5f90a2dU, 0xd0fe2463c5c0ff02U,
  0x4fa2b5f5dc2507bdU, 0x4826232c0cfd4914U, 0xc46ebb75837160eU, 0xcb1a52f418d8ef02U,
  0x4ca616153d0b1af3U, 0xe433e7e7dd21cbd5U, 0x3de8560ce71e0135U, 0x46c80e34f90d41f6U,
  0x13e70dec030bf7b4U, 0x423f70c04eaeee0U, 0x298ec9cde85610d5U, 0x254dd8b5c1ae2b17U,
  0x7fdbffbff0ac19ddU, 0xff1ec600c6081b29U, 0x1cebd9d4e9d0dac0U, 0xebdedec7ec20cf0bU,
  0x3e1b20e412e54524U, 0x1dfd30019ff43729U, 0xe25edf00d9ec28ecU, 0xfc26f00e0d2af6ddU,
  0xa448fe09bb0ee43eU, 0xa6faf328ead12b2dU, 0xe9f03bd051162bddU, 0x5616f9b1e7f38ddaU,
  0x78b145d18e4e2c3U, 0xd273704f8f3c65eU, 0xf4a709decf1dbee8U, 0xd7297fc4aa2c3940U,
  0x29f9cfb5fc6ccefdU, 0xdc02be72024e3e4U, 0xa17dfbd03de30dfU, 0xef19c5db4fd92b50U,
  0xad84ccded10fb01U, 0x154fe7a30a9c6deaU, 0x12c741f1ffd59f27U, 0xe917fdf2c8e7e533U,
  0x3bf08ad6042816c5U, 0xb32a01e925f4f773U, 0xaff85a0375404a0fU, 0x3024e52624ddeba3U,
  0x30dbfdd8ab294312U, 0x17bed3599d1bf707U, 0x4bc36f2e4f9fde7U, 0xf1f37db3e882508U,
  0xc8dadef4f7180581U, 0x39ee25e150de1442U, 0xbde8fa3f02cfb908U, 0xdfd231f761741c19U,
  0x4054e02f353de7d3U, 0xecb2fc46e81eeff5U, 0x257d3db467175a0cU, 0x1f39d0e6d6f9463bU,
  0xe7d51d3424bc3318U, 0xf5ea54020e323707U, 0x63bb3282313c0dbU, 0xe5fa301afb1d1e49U,
  0x2c51ccf60cdde0e7U, 0x1ec1e0acd55f9c7U, 0xa2af1f942cf1497U, 0xddbd10f04104d439U,
  0x26222334e624eaf4U, 0x1716e2320aca00f7U, 0xf725f82df408dbf3U, 0x19041605d22502fbU,
  0xfee34af91914390bU, 0x2f6d7d64aefffe2U, 0xdb8adb1081dadf0bU, 0x332a39bef20a0ac6U,
  0x5e35df0116b4ab0eU, 0x122d0a23bd293c1aU, 0x1cbc14d6dbd1221dU, 0xdf14433f079bff14U,
  0xcd19ccecc5c0c8c9U, 0xff25070c180b2d2bU, 0x14ed0d50d7e2e18fU, 0xdff43b62c73eca2dU,
  0x3c0f9281c0f0c614U, 0xacf104020926c8c5U, 0xd3cf322c3ada2108U, 0xab7172339d6f500U,
  0xc7ea0a2021be3acfU, 0xf0f50fd0030bd801U, 0x20472d5fadb2732U, 0x32290ef3edcf09bfU,
  0x38e03c08e4ac11afU, 0xd6fc27e1d41bc8d6U, 0xf20e0a14e144eaf4U, 0x3bd4c1c718fcd3b8U,
  0xe0ca242ad6eb1ae6U, 0xe10aa3b9c23f92eU, 0xd7d73413fbed4631U, 0x2b4e38df1532f40eU,
  0xb9f518adef0dbfdfU, 0x22d918fc9be128f0U, 0x40ead0162556cf0aU, 0xcbc51f082ce609e6U,
  0xf23ae5dc2f2f9f1eU, 0xe4b22ce7def2cb4cU, 0xf52dfc69e111193dU, 0x3519aae4a5368106U,
  0xdb2f6d641ced0104U, 0x3e28bed6e3244008U, 0x400cb4d2ebb7dc02U, 0xcd11e0d8fbc4d4d7U,
  0xd9bfd6df5eaf432fU, 0xf24cb0ff130309f5U, 0x25061bce1df3a7d7U, 0xf9d5fcd61c182de1U,
  0x311cf1bdfda93d6U, 0x181eeadeca03112aU, 0xc72c15e5dc18ec1cU, 0xe0297c2dea30e916U,
  0xf5360d34bcc2d4e8U, 0x5c6af501fc152692U, 0xf6ff47c0dc561734U, 0xe881f91729ce6613U,
  0xddb2b52deb43d36U, 0xf8dd0cd136192650U, 0x4351d0f9b8da0bc8U, 0x63dc021fd5ba50ebU,
  0xef2eece9e4e66f24U, 0x383b96f0e5fada23U, 0xc61eecc31ceb771fU, 0xefc7f6c801a7b1c0U,
  0x40bc139d512383cU, 0x18c6a32fbbf41db8U, 0xaac72349f10107d2U, 0xca161e9b30d30af6U,
  0x81daf02f108eca0bU, 0x7c080df132f6d422U, 0x383aebf8f3ec3839U, 0xc42a3da456a5a4d9U,
  0x96e8ccf2cad93c78U, 0x311d93ebd196fceaU, 0x8f2fe1c2ebd8fc30U, 0xc9fc21ebb928dbe6U,
  0xf007360af50749b1U, 0xb43ddffcbda273aU, 0xc63b0f127fb7a64aU, 0x49cd450a1e1a3038U,
  0xc925492b44795944U, 0xd3fb1de844461ac7U, 0x21074f1ac2f30bffU, 0xebe70c2f186121d7U,
  0xa1b4505ed481c01U, 0xe50cdf0fb309fffeU, 0xbbd31f04d90e0deeU, 0xe70239f7cdd6dcf6U,
  0xb125f9d51933d3ffU, 0xdfe76504c956e3c5U, 0xe2f6e8d5ede314ebU, 0xd2a5f3e425a24232U,
  0x48401c04bfb5fe22U, 0x42ffdbefb483df23U, 0xffb555d7ead1ce81U, 0x27f5bff6281aecedU,
  0x40c817c503cff220U, 0x4fe0e0eacce3123dU, 0xd3bb3039425a2446U, 0x9d03fe003ffc1b51U,
  0xf7afcbbac1571d04U, 0x3b2f251408e2b9a2U, 0xfbe418c7d3384439U, 0xf5a1a9bc4009343cU,
  0xe10e37d4311f08d3U, 0x2bd82d04121d1825U, 0xecedf8eeeb34e715U, 0x8112feedf32801d3U,
  0xea3139fc16e80419U, 0xf20524a93141f35cU, 0xd8a4eb0dcbdcebdcU, 0x200e191db366bccfU,
  0x2dfbefe7ebd9fbafU, 0xdc09bf28e7e80fb3U, 0xdd2fd51b39b8d233U, 0x3498f0c1e7fbe3edU,
  0xdbc0b92cdded013dU, 0x2ec8d1d91d28f931U, 0xe8c0f7e905fd153cU, 0xd3c0a3a0d14f9e7U,
  0x5cedc52b8126d1e5U, 0x19301d49f0e33b2aU, 0x158fb4c91b1bd519U, 0xf4e719f93d0d26bcU,
  0xf209200afe003ff2U, 0x222f70cc345dfb56U, 0xcd11f01b18d22d29U, 0xeb41e7eaf72bb81aU,
  0xa1b1091544184534U, 0xdb242220cf2523bcU, 0xdb4739fbcac2c5c1U, 0xc93ad110dd03df19U,
  0x1a12503bed05fa94U, 0x5d0bb810021df1daU, 0xb2102c0d26ef0ef9U, 0xc1ebf84e322b19f5U,
  0x2ed4e1faa1ef550cU, 0xc506d6bbc8e5333bU, 0x1b030162180db5bdU, 0x272bcd27eb25d2a4U,
  0x2d718322617412bU, 0x11bd16a31deaff0aU, 0xb415203b19c9ef17U, 0xfd0eeb31810b24e9U,
  0x2be71f1d18f1fcd9U, 0x272809182304c2e5U, 0x3d6072a17d7e1b4U, 0xd816db0f1528f8c7U,
  0xf01834f5d8e124f2U, 0xbf14deebe4fdb010U, 0xbb5f1340a2bf027U, 0xc2220322cff4ff18U,
  0xd22ef8a2d5fffbecU, 0xf43b18cf0f09b857U, 0xc4f629db4e7342daU, 0x2440f1b07e822c7U,
  0x2a14091fd85fe602U, 0x4e81bd8ff6d20a71U, 0xe4c60730f78fd02aU, 0xf42443f9349eea27U,
  0xbbf1b18e19fafd9fU, 0xcafa122d1e07d725U, 0xa5ff2eda3f4416e3U, 0xacd7ae07f6213242U,
  0x27fec12ffbf3cb13U, 0xd00fbb2be7692b29U, 0xb0c3ad5302aef6eU, 0x5a6be7c0d94fe9e2U,
  0xb3045db6c3e32023U, 0x292e4a1ef7d9eb53U, 0xf13db013a53de9c5U, 0xce71e1e22410ae28U,
  0x342e9805c2260dd7U, 0x8d19ecee542fde0fU, 0xaed44f0a50022d41U, 0x24af2711d6357f28U,
  0x3af705f23638f111U, 0x2dd3bdbe0f551945U, 0xca0d16dfb94d25ceU, 0x4129004ae41cf857U,
  0xed1b28ee8d56dd4aU, 0x10cded09f8fd0c02U, 0xf0bf30a01303d809U, 0x489411d901101dc4U,
  0xb91ce31213e2203cU, 0x9291d3e40d4180dU, 0x17fbd1f79c87531fU, 0xf800e40f1f2025d2U,
  0x5b8b4b8f9f80ff3U, 0x122e0416d9f1422cU, 0xeed54010ad51b114U, 0x28300c810ac1b5b6U,
  0xf891deda190ea20dU, 0x19e5fad4df43e3feU, 0x5717a8d1253508cdU, 0x32e11d29472828a4U,
  0x1cfa57431afae0edU, 0x1bec0ff1f739da3cU, 0x2119641ab66414cfU, 0x39ddf5e716dec09bU,
  0x4fbfc2cc93de1f0U, 0x600fc321240effc8U, 0x10d436fdd92e417fU, 0x2097bb40ac611547U,
  0xe44a09e31ef80fa3U, 0xbbdb0c1bf3fd05fdU, 0xb9ffc4c5a7db559eU, 0xeb0dce0a210ab20eU,
  0xd2d63553f20b089bU, 0xe732d6fd0bf60cefU, 0xfbd7e2c606c90031U, 0x12b7d1f0f81945edU,
  0xa70bbbce5ef4e30aU, 0xee13de24015d4e02U, 0xb3e7c5bdf5f4bbd1U, 0xea24f73a269dd93aU,
  0x1d09e3ece93bec3dU, 0xce4714f9580b4a3fU, 0xbf182de7114e1b0eU, 0xdb3d1a34d615ecf8U,
  0xeb3e52fdd00f9ce1U, 0x8127f81ec4ba205aU, 0x2637059f0966bef1U, 0x21bc1ce12cfea607U,
  0xf1c3bc1001151a59U, 0xfdec26b97e49daf4U, 0xe913ed14d8b716d1U, 0xb9fb3fe431e72733U,
  0xecd4b6f31d170d0dU, 0xfdfe4416d02ea9bU, 0xff48f1d1d00f20d2U, 0x3040ea3129e2280aU,
  0x57f008f7ebd5d8fcU, 0xacc35b3b9f1f4b6U, 0xd9a42917d617e056U, 0x9435aa64fd1f34bbU,
  0xc6f5bfd8d64117ceU, 0x290fc4cdc3f1cc3eU, 0xf32e2ca4b70cc50cU, 0x111cded2e2f58117U,
  0x1d0d2f2fe6d7b5c1U, 0x2be0bd1b630b3bb7U, 0x628ac03fec5fef2U, 0x26f52efd12438ad0U,
  0x3dc4a9266ec7bec8U, 0xb0df18413aed02f3U, 0xc8edbc4bcc9debf2U, 0x1c26491b72b29823U,
  0x7f33391610cdc493U, 0xe70cbc190902d0b3U, 0xd8d39df635365fa9U, 0xd611581fbaecfe4fU,
  0xecb86ae3d70ed1feU, 0xd40a48fa36bd1cdbU, 0x5492fd88df03e820U, 0x1a5cf11ebaacae39U,
  0xeb29521dd14a1acbU, 0xcbc01020db4fca01U, 0x260b1bd3ad0049e2U, 0xfb24dacc2cc506eeU,
  0x6323cfd42dd7bde5U, 0x4159bf4f014a02c6U, 0x4f0dcdd5cf26e75bU, 0xe4ca960d040ffd3bU,
  0x1c134515f0d0eaffU, 0x22e12be3c4331c29U, 0xe91cf9f25ed3f2ffU, 0x202b032ffe22001cU,
  0x2f726d923cebd16U, 0x37d4e83ee83ccc03U, 0x392c0becfe1b3e03U, 0xc8ee23e62c41f0eeU,
  0xd73ac917f71c0581U, 0x260c18f507204ac3U, 0x3f04dde62f1c3321U, 0x410000afd00e84aU,
  0x205dc0f435fecbe0U, 0xcfbfba1fffe80c0bU, 0x43f735f909fe15bdU, 0xf8f40627060d7507U,
  0xed30e225c91a252eU, 0x2cefe0403ed203cU, 0xaadeace1b4dedcf9U, 0xe220aa370c282618U,
  0xff1bcb2a21ddd7d7U, 0xee3b1f34f11b240fU, 0xdd41fc25fae7363dU, 0xf2014139312d37ebU,
  0xb18220f090ae3bdU, 0x8c9bbefdd34e2f7U, 0x8be1b0f16fe12f5U, 0x21022cc32de52304U,
  0xeaf3d6b331ec15bcU, 0xcbe4e1412130c6c1U, 0x3181e5d0d202f91bU, 0xf4bf280012edfddfU,
  0xc5ffb02ff4c11108U, 0xd6ce6216c90801abU, 0x18ed011622d1e0e4U, 0xfeb34d51d4ac915U,
  0x532712f20b10e705U, 0x16c022151d1cc4feU, 0x12fdbff13b1108b0U, 0xdee4fbc20d7f3f38U,
  0x2aba1cd2eb05ea1bU, 0x246fdfed890eabfcU, 0xf40c1cfef538ff18U, 0x17140d2defeafdc5U,
  0x8333103f5ebcbe8U, 0x203f480627364d3bU, 0xd6fd010d1f3b10e7U, 0x6de20f100420082cU,
  0x1a1f59bbed0e2e81U, 0xea17051823cd1a7cU, 0x430ee52e2dc5e1b8U, 0xc8fede1b1233fabdU,
  0x38d6cd263ce01539U, 0xbeddd701d4d6005dU, 0xcabfc409a15628fcU, 0xf0ecb11de8ddf6ddU,
  0x6e23ec0818bb4598U, 0x4993eccbd9c73dc6U, 0xb6daad02230c67f3U, 0xaff821c4eefedeffU,
  0x20fae1382fb04a5eU, 0x2fc535e969b52619U, 0xeffa1686f5df3dcfU, 0x1132dcfaf9c6ebd1U,
  0xb08365807b41932U, 0xf194118ed06093dU, 0xcbf6f0f6a7fdc5e3U, 0x2c5549660503e6c5U,
  0xfcfbb4ef3ebf1b0dU, 0xd82d0ed72a1be336U, 0xdfe8ee21f034120cU, 0x9413c00dbc06c84bU,
  0x18d6b6c90d0adc09U, 0x17c93025e3dae4f9U, 0xfa410be6bacde0e3U, 0x12c914e2bb2bf835U,
  0x17cff82819b18aedU, 0x392c1943f923f5dbU, 0x1f0e0af0194d7fe4U, 0x492ddfbf0bff9c0cU,
  0x41b94b05b7f803d1U, 0x32d6487fcfdc33dcU, 0xb2cabb061e21e7aaU, 0xb23130ceb91031f9U,
  0xd32213dd0b3135f6U, 0x232537e51ed5f60cU, 0xbaf434ddfcb32ce9U, 0xddebe6e7c6e342dcU,
  0xec08f410c802e9bdU, 0xbea81a2dc5fbb0c9U, 0xd31cf42804cd38bbU, 0xd500c22d153ded19U,
  0x4435fef4030adfdeU, 0xf60c06e7e90131beU, 0x5b8fa0b301d14c6U, 0xed311f22304a302fU,
  0xd1e9f320fecbed1eU, 0xe42defd22f1abc17U, 0xc71be91af8fde97fU, 0xeef5ef0fe1c8fbeaU,
  0xe2342058012df7dcU, 0x523f33dac0e9f013U, 0x48f60d2e11f71318U, 0x31bdf4cbdbd5f6e3U,
  0x11d5083ebe2dad49U, 0x4420004bb5af14U, 0xce165100caccf8d3U, 0xdce022dad1cd4f03U,
  0xbfa4cde80921dce7U, 0xc914bf44b4e90ee4U, 0x14e33af2e21bdd0fU, 0x2cc6e51702d78a05U,
  0xedfa260822dba7a7U, 0xff050c4c309296f7U, 0xbf37280d1ebbfeffU, 0xe00961341edd12c7U,
  0x10fd0e1bbf39e56eU, 0xe719d2fe3429bdf8U, 0x3afc4fee35f3e3deU, 0x69c778f61a297fdbU,
  0x37e2fc40ee18fbeaU, 0x5de533fc09112b39U, 0x30f65013c30115d9U, 0x4b12e87108cc43dfU,
  0x280c0b97ec18d605U, 0xe8511c2512daf019U, 0x44c9e2b2c6f1c0cU, 0xeeae05130004bb07U,
  0xe129f4cb1ff4f3e3U, 0x20c83be3ec1adfe7U, 0x12104fbef9d32335U, 0xd6243ed3f0e501d7U,
  0x391fd710483e0fc5U, 0xbc954fdc0d3520efU, 0xf9e845c391d1faf8U, 0x1017b700f2131894U,
  0xfc1338dd082c1617U, 0x1ddb21d7e4efc64eU, 0x21446bd06242501U, 0xf9fde4d3cc12df20U,
  0xd511fb3e1b28ea0bU, 0x2107cadf0d2c3bddU, 0x2df6d5561b27e124U, 0x607fe420c8502948U,
  0x1b1380be8c1111fU, 0x381e4558342f7ac1U, 0xecf6921efbf2daaaU, 0xb13331e230c063eaU,
  0x192efd232bfaf7fcU, 0x214c41f4405edae3U, 0xfee3c6e8cee0f4baU, 0xdeade427b2bd1226U,
  0xf7d0c9f92ef3c4dcU, 0x1fdfa630fedf818U, 0xa406dded9b02c2b3U, 0xd10828e6ea1cd5e9U,
  0xed54e2fac1a91803U, 0xef3bb50a13d02626U, 0xc23ac3f0eadc5f81U, 0x2182e7f7e8e1c6f8U,
  0x55dc3a032103f4ceU, 0x10f87f26ccdec62eU, 0xd91f52224a32f50cU, 0x24bb2b481149e009U,
  0x4515cbe7fee0bdf4U, 0xdf9b0d49d9fefae6U, 0x10b8db2a35014a24U, 0xf500abdeefbc45e3U,
  0x1d61f02afdac5bbfU, 0xc61b26c601f92625U, 0x272d3e23d6285941U, 0xe2221022d7161edbU,
  0xb10ac000dff80115U, 0xcf04ae63010040fU, 0x2bea20d30b44f735U, 0xb512d94ecc506140U,
  0x41d82ee321db22a5U, 0xf101c1cf9e2d0e1U, 0x2d561a3b1fd3def9U, 0x1cfbfc0b1aeed6e6U,
  0xf03c0dd809ea471dU, 0xd3bd813000471316U, 0xf101201e3bb9fc1fU, 0xd61df30d1d012727U,
  0x50b60ec7d6f7fa02U, 0x1b71a01dfe900beU, 0xf10aeee8c9f102U, 0xfde30af5fffd1be7U,
  0xb139bf1932e9f002U, 0x3f7f305fb25f8fbU, 0xe93f1d250a49fd31U, 0x1a0ed9cbe9ccd8dcU,
  0x12d0c90c0cc00c1aU, 0xd02f1fa0c4e1effbU, 0xfc02e41cd6ed9530U, 0x16e6d9db293305feU,
  0xe2e7353cfa1229edU, 0x1d1b1f33f3ef36ebU, 0x360bb807df0dff2aU, 0x117fd4fbe80e3122U,
  0xf1a03e5af1a21f4U, 0x25e3fa582432d249U, 0xd3c7e0280a23e5e0U, 0xd6fb1c0506e9f40eU,
  0x3416270c20f8f018U, 0x8151f52dc39cce2U, 0x222a2af519d72ef0U, 0x19c6f3f730d4d5fbU,
  0x28bf22e4f53e0815U, 0x3b052e4c02c3b8fcU, 0xee49ad3e0b27d428U, 0xe2fb2ffbf265b3f4U,
  0xe5b9e450b0bd5cc0U, 0x3bf73a1537a4cc13U, 0xd52ed408010c25e4U, 0xe0a9f3d70a02c0d0U,
  0xeb02390d27b61815U, 0x9c8fa321d90ebf6U, 0xe6f4ec8c812f0dd8U, 0xabfcd4e21ae4eb2aU,
  0x3c943e5f2042823U, 0x1c2840c2e96fb529U, 0xd290eec602e8cd9eU, 0x1c220d5dfc0fc0e8U,
  0xef0f5a7ed92ec51bU, 0x1022db4fc51dccU, 0xf80abe47f6dc04f7U, 0xeb19e7e6f1f51130U,
  0xd3db0b33e7e213b2U, 0xbc10f8d9e4d791d0U, 0xa1818df48fbda1aU, 0x2cc33a0326eff2b8U,
  0xf02be34646df1111U, 0xa54123d8f2b8be0aU, 0x2f1d0edce347e242U, 0xdee5030ab7b013c5U,
  0x133ee4dfc5b33307U, 0x81f84ef9e22f3521U, 0xecc7c19d074023c7U, 0x1abbd5edc2f5bab8U,
  0x5acaff063dc720bfU, 0xfbd504fefce51beaU, 0xd72ea8233bd342bdU, 0xde3c681ff3ec5506U,
  0x1e12312de6780d10U, 0x7e0e019f62cf0faU, 0x4e13b9bb0eda14efU, 0xbcc350d8cd3b7ff4U,
  0xf8d6686cfc32ddb5U, 0x2e1538000303b109U, 0xf9082435eb37070aU, 0x2acaf046050e5719U,
  0xf8a86fc3f33d1c2dU, 0x6d3bf3f83bc0fddfU, 0xe3fb48f7cf2e24ebU, 0xeea00042e9423933U,
  0x37d4063132f4d900U, 0xc50a514130331a22U, 0xfbdf7a82e371ad2U, 0x3ae7d90b7f17d320U,
  0xfe0eee0117600ffbU, 0xf7f8c43d17e8c611U, 0xbfbeedae50092d0dU, 0xe83bd3efc3c1e2U,
  0xb5d5cf38f9f60339U, 0xe7e2f857fcfdd3c9U, 0x39ae2df7ec309decU, 0xe7bdab6eef09edd7U,
  0xda39e3efce4ecae9U, 0xf6be331e262312f8U, 0xb443f0c2c97b3259U, 0xc9d5e60ce841e5cbU,
  0xac12ff17315aed29U, 0xe2f5bdd2e20acfbeU, 0x31073dd823fdedf9U, 0xd8335d15ca0815e8U,
  0xe110305af3d2d4fbU, 0xc4f50955e3053702U, 0x5e30a1de2cbde25U, 0x38e3dde6d4d4c3ebU,
  0x35a9e7aa2010c600U, 0x244534d881f4dbfaU, 0xf3c75dc315e4d9c5U, 0xb74ab70545e5fe2cU,
  0x27fdb40fe50eabceU, 0xa4c94dcb380860U, 0xe8251323643605f3U, 0xeb10d7d8ce23bf39U,
  0xf4cc7a56f93ce0edU, 0x31f5d25844f4d729U, 0x2c641e4cd33d4a3eU, 0xd3f529b644f4e3baU,
  0x2efcc8c8c7eef002U, 0x30ce2d3c7f474ca9U, 0xfe0c0e211e630c1U, 0x1b0c36effc33e81aU,
  0x1f0a259b03f3caecU, 0x15eefedef40b1614U, 0xe5001ef6293452f9U, 0x371c1aae0602115bU,
  0x34f0ece90e71549U, 0x17d61044003e0bc9U, 0x196209cbc9f0a31U, 0x3e33f0041f8d519U,
  0x281763eae8fa6cc1U, 0xe826e8d4eb00f2eaU, 0x1100032917f3d805U, 0xd54fd22f9f6001aU,
  0x16a4cf18bceaead1U, 0x8be4e7d6d13001eaU, 0x3bd5f2ff2bec1250U, 0x455019e7ca2d3a15U,
  0xffe41921143be210U, 0x62dd0d6118110d9U, 0xda4444f9d50143ddU, 0xf60e2ec51b221ae7U,
  0x8260a1d380ceafcU, 0xefccce4233f8d7deU, 0x2dcf9e6da4110d8U, 0x31b0e31e93bd0d5U,
  0xdb34ff9c29f6eb02U, 0xc04f51c1cae0929U, 0x99f11efeaa2df79fU, 0x3a38cd8108e69b2dU,
  0xcf05fb211cd736e6U, 0x2dbed2d7fa44852aU, 0xc7aadd2b0b224a1dU, 0x29d516f5ccf6746dU,
  0x1c4a1ee6f757ec08U, 0x987cc61e5941eeeaU, 0xad26f5a0f6a79a37U, 0x9f0b962eafe3f21U,
  0xeb1c0fd7becc1217U, 0x4c833cc05d65ff7U, 0x91050a1c00de8af5U, 0x165925d742ae24fbU,
  0xfdc25d4acfec2dd9U, 0xbadd0a3517401ee2U, 0xe3b19740cb42527U, 0xb347d162d9ffa49bU,
  0x1def5db283f4e17U, 0x6569efd14ebfe23eU, 0xd749e2901d33f347U, 0xdabd2028bac06aedU,
  0xdb0ffc52becfd425U, 0x481c3653e3c611f9U, 0xecc01a2223f81ce7U, 0x48cd0f2221ca3f24U,
  0x35b3543716aefaa4U, 0x4a7f41c2d66ceeffU, 0xa96ee25c681e42d6U, 0x9d506afe80c1928U,
  0xe413f425f2f3e224U, 0x8fcbcf1bdfd613ddU, 0x1ee8fed8dd00e71dU, 0xda4e34faadf11523U,
  0x4140c7a500131b2dU, 0xd2af7becb19c9f6U, 0xd42e21f181d0d1e4U, 0xfdc369f2eb2cf198U,
  0x1216312efd66e50aU, 0x28e4391a4decf0c6U, 0xa4028c711d9a93aU, 0x720be8f7ffd6b340U,
  0xb71103154394e2fbU, 0x4775fd101e17f0d7U, 0xf7d30015fb084ae1U, 0x37b4e7eb22ccfee6U,
  0x111f4d844bc03c7U, 0x1c394214020d2de8U, 0x6af31ab43da139ceU, 0xf36a28db0e1eedd5U,
  0x1cd5d8c2d1bc0b05U, 0x8e3b033949fa2ef9U, 0xdf4d07171d23101fU, 0x30cb06beba29f9fbU,
  0xe7ec3dc953fcde2dU, 0xea65c4dcc723e6edU, 0x127f0fe3da676100U, 0xbe1341dffcf8c315U,
  0xdef6b0a5cafc2d4fU, 0x990225fa02d455bdU, 0x1a2a36ae3a183098U, 0x21eedab6c602a717U,
  0xf3fe0fd61c1712d3U, 0xa091afbcbc6f511U, 0xe216f722df3a2b2bU, 0x3f1b28461b1020e1U,
  0x3710e6c340cfe013U, 0xe3f1cb68cef3ff20U, 0xcf39baa80812e138U, 0xf50aeb0b55d4ddbfU,
  0x38fbfb5a14f21a4cU, 0x5204bcc53d532627U, 0xcee0c8ba3213bb21U, 0x1d33e8f6d7d3f9c3U,
  0x1be9d5c8e1df2edcU, 0x2d7fa818f6bdae1fU, 0xe7fa09d9ec355cd8U, 0xecc9fb2cf5e21c1eU,
  0x9f80ae5feca35c4U, 0x29a83e1a0bf9ea6cU, 0x181cad230a2156a0U, 0x1025cb0ea14af6fcU,
  0x551ef1eb1a24faa5U, 0x11234a8e1f1ee1f2U, 0x84ca9f59a745cfc1U, 0xf30b37be4350f8b9U,
  0x2be6f630feb81881U, 0xbddd1a2a4b25e8eaU, 0x34fcdc250800ed0eU, 0xa7dfa2371543d231U,
  0xef0411114af1af46U, 0x15f227df3b97e336U, 0x2aace020f4c01606U, 0xec46e3e72ac72ed8U,
  0xca3edc052433dedeU, 0xfc0c045119190f41U, 0xdffb37fe1d27035cU, 0x7cbf224ddf2072eU,
  0x2d2408273b24e021U, 0xd3ecfff0bae3b17fU, 0xbeb0160703dfdfebU, 0xf00f01fd12acca0bU,
  0xfd11271b11181a3dU, 0x4bd9cc1245381a0eU, 0x7db101bb9111c45U, 0x29d105bbb0d21acdU,
  0x1af6f9fc110014feU, 0x900f0e8f7aaf8c0U, 0xef0a03f608f31834U, 0x3dbca29e8bcfbfeU,
  0xb92203104a024f2eU, 0x5b9f50336ed9ff9U, 0x552cd1ff08faf04dU, 0x6e4aee7147f1ceeU,
  0xb738ba2effe6e9efU, 0x462baef3111d34c0U, 0x2425f01a112b3f13U, 0x2ebde9e9e02e4b00U,
  0x26142af321cbe2bdU, 0xcb4cf4dbb1e211f9U, 0x10d2b21b111b1e61U, 0xe49dbea8c5dfb1f3U,
  0xa4e4fceb07d1f702U, 0xf99cf1f7ee3b2c15U, 0x19feca0be7f8cd1fU, 0xeb3f2d1df8b6becfU,
  0x3c03702209dbb31U, 0xfb27703765d70b4bU, 0x1cce06406e1ab02aU, 0x49962ee19bf81220U,
  0xa9f39efad41cfe08U, 0x653bf82f91fdfaf8U, 0x240304ddeb3706e5U, 0xc395d4a23ede23f0U,
  0xeef555d5da211892U, 0xe4078cad44e831bdU, 0x1d0b20d48a13a5dcU, 0x3c037f891ae0c80cU,
  0xc21f0a34098aaed3U, 0xe8cc94fe2b37c727U, 0xa3b04d435001893U, 0xb3fd213732260a28U,
  0xb638e71ed7401ff0U, 0x81eeec46664c4335U, 0xd82a1043bb1fe8ffU, 0xdf12f7001cebc22fU,
  0xdb2e122229eddef3U, 0x37294ce72717fd05U, 0xbc44ffbe1cf04cfU, 0xb85e373a111e46fdU,
  0xecd3f4daf6cdc918U, 0x614921110ffdf7fcU, 0xed0d35edfb1b05c1U, 0x10242d30bb151ecfU,
  0xd5f0037aeefee419U, 0x7f08fcc7bd20fc4dU, 0xf250154842552459U, 0xc1c32d2fd50b54ddU,
  0xe8e1f8362cef1a0dU, 0xfca8f01fa2f4b554U, 0xd6605140a341cc18U, 0x3835912f0d4a9a03U,
  0x2437ac50374f4a1aU, 0xeedb5035dd44f2fdU, 0xde3b2ef4c2061b6dU, 0x363af946142d28d5U,
  0x17583841c13191a1U, 0x145f2af04344cf17U, 0x7a916c4ed3d01dcU, 0x2708d81bdf10adf8U,
  0xcb99a5d621e0d349U, 0x3d1e127cc1e42bfU, 0xd605e3cee314ea0cU, 0xbfd2e87ff9b52b38U,
  0xdb1571650241cfU, 0xd6f637e819042c0eU, 0x66fffad8d43406ccU, 0x1c1c24245aca209aU,
  0xc70db6e18f14db7bU, 0xb4f7c9242fd5c39dU, 0x4a44c7471e42d231U, 0xadc8cc2624d788dfU,
  0x4136ea4a06ccd016U, 0x332801e7e9b5d2d4U, 0xec2adaeef6153dc5U, 0x7f1cbdaf89781deU,
  0xf11cc119328adc0cU, 0x5f05d6e3fb2f2602U, 0x26462675e1f52e0dU, 0xcbfe402b1143f9cdU,
  0x22fc37dc13d0f8e2U, 0x314367e8ce08e245U, 0x1a39ecf425cf0c17U, 0x49ef321f5fdffae8U,
  0x19dbe7e9f122dddfU, 0xd3b3015502132b1aU, 0xfa11eb003bd3322eU, 0xbf0a0d2d3bf73e12U,
  0xcce7f73a100f0846U, 0x3e3b3eb7fb631a5cU, 0x4419daf035f60401U, 0x41a57f35200147c3U,
  0x174ad32deff120f0U, 0x1fe31b223a1361d4U, 0x4005000df53644cfU, 0xceaeb71b1312fdf0U,
  0xea20c9f347b137a6U, 0x1f2c2e22b7f002cU, 0xddcee731e8e809acU, 0xe3d3e454db0aeaaaU,
  0x4325c1c5c8408fefU, 0xfc74b194eb4cae7bU, 0xe6c45106e357f3b0U, 0x261c0469d6540f3bU,
  0xf71fc3eb25a9ee2aU, 0x3f9ad6ac3b1f0e10U, 0x201c1931d713d1e2U, 0x2fc40ce83adc3145U,
  0x49e5e9564af91ef1U, 0x4f3dbea9dbef4212U, 0x240fff111cf0f938U, 0x5328b6afb536362bU,
  0xc453b729edbaafe4U, 0xf2b03e5df43d4deU, 0xa0fb6d9e1e433ccU, 0xe1c1ed550d4f3faU,
  0xe2f7d440ff5bd93aU, 0x2def24e9e5d129fcU, 0x130135f6e783bb20U, 0xe11704f1d6fd0ee3U,
  0xf0d3d9ccdd11cc45U, 0xffd8da31e92fd924U, 0x59e44713d4f40fd9U, 0x14d74d0bdbef7f32U,
  0xfdc2eb21e52ce7caU, 0xfccdfacb1d07e2aeU, 0x45e1ea05f8e3e33bU, 0xcc34ec0b3206f5edU,
  0xcfd6f2f7edccdee3U, 0x19e0d3e014220ebbU, 0x2be4fee2061ec527U, 0x18e4f681d40d461bU,
  0xeee52538dc03c2e9U, 0x8aad21a2ecf718eaU, 0xe1e92d09bbd0f5ceU, 0x4055454c09d432ffU,
  0xdcfa11c90e0a37faU, 0x114ad131c6d3f058U, 0xf8fe2ed6f3d0ddefU, 0xe6e8fa16e2c916ffU,
  0xaf61a093447094eU, 0x1cccc26f0d21fc16U, 0x24b4f3f6cff9b20eU, 0xe628b9aa20b91314U,
  0xfad75c08df07fc17U, 0xf1125f4ac1f82bf8U, 0xe01ca8e1d9ff26f2U, 0x301e08e71cfbd3d2U,
  0x53659cc730c22dcfU, 0xd9543ef739e1cfe7U, 0xd4b7eceb1c0c31U, 0xe6e7401329fa3132U,
  0x28feb4d6ce1413a7U, 0xf439edcbb8263ebbU, 0x1eb0c1142f2e0427U, 0xec4cc660fdf4010aU,
  0x2fecf219dcfa18f7U, 0xeb64343d3c21b10dU, 0xd02125a9c90db707U, 0x59027f151a2ea3feU,
  0xebede506521f0b38U, 0x1f24e5c86ddfecbdU, 0xf3f9451848ec2b15U, 0x212ac16be81fd5cbU,
  0x14e3d83159c94443U, 0x9db981cd3acee91aU, 0x9d125e0a18ea0cefU, 0xff1d129de21df6b7U,
  0xca1b9dfc10332cadU, 0xe0e7b74838f24c17U, 0x277a26a344043dd9U, 0xcf5fc51237c9e236U,
  0x1de70712f915bd11U, 0xc9cee9e0ea09fde2U, 0x25cf58124814c751U, 0x5e7ff42630bf2a2dU,
  0xf81ad2f104c204d7U, 0x2b0cd41cb7deb700U, 0xc3e370a30cfe1deU, 0x24f1e8e345c53217U,
  0xfbea112000ed2fd4U, 0x18bccd3610d604f5U, 0xdcd8ed4251e2cbfaU, 0x38ed15cc35291edbU,
  0x820dd7fb417cb40U, 0x2d0127ee02fddaeeU, 0x18fd2defe339cbe8U, 0xe8232a3814db09a4U,
  0xfe413e3a003728dbU, 0x1231f0f71df0e842U, 0x5252e2d29f8092fU, 0xc7f2b11cd5472523U,
  0xda004d320d0ade4bU, 0x43f404d3ee3934caU, 0x36d2ed2ec349b4d5U, 0x48f7e50b14b117c2U,
  0xd22fba45411c1dcbU, 0xf129494bea04403fU, 0xe44e20ed28521114U, 0x44fcc03b049bb52U,
  0xfe2bc55d1edd3e3bU, 0xfbb7b014f70719d3U, 0x30acf4ce8ead1deU, 0xad91f81fd01cea2U,
  0x4926fb4c31f538fcU, 0x5806d21e89ecb597U, 0xe6dcc60f911b0837U, 0xbaf7d0d4ea33054fU,
  0x120beaf517250aecU, 0xca3c3a861e72c4cdU, 0x2efae2d6dd1833daU, 0x16122b0c3e23bde4U,
  0xfcc9e5dbdfe76ec7U, 0x310916189fdb6398U, 0x1b1fc55949eef535U, 0xebdfc77f264349d4U,
  0xc2fe31b5f4e76afdU, 0xae181a201166d52cU, 0xcb57baeb3c0b0fccU, 0xf6419d12d00243bbU,
  0x25dfba010ed60235U, 0x1d1bd0eb04a8275fU, 0xd0f3e8f8f1090e42U, 0xde4146ffe5deece8U,
  0xe69a2ed43eb3ffd9U, 0xecdbefa21a971ef9U, 0x2aaf3cbf1dcf0822U, 0xf249cc12f62847b1U,
  0xabe92839ba7fd710U, 0xb34c0b1e1410d8eaU, 0x36032823f3d8b5c2U, 0x22b45550d10430d7U,
  0xf8044f132c14f639U, 0xafad2d95241fbf89U, 0x4d291234191ab019U, 0xdb28e2e7d0fc362cU,
  0x4be01954d220f4d0U, 0xdae3fde9b3dc247eU, 0x974500b5d61c1effU, 0x90ffe9cbfbbbf20U,
  0xdc0e0558e9d2322cU, 0xfeb4fe1703dd1209U, 0xe7064b3b6d0233fbU, 0xb52c08d33e33184bU,
  0xf54527f923d00a3aU, 0x819a15c25f0613d2U, 0xd8ae1cc51516df28U, 0x36a7b21c33f6d1f8U,
  0xdca8ad234e2b3cb2U, 0x2c7ddad02619d0cdU, 0xc51714ace50f79U, 0xc5ab18d8bc2800d2U,
  0x2bb10a19c6573807U, 0xf8edfb06f3afdad3U, 0x1624dae0bad8274aU, 0x3c2af5f8d102c220U,
  0xf0b38eee1cd22ffU, 0x1d00122815121ad2U, 0x1c12f90710ef32feU, 0x2efff52c0acbee0cU,
  0xb9d2ffde0d161f03U, 0x1505eb55c50df3e7U, 0xff3619be3936233cU, 0xc9e7273fdebf251eU,
