/**
  ******************************************************************************
  * @file    network_data.c
  * @author  AST Embedded Analytics Research Platform
  * @date    2025-12-24T17:55:23+0000
  * @brief   AI Tool Automatic Code Generator for Embedded NN computing
  ******************************************************************************
  * Copyright (c) 2025 STMicroelectronics.
  * All rights reserved.
  *
  * This software is licensed under terms that can be found in the LICENSE file
  * in the root directory of this software component.
  * If no LICENSE file comes with this software, it is provided AS-IS.
  ******************************************************************************
  */

#include "network_data.h"
STAI_ALIGNED(8)
const uint64_t g_network_gemm_0_weights_array[8320] = {
  0xbbcb02c2bd184212U, 0xbcfdc3723d4b02c2U, 0x3d7dc372bd984212U, 0xbbcb02c2bcfdc372U,
  0x3c984212U, 0xbd4b02c2U, 0x3d64631a3d4b02c2U, 0xbd4b02c23ccb02c2U,
  0x3d31a26abdbe5296U, 0xbccb02c2bdbe5296U, 0xbda4f23e3e8539cfU, 0xbe776b5cbd984212U,
  0x3ccb02c2bdcb02c2U, 0x3e0b91e53df11346U, 0xbd64631abc984212U, 0x3d9842123d7dc372U,
  0xbbcb02c23cfdc372U, 0xbe5e0b04be57b2eeU, 0xbc9842123dfdc372U, 0x3dd7b2eebcfdc372U,
  0xbe5e0b043df11346U, 0xbe776b5cbe64631aU, 0x3e1e9a28bd4b02c2U, 0x3e9e9a283eab4a54U,
  0x3dbe52963e8539cfU, 0xbdd7b2ee3df11346U, 0x3e0b91e53e31a26aU, 0xbe0539cfbbcb02c2U,
  0xbde4631a3c984212U, 0x3c9842123c4b02c2U, 0x3ee1370f3f496cbcU, 0x3e57b2ee3e11e9fbU,
  0xbe5e0b043db1a26aU, 0xbe64631abeeabb30U, 0xbe0b91e5be776b5cU, 0xbe57b2eebe57b2eeU,
  0x3e0b91e5U, 0xbe7dc372bcfdc372U, 0x3de4631a3d984212U, 0x3d4b02c2bd7dc372U,
  0x3ed486e33eeabb30U, 0xbd1842123e64631aU, 0xbe8539cfbe8b91e5U, 0xbdd7b2eebe711346U,
  0x3cfdc372bdfdc372U, 0xbe6abb303da4f23eU, 0xbe91e9fbbe5e0b04U, 0xbbcb02c2bc984212U,
  0x3ccb02c2bd4b02c2U, 0xbd7dc372bc4b02c2U, 0xbe9516063bcb02c2U, 0x3e7dc372be515ad8U,
  0x3ebe52963e820dc4U, 0x3e2b4a543eb7fa80U, 0x3e7113463e57b2eeU, 0x3df113463dcb02c2U,
  0xbe4b02c2bdfdc372U, 0xbe5e0b04bdfdc372U, 0x3c9842123dfdc372U, 0xbdf113463d7dc372U,
  0xbd64631abef11346U, 0xbbcb02c23d31a26aU, 0xbd64631a3d184212U, 0xbdbe52963bcb02c2U,
  0xbd184212bd31a26aU, 0x3d31a26a3cfdc372U, 0xbe2b4a54U, 0x3e64631a3e7dc372U,
  0x3df113463c984212U, 0x3d984212bda4f23eU, 0xbcfdc3723dbe5296U, 0xbd4b02c2bd184212U,
  0xbe44aaac3dd7b2eeU, 0xbea4f23ebe5e0b04U, 0xbe820dc43d8b91e5U, 0xbe44aaacbf0865daU,
  0xbd7dc372be0539cfU, 0xbd9842123d31a26aU, 0x3dbe5296bda4f23eU, 0xbd8b91e53d8b91e5U,
  0xbe6abb30bece2ecdU, 0xbdf11346bc984212U, 0x3e24f23e3e24f23eU, 0xbe6abb30bdbe5296U,
  0x3eb7fa80bdf11346U, 0x3cfdc3723e11e9fbU, 0x3dfdc3723e0b91e5U, 0xbc9842123d64631aU,
  0xbc9842123d64631aU, 0x3d1842123dbe5296U, 0x3e0539cfbe6abb30U, 0x3e6abb303e6abb30U,
  0x3dbe52963e44aaacU, 0xbdd7b2ee3cfdc372U, 0x3d4b02c200000000U, 0x3c984212be3e5296U,
  0x3d9842123ccb02c2U, 0xbd7dc3723d184212U, 0x3c4b02c23de4631aU, 0xbdb1a26a00000000U,
  0xbc4b02c23ef43f51U, 0xbe0b91e5be515ad8U, 0xbd64631abe1e9a28U, 0xbe951606be2b4a54U,
  0xbe91e9fbbdbe5296U, 0xbde4631abdd7b2eeU, 0x3ea4f23e3ece2ecdU, 0x3e37fa80bbcb02c2U,
  0xbc984212bc984212U, 0xbdb1a26a3d64631aU, 0xbdbe5296bd184212U, 0xbdcb02c2bc984212U,
  0xbe5e0b04bd984212U, 0xbeb4ce75bea4f23eU, 0x3eb4ce753d31a26aU, 0x3e9b6e1d3e9b6e1dU,
  0x3e4b02c23e7dc372U, 0x3e8ebdf03de4631aU, 0xbd31a26a3dbe5296U, 0xbdd7b2eebdfdc372U,
  0xbdbe5296be984212U, 0xbd7dc3723d8b91e5U, 0x3e5e0b04bda4f23eU, 0x3e1e9a283e24f23eU,
  0x3dfdc372bd184212U, 0xbdcb02c23df11346U, 0x3ede0b043e57b2eeU, 0xbd31a26abc984212U,
  0x3db1a26a3d184212U, 0xbd64631a3dd7b2eeU, 0xbcb4037d3e1d830eU, 0xbd820285bd820285U,
  0x3e0982aa3df004a7U, 0xbc8c02b7bc7004a7U, 0xbd2a034c3c7004a7U, 0xbd2a034c3daa034cU,
  0xbba0031abd660475U, 0x3cc803e03d1602e8U, 0xbcdc0444bd9102d0U, 0xbde1045d3dc803e0U,
  0x3c4803e0bdfa04d9U, 0xbde60475bdf004a7U, 0xbc20031a3cdc0444U, 0x3ca0031abdfa04d9U,
  0x3db4037d3d9b0301U, 0xbd020285bdbe03afU, 0x3b20031abd7004a7U, 0x3d34037d3de60475U,
  0xbdaa034c3df504c0U, 0x3df504c0bc20031aU, 0xbe27833fbe36838aU, 0xbdaf0364bd9102d0U,
  0x3c4803e0be1382dcU, 0x3d9602e83cc803e0U, 0x3cb4037dbc8c02b7U, 0xbdf004a7bdf004a7U,
  0xbd5c04443ba0031aU, 0x3d2a034c3c8c02b7U, 0xbddc04443cb4037dU, 0xbd1602e83dfa04d9U,
  0xbe1602e8be3b83a2U, 0xbe27833fbd20031aU, 0x3d9602e8bc4803e0U, 0x3ddc04443dff04f1U,
  0x3cf004a73de60475U, 0x3d7a04d9bdf004a7U, 0xbda50333bd7a04d9U, 0x3cb4037dbd2a034cU,
  0xbd34037d3daf0364U, 0xbc8c02b7bdb90396U, 0xbd3e03afbda0031aU, 0x3ddc04443d8c02b7U,
  0xbc20031a3d34037dU, 0x3dd7042bbd7a04d9U, 0x3e020285bd20031aU, 0xbda503333db90396U,
  0xbd8c02b7bdaa034cU, 0x3d9602e83df004a7U, 0x3d4803e03d7a04d9U, 0xbd34037d3d34037dU,
  0x3e57042b3dd20412U, 0x3e3183713d7a04d9U, 0xbdaa034cbcb4037dU, 0x3d1602e83ba0031aU,
  0xbc7004a73c4803e0U, 0xbd2a034c3dd7042bU, 0xbc8c02b73cb4037dU, 0xbd1602e8bd9602e8U,
  0x3c20031abc7004a7U, 0x3dc803e03dd20412U, 0x3e250333bcf004a7U, 0x3d20031a3e228326U,
  0x3c8c02b73d3e03afU, 0x3de604753df504c0U, 0x3e2c83583daf0364U, 0xbc4803e03d5c0444U,
  0xbcf004a73ca0031aU, 0x3d4803e03c8c02b7U, 0xbdf004a73d87029eU, 0x3d520412bdff04f1U,
  0x3e1382dc3cdc0444U, 0x3d5204123dc803e0U, 0x3dc303c8bc4803e0U, 0x3c8c02b73daa034cU,
  0x3d4803e03cf004a7U, 0x3bf004a7bda0031aU, 0xbd660475bd3e03afU, 0x3deb048e3da50333U,
  0xbd8c02b73d520412U, 0x3d9b03013db90396U, 0x3d5c04443e9ec314U, 0x3d9102d0bba0031aU,
  0x3d9102d0bcf004a7U, 0x3dc803e03df504c0U, 0xbd3e03afbcc803e0U, 0xbc8c02b7bd020285U,
  0xbde1045d3d5c0444U, 0xbe020285bd87029eU, 0xbcc803e03d9b0301U, 0xbd4803e0bd0c02b7U,
  0xbdbe03afbe4d03f9U, 0x3ca0031abe660475U, 0xbdaa034cbcdc0444U, 0xbdb4037d3e20031aU,
  0x3d6604753d20031aU, 0xbd660475bb20031aU, 0x3d8202853d8c02b7U, 0xbd34037d3ddc0444U,
  0xbdb4037dbdf504c0U, 0x3d020285bcdc0444U, 0xbbf004a73c8c02b7U, 0x3db4037dbd7a04d9U,
  0x3e598437bc8c02b7U, 0x3deb048e3d0c02b7U, 0x3dc803e03daf0364U, 0xbd9602e8U,
  0xbd660475be020285U, 0xbe1b0301bbf004a7U, 0xbd8c02b73d820285U, 0xbd4803e000000000U,
  0xbe0982aabd9102d0U, 0xbd9b03013dbe03afU, 0x3e0982aabd20031aU, 0x3e5e84503e1882f5U,
  0x3de1045d3e20031aU, 0x3e1b03013d7004a7U, 0xbcb4037d3d87029eU, 0x3d2a034c3ba0031aU,
  0xbcc803e0U, 0xbcc803e03c7004a7U, 0x3e1102d0bca0031aU, 0x3dbe03af3d87029eU,
  0x3daa034c3e07029eU, 0x3e1882f53b20031aU, 0xbd7a04d93de1045dU, 0x3e07029ebcc803e0U,
  0x3d7004a7bcdc0444U, 0x3d9602e8bca0031aU, 0xbdeb048ebdc803e0U, 0x3df004a7bdeb048eU,
  0xbc47faf1bdbfa5d2U, 0x3d47faf13d0551f6U, 0xbdb750b2bde94f6eU, 0x3de94f6e3d9e5154U,
  0x3dc7faf13d3750b2U, 0xbd694f6ebd15fc35U, 0x3d95fc35bd0551f6U, 0xbd58a5303dd05010U,
  0xbca6a674bd26a674U, 0x3db750b2bb8551f6U, 0x3dd05010bd8da715U, 0x3d15fc353d8551f6U,
  0x3e8da7153d3750b2U, 0x3e0127663d79f9adU, 0xbdf9f9ad3dbfa5d2U, 0xbd95fc35be43d061U,
  0x3c8551f63c8551f6U, 0x3e2efb93bc0551f6U, 0x3ca6a674bd47faf1U, 0xbd694f6ebd9e5154U,
  0xbe1a26c4be7e243dU, 0x3ce94f6ebe6d79feU, 0x3eb965fa00000000U, 0x3e98117d3e75cf1eU,
  0x3e812766U, 0x3ca6a6743c8551f6U, 0xbe1e51543c8551f6U, 0xbdaefb93bdaefb93U,
  0xbca6a674U, 0xbde0fa4f3dbfa5d2U, 0x3de94f6e3e2efb93U, 0xbe3b7b423e012766U,
  0xbe75cf1ebdf9f9adU, 0xbde0fa4fbe694f6eU, 0xbd95fc35be5ccfbfU, 0xbe3fa5d23d0551f6U,
  0xbdb750b2bd9e5154U, 0x3da6a674bde94f6eU, 0x3dc7faf13df9f9adU, 0x3ca6a674bdd05010U,
  0xbe9e51543db750b2U, 0xbe332623be7e243dU, 0xbd95fc35bda6a674U, 0xbde0fa4fbdd8a530U,
  0xbe26a674be91d1a5U, 0xbe5ccfbfbe75cf1eU, 0x3df1a48ebd8da715U, 0x3d95fc353e3750b2U,
  0xbc8551f63df9f9adU, 0x3d47faf13ca6a674U, 0x3ec3d0613e87673eU, 0x3ed8a5303edccfbfU,
  0x3dd050103ea0669cU, 0x3e8da7153e58a530U, 0x3ea8bbbb3d79f9adU, 0x3e15fc353e47faf1U,
  0x3daefb933e79f9adU, 0x3d47faf1bd79f9adU, 0xbdbfa5d23e012766U, 0x3de94f6e3da6a674U,
  0x3d95fc353e1a26c4U, 0x3e0da7153de0fa4fU, 0x3d0551f6bc47faf1U, 0x3e91d1a53da6a674U,
  0x3e8127663e43d061U, 0x3e60fa4f3df1a48eU, 0x3d694f6e3d47faf1U, 0xbc0551f63d9e5154U,
  0x3dd8a5303d9e5154U, 0x3db750b23d95fc35U, 0x3ea6a6743eb32623U, 0x3e93e6ed3e93e6edU,
  0xbd0551f63e87673eU, 0xbdb750b23c8551f6U, 0xbe0da715bd0551f6U, 0x3e4c2581bd95fc35U,
  0xbd79f9ad3e3fa5d2U, 0xbe097c863c0551f6U, 0x3d15fc35U, 0x3c8551f63d8551f6U,
  0x3e227be43e6d79feU, 0x3daefb933c47faf1U, 0x3c8551f63d47faf1U, 0xbe26a674bdf1a48eU,
  0xbdf1a48ebe4c2581U, 0x3e15fc353d8da715U, 0x3d15fc353c47faf1U, 0x3daefb933df9f9adU,
  0x3d26a674bda6a674U, 0xbc0551f6bd3750b2U, 0x3ed8a5303ebb7b42U, 0x3e47faf13ec1bb19U,
  0x3d58a5303ce94f6eU, 0x3e8fbc5d3e4c2581U, 0x3e9e51543f044752U, 0xbd58a5303e8fbc5dU,
  0x3dc7faf1be2ad103U, 0x3d58a5303e1a26c4U, 0xbc47faf1bde94f6eU, 0x3d79f9ad3d58a530U,
  0xbdbfa5d23dbfa5d2U, 0xbe5ccfbfbdf9f9adU, 0xbde0fa4fbe47faf1U, 0xbe332623be1e5154U,
  0xbe58a530be0da715U, 0x3e012766bca6a674U, 0x3d8da715bd694f6eU, 0xbe0551f63d3750b2U,
  0x3d95fc3500000000U, 0x3d26a674bd0551f6U, 0x3e6d79feU, 0x3cc7faf1be2ad103U,
  0x3ec7faf13d15fc35U, 0x3e79f9ad3e3b7b42U, 0x3e3750b23eef8f46U, 0x3eb110db3ecc2581U,
  0x3e3fa5d23e0551f6U, 0x3e6d79feU, 0x3ce94f6ebdb750b2U, 0xbde94f6ebce94f6eU,
  0x3daefb93bdbfa5d2U, 0x3d26a6743db750b2U, 0xbe097c86bd3750b2U, 0x3d8551f63d0551f6U,
  0x3e2efb93be2ad103U, 0x3e2ad1033e15fc35U, 0x3e7e243d3e547aa0U, 0x3e47faf13e15fc35U,
  0x3d26a6743d8da715U, 0x3d26a6743d58a530U, 0x3dc7ea3f3d7b7084U, 0x3dc7ea3f3cd65785U,
  0xbdbd9c31bded033dU, 0xbd1ca26bbcde95f7U, 0x3d6af3a13d0c2588U, 0x3d7332123d733212U,
  0x3d7332123d83e717U, 0xbdbd9c313dda76beU, 0x3e00cfacbd397cf8U, 0x3cde95f73d66d468U,
  0x3d81d77b3de6d468U, 0x3cf7514bbde6d468U, 0xbc45daa2bc565785U, 0xbda6f0793daf2eebU,
  0x3be6d4683cc5daa2U, 0x3db55dc0bdf541afU, 0x3d6f12dabc565785U, 0xbc9463fabc66d468U,
  0xbd8a15ec3cd65785U, 0x3df541afbda2d140U, 0xbda6f0793df541afU, 0x3db13e873c24e0ddU,
  0x3de2b5303c1463faU, 0xbc45daa23d080650U, 0xbd9044c13b45daa2U, 0xbdbfabcd3cef12daU,
  0x3da900153b03e717U, 0xbdef12dabcce1914U, 0xbda6f079bd92545eU, 0x3d0c25883ba4e0ddU,
  0xbcf7514b3da90015U, 0x3b03e717bcd65785U, 0xbcd65785bcad1f4eU, 0xbdab0fb23d2d1f4eU,
  0x3d290015bdfb7084U, 0xbd9044c1bd0c2588U, 0xbd188333bdbd9c31U, 0x3df332123d77514bU,
  0x3cff8fbd3d6f12daU, 0x3d8e3525bd9eb208U, 0x3c565785bd20c1a4U, 0xbdad1f4ebdc1bb6aU,
  0x3d49f9db3e01d77bU, 0xbe02df493d9a92cfU, 0x3ca4e0dd3d92545eU, 0x3def12dabdbd9c31U,
  0x3dc1bb6abd1ca26bU, 0x3d20c1a43dda76beU, 0xbc24e0ddbdfd8020U, 0x3ded033dbd080650U,
  0x3d8e3525bc8c2588U, 0xbdf960e7bba4e0ddU, 0xba83e717bd24e0ddU, 0xbdc7ea3f3d41bb6aU,
  0xbd9a92cf3d2d1f4eU, 0xbd66d4683cef12daU, 0xbd49f9dbbdfb7084U, 0xbde6d4683dd2384dU,
  0x3cff8fbd3db34e23U, 0xbd5e95f73e02df49U, 0xbbe6d468bde8e405U, 0xbcf7514b3dad1f4eU,
  0xbd24e0ddbd9044c1U, 0x3da6f0793dc7ea3fU, 0x3d92545e3d397cf8U, 0xbd81d77b3d9463faU,
  0xbd77514bbdb13e87U, 0xbde8e405bd313e87U, 0xbd0c2588U, 0x3c77514bbdad1f4eU,
  0x3dc9f9dbbcef12daU, 0xbd6f12da3dfd8020U, 0x3d1ca26bbd8a15ecU, 0xbc24e0ddU,
  0xbd9463fabd24e0ddU, 0xbdb13e873d967396U, 0xbdbd9c313dfb7084U, 0x3dda76be3e00cfacU,
  0x3cde95f73d83e717U, 0x3dcc0978ba83e717U, 0xbe01d77b3d3d9c31U, 0xbd1463fa3d2d1f4eU,
  0xba83e7173d62b530U, 0x3cde95f73dda76beU, 0xbcce19143da6f079U, 0xbd290015bdde95f7U,
  0xbc355dc03db76d5cU, 0xbdeaf3a1bc77514bU, 0x3c24e0dd3daf2eebU, 0x3d313e873cff8fbdU,
  0xbd6af3a13c45daa2U, 0xbd85f6b3bde4c4ccU, 0x3dff8fbdbcad1f4eU, 0xbd81d77bbdf12276U,
  0xbdcc0978bcef12daU, 0x3d41bb6a3d880650U, 0xbd52384d3b45daa2U, 0xbdce19143df541afU,
  0x3de2b530bda6f079U, 0xbdef12dabded033dU, 0xbdb76d5c3d080650U, 0x3ba4e0dd3c565785U,
  0x3db55dc03d92545eU, 0x3d1044c1bdeaf3a1U, 0xbdbd9c313dd2384dU, 0x3d7f8fbd3dff8fbdU,
  0x3d83e717bd41bb6aU, 0x3db34e233cef12daU, 0x3e01d77b3d9eb208U, 0xbdc5daa23deaf3a1U,
  0x3def12da3d5e95f7U, 0x3db34e23bdcc0978U, 0xbd188333bdc7ea3fU, 0x3da4e0ddbe00cfacU,
  0x3dbfabcdbe00cfacU, 0x3e00cfacbdc3cb06U, 0x3d52384d3d9044c1U, 0xbd3d9c313dce1914U,
  0xbd20c1a43df541afU, 0x3c83e7173d3d9c31U, 0xbdde95f73cef12daU, 0x3d9673963db13e87U,
  0xbc03e7173dff8fbdU, 0xbd3d9c31bdab0fb2U, 0x3d4e1914bb03e717U, 0x3e00cfacbd565785U,
  0x3da4e0ddbda6f079U, 0x3dfb7084bc77514bU, 0x3d0c25883dfb7084U, 0xbc66d468U,
  0xbda03772bd822d0dU, 0x3de64fb43df0532bU, 0x3d0c3084bda03772U, 0xbd822d0d00000000U,
  0xbcf0532b3dd248c6U, 0xbdb43e60bdaa3ae9U, 0x3df0532b3e022d0dU, 0xbdaa3ae9bd343e60U,
  0x3dc8454ebca03772U, 0xbe022d0d3c203772U, 0xbd5c4c3dbdf0532bU, 0xbdbe41d73ba03772U,
  0xbeb1bd82bebbc0faU, 0xbe2a3ae9be6b516fU, 0xbe8eb162bd9633fbU, 0x3daa3ae9be25392eU,
  0xbd0c30843d5c4c3dU, 0x3ca037723e5248c6U, 0xbdd248c6bd822d0dU, 0x3de64fb4bca03772U,
  0x3d9633fbbe89afa6U, 0x3e9633fb3e203772U, 0x3ddc4c3d3e91323fU, 0x3e574a813d822d0dU,
  0x3e2a3ae93db43e60U, 0x3d822d0d3e022d0dU, 0xbe48454ebd5c4c3dU, 0x3d5c4c3d3c203772U,
  0xbd9633fb00000000U, 0x3da03772bde64fb4U, 0x3ea037723e7a56a2U, 0x3e39401c3d5c4c3dU,
  0x3dbe41d7bdd248c6U, 0xbe84adeabe022d0dU, 0xbe7554e73d8c3084U, 0x3ee3ced63eb43e60U,
  0xbe93b31d3dd248c6U, 0x3c70532bbeb43e60U, 0x3c70532bbcf0532bU, 0xbdb43e603da03772U,
  0xbdd248c6be4d470aU, 0xbe5c4c3dbe70532bU, 0xbe9633fbbe7554e7U, 0xbedecd1bbe9b35b6U,
  0xbe48454ebe7f585eU, 0xbdb43e60bd8c3084U, 0x3e072ec8be7a56a2U, 0x3e0c30843da03772U,
  0xbde64fb43db43e60U, 0xbcc8454e3dd248c6U, 0xbe343e60bdaa3ae9U, 0x3dfa56a2bd8c3084U,
  0xbdaa3ae93dd248c6U, 0x3dd248c63d343e60U, 0x3d5c4c3d3db43e60U, 0x3ee14df83e6b516fU,
  0x3da037723efcd780U, 0x3e6b516fbdbe41d7U, 0x3ddc4c3d3d5c4c3dU, 0x3d343e60bd70532bU,
  0xbd0c30843ca03772U, 0x3da03772bde64fb4U, 0x3d9633fb3e9b35b6U, 0x3e3e41d73e9633fbU,
  0xbd0c30843d343e60U, 0xbe3e41d73db43e60U, 0x3dbe41d7be2a3ae9U, 0xbe48454ebe1633fbU,
  0x3d8c3084bcc8454eU, 0xbda03772bdfa56a2U, 0xbd70532b3e5c4c3dU, 0xbc70532b3d5c4c3dU,
  0xbe203772bd203772U, 0xbecfc7e8bebe41d7U, 0x3ca03772be9db694U, 0xbdc8454e3e872ec8U,
  0xbe0c3084be4d470aU, 0x3e9b35b63e2f3ca5U, 0xbdc8454ebdf0532bU, 0x3d48454e3ddc4c3dU,
  0x3cf0532bbdb43e60U, 0x3e89afa63e8eb162U, 0x3e1633fb3c203772U, 0xbd70532b3da03772U,
  0x3e7554e73e434393U, 0x3c70532b3e2a3ae9U, 0xbe2a3ae9be664fb4U, 0xbda03772bdf0532bU,
  0x3d9633fb3d48454eU, 0xbd9633fbbdb43e60U, 0xbba037723e822d0dU, 0xbda03772bc70532bU,
  0x3e072ec83d8c3084U, 0x3f1ef7033d822d0dU, 0xbd822d0d3ca03772U, 0xbdc8454e3d822d0dU,
  0x3d5c4c3dbdc8454eU, 0x3e91323f3e6b516fU, 0xbdf0532b3d8c3084U, 0x3ca037723daa3ae9U,
  0x3dfa56a23ea5392eU, 0x3ecfc7e83d5c4c3dU, 0x3e2037723d9633fbU, 0xbe072ec83e25392eU,
  0xbddc4c3dbe8c3084U, 0xbd5c4c3dbd48454eU, 0xbdf0532bbe93b31dU, 0x3e84adeabd48454eU,
  0xbdf0532bbcf0532bU, 0xbd343e603daa3ae9U, 0x3f022d0d3d0c3084U, 0x3e0c30843f09afa6U,
  0xbe574a81bcc8454eU, 0xbba03772be1b35b6U, 0xbd9633fbbe1633fbU, 0xbe5c4c3dbcc8454eU,
  0x3da03772be4d470aU, 0xbdaa3ae9bd343e60U, 0xbdfa56a23dbe41d7U, 0xbdaa3ae93ddc4c3dU,
  0x3df0532b3ecac62cU, 0x3e574a813dbe41d7U, 0x3e0c30843e822d0dU, 0x3e7554e73da03772U,
  0x3e9db6943e614df8U, 0x3ba037723e343e60U, 0x3db43e60bda03772U, 0x3e89afa63ea5392eU,
  0x3c70532b3df0532bU, 0x3dc8454ebc70532bU, 0xbce8471dbd57afc0U, 0x3e2a0f7ebc04baecU,
  0x3d78de7a3c471862U, 0x3d3681043d25e9a7U, 0x3dd7afc03e04baecU, 0x3c471862bcc71862U,
  0xbe04baec3d25e9a7U, 0xbdb68104bd9d9df8U, 0xbdf092ccbd471862U, 0x3b84baecbd8d069bU,
  0x3c04baecbd9d9df8U, 0x3dbeccb3bd15524aU, 0xbca5e9a700000000U, 0xbe1d9df8bdd7afc0U,
  0xbe4b3e39be009515U, 0x3dcf64113e04baecU, 0x3c04baecbc84baecU, 0x3dd7afc03e009515U,
  0x3c84baecbd9d9df8U, 0x3da5e9a7be009515U, 0xbe2a0f7ebe471862U, 0xbec71862be4f6411U,
  0xbe3aa6dcbee42146U, 0x3ca5e9a7bd8d069bU, 0xbd368104bdae3556U, 0xbe25e9a7bd368104U,
  0x3d57afc0be57afc0U, 0xbd471862bd68471dU, 0x3dcf6411bdae3556U, 0xbd25e9a7bdd7afc0U,
  0x3e04baec3dae3556U, 0xbe25e9a73d15524aU, 0xbe7d0452bdb68104U, 0x3c84baecbcc71862U,
  0x3d04baec3d15524aU, 0x3e4f64113c04baecU, 0x3e04baec3e08e0c3U, 0x3dbeccb33dc71862U,
  0x3ca5e9a73c84baecU, 0xbdbeccb33d368104U, 0x3e5ffb6e3d9d9df8U, 0x3dcf64113e21c3d0U,
  0x3ddffb6e3e325b2dU, 0x3e04baecbe197821U, 0x3e21c3d03d25e9a7U, 0xbd3681043df8de7aU,
  0x3e7d0452bd15524aU, 0x3e84baec3dc71862U, 0xbd68471dbd471862U, 0xbca5e9a7bd68471dU,
  0x3dbeccb33d471862U, 0x3e84baec3ddffb6eU, 0x3c84baec3e88e0c3U, 0xbdc718623e009515U,
  0xbe42f28bbdcf6411U, 0xbe642146bd8d069bU, 0xbdbeccb3be15524aU, 0x3e0d069bbe5389e8U,
  0xbca5e9a73db68104U, 0xbd84baecbd04baecU, 0x3e3681043e197821U, 0xbd84baecbddffb6eU,
  0x3df8de7abd95524aU, 0x3eae35563e997821U, 0x3e9d9df83e82a800U, 0x3c04baec3dae3556U,
  0x3e15524a3b84baecU, 0x3e57afc03e3eccb3U, 0xbce8471d3d25e9a7U, 0x3d78de7a3d368104U,
  0x3e57afc03d95524aU, 0x3e8af3af3e3aa6dcU, 0x3f03b1763e95524aU, 0x3e68471d3eb04841U,
  0x3e1d9df83e112c72U, 0x3e74b8a33e15524aU, 0x3c84baec3df8de7aU, 0x3e4718623e368104U,
  0x3d9d9df83db68104U, 0xbdbeccb3bd57afc0U, 0x3dbeccb33de8471dU, 0x3e6421463ed7afc0U,
  0x3ddffb6e3e88e0c3U, 0xbc84baec3dae3556U, 0xbe2a0f7ebd471862U, 0x3c84baecbd9d9df8U,
  0x3e5bd597bde8471dU, 0x3e68471d3e4f6411U, 0x3d95524a3c84baecU, 0xbcc71862bdb68104U,
  0x3dc718623d8d069bU, 0xbe84baecbe5bd597U, 0xbe68471dbeec6cf4U, 0x3e08e0c33e0d069bU,
  0x3d25e9a73e08e0c3U, 0xbc04baecbd8d069bU, 0x3ddffb6ebe5bd597U, 0x3e04baec3e4f6411U,
  0xbd95524a3db68104U, 0xbdcf6411bddffb6eU, 0xbe5bd597bdae3556U, 0xbdf8de7abd9d9df8U,
  0xbe21c3d0be25e9a7U, 0x3e4b3e39be04baecU, 0x3dae35563e9fb0e4U, 0xbe08e0c33d68471dU,
  0x3db68104bd04baecU, 0xbdc71862bd9d9df8U, 0xbdc718623e009515U, 0x3d68471d3e009515U,
  0xbdbeccb33d57afc0U, 0xbd8d069bbd8d069bU, 0x3ca5e9a73ce8471dU, 0x3d4718623c04baecU,
  0x3e25e9a73e3eccb3U, 0x3eae35563e3aa6dcU, 0xbd4718623dae3556U, 0x3e08e0c33cc71862U,
  0x3d68471dbc04baecU, 0x3df8de7abb84baecU, 0xbc84baec3e4b3e39U, 0xbd95524abde8471dU,
  0xbe25e9a7bdf092ccU, 0xbdf092ccbe197821U, 0xbd8d069bbe9fb0e4U, 0x3c04baecbd15524aU,
  0x3de8471dbd471862U, 0x3e4718623b84baecU, 0x3dbeccb3bde8471dU, 0xbc84baec3dbeccb3U,
  0x3d83214f3dbc7fe2U, 0x3e09f5b63b2ed714U, 0x3dc4b1f63c8e0ec0U, 0x3e0cb1123d6af103U,
  0x3d8b5364bd7067bcU, 0xbda12e46bd8065f3U, 0xbdb9c485bd9640d5U, 0x3dac1bb83c18fc32U,
  0xbc03214fbd3f3b3eU, 0xbd657a4abd0e0ec0U, 0xbd83214f3c7067bcU, 0x3d5a8cd9bdca28afU,
  0xbd938579bd657a4aU, 0x3d4f9f68be0b5364U, 0x3d9640d5bdcce40bU, 0xbdfb552d3cda8cd9U,
  0x3d85dcab3da12e46U, 0xbdd51620bcb9c485U, 0x3d4a28afbc44b1f6U, 0x3c44b1f63ccf9f68U,
  0xbd29605b3df899d0U, 0xbd39c485baaed714U, 0x3d3f3b3e3dd51620U, 0xbd3f3b3ebe1d153cU,
  0xbc2ed7143d2ed714U, 0xbdb44dcd3dca28afU, 0x3da9605b3aaed714U, 0x3da9605bbcc4b1f6U,
  0xbd7067bcbde00392U, 0xbcda8cd9bd85dcabU, 0xbbda8cd93dda8cd9U, 0x3d98fc323d4a28afU,
  0xbdf32318bdeaf103U, 0xbb2ed714be26a4ffU, 0xbde2beee3c8e0ec0U, 0x3de835a7be2d7966U,
  0xbd75de743d83214fU, 0x3dd25ac4bdeaf103U, 0x3d3f3b3ebdedac5fU, 0xbd1e72eabcf067bcU,
  0xbde00392bcaed714U, 0xbb83214f3d39c485U, 0xbd8e0ec03db70929U, 0x3cfb552d3e0f6c6eU,
  0x3d5a8cd93d39c485U, 0x3d7067bc3da6a4ffU, 0x3d9385793d138579U, 0xbdedac5fbd18fc32U,
  0xbc44b1f6bdb70929U, 0xbdedac5f3dc1f69aU, 0x3d5a8cd93de00392U, 0xbd344dcd3d3f3b3eU,
  0xbddd4835bdc4b1f6U, 0x3c18fc323da3e9a3U, 0xbd98fc32bd657a4aU, 0x3d7067bc3dcce40bU,
  0x3de835a73c2ed714U, 0x3dbf3b3ebd3f3b3eU, 0xbdcce40bbd657a4aU, 0x3c7067bc3df5de74U,
  0x3e212e463d5a8cd9U, 0x3dc1f69a3df5de74U, 0x3d9640d53d889808U, 0xbd75de743d9640d5U,
  0x3dcce40b3c83214fU, 0xbc18fc323df899d0U, 0xbd5516203d98fc32U, 0x3cf067bc3d2ed714U,
  0x3df899d03cc4b1f6U, 0x3d03214fbda6a4ffU, 0x3dd516203dd7d17dU, 0xbd4f9f683dd7d17dU,
  0x3d6af1033db70929U, 0xbd1e72ea3dedac5fU, 0xbbda8cd93d9640d5U, 0x3c03214fbb2ed714U,
  0xbdbc7fe23baed714U, 0xbe047efd3d4f9f68U, 0x3dcf9f68bdf899d0U, 0xbdb709293bda8cd9U,
  0x3dfb552dbdf067bcU, 0x3e179e833dca28afU, 0xbd03214f3d9640d5U, 0x3c98fc32bc5a8cd9U,
  0x3dfe10893d938579U, 0x3c44b1f6bcda8cd9U, 0xbda12e463c44b1f6U, 0x3dd51620bd600392U,
  0x3cda8cd93d9e72eaU, 0x3deaf1033d344dcdU, 0x3db44dcdbdbf3b3eU, 0x3dac1bb8bd2ed714U,
  0x3d03214fbd29605bU, 0xbd9640d53e0e0ec0U, 0xbda12e46bd03214fU, 0x3de2beee3d39c485U,
  0xbcda8cd9bdc76d53U, 0xbdf899d03da3e9a3U, 0xbca3e9a33df067bcU, 0xbdbf3b3e3da12e46U,
  0x3de57a4abdd7d17dU, 0xbda6a4ff3da6a4ffU, 0x3e09f5b63d9640d5U, 0xbde00392bdeaf103U,
  0x3d5516203d7b552dU, 0xbda6a4ffbd089808U, 0x3dac1bb8bd551620U, 0x3baed714bd85dcabU,
  0x3e01c3a1bda6a4ffU, 0x3d90ca1d3d089808U, 0xbd7067bc3cda8cd9U, 0xbd4a28af3db19270U,
  0x3e10ca1d3da12e46U, 0x3dd516203d83214fU, 0xbdc4b1f63d8e0ec0U, 0x3df5de743d23e9a3U,
  0xbd39c4853d138579U, 0xbb2ed7143ddd4835U, 0x3d2ed7143d8b5364U, 0xbd3f3b3ebd0e0ec0U,
  0xbd8065f3bcf067bcU, 0x3d4f9f68bd8b5364U, 0x3e073a593e1227cbU, 0x3dbc7fe2bdac1bb8U,
  0x3d8e0ec03d18fc32U, 0xbdaed714be05dcabU, 0xbce57a4abde00392U, 0x3caed714bd03214fU,
  0xbd5a8cd9bd657a4aU, 0x3de835a7bdc4b1f6U, 0x3e0105f63d94a284U, 0xbdd8c2553be735b0U,
  0xbd10818e3df18816U, 0xbc94a284bbc62e05U, 0xbdc83e803d739891U, 0x3d0c6099bdcc5f75U,
  0x3db399b5bc6735b0U, 0x3dbffc953b462e05U, 0xbdb399b53d10818eU, 0xbd462e05bc841eaeU,
  0x3d18c379bce735b0U, 0x3dca4efabdf39891U, 0x3dbdec1abc25265aU, 0x3dc83e80bd8a501eU,
  0xbd94a2843c56b1dbU, 0xbdbbdb9fbdb9cb25U, 0xbdc20d103c841eaeU, 0xbd77b986bd39cb25U,
  0x3dad6844bdd8c255U, 0xbe020e333df18816U, 0x3dbffc953bc62e05U, 0x3d2d6844bda315dfU,
  0xbd841eae3cad6844U, 0xbd420d10bd0c6099U, 0x3de104403cce6ff0U, 0x3da736d43e020e33U,
  0x3d1ce46f3d10818eU, 0x3d6f779b3d77b986U, 0xbe020e33bc041eaeU, 0x3b841eaebd29474fU,
  0xbcfffb71bda315dfU, 0x3da9474fbce735b0U, 0x3df5a90cU, 0xbd94a284bdd6b1dbU,
  0xbc35aa2fbd94a284U, 0x3de9462b3d14a284U, 0xbc9ce46fbdf7b986U, 0x3d90818ebdb5aa2fU,
  0x3cdef3c63d25265aU, 0xbd9292093d4a4efaU, 0x3d96b2fe3d841eaeU, 0xbdc62e053dd4a160U,
  0x3d90818ebde52536U, 0x3deb56a63cfffb71U, 0xbd77b9863d5290e5U, 0xbdcc5f753dce6ff0U,
  0x3d31893a3dce6ff0U, 0x3dc20d103ddad2d0U, 0xbdcc5f753d94a284U, 0xbc6735b0bde10440U,
  0x3cbdec1a3de10440U, 0xbddce34b3cd6b1dbU, 0x3d7ffb71bd6735b0U, 0x3cce6ff03c041eaeU,
  0xbd5ad2d0bddce34bU, 0xbd77b986bcce6ff0U, 0xbde104403dfdeaf6U, 0x3cdef3c6bcad6844U,
  0xbc8c6099bd5ef3c6U, 0x3cf7b9863d5ef3c6U, 0xbcbdec1a3ca5265aU, 0xbd29474f3d3dec1aU,
  0x3d0c6099bdf5a90cU, 0xbcf7b9863db1893aU, 0xbd8c6099bdb1893aU, 0xbd29474f3de52536U,
  0x3d862f293df18816U, 0xbe031671bdf18816U, 0x3d7bda7cbbe735b0U, 0x3cc62e05be0105f6U,
  0xbd90818e3d9ef4e9U, 0x3d6735b0bddef3c6U, 0x3d929209bbe735b0U, 0x3de9462b3cf7b986U,
  0xbdc62e05bdc41d8aU, 0x3d8a501ebdb399b5U, 0x3de104403c041eaeU, 0x3d3dec1abd3dec1aU,
  0x3df18816bd8c6099U, 0xbc462e053de735b0U, 0x3d462e05bd7bda7cU, 0xbddce34b3d39cb25U,
  0x3dc62e053c56b1dbU, 0x3ce735b0bd31893aU, 0x3c14a2843df39891U, 0xbde10440bdc20d10U,
  0x3d90818ebdc83e80U, 0xbd8e71143db399b5U, 0x3ce735b03d77b986U, 0x3d820e33bc9ce46fU,
  0x3da105643d14a284U, 0x3d210564bde52536U, 0x3d929209bd462e05U, 0xbca5265abd25265aU,
  0xbd6735b03c841eaeU, 0xbcd6b1db3dbffc95U, 0xbdfbda7cbdd290e5U, 0x3db1893a3d420d10U,
  0xbdef779bbcbdec1aU, 0xbcce6ff03dce6ff0U, 0xbcbdec1abdb7baaaU, 0xbdf9ca01bc6735b0U,
  0x3ca5265a3cb5aa2fU, 0x3cef779bbdd8c255U, 0xbdfdeaf63d9ce46fU, 0x3dce6ff0bd8e7114U,
  0x3da736d43de10440U, 0x3dfdeaf63ce735b0U, 0x3d77b986bdc20d10U, 0x3cdef3c63dca4efaU,
  0x3dcc5f75bda10564U, 0x3be735b03d56b1dbU, 0x3cdef3c6bc8c6099U, 0x3da9474fbe020e33U,
  0xbd18c3793dbbdb9fU, 0x3d31893a3c462e05U, 0xbd7398913dab57caU, 0xbd7ffb713df7b986U,
  0xbd4a4efabd083fa3U, 0x3da315dfbd96b2feU, 0xbd9ef4e9bd883fa3U, 0x3d90818ebcdef3c6U,
  0xbd4a4efabd35aa2fU, 0x3d420d10bddad2d0U, 0xbd2d68443d9ce46fU, 0xbdab57cabce735b0U,
  0xbddce34b3dad6844U, 0x3d7bda7c3dab57caU, 0x3dbdec1a3d210564U, 0xbdc62e053dbdec1aU,
  0xbcfb764e3d21a77bU, 0x3d6980243c0fb151U, 0x3e262506bcb39da5U, 0x3d339da53dc593cfU,
  0x3cd789fabd339da5U, 0xbd21a77b3d0fb151U, 0xbcb39da53cb39da5U, 0xbd4593cfbdbc98baU,
  0xbc5789fa3d98ac66U, 0xbdf27b39bdd789faU, 0xbcb39da53e9aeb2bU, 0x3d5789fabe530c6fU,
  0x3d86b63c3de98024U, 0x3d339da53d339da5U, 0xbd339da5bc5789faU, 0xbcfb764ebda1a77bU,
  0xbd98ac663dfb764eU, 0xbc8fb151bc0fb151U, 0x3b8fb1513c0fb151U, 0xbcfb764e3d86b63cU,
  0x3e6502993ebed780U, 0xbdfb764e3cfb764eU, 0xbed54b34be8fb151U, 0xbd4593cfbe4e8ee4U,
  0xbe339da5bd0fb151U, 0xbe381b30be91f016U, 0xbd0fb151bc0fb151U, 0x3df27b39bd0fb151U,
  0x3d4593cf3d0fb151U, 0x3e0238b100000000U, 0x3ede46493f0e91eeU, 0x3e60850f3ee0850fU,
  0xbe21a77bbe381b30U, 0xbe18ac66be966da1U, 0x3d21a77bbe0b33c6U, 0xbc8fb151be21a77bU,
  0xbcd789fa3e4a115aU, 0x3e0238b13d5789faU, 0xbd339da5bd98ac66U, 0xbcd789fabcb39da5U,
  0x3e142edc3e9aeb2bU, 0xbcfb764e3e381b30U, 0xbd5789fa00000000U, 0x3e4a115a3d7b764eU,
  0x3d7b764e3d0fb151U, 0x3daaa2903d86b63cU, 0x3e76f8c33e650299U, 0x3c0fb151bcfb764eU,
  0x3d21a77bbc0fb151U, 0xbdaaa2903db39da5U, 0x3de98024bdbc98baU, 0x3d98ac663df27b39U,
  0xbd6980243c5789faU, 0xbda1a77bbe142edcU, 0xbe8238b1be0b33c6U, 0xbd86b63c00000000U,
  0xbde0850fbe1d29f1U, 0x3d98ac663d0fb151U, 0x3d21a77bU, 0xbd6980243c8fb151U,
  0xbe0b33c63c5789faU, 0xbe8d728cbe7ff3d8U, 0x3e142edcbd7b764eU, 0x3e4a115a3e4593cfU,
  0x3de0850f3e530c6fU, 0xbdc593cfbdce8ee4U, 0x3dce8ee4bc5789faU, 0xbd86b63cbd0fb151U,
  0x3dce8ee400000000U, 0xbde0850f3d21a77bU, 0xbe76f8c3be8fb151U, 0xbe4593cfbe6dfdaeU,
  0x3e942edc3d21a77bU, 0x3de980243e966da1U, 0x3d8fb151be88f501U, 0x3e2aa2903e411645U,
  0x3e0b33c6bb8fb151U, 0x3dce8ee43e698024U, 0x3d339da53d7b764eU, 0x3da1a77b3c8fb151U,
  0xbd7b764ebeaf201bU, 0x3de98024bc0fb151U, 0xbb8fb1513dc593cfU, 0x3dfb764e3e8d728cU,
  0xbdbc98babdaaa290U, 0xbe06b63cbdb39da5U, 0x3d8fb1513c5789faU, 0x3d86b63c3de98024U,
  0xbcb39da5bcd789faU, 0x3d0fb1513d7b764eU, 0x3de0850fbe411645U, 0x3e966da13eaaa290U,
  0x3f0477773e9aeb2bU, 0xbc0fb1513e0fb151U, 0x3e381b303db39da5U, 0xbe1d29f1be847777U,
  0x3e6dfdae3da1a77bU, 0x3e0b33c63c8fb151U, 0xbde98024be0238b1U, 0xbd86b63cbdb39da5U,
  0xbdb39da5be0238b1U, 0xbcb39da5bdaaa290U, 0x3e1d29f13d4593cfU, 0xbdb39da53e4a115aU,
  0x3dfb764ebb8fb151U, 0x3dc593cfU, 0xbe339da53d21a77bU, 0xbdaaa290bd0fb151U,
  0xbdbc98babc5789faU, 0x3d7b764ebd0fb151U, 0xbcfb764ebd21a77bU, 0x3de980243e698024U,
  0x3ea1a77b3e18ac66U, 0x3e6dfdae3ec7d295U, 0x3ebc98ba3eedfdaeU, 0x3e3c98ba3c5789faU,
  0x3e21a77b3e339da5U, 0xbc5789fa3e4e8ee4U, 0xbdb39da53dd789faU, 0xbd4593cf3d21a77bU,
  0x3ebc98ba3d98ac66U, 0x3ee502993ef4b9feU, 0x3e3c98ba3ebed780U, 0x3dfb764e3e2aa290U,
  0x3c5789fa3df27b39U, 0x3cfb764ebd7b764eU, 0xbe21a77b3d339da5U, 0x3d98ac6600000000U,
  0xbd86b63cbdce8ee4U, 0xbdc593cfbc8fb151U, 0x3d6532fcU, 0x3d8984febdabe63dU,
  0xbd0984fe3d8984feU, 0xbd6532fc3c375bfdU, 0xbda0707d3d375bfdU, 0x3ce532fc3bb75bfdU,
  0xbce532fc3ce532fcU, 0xbd94fabe3dd9bd3cU, 0x3d7c1e7c3e03ca1eU, 0x3da0707d3d6532fcU,
  0xbd0984fe3d375bfdU, 0xbdc2d1bdbe0f3fdeU, 0xbdfc1e7cbe59bd3cU, 0x3e488c9dbda0707dU,
  0x3d375bfdbbb75bfdU, 0x3d20707dU, 0xbdd9bd3cbe03ca1eU, 0x3e0f3fde3e0f3fdeU,
  0x3da0707d3dce477dU, 0x3de532fcbdce477dU, 0xbdb75bfdbdc2d1bdU, 0x3e70a8bc3d7c1e7cU,
  0x3ed6dfcc3f03ca1eU, 0x3e0984fe3eb47e8dU, 0xbe80ecae00000000U, 0x3da0707dbe03ca1eU,
  0x3d7c1e7c3d0984feU, 0x3db75bfd3d8984feU, 0x3de532fcbc8984feU, 0xbda0707d3ce532fcU,
  0x3e7c1e7c3e9ab59dU, 0x3e488c9d3e262b5dU, 0xbe7c1e7c00000000U, 0x3dc2d1bdbe03ca1eU,
  0x3de532fc3e8f3fdeU, 0x3d0984febdb75bfdU, 0x3e31a11d3e76639cU, 0x3d20707d3d6532fcU,
  0xbdd9bd3cbde532fcU, 0x3c375bfdbd6532fcU, 0xbe6532fcbe9d930dU, 0xbe70a8bcbe0984feU,
  0xbdf0a8bcbe262b5dU, 0xbdfc1e7cbe59bd3cU, 0xbe83ca1ebe80ecaeU, 0x3dabe63dbdfc1e7cU,
  0x3d4e477d3e0984feU, 0x3e0984fe3d6532fcU, 0xbd0984fe3df0a8bcU, 0xbd8984fe3d6532fcU,
  0xbe03ca1ebdce477dU, 0x3e7c1e7c3dce477dU, 0x3e54025d3ed124edU, 0x3ea908cd3d20707dU,
  0x3dd9bd3c3da0707dU, 0x3cb75bfd3e3d16ddU, 0x3e42d1bd3d8984feU, 0x3e921d4e3e76639cU,
  0xbdc2d1bd3de532fcU, 0x3c375bfd3dce477dU, 0x3e9ab59d3dfc1e7cU, 0x3dabe63d3db75bfdU,
  0xbe262b5dbda0707dU, 0x3dfc1e7cbdf0a8bcU, 0x3e2be63d3d6532fcU, 0x3e375bfd3e488c9dU,
  0x3de532fcbc8984feU, 0xbdd9bd3cbd375bfdU, 0xbdabe63dbdf0a8bcU, 0xbd0984fe3ce532fcU,
  0x3e14fabe3dce477dU, 0xbdb75bfd3dce477dU, 0xbe94fabebe3d16ddU, 0xbe31a11dbee532fcU,
  0xbe76639cbed124edU, 0x3dd9bd3cbd20707dU, 0x3d6532fc3da0707dU, 0x3c375bfdbd6532fcU,
  0xbdd9bd3c3dce477dU, 0xbc375bfdbdce477dU, 0x3dd9bd3c3d0984feU, 0x3e8984fe3e262b5dU,
  0x3dd9bd3c3d4e477dU, 0x3e1ab59dbea34dedU, 0x3e54025d3da0707dU, 0x3dce477d3f0984feU,
  0xbbb75bfd3de532fcU, 0x3d8984fe3e0f3fdeU, 0xbdabe63dbd94fabeU, 0xbdf0a8bc3df0a8bcU,
  0x3c375bfdbe9d930dU, 0xbe03ca1e3d8984feU, 0x3e86a78ebcb75bfdU, 0x3eb47e8d3dce477dU,
  0x3d4e477d3e921d4eU, 0x3de532fc3ce532fcU, 0x3d20707dbc375bfdU, 0xbe2be63dbce532fcU,
  0xbcb75bfdbce532fcU, 0x3d4e477dbdd9bd3cU, 0x3e83ca1e3ed9bd3cU, 0xbd94fabebd20707dU,
  0xbc375bfdbe4e477dU, 0xbdabe63dbda0707dU, 0xbd8984febd8984feU, 0x3de532fc3df0a8bcU,
  0xbcb75bfd3ea0707dU, 0xbd0984febe262b5dU, 0x3ce532fc3d94fabeU, 0x3d8984fe3d375bfdU,
  0x3e262b5d3dc2d1bdU, 0x3e94fabe3f1ab59dU, 0x3ea62b5d3f0dd126U, 0xbdc2d1bd00000000U,
  0xbef0a8bcbe6aeddcU, 0x3bb75bfd3d375bfdU, 0x3d7c1e7cbd8984feU, 0xbe6aeddcbdfc1e7cU,
  0xbd94fabebdfc1e7cU, 0x3d94fabe3dfc1e7cU, 0xbf35ed45bf2908cdU, 0x3e4e477dbe0984feU,
  0x3e8c626e3eb75bfdU, 0x3e5f781c3e8f3fdeU, 0x3eb47e8d3dd9bd3cU, 0x3df0a8bc3dce477dU,
  0x3e262b5d3db75bfdU, 0xbce532fcbe375bfdU, 0x3d6532fcbdfc1e7cU, 0x3d20707d3db75bfdU,
  0x3df89f45bde0a1deU, 0x3dbb8e9b3d8508dfU, 0x3cc8a4773cda16f0U, 0xbbae78c0bdaa1c22U,
  0xbdac4a713b515db4U, 0x3d55ba523e09657eU, 0x3dac4a71bd8508dfU, 0xbd944d0a3c82da90U,
  0x3c9d06473bf442a7U, 0x3d515db43dd38c03U, 0xbd921ebb3dc8a477U, 0x3a8b93cdbdc67627U,
  0xbd87372fbdda16f0U, 0x3ce2d02d3dc21989U, 0xbd89657ebdda16f0U, 0xbb0b93cd3dcf2f64U,
  0xbdb9604cbda5bf83U, 0xbd2162e5bc62d02dU, 0xbca5bf833d02da90U, 0xbbf442a73deb896aU,
  0x3dcad2c63c944d0aU, 0x3d2162e5bd9ad7f7U, 0x3d18a9a8bd2a1c22U, 0xbdbfeb3abdbdbcebU,
  0x3d48a477bd3731fdU, 0x3d8dc21c3dae78c0U, 0x3dae78c0bc7442a7U, 0x3da5bf83bde95b1bU,
  0xbb0b93cdbd25bf83U, 0x3cda16f0bbd15db4U, 0xbd967b593df21458U, 0xbdbb8e9b3df21458U,
  0xbde72ccc3d8ff06bU, 0xbdda16f0bdb503aeU, 0xbd62d02d3df21458U, 0x3d87372fbd6b896aU,
  0xbdb731fd3cb731fdU, 0x3d8ff06bbdc21989U, 0xbd8b93cdbdde738fU, 0x3d672cccbdb503aeU,
  0x3da7edd3bd3b8e9bU, 0xbceb896abd8508dfU, 0x3d1d06473de72cccU, 0x3df21458bdcf2f64U,
  0x3c82da903ddc4540U, 0x3dbdbcebbd82da90U, 0xbde4fe7cbcfcfbe4U, 0x3e0a7ca53daa1c22U,
  0xbd1d06473d515db4U, 0xbddc4540bd80ac41U, 0xbbd15db43cb731fdU, 0xbdc67627bd98a9a8U,
  0xbdf670f6bd672cccU, 0xbc7442a73d4447d8U, 0x3de4fe7c3cfcfbe4U, 0x3c62d02dbcb731fdU,
  0xbd9ad7f7bdbb8e9bU, 0x3dc67627bdb731fdU, 0xbd8b93cd3d944d0aU, 0x3c0b93cdbcd15db4U,
  0x3d6b896a3daa1c22U, 0xbd55ba52bceb896aU, 0x3d2e78c0bdb9604cU, 0xbd18a9a83c8b93cdU,
  0x3d48a4773d80ac41U, 0xbd6fe608bc1d0647U, 0x3db2d55fbc2e78c0U, 0xbd7442a73de4fe7cU,
  0xbdd38c033cda16f0U, 0x3bae78c03d8dc21cU, 0xbc7442a73b515db4U, 0x3e03f1b8bd6fe608U,
  0x3c8b93cdbd921ebbU, 0x3d18a9a83e07372fU, 0x3d3feb3abdb9604cU, 0x3d921ebb3df670f6U,
  0x3d4d0115bdc8a477U, 0xbde95b1bbd7cfbe4U, 0x3d5e738fbdb9604cU, 0x3dcad2c63dff2a33U,
  0x3db0a70f3cb731fdU, 0x3b0b93cdbce2d02dU, 0x3d07372f3cc8a477U, 0xbd9ad7f7bd8b93cdU,
  0xbd89657ebdc21989U, 0xbceb896a3d3feb3aU, 0x3cc8a4773d3731fdU, 0xbc9d06473deb896aU,
  0xbd8ff06b3df89f45U, 0x3deb896abc9d0647U, 0xbd7442a7bda162e5U, 0x3dd7e8a1bc7442a7U,
  0x3d9d0647bdc21989U, 0xbc62d02dbceb896aU, 0xbcf442a73dbdbcebU, 0xbda39134bd8ff06bU,
  0xbdbb8e9bbcbfeb3aU, 0x3dff2a333da7edd3U, 0x3bd15db4bd4447d8U, 0x3dfacd94bd8dc21cU,
  0x3da7edd3bdbdbcebU, 0x3c3feb3abd2162e5U, 0x3da5bf83bdc447d8U, 0xbdac4a713dbb8e9bU,
  0xbcc8a4773deb896aU, 0xbdde738f00000000U, 0xbdcf2f64bda162e5U, 0x3c3feb3abc82da90U,
  0xbdd15db4bca5bf83U, 0x3cb731fd3dcad2c6U, 0xbc7442a73d9ad7f7U, 0x3e0508df3daa1c22U,
  0x3dbfeb3a3d5a16f0U, 0x3dbb8e9b3dc21989U, 0x3d7cfbe4bbae78c0U, 0xbde2d02dbc515db4U,
  0x3dfacd943df670f6U, 0xbd967b59bceb896aU, 0xbd944d0a3d62d02dU, 0xbd6b896a3dc8a477U,
  0xbda162e5bd8b93cdU, 0x3ce2d02d3e02da90U, 0x3dfacd94bc944d0aU, 0xbde95b1b3dfcfbe4U,
  0x3e02da90bd2a1c22U, 0x3d2a1c223de0a1deU, 0x3dd7e8a1bb8b93cdU, 0x3d2162e53d82da90U,
  0xbdb2d55fbd5a16f0U, 0xbd4d01153daa1c22U, 0x3ad1f0e03d51f0e0U, 0x3dbe424b3dd538a4U,
  0xbd44d1d2bb51f0e0U, 0x3dd538a4bc9d74a8U, 0xbd5f0feebdbe424bU, 0x3d3e424b3d7fdd91U,
  0xbd794e0a3d5f0feeU, 0x3c03368c3d90559aU, 0x3d89c6133c1d74a8U, 0xbd96e521bdcea91cU,
  0xbc6c2efc3cdf0feeU, 0xbe16e521bcc4d1d2U, 0xbd03368cbc90559aU, 0xbd9a2ce43de257b2U,
  0x3db1233dbd09c613U, 0x3daddb7a3c51f0e0U, 0xbdc4d1d23dd88067U, 0xbe03368c3d3e424bU,
  0x3d2a93b63df60646U, 0xbd794e0a3c90559aU, 0xbe0d0dd6be1a2ce4U, 0x3db1233dbda74bf2U,
  0x3e04da6ebde257b2U, 0xbcaa93b63d72be83U, 0xbde8e7383d24042fU, 0xbc37b2c4bc1d74a8U,
  0x3d31233dbcaa93b6U, 0xbdffdd913d7fdd91U, 0x3db46b00bcb7b2c4U, 0x3d37b2c4bc03368cU,
  0xbd09c613bde59f75U, 0xbdc4d1d23caa93b6U, 0x3d5f0feebde8e738U, 0xbd8d0dd6bd588067U,
  0x3d4b6159bda74bf2U, 0x3d9a2ce4bc9d74a8U, 0xbc83368cbda4042fU, 0x3da0bc6cbcaa93b6U,
  0xbd3e424b3df94e0aU, 0x3d7fdd91bdfc95ceU, 0xbd44d1d2bd939d5eU, 0x3c83368c3bd1f0e0U,
  0xbdc18a0ebdd538a4U, 0xbd4b61593cd1f0e0U, 0xbd03368c3b51f0e0U, 0x3b51f0e0bd83368cU,
  0xbd659f753db1233dU, 0xbe1f188a3cec2efcU, 0xbd2a93b63d9a2ce4U, 0x3e03368cbd16e521U,
  0xbcb7b2c43c37b2c4U, 0x3c6c2efcbb9d74a8U, 0x3d24042fbbd1f0e0U, 0x3c9d74a8bc83368cU,
  0xbdcb6159bc90559aU, 0xbd3e424bbb9d74a8U, 0xbcd1f0e0bddf0feeU, 0xbdc18a0ebe03368cU,
  0x3de257b2bddf0feeU, 0x3df2be83bd6c2efcU, 0xbd83368c3d24042fU, 0x3e067e50bbd1f0e0U,
  0x3d16e5213cb7b2c4U, 0x3e1f188abdaa93b6U, 0xbdcb6159bddf0feeU, 0x3c1d74a83d7fdd91U,
  0xbdb46b003da74bf2U, 0x3d867e50bc83368cU, 0x3dfc95cebde257b2U, 0x3dc81996bdd538a4U,
  0xbd4b61593d9a2ce4U, 0xbd2a93b63e082231U, 0xbd90559a3d1d74a8U, 0xbd96e521bd51f0e0U,
  0xbd4b61593b51f0e0U, 0x3d9a2ce43d588067U, 0x3b51f0e0be22604dU, 0x3d16e521bdc81996U,
  0x3dbafa883d10559aU, 0xbdec2efc3d4b6159U, 0x3ddbc82a3e37b2c4U, 0xbdc18a0e3d4b6159U,
  0x3d8d0dd63d09c613U, 0x3e082231bbd1f0e0U, 0x3d44d1d23da4042fU, 0xbe139d5ebd89c613U,
  0xbdec2efcbc37b2c4U, 0x3c03368cbcd1f0e0U, 0x3ddbc82abc6c2efcU, 0xbd37b2c43da4042fU,
  0xbcec2efcbcd1f0e0U, 0xbcf94e0abc51f0e0U, 0x3e504cfe3c03368cU, 0xbe0822313d5f0feeU,
  0x3dcea91cbe139d5eU, 0x3de257b2bd1d74a8U, 0x3de257b23dd88067U, 0x3e03368c3d2a93b6U,
  0xbdfc95cebd939d5eU, 0x3cdf0feebd8d0dd6U, 0x3d09c613bd72be83U, 0xbd9a2ce43e03368cU,
  0x3dbafa883d37b2c4U, 0xbd96e521bd44d1d2U, 0x3d10559abd867e50U, 0xbdc819963d44d1d2U,
  0xbcec2efc3d939d5eU, 0x3b51f0e0bcaa93b6U, 0x3ad1f0e0bdc18a0eU, 0xbd939d5e3d89c613U,
  0xbdb7b2c4bc9d74a8U, 0x3bd1f0e03d10559aU, 0x3e067e50bcb7b2c4U, 0x3e0192aabc83368cU,
  0xbc37b2c43e0192aaU, 0x3da0bc6cbd31233dU, 0x3dd1f0e0be03368cU, 0x3d09c613bad1f0e0U,
  0x3cdf0fee3daa93b6U, 0x3dcb61593d659f75U, 0x3e1889033da4042fU, 0x3d7fdd913d794e0aU,
  0x3daa93b6bd7fdd91U, 0xbc90559abcd1f0e0U, 0x3daddb7a3def76c0U, 0x3d7fdd91bcec2efcU,
  0xbdffdd913cec2efcU, 0xbdbe424b3dd88067U, 0xbc6c2efcbc1d74a8U, 0xbde257b2bc83368cU,
  0x3dcecc86bd93b6a9U, 0xbd3141973d93b6a9U, 0xbd09ddaf00000000U, 0x3db14197bc9d8fa3U,
  0xbd89ddaf3d1d8fa3U, 0x3d44f38cbb9d8fa3U, 0xbda7689d3cec5774U, 0xbd3141973d6c5774U,
  0x3c6c5774bd93b6a9U, 0x3de27e7abdf6306fU, 0xbd3141973d8004b4U, 0xbdf6306fbd44f38cU,
  0xbe44f38cbe4ecc86U, 0xbdf6306fbdec5774U, 0x3c9d8fa3bdbb1a92U, 0xbe7b1cecbc6c5774U,
  0x3d1d8fa3bd6c5774U, 0x3cec5774bc9d8fa3U, 0xbd89ddaf3db14197U, 0xbc6c57743dc4f38cU,
  0x3df6306f3e91406aU, 0x3ebb1a923ececc86U, 0x3e13b6a93e627e7aU, 0x3c6c57743e5d91fdU,
  0xbe53b903bdd8a580U, 0xbc9d8fa3bc9d8fa3U, 0xbcc4f38cbd93b6a9U, 0xbd44f38cbd44f38cU,
  0x3dcecc863d9d8fa3U, 0x3c1d8fa33dc4f38cU, 0xbe227c20bd58a580U, 0xbe09ddafbdf6306fU,
  0xbdb14197be49e009U, 0xbe09ddafbea7689dU, 0xbe8004b4bd8004b4U, 0x3da7689dbd9d8fa3U,
  0x3e1d8fa3be0004b4U, 0x3e49e0093e827af3U, 0x3dbb1a923d1d8fa3U, 0xbe0004b4bc6c5774U,
  0xbececc86bf04f132U, 0xbec9e009be7b1cecU, 0xbe8c53edbe0004b4U, 0xbec9e009bee9e136U,
  0xbeb3b7d6bdec5774U, 0xbc9d8fa3be8c53edU, 0x3e49e0093d6c5774U, 0x3e1d8fa33e89ddafU,
  0xbcc4f38c3c9d8fa3U, 0x3dd8a580bdc4f38cU, 0x3e227c203e227c20U, 0x3e7b1cec3e93b6a9U,
  0x3d89ddaf3e76306fU, 0x3d93b6a9U, 0x3e0eca2c3eb62e14U, 0xbd9d8fa33d09ddafU,
  0xbc1d8fa3be18a326U, 0x3d93b6a93e8004b4U, 0x3c1d8fa33d314197U, 0x3d09ddafbd89ddafU,
  0x3de27e7a3ebd90d0U, 0xbd89ddafbdb14197U, 0x3d9d8fa300000000U, 0x3c1d8fa33dec5774U,
  0x3d09ddaf3e4ecc86U, 0xbcc4f38c3e8c53edU, 0x3e53b9033e2c551aU, 0x3e227c203e227c20U,
  0xbe0004b43dbb1a92U, 0xbdbb1a923d44f38cU, 0x3d9d8fa33e89ddafU, 0xbd3141973d89ddafU,
  0xbdd8a580bd09ddafU, 0x3c1d8fa3be09ddafU, 0x3e676af73e676af7U, 0x3d9d8fa33e0004b4U,
  0xbeb62e14be8eca2cU, 0x3df6306f3d44f38cU, 0xbc1d8fa33dc4f38cU, 0xbd314197bdbb1a92U,
  0x3dc4f38c3b9d8fa3U, 0x3dc4f38c3e84f132U, 0x3df6306f3d58a580U, 0x3e0004b43d09ddafU,
  0x3de27e7a3e3b1a92U, 0x3d09ddaf3cec5774U, 0x3d89ddaf3d09ddafU, 0x3e362e14bd314197U,
  0xbb9d8fa33df6306fU, 0x3c6c5774bc1d8fa3U, 0x3e676af73c9d8fa3U, 0x3e9b19643e0004b4U,
  0x3e58a580bc1d8fa3U, 0x3ea27c203f013fd4U, 0xbcc4f38c3e227c20U, 0x3c1d8fa33e04f132U,
  0xbdec5774bd89ddafU, 0xbe09ddafbc6c5774U, 0xbd09ddaf3dbb1a92U, 0x3dd8a5803d93b6a9U,
  0xbe227c20bde27e7aU, 0xbe8004b4be2c551aU, 0xbe7143f2bdb14197U, 0x3dbb1a923e227c20U,
  0x3e2c551a3e0004b4U, 0x3d09ddaf3e0004b4U, 0xbdbb1a92be5d91fdU, 0xbdec5774be0004b4U,
  0x3dcecc8600000000U, 0xbc6c5774bd9d8fa3U, 0x3e0eca2cbe89ddafU, 0xbe7143f23e09ddafU,
  0xbe8004b4be362e14U, 0x3d1d8fa3bb9d8fa3U, 0xbf1c5484be4ecc86U, 0xbe0004b4be98a326U,
  0x3c9d8fa3bd93b6a9U, 0xbd6c577400000000U, 0x3c9d8fa3bdcecc86U, 0x3cc4f38cbb9d8fa3U,
  0xbe3b1a92be7b1cecU, 0xbd93b6a9bcc4f38cU, 0x3cc4f38c3b9d8fa3U, 0x3e18a3263e44f38cU,
  0x3ea9dedc3e5d91fdU, 0x3d09ddaf3d9d8fa3U, 0xbdb14197be362e14U, 0xbd58a580be04f132U,
  0xbe0004b43d9d8fa3U, 0xbd3141973e04f132U, 0xbde4dc443e05b0d4U, 0xbbd987dc3d7030adU,
  0xbdb0be623d2325e5U, 0x3d07f4e9U, 0xbde0541a3de0541aU, 0xbd794101ba91053dU,
  0x3dd4ffb2bd8c7d13U, 0x3df6fcecbc9a1591U, 0x3db0be62bde4dc44U, 0xbcb5468cbd7030adU,
  0xbdf030ad3d794101U, 0xbca325e53d476734U, 0x3c4767343cac3638U, 0x3cbe56e0bdb9ceb6U,
  0xbe05b0d4bd7030adU, 0x3de2982f3ddbcbf0U, 0x3da325e53deba883U, 0xbdf94101be0006a0U,
  0x3ca325e53d1e9dbbU, 0xbb11053d3dd743c7U, 0x3db9ceb63d1a1591U, 0x3d7dc92bU,
  0x3dedec983dfdc92bU, 0x3db9ceb63e0006a0U, 0x3da7ae0fbdb9ceb6U, 0x3e024ab500000000U,
  0x3da9f223be06d2dfU, 0xbd6ba883bb91053dU, 0x3d74b8d73d11053dU, 0xbd11053d3dbe56e0U,
  0x3e024ab5bdc5231fU, 0x3d8128aabd958d67U, 0x3d74b8d73e048ecaU, 0x3dc2df0abd11053dU,
  0x3d158d673dce3373U, 0x3d4bef5ebd74b8d7U, 0xbc476734bd30be62U, 0x3ca325e5bd9e9dbbU,
  0xbc35468cbd85b0d4U, 0xbd158d67bc9a1591U, 0x3d8ec1283d934952U, 0xbda0e1d03d2325e5U,
  0x3dbe56e0bd7dc92bU, 0xbdce3373bd30be62U, 0x3dd4ffb2bdb9ceb6U, 0x3d27ae0f3ceba883U,
  0x3dae7a4d3d1e9dbbU, 0xbd836cbf3d476734U, 0xbd158d67bc6ba883U, 0xbd0c7d133d8a38feU,
  0xbdd2bb9d3d3e56e0U, 0x3ceba8833bd987dcU, 0x3d35468cbc7dc92bU, 0xbc87f4e9bde72059U,
  0xbdf6fcec3d934952U, 0xbd8128aabd4bef5eU, 0xbc476734bdd4ffb2U, 0x3c2325e5bd9e9dbbU,
  0x3d39ceb63c476734U, 0x3db78aa13bb5468cU, 0x3d958d673dc09af5U, 0x3dd4ffb23dc9ab49U,
  0x3bfdc92bbc7dc92bU, 0xbce2982fbdc09af5U, 0xbd9c59a6bdde1005U, 0xbe0006a0bdb78aa1U,
  0x3da9f223be024ab5U, 0x3d97d17c3d11053dU, 0x3d7dc92bbd11053dU, 0xbb5987dcbd4bef5eU,
  0xbd8a38febd794101U, 0xbbfdc92bbcc76734U, 0x3de9646e3ce2982fU, 0x3ca325e53d7030adU,
  0xbd11053d3da325e5U, 0x3dae7a4d3e0fe333U, 0x3c2325e5bcbe56e0U, 0x3c87f4e9bd9e9dbbU,
  0xbd8a38febd7030adU, 0x3d836cbf3cbe56e0U, 0x3cac36383d476734U, 0xbc11053d3cbe56e0U,
  0x3cfdc92bbdb5468cU, 0xbd0c7d133d97d17cU, 0x3d74b8d7bdf030adU, 0x3bd987dc3db5468cU,
  0xbc4767343da7ae0fU, 0xbd7dc92b3d4bef5eU, 0x3cfdc92b3d87f4e9U, 0x3deba883bbb5468cU,
  0x3dedec983dac3638U, 0xbdb5468cbdb9ceb6U, 0x3d07f4e93de0541aU, 0xbde4dc443d1e9dbbU,
  0xbc5987dc3c476734U, 0xbd5e10053cb5468cU, 0xbdde1005bd836cbfU, 0x3d85b0d43cd07788U,
  0xbc9a1591bdc76734U, 0x3cac3638bd7dc92bU, 0x3d036cbf3de4dc44U, 0xbdc767343d0c7d13U,
  0xbdb5468cbd91053dU, 0xbd7030ad3ceba883U, 0x3e07f4e93d62982fU, 0xbd87f4e9bc87f4e9U,
  0xbd8ec1283df4b8d7U, 0xbcfdc92bbd97d17cU, 0x3cbe56e03da569faU, 0x3ca325e53bd987dcU,
  0x3d794101bbd987dcU, 0x3d9e9dbb3cc76734U, 0xbdae7a4d3deba883U, 0xbdce3373bde4dc44U,
  0xbc11053dbdd743c7U, 0xbd91053d3dfb8516U, 0x3dde1005bd836cbfU, 0xbce2982fbdcbef5eU,
  0xbdae7a4dbd9a1591U, 0xbe036cbfbda7ae0fU, 0xbd91053dbe0916f4U, 0x3da569fa3d794101U,
  0x3d2c36383de2982fU, 0xbdd07788bdc9ab49U, 0xbc91053d3d54ffb2U, 0x3d1e9dbb3d2c3638U,
  0xbd9a15913c6ba883U, 0x3ce2982fbd794101U, 0xbce2982fbd74b8d7U, 0xbddbcbf0bcb5468cU,
  0x3d67d7863d0dae60U, 0x3d74b8d5bc1a8fafU, 0x3dd485903e040565U, 0x3e1dc8023df4b8d5U,
  0xbcb4524cbb4e14e9U, 0xbd8dae603e210056U, 0xbc1a8faf3da770fdU, 0x3ce7d7863d1a8fafU,
  0x3b4e14e93d80cd12U, 0x3dc7a442bd8dae60U, 0x3ddaf638U, 0xbd8dae603da770fdU,
  0x3cce14e9bd5af638U, 0xbe3dfb47bd0dae60U, 0x3e2438aa3c9a8fafU, 0xbd941f07bd67d786U,
  0xbc1a8fafbc1a8fafU, 0x3e446bee3e210056U, 0x3c9a8faf3d34524cU, 0xbd00cd12U,
  0x3e1a8faf3ea770fdU, 0xbe649f32be3119f8U, 0xbe6e482dbe8f4a8aU, 0xbd5af638be649f32U,
  0x3dfb297cbe17575bU, 0x3d873db93e9c2bd9U, 0x3d80cd123e5e2e8bU, 0x3d00cd12bbce14e9U,
  0xbcce14e9bd4e14e9U, 0xbdf4b8d5bde7d786U, 0x3e2de1a53e941f07U, 0x3e17575b3e040565U,
  0xbdc7a442bc4e14e9U, 0xbe1a8fafbe210056U, 0x3e210056bdf4b8d5U, 0x3bce14e93e378aa0U,
  0xbdd485903b4e14e9U, 0xbdbac2f33dfb297cU, 0x3da100563c80cd12U, 0x3dade1a53d5af638U,
  0xbe2770fdbd80cd12U, 0xbd873db93d8dae60U, 0xbce7d7863e548590U, 0x3bce14e93de166dfU,
  0xbdfb297cbe0dae60U, 0xbc1a8fafbdd48590U, 0xbe4adc953cb4524cU, 0x3cb4524cbe3ac2f3U,
  0x3da770fd3dade1a5U, 0xbdce14e9bd0dae60U, 0x3d941f073e34524cU, 0xbe840565bd941f07U,
  0x3e41339abdee482dU, 0x3e1dc8023e0dae60U, 0x3ecc78bf3e9c2bd9U, 0x3dbac2f33e6e482dU,
  0xbdc1339a3d8dae60U, 0x3da770fdbe548590U, 0xbdade1a53dade1a5U, 0x3df4b8d500000000U,
  0xbe040565be97575bU, 0x3e2aa9513d1a8fafU, 0x3e5e2e8b3e4e14e9U, 0x3de166df3e0a760dU,
  0xbe34524cbde7d786U, 0xbe141f07be67d786U, 0xbd1a8fafbddaf638U, 0xbd34524c3d4e14e9U,
  0x3c4e14e93dfb297cU, 0x3cb4524cbbce14e9U, 0x3dc1339abdf4b8d5U, 0x3da770fdbda10056U,
  0x3b4e14e93d80cd12U, 0xbda10056bc1a8fafU, 0xbe040565bdc7a442U, 0xbcb4524cbdb4524cU,
  0xbe873db9be5af638U, 0xbe74b8d5be8a760dU, 0x3d00cd123d74b8d5U, 0x3dade1a5bcb4524cU,
  0xbe2aa9513e040565U, 0xbe10e6b4bdfb297cU, 0xbe85a18fbdb4524cU, 0xbddaf638bddaf638U,
  0xbdbac2f33e47a442U, 0xbd74b8d5bc4e14e9U, 0xbdc7a442be5e2e8bU, 0xbdce14e9bd941f07U,
  0xbddaf638bdb4524cU, 0xbd2770fdbdd48590U, 0xbda770fdbc1a8fafU, 0xbe17575bbe80cd12U,
  0x3d0dae60be4adc95U, 0x3dc1339a3e0dae60U, 0xbe10e6b4bb4e14e9U, 0x3dc1339abd941f07U,
  0xbd941f073dee482dU, 0xbdfb297cbdce14e9U, 0xbc9a8faf3dfb297cU, 0x3d0dae6000000000U,
  0x3e47a4423d2770fdU, 0x3d873db93e6e482dU, 0x3d8dae603c4e14e9U, 0xbd4e14e9be210056U,
  0x3d1a8fafbe3119f8U, 0x3d8dae603dee482dU, 0x3e6166df00000000U, 0x3dfb297c3e2770fdU,
  0x3de7d7863c80cd12U, 0xbcce14e9bdf4b8d5U, 0xbe80cd12bd941f07U, 0xbd8dae60bd8dae60U,
  0x3c4e14e9bcb4524cU, 0xbdade1a5be3ac2f3U, 0xbe378aa0be073db9U, 0x3cb4524cbd1a8fafU,
  0x3d873db9bde166dfU, 0xbde166dfbdc1339aU, 0x3b4e14e9be00cd12U, 0xbdb4524cbd0dae60U,
  0x3dfb297cbb4e14e9U, 0xbc4e14e9bd2770fdU, 0x3e17575b3b4e14e9U, 0x3e8f4a8a3dce14e9U,
  0x3e9f642c3e7e61d0U, 0x3e0405653e5af638U, 0xbe3dfb473d941f07U, 0xbe77f128be6e482dU,
  0xbcce14e9bbce14e9U, 0xbc4e14e9bcce14e9U, 0x3baa297abdd4b3d8U, 0x3d2a297a3caa297aU,
  0x3c7f3e37bde9f908U, 0xbcd4b3d83c2a297aU, 0x3c2a297abddf5670U, 0x3db4cc12U,
  0x3de9f9083df49b9fU, 0xbd94e44bbcaa297aU, 0x3d94e44b3d2a297aU, 0xbdca1141bc7f3e37U,
  0x3d54b3d8bde9f908U, 0x3eb4cc123e44bff5U, 0x3e5f56703dff3e37U, 0x3cd4b3d8bbaa297aU,
  0x3e14e44b3e1f86e2U, 0xbd7f3e37bdca1141U, 0xbdff3e37bdf49b9fU, 0xbe24d82ebe24d82eU,
  0xbd3f6ea93df49b9fU, 0xbdf49b9fbcd4b3d8U, 0x3e4a11413e24d82eU, 0xbe5f5670bd7f3e37U,
  0xbe8247c1be54b3d8U, 0xbedcadcabebcc603U, 0xbe1f86e2bdff3e37U, 0xbc7f3e373c7f3e37U,
  0x3e14e44bbd8a41b3U, 0x3d94e44b3caa297aU, 0xbd14e44b3dff3e37U, 0xbc2a297a3c2a297aU,
  0xbe54b3d8be94e44bU, 0x3d8a41b3bd3f6ea9U, 0x3e923ba53e6f4a54U, 0x3e978cf13e3a1d5dU,
  0xbe5f56703d69f908U, 0xbdd4b3d8bedf5670U, 0xbc7f3e37bd8a41b3U, 0x3e9f86e2bdaa297aU,
  0xbdb4cc12bbaa297aU, 0xbd69f908bbaa297aU, 0x3e54b3d83df49b9fU, 0x3cff3e373dbf6ea9U,
  0x3ef744453eda0524U, 0x3e2f7ac63e6f4a54U, 0x3e3f6ea93eef4a54U, 0x3e4a11413db4cc12U,
  0x3e5f56703e8cea59U, 0x3ddf56703e4a1141U, 0xbdb4cc12bcff3e37U, 0xbd8a41b3bd69f908U,
  0x3e3f6ea93dbf6ea9U, 0xbe3f6ea93dbf6ea9U, 0x3e9a3597bd54b3d8U, 0xbe87990d3df49b9fU,
  0x3c2a297abe3f6ea9U, 0xbddf56703d8a41b3U, 0xbdf49b9fbd94e44bU, 0x3e2f7ac63e5f5670U,
  0x3cff3e373d3f6ea9U, 0xbc2a297abdca1141U, 0xbe923ba53e14e44bU, 0xbeaa297abe749b9fU,
  0x3e1a3597bdaa297aU, 0xbe3f6ea9bdca1141U, 0x3e1a3597be0a41b3U, 0x3dca11413e0a41b3U,
  0xbe0f92ffbcd4b3d8U, 0xbbaa297a3e2a297aU, 0x3d69f9083ddf5670U, 0xbdff3e373d8a41b3U,
  0xbedf5670bf08ed60U, 0xbe94e44bbd54b3d8U, 0xbeaf7ac6bef49b9fU, 0xbddf56703dbf6ea9U,
  0xbee9f908bcd4b3d8U, 0x3caa297abe14e44bU, 0xbdd4b3d8bd9f86e2U, 0x3c2a297abe0a41b3U,
  0x3daa297a3d69f908U, 0x3dff3e37bdd4b3d8U, 0xbe8cea59bec2174fU, 0xbd94e44bbe4a1141U,
  0xbdf49b9f3baa297aU, 0xbd9f86e2bddf5670U, 0x3e87990dbcff3e37U, 0x3e0a41b33ed75c7eU,
  0x3e0a41b33e6f4a54U, 0x3c2a297a3ea780d4U, 0xbdb4cc123baa297aU, 0x3de9f908be04f067U,
  0xbe34cc123e84f067U, 0xbdff3e37bd14e44bU, 0xbe24d82ebe0a41b3U, 0xbe3f6ea9bd9f86e2U,
  0xbe2a297abe24d82eU, 0xbe04f0673d8a41b3U, 0xbdaa297a3e3f6ea9U, 0xbe79ecebbdff3e37U,
  0x3d7f3e373d9f86e2U, 0x3d69f908bdd4b3d8U, 0xbe6f4a54be2a297aU, 0xbd2a297abcaa297aU,
  0xbe8247c13d3f6ea9U, 0x3d69f908bd2a297aU, 0x3cd4b3d83d3f6ea9U, 0xbdca11413d94e44bU,
  0x3e8a41b3bc7f3e37U, 0x3d2a297a3dd4b3d8U, 0xbd3f6ea93dff3e37U, 0x3df49b9fbd94e44bU,
  0x3e9a35973e84f067U, 0x3e0a41b33e94e44bU, 0x3e2f7ac6bd3f6ea9U, 0x3ebcc6033f1b89eaU,
  0x3cd4b3d83df49b9fU, 0x3ea4d82e3e9cde3cU, 0x3e923ba53cd4b3d8U, 0xbe14e44bbdaa297aU,
  0x3dff3e37bd8a41b3U, 0x3d7f3e37bdca1141U, 0x3eacd2203f28d527U, 0x3eba1d5dU,
  0xbe4a11413e5f5670U, 0xbe7f3e37be6f4a54U, 0xbd14e44bbde9f908U, 0x3e7f3e37bcaa297aU,
  0x3c7f3e373e54b3d8U, 0x3e87990d3d3f6ea9U, 0x3d94e44bbddf5670U, 0x3d8a41b3bdca1141U,
  0xbdd36796bdda9226U, 0x3dc8a7bebda4d2efU, 0x3de1bcb63dda9226U, 0x3d6551febdd36796U,
  0xbd849367bd73a71eU, 0x3d56fcde3dde276eU, 0xbcf3a71e3cabfd7eU, 0x3da868373dd6fcdeU,
  0x3be551febd8bbdf7U, 0x3d6c7c8ebbe551feU, 0x3d5e276ebd8828afU, 0xbdec7c8e3d00fe1fU,
  0xbc0f533f3c6551feU, 0xbdba529e3d2bfd7eU, 0xbdd36796bc8f533fU, 0xbd0f533fbd9da85fU,
  0x3d2bfd7ebd5e276eU, 0x3c6551fe00000000U, 0xbc8f533f3d00fe1fU, 0x3dc51276bdcfd24eU,
  0xbd2bfd7ebdd6fcdeU, 0xbdb6bd563dba529eU, 0xbd0828afbd8f533fU, 0xbd48a7be3d7ad1aeU,
  0x3d80fe1f3c9da85fU, 0x3de8e746bda4d2efU, 0xbc8f533f3d0f533fU, 0x3d33280ebd5e276eU,
  0x3de1bcb6be02c8c3U, 0x3dbde7e63df011d6U, 0x3cd6fcdebdba529eU, 0xbe1a1317bdfe66f6U,
  0x3d0828afbd73a71eU, 0x3d3a529e3d6c7c8eU, 0x3d3a529ebc0f533fU, 0xbd7ad1aebde551feU,
  0x3dec7c8ebb6551feU, 0xbcf3a71e3dcfd24eU, 0xbd9a13173dfe66f6U, 0xbde1bcb600000000U,
  0x3dabfd7ebde1bcb6U, 0x3d7ad1ae3cc8a7beU, 0xbd5e276ebd24d2efU, 0x3cc8a7be3cc8a7beU,
  0xbc6551fe00000000U, 0x3c0f533fbbe551feU, 0xbdc51276bd8f533fU, 0x3cd6fcde3cc8a7beU,
  0x3d00fe1f3d33280eU, 0x3d48a7bebcd6fcdeU, 0x3dcc3d06bd92e887U, 0x3dc8a7be3e0828afU,
  0x3e63875abd00fe1fU, 0xbc80fe1f3e1f7303U, 0xbd2bfd7ebc2bfd7eU, 0x3de1bcb63dd36796U,
  0xbd3a529e3cabfd7eU, 0x3d849367bcd6fcdeU, 0x3de551febdf3a71eU, 0x3babfd7ebd849367U,
  0xbd6c7c8ebdaf92c6U, 0x3e065e0b3d8f533fU, 0xbe12e887bd6c7c8eU, 0x3d6c7c8e3d00fe1fU,
  0xbd56fcde3e0bbdf7U, 0x3cf3a71e3dc8a7beU, 0xbdf73c663d2bfd7eU, 0xbe111de33da4d2efU,
  0x3dc512763dcc3d06U, 0xbd33280ebde1bcb6U, 0x3dc512763d80fe1fU, 0xbdf3a71ebe1f7303U,
  0xbd9a13173dde276eU, 0x3dcfd24ebd8f533fU, 0xbe02c8c33dd36796U, 0xbcabfd7e3c48a7beU,
  0x3d9da85fbdcfd24eU, 0xbd48a7bebdfad1aeU, 0x3dc8a7be3cd6fcdeU, 0xbd967dcf3dda9226U,
  0xbd48a7bebda86837U, 0x3d8828af3c8f533fU, 0x3e1da85f3dabfd7eU, 0xbcc8a7be3d3a529eU,
  0x3c8f533f3da13da7U, 0x3da4d2efbde551feU, 0x3d7ad1aebd1da85fU, 0xbd8bbdf73dcfd24eU,
  0x3dcfd24ebd2bfd7eU, 0x3dfe66f63c0f533fU, 0xbdde276ebd0828afU, 0x3e24d2ef3c0f533fU,
  0x3e065e0bbc48a7beU, 0x3d0f533f3d92e887U, 0x3d2bfd7ebcf3a71eU, 0x3d967dcf3d967dcfU,
  0xbb6551fe3c6551feU, 0x3daf92c6bdec7c8eU, 0x3dda92263d6c7c8eU, 0x3d7ad1aebcd6fcdeU,
  0xbde551febdfad1aeU, 0xbd0828afbd9da85fU, 0x3e2868373cabfd7eU, 0x3c9da85f3daf92c6U,
  0xbd2bfd7ebd73a71eU, 0xbe02c8c3be00fe1fU, 0x3dda92263df73c66U, 0xbd0f533f3dcfd24eU,
  0xbdcc3d06bd92e887U, 0xbd967dcf3ae551feU, 0x3de8e746bd417d2eU, 0x3dd6fcdebd6c7c8eU,
  0xbd967dcf3d6c7c8eU, 0x3d0f533fbd80fe1fU, 0x3c48a7be3ce551feU, 0xbd9da85fbd24d2efU,
  0xbdc8a7be3e1da85fU, 0xbd33280e3dabfd7eU, 0x3dd367963b6551feU, 0xbdb3280e3df3a71eU,
  0xbdf3a71ebd1da85fU, 0x3df011d6bdf011d6U, 0x3d9a13173d73a71eU, 0x3df73c663dcfd24eU,
  0x3dde276e3e0f533fU, 0x3da868373be551feU, 0x3d0828afbd0828afU, 0xbd967dcfbae551feU,
  0xbdf011d63db3280eU, 0xbde8e7463c48a7beU, 0xbd5a932dbd5a932dU, 0x3dcce9fa3bda932dU,
  0x3d089bfcbdcce9faU, 0xbbda932d3df5e593U, 0x3d089bfcbd889bfcU, 0x3d3f40c73d5a932dU,
  0xbdcce9fabd3f40c7U, 0x3c5a932d3d96452fU, 0xbcda932d3dbf40c7U, 0xbe01c7633dcce9faU,
  0xbe4ce9fa3e319795U, 0xbda3ee62bd23ee62U, 0xbd889bfcbdf5e593U, 0xbd75e593bd5a932dU,
  0x3d23ee62bbda932dU, 0xbe6f10f9be53be94U, 0xbe16452f3d889bfcU, 0xbcda932dU,
  0x3e01c763bdf5e593U, 0x3e01c7633bda932dU, 0xbd089bfc3e5a932dU, 0xbe23ee62bdb19795U,
  0xbeb86c2ebebbd67bU, 0x3da3ee62bcda932dU, 0x3e16452f3dda932dU, 0xbe386c2e3db19795U,
  0x3d96452f3e0f7096U, 0x3ca3ee62bdda932dU, 0x3d089bfc3d23ee62U, 0xbd5a932dbd96452fU,
  0x3e81c7633f1125bcU, 0x3e3197953e889bfcU, 0xbe889bfc00000000U, 0xbdf5e593beddfd7aU,
  0xbe461561beb86c2eU, 0xbed05447be92dae2U, 0x3df5e593U, 0xbe089bfcbd889bfcU,
  0x3d889bfc3c5a932dU, 0xbe01c7633d23ee62U, 0x3e4ce9fa3e683c60U, 0xbe319795bbda932dU,
  0xbe089bfcbe386c2eU, 0x3ea758ae3de83c60U, 0x3e7cba2c3e53be94U, 0x3d96452fbd23ee62U,
  0x3e386c2e3e319795U, 0x3e1d19c83e01c763U, 0x3c5a932dbd96452fU, 0x3dda932d3d5a932dU,
  0xbdda932dbd23ee62U, 0xbe75e593be0f7096U, 0xbdcce9fabdf5e593U, 0xbd3f40c7be461561U,
  0xbe23ee62be461561U, 0x3e5a932dbca3ee62U, 0x3e3197953e8531afU, 0x3d5a932d3dbf40c7U,
  0x3da3ee623da3ee62U, 0x3db19795bd75e593U, 0xbdf5e5933bda932dU, 0xbe6f10f9be461561U,
  0x3e3197953dbf40c7U, 0x3ee4d2133e386c2eU, 0x3e16452f3e96452fU, 0x3e23ee623e319795U,
  0xbe6167c6bcda932dU, 0x3d75e593bca3ee62U, 0x3d75e5933c5a932dU, 0x3c5a932d3d75e593U,
  0xbec97fadbebf40c7U, 0xbe8531afbe6167c6U, 0x3db19795be7cba2cU, 0x3d089bfc3eaac2fbU,
  0xbe6f10f9bebf40c7U, 0xbcda932dbea758aeU, 0xbd23ee62bd5a932dU, 0x3e2ac2fb3e461561U,
  0xbda3ee623d3f40c7U, 0x3df5e593bd3f40c7U, 0x3d23ee62be99af7cU, 0x3dda932d3e3f40c7U,
  0x3e01c7633e386c2eU, 0xbd089bfc3de83c60U, 0x3e1d19c83d5a932dU, 0x3eb197953e01c763U,
  0xbe089bfcbcda932dU, 0xbd089bfcbdcce9faU, 0xbde83c603db19795U, 0x3d75e5933dda932dU,
  0xbda3ee62bd889bfcU, 0x3e99af7c3e53be94U, 0x3da3ee623ec2ab14U, 0xbe5a932dbebbd67bU,
  0x3e6f10f93dcce9faU, 0xbe16452fbe386c2eU, 0x3e8531af3cda932dU, 0x3e6167c63e23ee62U,
  0x3cda932dbd3f40c7U, 0xbe01c7633d3f40c7U, 0xbe319795bd96452fU, 0x3e319795be23ee62U,
  0x3d889bfc3e23ee62U, 0x3d96452f3e01c763U, 0x3e319795bdf5e593U, 0x3e0f70963e01c763U,
  0x3ca3ee623d5a932dU, 0xbe7cba2cbe461561U, 0xbca3ee623de83c60U, 0x3bda932d3de83c60U,
  0xbbda932dbe319795U, 0x3ee83c603e8531afU, 0x3e386c2e3e1d19c8U, 0x3eaac2fb3eb19795U,
  0xbe4615613ec2ab14U, 0xbeae2d48be7cba2cU, 0x3d96452f3de83c60U, 0x3e089bfc3d889bfcU,
  0xbdf5e593bca3ee62U, 0xbdf5e593bd23ee62U, 0x3f4ce9fa3f58de07U, 0x3e96452f3ec2ab14U,
  0xbd889bfc3c5a932dU, 0x3e3197953dda932dU, 0x3de83c603e16452fU, 0x3de83c603e089bfcU,
  0x3da3ee623e4ce9faU, 0x3e6167c63dda932dU, 0xbdcce9fa3dda932dU, 0xbdcce9fabdcce9faU,
  0x3d0fa2023dfe6f71U, 0xbdaa4eb9bcee0528U, 0xbcc4fb703cb49127U, 0xbc93bc943dd14b28U,
  0x3df0127100000000U, 0x3d0fa2023d40e0deU, 0x3dcf3ddebdbcc64cU, 0x3d076cddbd97d727U,
  0x3c65d003bc65d003U, 0x3dc4fb70bd284170U, 0xbdb8abb93c13bc94U, 0x3dfc6228bdc0e0deU,
  0xbc8b8770bdf84796U, 0xbd9dff02bd9dff02U, 0x3d97d7273de9ea96U, 0xbdbab9033ba426deU,
  0xbc65d003bdb07695U, 0xbd6e05283d38abb9U, 0x3cac5c023d03524bU, 0x3d59804cbddb8d95U,
  0x3d0b8770bd8b8770U, 0x3df012713d17d727U, 0x3dd9804cbbc4fb70U, 0x3d4d30953cc4fb70U,
  0x3db491273b03524bU, 0xbcbcc64c3d13bc94U, 0x3cc4fb70bd69ea96U, 0x3d93bc94bd6e0528U,
  0xbd076cdd3dac5c02U, 0xbd8b87703d69ea96U, 0x3d8b87703d200c4bU, 0xbd38abb93d897a27U,
  0xbdcf3dde3cee0528U, 0xbd4d3095bd814502U, 0x3de1b5713df84796U, 0xbd855f943dbcc64cU,
  0xbd6e05283b03524bU, 0x3db283de3d38abb9U, 0x3d307695bc03524bU, 0x3dfc6228bdfa54dfU,
  0x3d7e6f713ce5d003U, 0x3c03524b3dc4fb70U, 0x3dc916033df01271U, 0xbdd77303bdfa54dfU,
  0xbdf63a4d3cb49127U, 0x3ddd9adfbb83524bU, 0x3c65d0033cee0528U, 0x3cdd9adf3d721fbaU,
  0xbdd35871bc93bc94U, 0x3d514b283d8b8770U, 0xbdf21fbabd9bf1b9U, 0x3dbed395bcd565baU,
  0x3ddb8d953d284170U, 0xbdbab903bdd565baU, 0x3da21995bbe5d003U, 0x3d9dff023c763a4dU,
  0xbdf63a4dbddb8d95U, 0xbd97d7273c83524bU, 0xbd59804cbd4d3095U, 0x3db8abb9bda63427U,
  0xbd876cdd3db69e70U, 0xbde5d0033c349127U, 0x3de7dd4cbd8b8770U, 0xbd876cddbdfc6228U,
  0xbd349127bd7a54dfU, 0x3d8145023d59804cU, 0xbe003e5d3cdd9adfU, 0xbdd14b28U,
  0xbe024ba6bd200c4bU, 0xbdbed3953dbcc64cU, 0xbd4d30953ce5d003U, 0xbdd358713d38abb9U,
  0xbd2426deba83524bU, 0x3b83524b3d9bf1b9U, 0x3dd773033ddfa828U, 0x3de3c2ba3da00c4bU,
  0xbdd773033dfc6228U, 0xbd9bf1b93be5d003U, 0xbd59804cbde7dd4cU, 0xbdc2ee273de7dd4cU,
  0xbca426debd076cddU, 0xbdb491273d6e0528U, 0x3b83524bbdb283deU, 0x3dbcc64cbdd35871U,
  0xbdc4fb703c763a4dU, 0xbd93bc94bd59804cU, 0xbd491603bda21995U, 0x3d2426de3daa4eb9U,
  0xbddb8d953d95c9deU, 0x3c93bc94bd97d727U, 0xbbc4fb70bdb69e70U, 0x3c3491273c83524bU,
  0x3cd565babd284170U, 0xbda634273ca426deU, 0xbd1bf1b93dcb234cU, 0xbd3cc64c3d9dff02U,
  0x3d8b8770bde7dd4cU, 0x3d1bf1b93dfe6f71U, 0xbdaa4eb9bc8b8770U, 0xbd2426debdebf7dfU,
  0xbcb49127bc5565baU, 0xbbc4fb703d17d727U, 0x3d93bc943df63a4dU, 0xbc5565babdd14b28U,
  0xbdbcc64c3dee0528U, 0x3bc4fb703d03524bU, 0xbd491603bc2426deU, 0xbd61b5713dc2ee27U,
  0x3cd565babd0fa202U, 0x3c44fb70bcac5c02U, 0xbd7a54df3de1b571U, 0xbdc2ee27bd03524bU,
  0xbda00c4b3dcb234cU, 0xbde1b5713cb49127U, 0xbcdd9adfbdcf3ddeU, 0xbdd14b283c13bc94U,
  0xbc93bc943dcb234cU, 0xbc93bc94bddfa828U, 0x3d876cdd3d349127U, 0x3cdd9adf3d59804cU,
  0xbd763a4dbde5d003U, 0xbc13bc94bdb69e70U, 0xbd5565babde9ea96U, 0x3d93bc943c2426deU,
  0xbddd9adf3cb49127U, 0x3c763a4dbd65d003U, 0xbba426de3c13bc94U, 0x3cdd9adfbd307695U,
  0x3d59804cbd284170U, 0x3d763a4dbdfa54dfU, 0x3d6b42c03d3ddc0bU, 0x3c2518623dcc4e2dU,
  0x3cce5e7b3d2d599bU, 0x3d569fb33c569fb3U, 0x3b8413823d2d599bU, 0x3cad599bbc461d43U,
  0x3df383f83d9ac6dcU, 0xbd5ee0ebbc569fb3U, 0xbdb38a853deb42c0U, 0xbdf7a494bb041382U,
  0x3dffe5cc3d8c54baU, 0xbc1495f23d7bc530U, 0x3d2518623d39bb6fU, 0xbcce5e7bbd107556U,
  0xbde722243dbfec59U, 0x3d5ac04f3de511d5U, 0x3d96a640bc8c54baU, 0xbddee0ebbdd48f65U,
  0x3dc1fca7bdd27f17U, 0x3c9495f23b841382U, 0x3a841382bce72224U, 0x3d107556bd907556U,
  0xbd08341ebc841382U, 0xbc9cd72a3dc82d91U, 0xbc569fb33d20f7c6U, 0x3c041382bdfbc530U,
  0x3dfbc5303cf7a494U, 0x3da518623e00fb0dU, 0xbdd06ec9ba841382U, 0x3d251862bdffe5ccU,
  0x3d77a494bd7bc530U, 0x3c569fb3bcbddc0bU, 0xbd08341ebdb38a85U, 0xbdce5e7b3dce5e7bU,
  0xbdab494d3de511d5U, 0x3cffe5cc3d5ac04fU, 0x3d18b68e3d9ac6dcU, 0x3c2518623d7383f8U,
  0xbc359ad33d5ac04fU, 0xbc251862bd98b68eU, 0x3dd48f653d39bb6fU, 0x3c9cd72a3d18b68eU,
  0xbdf383f8bce72224U, 0x3e00fb0d3dfbc530U, 0xbd461d433dd69fb3U, 0x3df383f83dfdd57eU,
  0x3e020334bdad599bU, 0x3d630187bd8c54baU, 0x3d08341e3da0f7c6U, 0x3df7a4943d08341eU,
  0x3d0c54babd3ddc0bU, 0x3c569fb3bd9ee778U, 0xbd8e65083cd69fb3U, 0xbdd27f173d9495f2U,
  0xbdd27f17bd5ee0ebU, 0xbdce5e7bbda51862U, 0xbcbddc0bbd359ad3U, 0x3daf69e93a841382U,
  0xbda30814bdffe5ccU, 0xbc8c54babdc61d43U, 0x3dab494d3dbddc0bU, 0xbd41fca7bb041382U,
  0xbd359ad3bb041382U, 0xbe030b5bbc359ad3U, 0xbdf59446bdce5e7bU, 0xbc461d433b041382U,
  0x3d3ddc0bbc359ad3U, 0x3ce722243d820334U, 0x3dd48f653dc1fca7U, 0x3c359ad300000000U,
  0xbce72224bcdee0ebU, 0x3c1495f2bbe72224U, 0xbdb38a853d3ddc0bU, 0xbd1cd72a3db9bb6fU,
  0x3d88341ebd2d599bU, 0x3dbddc0bbc569fb3U, 0x3d6f635cbd6f635cU, 0x3d527f17bdb9bb6fU,
  0xbcf7a494bcffe5ccU, 0x3d6f635cbdf383f8U, 0xbded530ebd359ad3U, 0x3b8413823d569fb3U,
  0x3dc61d43bdb59ad3U, 0xbe00fb0d3b041382U, 0xbdca3ddf3d39bb6fU, 0x3d461d43bda938ffU,
  0x3ca518623dbfec59U, 0x3da728b1bd107556U, 0x3d7fe5ccbcd69fb3U, 0x3cdee0ebbd461d43U,
  0xbd7383f83e030b5bU, 0x3d8c54ba00000000U, 0xbda938ff3dffe5ccU, 0x3d20f7c6bdc61d43U,
  0x3d7fe5ccbdd27f17U, 0x3d820334bdb38a85U, 0x3deb42c0bdef635cU, 0xbdf7a494bd77a494U,
  0x3c77a4943d6b42c0U, 0x3dc1fca73cdee0ebU, 0xbd8413823d041382U, 0x3c041382bc8c54baU,
  0xbd7bc5303ddac04fU, 0x3da518623c9cd72aU, 0x3cd69fb3bddac04fU, 0x3db59ad33dc61d43U,
  0xbd18b68ebdc82d91U, 0xbddac04fbd841382U, 0x3dcc4e2dbd8a446cU, 0xbc9cd72a3d907556U,
  0xbd5ee0eb3dfbc530U, 0x3d841382bd0c54baU, 0xbde0f139bc9cd72aU, 0xbc9495f2bcbddc0bU,
  0xbda30814bd5ac04fU, 0xbc461d43bda728b1U, 0xbdc1fca73c8c54baU, 0x3d569fb33d041382U,
  0x3d7fe5ccbdc1fca7U, 0x3c8413823c041382U, 0xbd8c54babde511d5U, 0xbd8e65083d7fe5ccU,
  0xbd461d43bddac04fU, 0xbdffe5ccbbc61d43U, 0xbdeb42c03d1cd72aU, 0xbd8e65083d569fb3U,
  0x3b841382bd08341eU, 0x3dc1fca73d2d599bU, 0x3d9285a43ba51862U, 0x3cad599bbb461d43U,
  0x3dfc2854bdb53cfcU, 0x3d2d5bbabdcce0c4U, 0x3dfc2854bd2d5bbaU, 0x3d95b7f23d7c2854U,
  0xbd95b7f23e0204cbU, 0x3c7c2854U, 0xbd3d1e3fbdc4ff82U, 0x3dcce0c43cdca34aU,
  0x3d2d5bbabd85f56dU, 0xbcfc2854bd4ce0c4U, 0xbe05f56d3e353cfcU, 0xbd7c2854be392d9eU,
  0x3d4ce0c400000000U, 0x3e6c65cf3cdca34aU, 0x3e0204cb3e54c207U, 0xbc3d1e3fbd1d9934U,
  0x3cdca34abd5ca34aU, 0xbdfc2854bd0dd6afU, 0x3c9d9934bd9d9934U, 0xbd2d5bba3de4848cU,
  0x3e6093eb3ebf1690U, 0x3e7447113e353cfcU, 0xbe89e60e00000000U, 0xbe50d166be87edbdU,
  0xbe0dd6afbe1d9934U, 0xbd3d1e3fbe6093ebU, 0x3b7c28543e8fcf00U, 0xbc9d9934bcdca34aU,
  0x3d2d5bbabde4848cU, 0xbd4ce0c4bdb53cfcU, 0x3e1d99343e9f9185U, 0x3e2189d63e4ce0c4U,
  0x3c7c28543e296b18U, 0xbe6c65cfbdad5bbaU, 0xbe44ff82be705670U, 0xbd9d9934be9ba0e4U,
  0xbd0dd6af3e48f023U, 0x3b7c28543d6c65cfU, 0x3dcce0c4bd0dd6afU, 0xbcfc28543d6c65cfU,
  0x3e3d1e3f3e6093ebU, 0x3e0dd6af3e05f56dU, 0x3d9d99343e0204cbU, 0x3de4848cbb7c2854U,
  0x3c3d1e3f3e15b7f2U, 0xbdec65cfbc9d9934U, 0x3d7c28543ea772c8U, 0xbb7c28543df44711U,
  0x3dcce0c43df44711U, 0xbdd4c2073d7c2854U, 0x3db53cfc3d5ca34aU, 0xbe09e60e3e11c751U,
  0xbdad5bbabe6093ebU, 0xbe05f56dbd5ca34aU, 0xbdb53cfcbdad5bbaU, 0x3da57a773db53cfcU,
  0x3d4ce0c43d7c2854U, 0x3e05f56d3cbd1e3fU, 0xbcfc2854bd9d9934U, 0xbcfc2854bd9d9934U,
  0x3ddca34a3dad5bbaU, 0xbc7c2854bd3d1e3fU, 0xbe05f56dbd3d1e3fU, 0x3ddca34abe0dd6afU,
  0x3e257a773e314c5bU, 0x3e6093eb3df44711U, 0xbd4ce0c4be5ca34aU, 0xbdcce0c4be6c65cfU,
  0xbda57a773da57a77U, 0x3d3d1e3f3c7c2854U, 0xbe705670bd3d1e3fU, 0xbe7c28543bfc2854U,
  0xbe05f56dbe8bde5fU, 0xbd7c28543db53cfcU, 0xbe3d1e3fbe89e60eU, 0xbdb53cfcbea772c8U,
  0x3cdca34a3d95b7f2U, 0xbcfc28543c3d1e3fU, 0x3dec65cfbc7c2854U, 0x3e0204cb3dec65cfU,
  0x3dad5bbabe0dd6afU, 0xbd85f56dbdb53cfcU, 0xbdd4c207bd4ce0c4U, 0x3dad5bbabd7c2854U,
  0x3dd4c2073d85f56dU, 0x3db53cfc3c9d9934U, 0xbdc4ff82be11c751U, 0xbe7837b3be8bde5fU,
  0x3d6c65cf3dbd1e3fU, 0x3dbd1e3fbdf44711U, 0x3d0dd6af3dcce0c4U, 0x3dec65cf3ea38226U,
  0x3e91c7513e48f023U, 0x3e6093eb3eab6369U, 0x3e8dd6af3e0dd6afU, 0x3dad5bbabe296b18U,
  0x3d95b7f200000000U, 0xbd3d1e3fbc7c2854U, 0xbdd4c207bdf44711U, 0xbd5ca34abdec65cfU,
  0xbc9d99343e257a77U, 0xbd6c65cf3da57a77U, 0x3e5ca34a3dd4c207U, 0x3d95b7f23d2d5bbaU,
  0x3db53cfc3d95b7f2U, 0xbe15b7f2bdbd1e3fU, 0xbd4ce0c4becce0c4U, 0xbde4848cbc3d1e3fU,
  0xbd5ca34a3dfc2854U, 0xbd95b7f23d0dd6afU, 0x3df44711bcdca34aU, 0x3e83fd1c3d2d5bbaU,
  0x3eb53cfc3e44ff82U, 0x3e800c7b3ebd1e3fU, 0x3c9d99343ee093ebU, 0xbe11c751bda57a77U,
  0x3dfc2854bd95b7f2U, 0x3e19a8933dd4c207U, 0x3df44711bd95b7f2U, 0x3d95b7f2bd1d9934U,
  0x3e8bde5fbd85f56dU, 0x3efa30033eb7354dU, 0x3e6093eb3e257a77U, 0x3e2189d63e8bde5fU,
  0xbd85f56d3e6c65cfU, 0x3dec65cf3ddca34aU, 0x3da57a773d0dd6afU, 0x3e0dd6afbc7c2854U,
  0xbd6c65cf3dc4ff82U, 0x3cbd1e3fbd8dd6afU, 0xbda495283d457fc9U, 0xbd8be52e3c83aa86U,
  0xbd9a4bd5bd499d1dU, 0x3dcfc91b3d8be52eU, 0xbd350a78bd141fd7U, 0xbdd3e6703d249528U,
  0x3d5a126e3df6dfbbU, 0x3d83aa863df2c267U, 0xbceea5133df4d111U, 0x3d416275bde03e6cU,
  0x3dbb3677bd900283U, 0x3dde2fc2bb457fc9U, 0x3d3927ccbcf6dfbbU, 0xbd666a6abdaac126U,
  0x3ceea5133ce66a6aU, 0x3daccfd0bd85b930U, 0x3db50a78bdff1a64U, 0xbd457fc9bc83aa86U,
  0x3d8be52e3de66a6aU, 0x3de87915bde45bc0U, 0xbccdba71bb83aa86U, 0x3d55f51a3d8df3d8U,
  0xbdff1a643d9e6929U, 0x3df2c2673d87c7daU, 0xbdf0b3bd3d89d684U, 0x3d350a78bd624d16U,
  0x3d4dba713c76dfbbU, 0xbdc78e73bd85b930U, 0x3cbd4521bd8be52eU, 0xbd6a87bfbdb2fbceU,
  0x3dea87bfbc457fc9U, 0x3da49528bd87c7daU, 0x3de03e6cbc8be52eU, 0x3c03aa863c249528U,
  0x3ca495283d819bdcU, 0x3db2fbce3d1c5a7fU, 0xbde66a6aU, 0xbc350a78bda49528U,
  0xbdbb36773db50a78U, 0xbcb50a78be009487U, 0x3db927cc3cd5f51aU, 0x3df8ee653d666a6aU,
  0xbd941fd7bceea513U, 0x3cde2fc2bd5e2fc2U, 0x3be66a6a3dcbabc7U, 0xbe0094873d183d2bU,
  0x3df8ee65bde87915U, 0x3c55f51a3d183d2bU, 0xbd941fd73df8ee65U, 0xbda077d3bc457fc9U,
  0x3dbb3677bc9c5a7fU, 0xbe019bdc3d8df3d8U, 0xbdf4d1113dbb3677U, 0x3cde2fc23c350a78U,
  0xbdd3e6703df6dfbbU, 0x3d983d2bbc76dfbbU, 0x3d55f51abc941fd7U, 0xbc350a78bc457fc9U,
  0x3df4d111bd51d7c6U, 0x3daccfd03dcfc91bU, 0xbde87915bd962e81U, 0x3d819bdcbdc78e73U,
  0xbb83aa863be66a6aU, 0x3b83aa86bd819bdcU, 0xbd0be52e3d9c5a7fU, 0xbdb719223d03aa86U,
  0xbd0be52ebc55f51aU, 0x3ddc21183c55f51aU, 0xbdb719223d89d684U, 0x3ddc21183d1c5a7fU,
  0xbdfafd0fbc249528U, 0x3caccfd0bc55f51aU, 0x3d03aa863ddc2118U, 0xbdb2fbce3dfafd0fU,
  0x3e009487bd55f51aU, 0x3c2495283cd5f51aU, 0xbd4dba713ddc2118U, 0x3c76dfbb3d983d2bU,
  0x3caccfd03e02a331U, 0xbc666a6a3db927ccU, 0x3c8be52e3d2077d3U, 0xbdaede7a3df8ee65U,
  0xbccdba71bcde2fc2U, 0xbdfafd0fbd350a78U, 0xbdd5f51abd5a126eU, 0xbc141fd73dcfc91bU,
  0x3d6ea5133dea87bfU, 0x3dcfc91bbcaccfd0U, 0xbde66a6abc03aa86U, 0xbd624d16bd76dfbbU,
  0x3a83aa863e019bdcU, 0x3d624d16bdbb3677U, 0xbce66a6abde45bc0U, 0xbcff1a643d499d1dU,
  0xbda495283dd803c4U, 0xbdaccfd0bdec9669U, 0xbcbd45213d5e2fc2U, 0xbdd803c4bd819bdcU,
  0x3d1c5a7f3d5a126eU, 0xbd9e6929bde24d16U, 0xbc666a6a3de45bc0U, 0xbdc3711f3d03aa86U,
  0xbdeea513bdd5f51aU, 0x3c76dfbbbd55f51aU, 0xbcde2fc23d2ccfd0U, 0x3d51d7c6bdda126eU,
  0x3d6ea5133d89d684U, 0xbbc57fc9bdfafd0fU, 0xbcc57fc9bd92112dU, 0xbda2867d3db71922U,
  0xbd941fd73db50a78U, 0x3ccdba713d2077d3U, 0x3d4dba71bd6a87bfU, 0xbd5a126ebc9c5a7fU,
  0xbd499d1d3d07c7daU, 0xbdaede7a3dfafd0fU, 0xbdfd0bba3df2c267U, 0xbb457fc93dc57fc9U,
  0xbca495283dde2fc2U, 0x3ca495283cf6dfbbU, 0xbdde2fc2bde45bc0U, 0xbc8be52ebd0be52eU,
  0xbd85b930bdea87bfU, 0xbd03aa86bd9a4bd5U, 0xbcaccfd03de03e6cU, 0x3da2867d3d2ccfd0U,
  0x3dde2fc23d07c7daU, 0xbdc57fc900000000U, 0x3d76dfbbbc941fd7U, 0x3dda126e3d350a78U,
  0x3c4527e63da44bebU, 0xbdb2ac293da23e2bU, 0x3db6c7a83cd595e4U, 0x3ccd5ee53dea1f62U,
  0xbdbefea7bc244bebU, 0xbde3f623bce603e2U, 0xbca44beb3dec2d21U, 0x3d8db4ae3db8d568U,
  0x3b036fef3d494366U, 0xbcfea8dfbdc10c67U, 0xbda44beb3db09e69U, 0xbcddcce33b836fefU,
  0x3df87fa0bd7a8d60U, 0x3d17f96cbda8676aU, 0x3df87fa03db4b9e9U, 0x3d244beb3d8fc26dU,
  0x3cee3ae1bde811a2U, 0xbdb2ac293d38d568U, 0xbd8db4ae3c6603e2U, 0x3d9e22ac3d244bebU,
  0xbd0fc26d3de603e2U, 0xbe005b4fbdfc9b1fU, 0x3d725661bd89992eU, 0x3bc527e63dc31a27U,
  0xbe01622f3d836fefU, 0xbdc527e63dc10c67U, 0xbcd595e43dac82eaU, 0x3d5dcce3bd410c67U,
  0xbd9e22acbdcd5ee5U, 0x3d0ba6eebdc31a27U, 0x3d4d5ee500000000U, 0x3cf671e03d93ddedU,
  0xbdcb51263ddbbf24U, 0x3dd38825bd078b6eU, 0xbdb09e69bde1e863U, 0xbd93dded3d7ea8dfU,
  0xbbe603e23d410c67U, 0xbd9a072c3dbae328U, 0x3d7a8d603da8676aU, 0xbdec2d21bd836fefU,
  0x3dd38825bdddcce3U, 0x3df46420bd91d02dU, 0xbde603e23e01622fU, 0x3dbefea73dd9b164U,
  0x3de3f623bde603e2U, 0x3d7671e0bdd9b164U, 0x3c34b9e9bccd5ee5U, 0x3df87fa03d61e863U,
  0xbc4527e63dddcce3U, 0xbdc10c673d1c14ecU, 0xbb836fefbd81622fU, 0x3b4527e63d20306bU,
  0xbc4527e6bdae90a9U, 0x3daa752a3c8ba6eeU, 0x3d6a1f62bddfdaa3U, 0x3d91d02d3dee3ae1U,
  0x3ddfdaa33de1e863U, 0x3da44beb3db6c7a8U, 0x3c4527e6bdf46420U, 0x3d61e8633df25661U,
  0x3ccd5ee53d0ba6eeU, 0xbdc943663daa752aU, 0x3df25661bd97f96cU, 0x3dcd5ee5bdc94366U,
  0x3df048a13d38d568U, 0xbd5595e4bd8db4aeU, 0x3cee3ae13d878b6eU, 0xbcb4b9e93d857dafU,
  0xbb836fef3de1e863U, 0x3dbefea7be01622fU, 0xbdea1f623cee3ae1U, 0x3d59b164bd6e3ae1U,
  0x3b036fefbc7671e0U, 0xbd7ea8df3d6a1f62U, 0x3d244bebbc5595e4U, 0xbd20306b3d28676aU,
  0xbd036fefbd7ea8dfU, 0xbd725661bdf46420U, 0xbdd9b1643de603e2U, 0x3d309e69bdd595e4U,
  0xbd17f96cbd410c67U, 0xbdb09e69bdbefea7U, 0xbda23e2b3c34b9e9U, 0xbd91d02dbd244bebU,
  0xbdb8d5683e02690fU, 0xbdcd5ee5bdee3ae1U, 0xbdf671e03b836fefU, 0xbd836fefbdaa752aU,
  0xbbc527e63c9c14ecU, 0xbc6603e2bdbefea7U, 0xbd81622f3d61e863U, 0x3d7671e0bb836fefU,
  0xbda659aa3dd9b164U, 0xbd078b6e3d6a1f62U, 0xbd5595e43d1c14ecU, 0xbdea1f62bc34b9e9U,
  0xba836fefbdbae328U, 0x3d036fef3de811a2U, 0x3da659aabd93ddedU, 0xbd517a653db09e69U,
  0xbd4d5ee53d5dcce3U, 0x3df671e0bd517a65U, 0xbdd17a65bcddcce3U, 0xbdae90a9bd34b9e9U,
  0x3d5dcce3bdfc9b1fU, 0x3ccd5ee5bc036fefU, 0xbda8676abddfdaa3U, 0xbde3f6233dbefea7U,
  0xbc13dded3d494366U, 0x3dec2d213d857dafU, 0xbd494366bd725661U, 0x3c036fefbdf048a1U,
  0x3d91d02dbc13ddedU, 0x3c036fef3c6603e2U, 0x3d517a65bda659aaU, 0x3cbcf0e8bdd9b164U,
  0xbdaa752a3d5595e4U, 0xbdee3ae1bba44bebU, 0xbd836fef3db8d568U, 0xbd8fc26d3d59b164U,
  0xbdcd5ee5bd857dafU, 0xbd59b164bdae90a9U, 0xbd95ebadbda44bebU, 0xbdbae3283dddcce3U,
  0xbdb6c7a83daa752aU, 0x3db2ac29bcddcce3U, 0x3d9a072cbccd5ee5U, 0xbdea1f62bdea1f62U,
  0xbd6603e2bd4d5ee5U, 0xbccd5ee53d410c67U, 0x3d44d24c3dbc9edeU, 0x3d6dd371bdefe04cU,
  0x3df606de3d8b6a4bU, 0x3dfa2095bd8d7726U, 0xbc553927bddf7970U, 0x3a8336dd3c553927U,
  0x3dd53927bd0b6a4bU, 0x3dcaf8debe002394U, 0x3da404943d9bd126U, 0x3d939db9bdb25e94U,
  0x3d3051b93d7a2095U, 0x3cedd371bc939db9U, 0x3c9bd126bd2c3802U, 0x3d7e3a4c3d8b6a4bU,
  0xbc8b6a4bbddf7970U, 0xbdd74603bd9dde02U, 0xbd9bd126bd7a2095U, 0x3dba92023d895d6fU,
  0xbdb051b9bdd952deU, 0xbe012a02bc9bd126U, 0x3da61170bd61864cU, 0xbcfe3a4c3dd74603U,
  0xbd0750943da40494U, 0xbccd05b93d895d6fU, 0xbcedd371bc7606deU, 0x3d8f8402bd511f70U,
  0xbd346b70bc65a003U, 0x3d281e4bbddd6c95U, 0x3d9feadd3dfc2d71U, 0xbbe5a0033dd74603U,
  0x3df3fa03bcfe3a4cU, 0x3da40494bc939db9U, 0x3db6784b3d346b70U, 0xbdf813babce5a003U,
  0x3d3051b93de5a003U, 0x3d5952debde9b9baU, 0x3c0336ddbd139db9U, 0x3db88527bb0336ddU,
  0xbd8336ddbdc0b895U, 0xbdb46b703de9b9baU, 0x3dae44de3a8336ddU, 0x3b8336dd3d388527U,
  0x3dd11f70bd5d6c95U, 0xbd939db93c0336ddU, 0x3de9b9ba3dc2c570U, 0x3de1864c3ccd05b9U,
  0x3dc2c5703db051b9U, 0xbd7e3a4c3c0336ddU, 0x3cb46b703c346b70U, 0x3cfe3a4c3ddf7970U,
  0x3de9b9ba3d1bd126U, 0xbda81e4bbb8336ddU, 0xbe012a023ddf7970U, 0xbd8543b83d48ec02U,
  0xbc8336ddbda1f7b9U, 0x3d8336ddbd8f8402U, 0xbd0f84023d0b6a4bU, 0x3dae44debd139db9U,
  0xbd40b8953d1feaddU, 0xbc553927bdd53927U, 0xbdcd05b9bd17b770U, 0xbdc8ec02bd5d6c95U,
  0x3dd32c4cbd69b9baU, 0xbd61864cbd895d6fU, 0x3d240494bcac3802U, 0xbdba9202bb0336ddU,
  0x3d95aa943e002394U, 0x3cdd6c953dd32c4cU, 0xbde9b9babdf813baU, 0xbd1bd1263d240494U,
  0x3ca40494bdac3802U, 0x3c0336ddbb0336ddU, 0x3d9190dd3defe04cU, 0x3dcd05b9bdebc695U,
  0x3dbeabb93d2c3802U, 0xbd895d6f00000000U, 0xbba404943d9dde02U, 0xbda1f7b9bd895d6fU,
  0xbd3051b9bd1bd126U, 0xbdf3fa03bdb46b70U, 0xbd7606debd8543b8U, 0xbd4d05b93dba9202U,
  0x3dfa2095bc240494U, 0x3d17b7703cd53927U, 0x3d44d24cbcb46b70U, 0xbc346b70bda81e4bU,
  0xbd8336ddbd511f70U, 0x3e02306fbdc8ec02U, 0x3d17b770bd812a02U, 0xbd7e3a4c3cf606deU,
  0xbdb25e94bd4d05b9U, 0x3cf606debd5d6c95U, 0xbddd6c95bdc8ec02U, 0x3dfc2d713dedd371U,
  0xbd895d6fbdac3802U, 0xbd895d6f3d99c44bU, 0x3de1864c3dd11f70U, 0x3be5a0033dfa2095U,
  0xbda61170bbc4d24cU, 0xbcb46b70bdc0b895U, 0xbd9bd126bde7acdeU, 0xbcd539273cc4d24cU,
  0xbcfe3a4c3cd53927U, 0x3d5d6c953c139db9U, 0xbd7606debdfa2095U, 0xbd6dd371bd61864cU,
  0x3d7606de3d0b6a4bU, 0x3d939db93dd952deU, 0xbb0336dd3c8b6a4bU, 0x3ccd05b9bd8d7726U,
  0x3dcaf8debda1f7b9U, 0x3d17b770bb8336ddU, 0x3d7606de3cfe3a4cU, 0x3d2c38023d939db9U,
  0x3d9bd126bcf606deU, 0xbbe5a0033d9190ddU, 0xbd7e3a4c3d240494U, 0xbdb46b703dc4d24cU,
  0xbb8336dd3debc695U, 0xbdb885273c0336ddU, 0xbdc8ec02bd6dd371U, 0xbcfe3a4cbcb46b70U,
  0xbda1f7b9bcb46b70U, 0xbde7acde3df1ed27U, 0x3db051b9bd346b70U, 0x3d8750943d0b6a4bU,
  0xbdf813ba3c44d24cU, 0x3df1ed273d8f8402U, 0xbdb885273b0336ddU, 0x3dfc2d713d0b6a4bU,
  0xbd41636e3cc1636eU, 0xbd075f343d1ab5f2U, 0x3b9ab5f2bd41636eU, 0x3d6810ebbce810ebU,
  0xbd7b67a93cc1636eU, 0x3dde658cbc6810ebU, 0x3c1ab5f2U, 0x3c6810ebbd910a93U,
  0xbdfb67a9bc1ab5f2U, 0xbd1ab5f23d41636eU, 0xbdb7b80fbd6810ebU, 0xbe075f34bde810ebU,
  0xbc6810ebbdc1636eU, 0xbe7b67a93cc1636eU, 0xbde810ebbcc1636eU, 0xbd2e0cb03d41636eU,
  0xbd7b67a9be828984U, 0xbd1ab5f23d075f34U, 0x3d910a933d910a93U, 0xbdd4ba2dbd910a93U,
  0x3b9ab5f23ce810ebU, 0xbd54ba2d3db7b80fU, 0xbe41636ebdde658cU, 0x3e71bc4a3e46391eU,
  0x3e3c8dbf3e46391eU, 0xbe110a933eba22e7U, 0x3d7b67a900000000U, 0xbdae0cb0be028984U,
  0x3ce810ebbc1ab5f2U, 0x3cc1636ebdd4ba2dU, 0x3ecfe47d3ee0d064U, 0x3b9ab5f23cc1636eU,
  0x3c1ab5f23d875f34U, 0x3dde658c3d6810ebU, 0xbd075f343b9ab5f2U, 0xbd41636e3e4b0eceU,
  0x3d9ab5f2bdb7b80fU, 0x3e1f8ba23e028984U, 0xbd075f34bdf1bc4aU, 0xbdb7b80f00000000U,
  0x3c6810eb3e7691faU, 0xbdf1bc4a3d075f34U, 0x3d41636ebe075f34U, 0xbd41636e3e110a93U,
  0x3d41636ebd910a93U, 0x3db7b80fbdae0cb0U, 0x3d875f343e15e042U, 0xbdde658cbcc1636eU,
  0xbc1ab5f23d875f34U, 0xbc6810eb3c1ab5f2U, 0xbecd79a5bf0629c8U, 0xbe6810ebbec3ce46U,
  0xbdf1bc4abe801eacU, 0x3d41636e3dfb67a9U, 0x3e37b80f3c1ab5f2U, 0x3e8289843e37b80fU,
  0x3c6810ebbe110a93U, 0xbe4b0ece3d910a93U, 0x3d41636e3dc1636eU, 0x3ce810eb3dd4ba2dU,
  0xbde810ebbe3c8dbfU, 0x3dd4ba2dU, 0x3e54ba2dU, 0xbdcb0ece3c1ab5f2U,
  0xbe984b1abd875f34U, 0x3dcb0ecebdb7b80fU, 0x3ce810eb3c1ab5f2U, 0x3e41636ebd6810ebU,
  0xbb9ab5f2bc6810ebU, 0x3dde658c3ce810ebU, 0x3e7691fa3c6810ebU, 0x3e4b0ece3e71bc4aU,
  0x3e89ca0c3ea93701U, 0x3dde658cbce810ebU, 0x3b9ab5f2be075f34U, 0xbe37b80fbc6810ebU,
  0x3ea1f679bce810ebU, 0xbe910a933d54ba2dU, 0xbd2e0cb0bdae0cb0U, 0xbdae0cb03de810ebU,
  0xbeb7b80fbec8a3f6U, 0xbe2e0cb0be1f8ba2U, 0xbb9ab5f2bdd4ba2dU, 0xbe7691fa3d41636eU,
  0xbdfb67a93e1f8ba2U, 0x3e2e0cb0bc1ab5f2U, 0xbde810eb3d075f34U, 0x3d910a933d7b67a9U,
  0xbdcb0ece3dd4ba2dU, 0x3d9ab5f23d7b67a9U, 0x3eb54d383e1f8ba2U, 0x3eae0cb03f028984U,
  0xbd9ab5f2bd41636eU, 0xbea6cc29bdae0cb0U, 0xbde810ebbe075f34U, 0xbe5e658cbd875f34U,
  0x3ce810eb3d910a93U, 0xbd41636ebdae0cb0U, 0x3c1ab5f2bda46151U, 0xbc6810eb3dae0cb0U,
  0x3e7691fa3f001eacU, 0x3eece69b3e71bc4aU, 0x3f0154183f198086U, 0xbda46151be4b0eceU,
  0xbdd4ba2d3c1ab5f2U, 0x3efdd281bdde658cU, 0x3e1f8ba2bc9ab5f2U, 0xbdd4ba2d3d6810ebU,
  0x3c6810ebbda46151U, 0x3c6810ebbc1ab5f2U, 0xbeba22e7be41636eU, 0xbe71bc4abe984b1aU,
  0xbe633b3bbe7b67a9U, 0xbed72505bea46151U, 0x3d6810eb3d875f34U, 0xbdde658cbe2e0cb0U,
  0x3cc1636e3ce810ebU, 0x3e0c34e33e3c8dbfU, 0x3d41636e3db7b80fU, 0x3ce810ebbdd4ba2dU,
  0x3d9ab5f23ecfe47dU, 0x3d9ab5f23e028984U, 0xbda46151bd910a93U, 0x3e5e658cbd075f34U,
  0xbe37b80f3ce810ebU, 0x3e910a93bd2e0cb0U, 0xbcc1636e3d910a93U, 0xbea1f679bd910a93U,
  0x3d910a933d910a93U, 0x3da46151bdfb67a9U, 0x3a843df53dad9152U, 0x3d8a70dcbd52c2beU,
  0xbdca7edf3d085fe5U, 0xbd001c053e012481U, 0x3e001c05bdfc161bU, 0x3c843df53da96f62U,
  0x3d2d91523d5f288dU, 0x3df5e334bde76c6dU, 0x3df3d23cbdf5e334U, 0xbde139853df7f42bU,
  0xbdc23b003d6b8e5cU, 0x3d423b00bca54d72U, 0x3c14c5b4bdcc8fd7U, 0xbd56e4aebda12b83U,
  0xbd465cf03d96d6abU, 0xbd864eedbd9af89bU, 0x3e0335793d6b8e5cU, 0xbc676c6dbd94c5b4U,
  0x3da12b83bdf1c144U, 0xbda96f62bc9d0993U, 0xbd4a7edfbd6b8e5cU, 0x3d52c2bebdf1c144U,
  0x3c465cf03dbc0818U, 0xbbe76c6d3ce76c6dU, 0xbd96d6abbcbe1910U, 0x3db3c4393d5b069eU,
  0xbd14c5b4bb043df5U, 0x3d7c161bbbe76c6dU, 0x3da54d72bdc02a08U, 0xbcb5d5313d9af89bU,
  0x3ddd17963de55b75U, 0xbe001c05bdefb04cU, 0x3dd8f5a63de13985U, 0xbdd8f5a6bde97d65U,
  0xbd043df53c35d531U, 0xbd3e19103da12b83U, 0x3dca7edfbdb3c439U, 0xbdb7e629bdc65cf0U,
  0xbd085fe5bba54d72U, 0x3ca54d72bcad9152U, 0x3cbe19103dcc8fd7U, 0xbe012481bcd6e4aeU,
  0xbd73d23cbc465cf0U, 0x3c254d723da96f62U, 0x3d423b003d822cfdU, 0x3d3e19103de13985U,
  0x3cad91523e012481U, 0xbdbc0818bd296f62U, 0xbda75e6abdb1b341U, 0xbd39f721bc843df5U,
  0x3da96f623ca54d72U, 0xbd18e7a33e022cfdU, 0x3db3c439bca54d72U, 0xbdf7f42b3da12b83U,
  0xbdb1b3413d676c6dU, 0xbcf7f42bbdb3c439U, 0x3d18e7a33dfc161bU, 0xbc843df53d7c161bU,
  0x3dcc8fd7bdf1c144U, 0xbdd8f5a63be76c6dU, 0xbdd6e4ae3ca54d72U, 0x3d8c81d4bc8c81d4U,
  0xbd885fe5bc8c81d4U, 0xbdad91523d56e4aeU, 0xbd8a70dc3e033579U, 0xbdca7edf3d56e4aeU,
  0xbdf3d23c3de76c6dU, 0xbb043df53cf7f42bU, 0xbcf7f42b3d14c5b4U, 0x3cbe1910bd885fe5U,
  0x3dc65cf03d4ea0cfU, 0x3deb8e5cbde13985U, 0xbc9d0993bdc65cf0U, 0xbdfe27133bc65cf0U,
  0xbdcc8fd73ddf288dU, 0x3d6fb04c3da96f62U, 0x3cc65cf03d212b83U, 0x3d73d23cbd3e1910U,
  0x3e001c05bdf7f42bU, 0xbe001c05bd7c161bU, 0xbd001c053cf7f42bU, 0xbcad9152be001c05U,
  0xbdd2c2be3c77f42bU, 0x3d92b4bc3d35d531U, 0x3ded9f54bdc02a08U, 0xbd96d6abbccea0cfU,
  0x3c14c5b43de55b75U, 0xbd6b8e5cbc843df5U, 0x3d18e7a33d7c161bU, 0x3ce76c6d3ded9f54U,
  0x3d634a7d3d2d9152U, 0x3d9f1a8b3c8c81d4U, 0x3ce76c6dbdafa249U, 0xbd98e7a33d843df5U,
  0xbcc65cf03d35d531U, 0xbdc02a083cd6e4aeU, 0xbd801c05bb465cf0U, 0x3c254d72bdb9f721U,
  0x3d465cf0bde34a7dU, 0x3df1c1443d254d72U, 0xbd2d9152bce76c6dU, 0x3d18e7a33d801c05U,
  0x3c9d09933dbe1910U, 0x3ddd17963d843df5U, 0x3de97d65bd92b4bcU, 0x3e0124813e001c05U,
  0xbdbc0818bccea0cfU, 0xbc843df53d296f62U, 0xbda75e6a3df1c144U, 0xbded9f54bd73d23cU,
  0x3dc44bf83d98e7a3U, 0x3dfa0523bca54d72U, 0xbd92b4bcbd9af89bU, 0xbd885fe5bcad9152U,
  0x3ddb069e3ddf288dU, 0xbd634a7d3da33c7aU, 0x3db5d531bd6fb04cU, 0xbd18e7a33ce76c6dU,
  0xbc8c81d4bcd6e4aeU, 0xbce76c6d3dc02a08U, 0xbd8c81d4bd92b4bcU, 0xbd8a70dc3d94c5b4U,
  0x3d4a7edfbd1d0993U, 0x3dfe27133d9d0993U, 0xbdb1b341bbe76c6dU, 0xbd4a7edf3d14c5b4U,
  0x3d801c053ddf288dU, 0x3cf7f42b3e012481U, 0x3dc86de73de97d65U, 0xbccea0cf3d085fe5U,
  0x3dc29bcebd9445f2U, 0x3e1445f23b9445f2U, 0xbc1445f2bd26ceb0U, 0xbd8b01933db9576eU,
  0xbd8b0193bcde68ebU, 0x3cde68eb3de7ad4aU, 0x3d26ceb0bdb9576eU, 0x3c5e68ebbda6ceb0U,
  0xbcb9576ebdb9576eU, 0x3d70f1a93dde68ebU, 0x3dfa36083ea6ceb0U, 0xbe34b53fbc9445f2U,
  0xbe50825cbe2b70e0U, 0xbd39576ebdb9576eU, 0x3da6ceb03da6ceb0U, 0x3dde68ebbc1445f2U,
  0x3e4be02dbd01bd34U, 0x3d9d8a513d1445f2U, 0xbd70f1a93c9445f2U, 0x3db9576ebdcbe02dU,
  0xbe1d8a513ecbe02dU, 0xbe39576ebedc17d3U, 0x3e18e822bcde68ebU, 0x3cde68ebbcde68ebU,
  0x3d70f1a93db0130fU, 0x3e30130f3e81bd34U, 0x3de7ad4a3d39576eU, 0xbe222c81bd1445f2U,
  0x3da6ceb03dfa3608U, 0x3da6ceb0bd5e68ebU, 0xbe3df99e3db0130fU, 0x3b9445f2be50825cU,
  0x3dc29bce3d5e68ebU, 0xbdd5248c3da6ceb0U, 0x3db0130f3d9445f2U, 0xbc5e68eb3e70f1a9U,
  0x3d5e68eb3d01bd34U, 0xbe0b0193bcb9576eU, 0x3dc29bce3d5e68ebU, 0x3d9445f2bd01bd34U,
  0x3d9d8a513db0130fU, 0x3dde68eb3e840e4cU, 0x3db0130f3e39576eU, 0xbdc29bcebc1445f2U,
  0x3d01bd343da6ceb0U, 0x3b9445f23e30130fU, 0xbe1445f2bdb9576eU, 0xbe7593d9be1445f2U,
  0x3db0130fbd26ceb0U, 0x3cde68ebU, 0xbd26ceb03ed5248cU, 0x3e30130f3c5e68ebU,
  0x3ea91fc83ea91fc8U, 0xbcde68eb3dfa3608U, 0xbcde68eb00000000U, 0xbdfa3608be70f1a9U,
  0x3da6ceb0bd39576eU, 0x3d1445f2be26ceb0U, 0x3da6ceb03dc29bceU, 0xbd5e68eb3db9576eU,
  0xbc9445f2bd8b0193U, 0x3dc29bce3e7593d9U, 0xbe3df99e3dcbe02dU, 0xbdb0130fbc9445f2U,
  0x3df0f1a93eb4b53fU, 0xbd5e68eb3e50825cU, 0x3e473dfd3e840e4cU, 0x3cde68eb3d9445f2U,
  0x3c5e68ebbc5e68ebU, 0xbc5e68ebbd26ceb0U, 0x3db9576ebe96970aU, 0x3f131d663ede68ebU,
  0xbd9d8a513e9b3939U, 0xbede68ebbe0fa3c2U, 0x3da6ceb03dd5248cU, 0xbcde68eb3d4be02dU,
  0x3d70f1a93c1445f2U, 0xbe88b07bbe01bd34U, 0x3d9d8a513d9d8a51U, 0xbda6ceb0bcde68ebU,
  0x3e18e8223e50825cU, 0x3dfa36083dfa3608U, 0x3e1445f23d26ceb0U, 0xbd26ceb03df0f1a9U,
  0xbd70f1a9be222c81U, 0xbe30130f3c5e68ebU, 0x3d81bd34bdd5248cU, 0xbd9d8a51bd9d8a51U,
  0xbc5e68ebbcde68ebU, 0xbd26ceb03dde68ebU, 0xbe1445f23c5e68ebU, 0xbe429bcebc5e68ebU,
  0xbe34b53fbd39576eU, 0x3e0fa3c2be4be02dU, 0x3e865f63bd8b0193U, 0xbdde68eb3e840e4cU,
  0x3d5e68ebbe18e822U, 0x3d26ceb0bcb9576eU, 0x3dc29bce3d9d8a51U, 0xbb9445f23dfa3608U,
  0xbe8fa3c23c9445f2U, 0xbe4be02dbea91fc8U, 0xbeadc1f8be9d8a51U, 0xbe50825cbd9d8a51U,
  0xbd5e68ebbd8b0193U, 0x3d26ceb03d9d8a51U, 0xbdde68eb3e70f1a9U, 0xbc1445f2bd26ceb0U,
  0x3db9576ebdde68ebU, 0x3de7ad4abd39576eU, 0x3e473dfd3db0130fU, 0xbe630b1bbe222c81U,
  0xbe30130fbea91fc8U, 0xbe59c6bbbe01bd34U, 0xbd9d8a51bec4ece5U, 0x3b9445f23cb9576eU,
  0xbe18e822bd4be02dU, 0x3e6c4f7a3cde68ebU, 0xbcb9576ebb9445f2U, 0xbc5e68eb3e01bd34U,
  0xbe865f63be5e68ebU, 0xbe9fdb69be96970aU, 0x3e1445f2be8d52abU, 0x3de7ad4a3e34b53fU,
  0x3e065f633e8b0193U, 0xbe30130fbeadc1f8U, 0x3dc29bcebd1445f2U, 0xbdc29bcebe1445f2U,
  0x3d70f1a93d5e68ebU, 0x3c1445f23d8b0193U, 0x3e29aee13b81484aU, 0xbd219a5cbd31c366U,
  0x3b81484a3db9d7eaU, 0xbc01484a3d521578U, 0xbd9171533dd21578U, 0xbdf2678bbd31c366U,
  0x3ca19a5cU, 0x3d31c366bdb9d7eaU, 0xbdf2678bbcc1ec6fU, 0x3dc1ec6f3db1c366U,
  0x3c41ec6f3e157b96U, 0xbe4a00f4bdb9d7eaU, 0xbdf2678bbe895ccfU, 0xbe01484abd917153U,
  0xbb81484abdd21578U, 0xbcc1ec6f3e31c366U, 0x3df2678b3d895ccfU, 0x3e31c3663dda29fdU,
  0x3dca00f43b81484aU, 0x3dea53063dda29fdU, 0xbec7fbd2be5a29fdU, 0xbe39d7eabec3f190U,
  0x3c01484a3b81484aU, 0xbd219a5cbd41ec6fU, 0xbb81484abe4e0b36U, 0xbe2db923bce23e82U,
  0xbe1985d83d31c366U, 0x3c41ec6f00000000U, 0x3ca19a5cbcc1ec6fU, 0x3dfa7c0fbda19a5cU,
  0xbd219a5cbe45f6b1U, 0xbe095ccfbce23e82U, 0x3e2db923bdb1c366U, 0x3d219a5c3e561fbbU,
  0xbd72678bbe05528cU, 0x3df2678bbc41ec6fU, 0x3db9d7eabe1985d8U, 0x3d5215783d01484aU,
  0xbde23e823dfa7c0fU, 0xbdd215783d41ec6fU, 0x3eabb4023e4a00f4U, 0x3e157b963e7e8652U,
  0xbe7e8652bdfa7c0fU, 0xbe1985d8be561fbbU, 0x3c41ec6fbc81484aU, 0x3dc1ec6fbe35cda8U,
  0x3d01484abd219a5cU, 0xbe623e82be7671cdU, 0x3dea53063d01484aU, 0x3d01484abd623e82U,
  0x3da9aee13e957b96U, 0x3ea5a49fbdb9d7eaU, 0x3d5215783e7e8652U, 0x3dca00f4bd623e82U,
  0xbd31c3663d41ec6fU, 0x3d917153bd219a5cU, 0x3da9aee13dd21578U, 0x3e39d7eabd72678bU,
  0xbd81484abdda29fdU, 0x3ce23e82bdfa7c0fU, 0x3d72678bbe117153U, 0x3eb9d7ea3ca19a5cU,
  0x3de23e823e7a7c0fU, 0x3df2678b3e1985d8U, 0x3e5a29fdbcc1ec6fU, 0x3d917153be39d7eaU,
  0xbd1171533dd21578U, 0xbce23e82be095ccfU, 0x3dfa7c0fbd41ec6fU, 0x3d219a5c3d81484aU,
  0x3e957b96be5e343fU, 0x3ed41a993e72678bU, 0x3d5215783e117153U, 0xbe7e8652bd219a5cU,
  0x3f0045b93db1c366U, 0x3c01484abd895ccfU, 0xbd895ccfbc01484aU, 0xbd623e82be095ccfU,
  0xbd117153bd117153U, 0x3c81484abce23e82U, 0x3ec1ec6f3f0045b9U, 0x3dea5306bd31c366U,
  0x3e01484a3e6648c4U, 0x3e1985d83e25a49fU, 0xbce23e82be1d901aU, 0xbe31c366be561fbbU,
  0xbc81484abde23e82U, 0xbe25a49fbd895ccfU, 0x3dda29fdbdfa7c0fU, 0x3c81484abdd21578U,
  0xbe05528cbe05528cU, 0xbe6a5306befc8131U, 0xbd72678b3d31c366U, 0xbd623e82bc41ec6fU,
  0x3e91715300000000U, 0x3e219a5cbda19a5cU, 0xbd41ec6f3db9d7eaU, 0xbd895ccfbe157b96U,
  0x3d895ccf3d9985d8U, 0x3db1c366bd117153U, 0xbe623e82befe8652U, 0xbda9aee1be5a29fdU,
  0xbb81484abe29aee1U, 0x3dea53063dda29fdU, 0x3e5e343f3e117153U, 0xbe157b963d917153U,
  0x3cc1ec6fbd41ec6fU, 0x3d895ccfbd521578U, 0xbd72678bbdb9d7eaU, 0x3db1c366bdfa7c0fU,
  0x3d5215783da19a5cU, 0xbe895ccfbe834d6bU, 0x3e31c366bd01484aU, 0x3de23e823e4e0b36U,
  0x3de23e823e05528cU, 0xbd9171533d117153U, 0xbe157b963b81484aU, 0xbd72678bbc41ec6fU,
  0x3de23e823df2678bU, 0x3c01484a3dc1ec6fU, 0xbc41ec6fbda19a5cU, 0xbe157b963d895ccfU,
  0x3e01484abd31c366U, 0xbca19a5cbe01484aU, 0xbdfa7c0fbe29aee1U, 0xbe937674be5a29fdU,
  0xbdb9d7ea3c01484aU, 0xbe1985d8be5a29fdU, 0xbdc1ec6f3d31c366U, 0xbc81484a3d41ec6fU,
  0xbc888f6e3ba3df51U, 0xbd8bf96bbce82708U, 0xbc5a7f173da3df51U, 0xbca3df513ce82708U,
  0xbcbf2f34bd23df51U, 0xbcccd7263e088f6eU, 0x3db85b3b3d75cefaU, 0x3ca3df513db4f13fU,
  0xbcb187433cccd726U, 0x3c23df51bce82708U, 0x3e0bf96b3dd7151bU, 0xbd2ab34abc3f2f34U,
  0xbe25944fbd0f6367U, 0x3c088f6ebe3d7a36U, 0xbc963760be052572U, 0xbada7f173d4cd726U,
  0x3cda7f173d8f6367U, 0x3e444e2f3daab34aU, 0x3d6efb01bcf5cefaU, 0x3d318743bd385b3bU,
  0x3bda7f173e12cd63U, 0xbe3bc538be207555U, 0xbdfca2f3bd75cefaU, 0xbb5a7f17be4e8c24U,
  0xbe0dae69be429930U, 0x3de15310be34f13fU, 0x3ada7f173d385b3bU, 0x3d9d0b593db4f13fU,
  0x3dc96d29bda07555U, 0x3cb187433dc96d29U, 0xbdeb9105bca3df51U, 0x3ce827083e0dae69U,
  0xbdda7f17bd6efb01U, 0xbd23df51be3f2f34U, 0xbe429930bd0f6367U, 0x3c888f6ebd088f6eU,
  0x3e34f13f3dda7f17U, 0x3e496d293bda7f17U, 0x3d3187433dc6032dU, 0x3e000677bd615310U,
  0xbd99a15c3dccd726U, 0xbe1482623da3df51U, 0x3d5a7f173dd04122U, 0xbda7494ebdfca2f3U,
  0xbe36a63dbe3f2f34U, 0xbc888f6ebe0f6367U, 0xbe17ec5e3c75cefaU, 0x3c888f6ebe4cd726U,
  0x3d1d0b593c5a7f17U, 0xbdb85b3bbcbf2f34U, 0xbe06da703c5a7f17U, 0xbd81bb76be01bb76U,
  0xbdbbc53800000000U, 0x3d8f6367bdfca2f3U, 0xbd888f6ebd53ab1eU, 0xbe000677bc888f6eU,
  0xbc5a7f17be36a63dU, 0xbc75cefabdb18743U, 0x3dc299303c888f6eU, 0xbdd041223cf5cefaU,
  0xbe1ec057be3d7a36U, 0x3d385b3bbda3df51U, 0xbc5a7f173d46032dU, 0x3deefb013ddde913U,
  0xbde4bd0c00000000U, 0x3d5a7f17be0dae69U, 0xbe17ec5ebe0f6367U, 0xbe3a103abc23df51U,
  0x3df938f6bc5a7f17U, 0xbd01bb763ddde913U, 0xbe111865bc23df51U, 0x3d1d0b59bd888f6eU,
  0xbe06da703d0f6367U, 0xbcccd726bdd04122U, 0xbdbbc538bdccd726U, 0xbe111865be3a103aU,
  0xbba3df51bcb18743U, 0xbe3a103abd088f6eU, 0xbd1d0b59bce82708U, 0xbdfca2f3bd8bf96bU,
  0xbe385b3bbddde913U, 0x3cccd726bd9d0b59U, 0x3cf5cefa3d7ca2f3U, 0xbdeb9105bd5a7f17U,
  0xbd23df51bdaab34aU, 0xbc5a7f17be000677U, 0xbdc6032dbe3bc538U, 0xbe06da70U,
  0xbc963760bd53ab1eU, 0xbd1637603d852572U, 0xbe2e1d46bdd04122U, 0x3da7494ebd53ab1eU,
  0xbde82708bc75cefaU, 0xbca3df51be3f2f34U, 0x3d088f6e3e163760U, 0x3e5041223d4cd726U,
  0xbddde9133e1d0b59U, 0xbe1ec057be36a63dU, 0xbba3df51bd5a7f17U, 0x3de4bd0cbdeb9105U,
  0xbd682708bc75cefaU, 0x3cf5cefa3da07555U, 0xbc23df51bd615310U, 0x3da3df51bc23df51U,
  0xbdbf2f34bd0f6367U, 0xbcccd726be06da70U, 0x3df5cefabe163760U, 0x3dfca2f33c088f6eU,
  0xbd92cd63bce82708U, 0xbd6efb01bc3f2f34U, 0x3d23df51bd99a15cU, 0x3d92cd63bc888f6eU,
  0x3c5a7f173d6efb01U, 0xbd92cd633cf5cefaU, 0xbdb18743bc5a7f17U, 0xbdeefb01bcccd726U,
  0xbe58ca19be57151bU, 0xbd4cd726bd23df51U, 0x3d1d0b593dccd726U, 0x3dc96d293d99a15cU,
  0xbbda7f17bd53ab1eU, 0x3d6efb013c75cefaU, 0xbc9637603ca3df51U, 0x3dc299303d8f6367U,
  0xbdccd7263deb9105U, 0x3d1d0b59bd8f6367U, 0xbe0370743d3f2f34U, 0xbe3f2f34be207555U,
  0xbdae1d463dda7f17U, 0x3d963760bd46032dU, 0xbdae7c07bdcb90b3U, 0x3d91675bbd68a55fU,
  0x3d41df24bc68a55fU, 0xbd41df243c68a55fU, 0xbd91675bbd7c087cU, 0x3b9b18eabce8a55fU,
  0x3d41df24bc9b18eaU, 0x3e0c8e943dcb90b3U, 0xbdcb90b33d554242U, 0x3d41df243d7c087cU,
  0x3e382d963e4b90b3U, 0x3b9b18ea3e1ff1b1U, 0xbb9b18eabe0c8e94U, 0x3d87b5cdbdfc087cU,
  0xbe382d963dae7c07U, 0x3dae7c07bda4ca79U, 0xbd7c087c3b9b18eaU, 0x3e7c087cbd554242U,
  0x3ce8a55fbdfc087cU, 0x3c9b18eabd68a55fU, 0xbd41df243f0efaf8U, 0x3c9b18eabe6d7e26U,
  0x3d87b5cd3d7c087cU, 0xbe46b7ecbd1b18eaU, 0xbe1ff1b1bdf256eeU, 0x3e8549693e24ca79U,
  0x3d41df24bc9b18eaU, 0xbc68a55fbc1b18eaU, 0x3d91675b3dfc087cU, 0xbd41df24bd554242U,
  0xbed0697a3cc1df24U, 0xbdd54242be8efaf8U, 0x3ce8a55f3c9b18eaU, 0x3e07b5cd3d07b5cdU,
  0x3e91675b3e07b5cdU, 0x3e772fb53e1ff1b1U, 0x3dcb90b3bd87b5cdU, 0xbe5ef3d03d68a55fU,
  0xbdae7c073ce8a55fU, 0xbd07b5cd3e02dd05U, 0xbdb82d96be554242U, 0x3dd54242bd91675bU,
  0x3ee8a55f3eb82d96U, 0x3cc1df243e4b90b3U, 0x3d91675bbd554242U, 0x3d7c087c3da4ca79U,
  0xbd07b5cd3dfc087cU, 0x3de8a55fbe11675bU, 0xbddef3d0bce8a55fU, 0xbddef3d0bd41df24U,
  0xbdae7c07bd41df24U, 0xbdcb90b3be82dd05U, 0x3e5ef3d0bd1b18eaU, 0x3c1b18ea3dc1df24U,
  0xbd554242bd554242U, 0xbebd065dbd554242U, 0x3dc1df24bce8a55fU, 0xbe93d3bfbd07b5cdU,
  0x3ddef3d0bc68a55fU, 0x3cc1df24bc9b18eaU, 0x3d07b5cd3d68a55fU, 0xbe1ff1b13d68a55fU,
  0xbeba99fabe3d065dU, 0xbe964023be964023U, 0xbdcb90b3be63cc98U, 0xbd5542423e2e7c07U,
  0x3e2e7c073dd54242U, 0x3d07b5cdbd1b18eaU, 0xbdae7c073cc1df24U, 0x3d2e7c07bde8a55fU,
  0x3e382d96be87b5cdU, 0x3f19e2b83eeb11c3U, 0xbd554242bdd54242U, 0x3c1b18ea3e91675bU,
  0xbce8a55fbb9b18eaU, 0xbe41df243e46b7ecU, 0xbe772fb5be164023U, 0xbe7256eebe164023U,
  0xbd91675bbdd54242U, 0x3d41df24bd7c087cU, 0xbcc1df24beb354cfU, 0x3df256ee3c68a55fU,
  0xbd7c087cbd7c087cU, 0xbe382d963c1b18eaU, 0xbd1b18eabe63cc98U, 0xbe24ca79bda4ca79U,
  0x3c1b18ea3d9b18eaU, 0xbe11675bbdb82d96U, 0xbc9b18ea3dd54242U, 0xbdf256ee3e02dd05U,
  0x3e68a55f00000000U, 0x3e82dd053ecdfd17U, 0xbe3354cfbd91675bU, 0x3da4ca79bd1b18eaU,
  0x3d68a55fbe24ca79U, 0x3ed2d5de3ecb90b3U, 0xbd7c087c3c9b18eaU, 0xbeae7c07be50697aU,
  0xbd87b5cd3dae7c07U, 0x3c1b18ea3dcb90b3U, 0x3e7256ee3e8c8e94U, 0x3e98ac863de8a55fU,
  0xbeb354cf3d68a55fU, 0xbdcb90b3be5a1b09U, 0xbdfc087cbe93d3bfU, 0xbe41df243dd54242U,
  0x3e82dd053e1ff1b1U, 0x3d68a55f3de8a55fU, 0x3d7c087cbd91675bU, 0xbda4ca793e02dd05U,
  0xbd1b18ea3e7256eeU, 0xbdfc087cbe2e7c07U, 0xbee3cc98be29a340U, 0xbee16034be9d854eU,
  0x3c1b18eabf054969U, 0x3e50697a3e24ca79U, 0xbe24ca793ddef3d0U, 0xbd554242bde8a55fU,
  0x3dfc087c3dc1df24U, 0xbdb82d963dd54242U, 0xbf177655be3d065dU, 0xbefe74e0bf0a2230U,
  0x3d91675bbeb0e86bU, 0xbda4ca79be4b90b3U, 0x3e3354cfbd1b18eaU, 0xbe1ff1b1bc68a55fU,
  0x3e91675b3d554242U, 0xbcc1df24be24ca79U, 0xbc68a55fbdae7c07U, 0x3ce8a55fbd554242U,
  0xbd7fdc9cbc483d58U, 0x3de6d4f13de40cfaU, 0xbb31fda43d5e7d0dU, 0xbd1bbdf0bd057e3bU,
  0x3d378d91bd58ed20U, 0x3d0b0e28bddbb516U, 0x3e0f3a1a3d962e02U, 0x3d214dddbcd35d33U,
  0xbde99ce73def2cd4U, 0x3c857e3b3de40cfaU, 0x3bb1fda43d3d1d7eU, 0x3cf4bcc2bbde7d0dU,
  0xbd483d58bde6d4f1U, 0x3d8dd61f3d74bcc2U, 0x3dbfe575bc857e3bU, 0xbe0c72233d93660cU,
  0x3d884632be057e3bU, 0xbddbb5163bb1fda4U, 0xbc1bbdf0bdbd1d7eU, 0xbcb1fda4bdc57562U,
  0xbd9e85e63c909e15U, 0xbd0b0e283d5e7d0dU, 0xbda6ddcabc74bcc2U, 0x3e0c72233c31fda4U,
  0x3d214ddd3d7a4cafU, 0x3df784b8bdd35d33U, 0xbddbb516bde40cfaU, 0x3cde7d0dbd98f5f9U,
  0x3dd62529bdcb054fU, 0xbdc83d58bab1fda4U, 0xbd8dd61f3d5e7d0dU, 0x3d6f2cd43c909e15U,
  0xbd483d58bda14dddU, 0xbd82b6443da9a5c0U, 0x3dc2ad6bbdd0953cU, 0x3d6f2cd4bdde7d0dU,
  0xbab1fda43d057e3bU, 0xbd857e3bbd884632U, 0x3da14dddbde40cfaU, 0xbd3d1d7ebb31fda4U,
  0xbd82b6443bb1fda4U, 0x3e1202113d162e02U, 0xbc74bcc2bd5e7d0dU, 0xbc1bbdf03ab1fda4U,
  0x3dcdcd463dd62529U, 0xbcd35d33bd7fdc9cU, 0x3dd625293d98f5f9U, 0x3ca6ddca3d109e15U,
  0xbd8b0e28bcf4bcc2U, 0xbdb78d913ab1fda4U, 0x3d0b0e283de6d4f1U, 0x3d5e7d0dbc9bbdf0U,
  0xbd909e153e0f3a1aU, 0xbd483d583d857e3bU, 0xbd640cfa3cffdc9cU, 0x3c74bcc23d3d1d7eU,
  0xbcf4bcc2bd640cfaU, 0x3c857e3bbdb4c59bU, 0x3cb1fda4bdd35d33U, 0x3d962e02bdba5588U,
  0x3bb1fda43dd62529U, 0x3de99ce73e0f3a1aU, 0x3d93660cbd057e3bU, 0xbc5e7d0dbd2c6db7U,
  0x3d057e3b3d3d1d7eU, 0xbd640cfa3bde7d0dU, 0x3e3099a93d58ed20U, 0xbd8dd61fbd31fda4U,
  0xbdf1f4cb3d909e15U, 0xbda6ddca3dd0953cU, 0xbd9e85e63ce99ce7U, 0xbc1bbdf03de14504U,
  0x3cb1fda4bdb78d91U, 0x3def2cd43dba5588U, 0xbd378d91bd98f5f9U, 0x3de6d4f13d162e02U,
  0xbdc575623d378d91U, 0x3d699ce73ddbb516U, 0xbdb4c59bbd9e85e6U, 0xbda415d33cb1fda4U,
  0xbd26ddca3c5e7d0dU, 0x3d26ddcabdbfe575U, 0x3bde7d0d3c857e3bU, 0xbc909e15bdba5588U,
  0xbda14ddd3e109e15U, 0xbdac6db7bdcb054fU, 0xbdac6db7bb31fda4U, 0x3d8b0e283dcb054fU,
  0xbd962e023c857e3bU, 0xbc057e3bbd6f2cd4U, 0xbdd35d33bbde7d0dU, 0xbdc83d58bda6ddcaU,
  0x3cb1fda4U, 0x3d962e023d483d58U, 0xbd9bbdf0bd909e15U, 0xbcd35d333e041a40U,
  0xbd057e3bbcffdc9cU, 0xbb857e3b3b857e3bU, 0x3cd35d33bda14dddU, 0x3dc2ad6bbdd35d33U,
  0xbd909e15bd7a4cafU, 0xbd4dcd463da14dddU, 0x3daf35ad3ab1fda4U, 0x3c31fda43e084632U,
  0xbda6ddcabda6ddcaU, 0xbd378d91bbde7d0dU, 0x3bde7d0d3dd0953cU, 0x3b857e3b3d4dcd46U,
  0x3e02b6443df4bcc2U, 0xbc1bbdf03df1f4cbU, 0xbd74bcc2bd1bbdf0U, 0x3d640cfabc057e3bU,
  0x3e0dd61f3dd62529U, 0x3cf4bcc23e18f5f9U, 0xbd74bcc2bd74bcc2U, 0xbdcb054f3bde7d0dU,
  0xbd8846323dc83d58U, 0x3d0b0e283e18f5f9U, 0x3dfa4cafbc9bbdf0U, 0x3ab1fda4bdb4c59bU,
  0xbc483d583dde7d0dU, 0x3e2c6db7bd6f2cd4U, 0x3dffdc9c3dffdc9cU, 0xbd214ddd3dba5588U,
  0xbd057e3b3dec64deU, 0xbd109e153e015249U, 0xbcc83d58bd7fdc9cU, 0xbc31fda4bdb1fda4U,
  0xbd909e153c909e15U, 0xbd82b644bd7a4cafU, 0xbdd543003d17be71U, 0x3b033cec3e012ff8U,
  0x3dd12918bc8b70bbU, 0x3b833cecbca40c27U, 0x3e012ff83c554300U, 0xbdefeb5f3d512918U,
  0x3dd129183d0f8aa2U, 0x3d8b70bbbd69c484U, 0xbdd543003de190b6U, 0x3d3059ddbc13a48aU,
  0xbd44db623db680b8U, 0x3debd178bdefeb5fU, 0xbb833cec3ddb69dbU, 0x3de39da9bdc2ce6eU,
  0xbcbca793bd99cb65U, 0x3d28260e3dfc3916U, 0x3d6190b6bdc2ce6eU, 0x3d99cb653d3473c4U,
  0xbde5aa9d3dcd0f31U, 0xbd93a48a3d3059ddU, 0xbd388dacbdbca793U, 0x3e012ff8bdf40547U,
  0xbbc4db623b833cecU, 0xbd812ff8bda1ff33U, 0xbd033cecbccd0f31U, 0x3dcf1c243dd74ff3U,
  0xbd0756d33d595ce7U, 0x3cc4db62bdbca793U, 0xbdfc3916bd8b70bbU, 0x3ddf83c23cfe4609U,
  0x3c93a48abd6dde6cU, 0x3d0756d33db680b8U, 0xbcd543003df6123aU, 0x3d833cecbd9de54cU,
  0x3dfa2c223defeb5fU, 0x3c033cecbdc4db62U, 0xbdedde6cbba40c27U, 0x3ddb69db3dc8f549U,
  0x3d512918bda40c27U, 0xbd9de54c3c93a48aU, 0x3ba40c27bd3473c4U, 0xbd7e46093dc2ce6eU,
  0xbcfe4609bd2c3ff6U, 0x3dae4ce93d512918U, 0x3d28260e3d48f549U, 0xbbc4db62bc13a48aU,
  0xbd5543003c65aa9dU, 0xbd919796bc833cecU, 0xbb033cecbcb473c4U, 0xbdcf1c24bd812ff8U,
  0xbdf40547bdcb023dU, 0x3d3059ddbce5aa9dU, 0x3dc8f549ba833cecU, 0xbd99cb65bdc6e856U,
  0xbdedde6c3b033cecU, 0x3c240c273d919796U, 0xbd6190b63d3ca793U, 0x3dbca793bdc0c17bU,
  0x3b033cecbe012ff8U, 0x3d388dacbddd76ceU, 0xbd833cec3dd12918U, 0xbbe5aa9d3defeb5fU,
  0x3d8b70bbbdfa2c22U, 0x3e012ff8bdb88dacU, 0xbc93a48a3d6dde6cU, 0xbd8549e0bd97be71U,
  0x3d033cec3d28260eU, 0xbd595ce7bdd54300U, 0x3a833cecbd595ce7U, 0xbdc8f5493b44db62U,
  0xbb833cecbd44db62U, 0xbde190b6bd833cecU, 0x3dc6e8563ba40c27U, 0x3dcd0f31bdf40547U,
  0xbd5543003d5d76ceU, 0xbd1bd858bca40c27U, 0xbd71f8533dc4db62U, 0xbcac3ff6bcd54300U,
  0xbc8b70bb3df1f853U, 0x3d13a48abd76123aU, 0x3b033cecbdd95ce7U, 0x3d9de54cbddf83c2U,
  0x3cedde6cbe012ff8U, 0x3d5d76ce3d71f853U, 0xbd71f8533b033cecU, 0xbd0b70bbbd9bd858U,
  0x3d240c273d512918U, 0xbdf6123a3d8b70bbU, 0x3d8756d33de5aa9dU, 0x3da40c27bd4d0f31U,
  0xbccd0f31bdae4ce9U, 0xbd8f8aa2bdd54300U, 0x3dcb023dbda6191bU, 0x3ca40c273cb473c4U,
  0xbdb88dacbccd0f31U, 0x3d3473c43d99cb65U, 0x3d40c17b3de9c484U, 0x3daa33023e00297eU,
  0x3c240c273dc2ce6eU, 0x3c93a48abdbeb487U, 0xbe00297e3d17be71U, 0xbe00297ebcf6123aU,
  0x3de5aa9d3d8963c7U, 0xbd9bd8583d0756d3U, 0x3dd12918bdd74ff3U, 0xbd0b70bb3d1ff240U,
  0x3da8260e3d6190b6U, 0xbd1ff2403bc4db62U, 0xbdcb023d3d13a48aU, 0x3dbca793bcac3ff6U,
  0x3d1bd8583d28260eU, 0x3dd129183d812ff8U, 0xbdf6123a3dcf1c24U, 0xbdcd0f313d93a48aU,
  0xbd9de54c3c13a48aU, 0xbdfe4609bb833cecU, 0xbd44db623ccd0f31U, 0x3d8f8aa23d2c3ff6U,
  0x3d13a48a3df81f2eU, 0xbd48f549bd13a48aU, 0xbdd129183df6123aU, 0x3d6dde6cbcfe4609U,
  0x3da6191b3d812ff8U, 0x3d3059dd3cd54300U, 0x3cfe46093d8f8aa2U, 0xbde7b791bd388dacU,
  0xbd512918bde5aa9dU, 0xbc8b70bbbd71f853U, 0xbe023672bd3473c4U, 0x3d8b70bbbdba9aa0U,
  0xbd22df56bdb328dfU, 0x3c437268bc437268U, 0x3d744f013db328dfU, 0x3dbb4da3bc437268U,
  0xbc437268bd640579U, 0xbc4372683d9aba92U, 0xbdb328df3dcb972cU, 0xbce405793c024c45U,
  0xbd8a71093db328dfU, 0xbd744f01bd437268U, 0x3dc372683e53bbf0U, 0x3dab041b3b824c45U,
  0xbe3328dfbe8e836bU, 0x3d9aba92be1aba92U, 0xbd744f013ce40579U, 0xbddbe0b43c437268U,
  0x3d1295cebdc37268U, 0x3e4fa98e3d8a7109U, 0x3d744f01bc437268U, 0xbe024c45bdc37268U,
  0xbb824c453eea210cU, 0xbee817dbbe8a7109U, 0x3d9295cebec37268U, 0x3e8a71093db328dfU,
  0x3dbb4da33dd3bbf0U, 0x3de405793d22df56U, 0x3d3328df3d8a7109U, 0xbdc372683d437268U,
  0xbb824c453b824c45U, 0xbdbb4da3bdb328dfU, 0xbce405793e8c7a3aU, 0xbdf44f01bb824c45U,
  0xbdc37268bc024c45U, 0xbe4b972c3dc37268U, 0xbdc37268be5be0b4U, 0x3ca2df56bd640579U,
  0x3d437268bd1295ceU, 0xbde405793d437268U, 0xbd824c453dd3bbf0U, 0xbdbb4da3bd22df56U,
  0x3d53bbf03dbb4da3U, 0x3dec2a3d3e8e836bU, 0x3e1295ce3e9eccf4U, 0x3e9aba923e908c9dU,
  0x3d824c453cc37268U, 0x3d744f013e0e836bU, 0xbcc372683cc37268U, 0xbd024c453e024c45U,
  0xbda2df563db328dfU, 0xbc437268bdbb4da3U, 0xbe16a8303d22df56U, 0x3d1295cebe22df56U,
  0x3ec372683e8e836bU, 0x3e8455763eaf167dU, 0xbe1aba923de40579U, 0xbd9aba92be2b041bU,
  0x3e16a830bde40579U, 0xbdfc73c6bd3328dfU, 0x3d9aba92bd3328dfU, 0xbe024c45bc024c45U,
  0x3d8a7109be9cc3c3U, 0x3e0e836b3c824c45U, 0x3ce405793d1295ceU, 0xbe4b972cbd8a7109U,
  0xbdc37268bdbb4da3U, 0xbd437268bdec2a3dU, 0x3dab041b3d53bbf0U, 0x3de405793e0a7109U,
  0x3b824c453da2df56U, 0x3dd3bbf03da2df56U, 0xbd53bbf0be024c45U, 0x3e8a7109bc024c45U,
  0x3d9295ce3e7c73c6U, 0xbd64057900000000U, 0x3ca2df56be3f6005U, 0xbebf6005be9295ceU,
  0xbddbe0b4be16a830U, 0xbe1295cebe3b4da3U, 0xbdcb972cbca2df56U, 0xbd9aba92bb824c45U,
  0xbe3b4da3be1eccf4U, 0xbe703c9fbe1aba92U, 0x3b824c45bdd3bbf0U, 0x3e57ce523e4b972cU,
  0x3d8a71093e3b4da3U, 0xbe2b041bbcc37268U, 0xbc4372683d3328dfU, 0xbdab041b3df44f01U,
  0xbd824c453d3328dfU, 0x3b824c45bd9295ceU, 0xbddbe0b4U, 0xbd824c45be2b041bU,
  0x3e0a71093dab041bU, 0xbb824c453d640579U, 0x3cc372683c024c45U, 0xbdfc73c6bcc37268U,
  0xbdc372683dc37268U, 0xbd1295cebdd3bbf0U, 0x3db328dfbc437268U, 0x3dbb4da33dc37268U,
  0xbca2df563dd3bbf0U, 0xbdec2a3d3cc37268U, 0xbe3f6005be703c9fU, 0x3c024c45be4b972cU,
  0xbe804314be949effU, 0xbd9295ce3d53bbf0U, 0x3e024c453dc37268U, 0x3d024c45bd9aba92U,
  0x3dc372683e024c45U, 0x3db328df3d9295ceU, 0xbe6817dbbe57ce52U, 0x3cc37268bd1295ceU,
  0xbe9eccf4bd437268U, 0xbedff317be96a830U, 0x3cc37268be9cc3c3U, 0xbdec2a3dbca2df56U,
  0x3d22df56bce40579U, 0xbdbb4da33d53bbf0U, 0xbdbb4da33dd3bbf0U, 0xbdc37268bd8a7109U,
  0xbe53bbf0be0a7109U, 0xbe8867d8bf0147acU, 0x3b824c45be4b972cU, 0x3e8867d83e7c73c6U,
  0x3eaf167d3ed5c521U, 0xbd4372683df44f01U, 0xbc4372683e1295ceU, 0xbdab041bbe22df56U,
  0x3dab041b3dcb972cU, 0xbd640579bdab041bU, 0x3d15d2983d5383aaU, 0xbda772e6bd57ebbdU,
  0x3d5c53d1bdc41765U, 0x3dc1e35b3d8d0271U, 0x3ce523f83d464b6fU, 0x3db4ab21bdedf41fU,
  0x3b5383aa3d8d0271U, 0x3d5c53d1bd41e35bU, 0x3de523f83d7f946dU, 0xbd8ace67bddc53d1U,
  0x3cd383aa3cf6c446U, 0x3cdc53d1bdc87f79U, 0x3df4903c3d57ebbdU, 0xbcc1e35bbdb0430dU,
  0xbe0be86cbb5383aaU, 0xbcb0430d3d8d0271U, 0xbdbb473ebd8f367bU, 0xbd116a853d9c6eb5U,
  0x3ca772e63c9ea2bfU, 0xbcedf41f3c0d0271U, 0xbd6df41f3cdc53d1U, 0x3d889a5d3d2bdafaU,
  0xbdbd7b48bd2bdafaU, 0xbd3d7b48bca772e6U, 0x3d089a5dbd5c53d1U, 0xbda772e6bdb27717U,
  0x3dae0f033d04324aU, 0xbb5383aabdcab382U, 0x3bd383aa3dff946dU, 0x3d8ace673d15d298U,
  0xbd95d298bda30ad3U, 0x3c6523f8bd6523f8U, 0x3d9806a2bde523f8U, 0xbdb4ab213dfd6063U,
  0xbcb0430dbc9ea2bfU, 0xbd8ace673da30ad3U, 0x3df028283d5383aaU, 0x3cdc53d13d4ab382U,
  0xbd889a5d3bd383aaU, 0x3d34ab213d725c32U, 0x3d8ace673d81fe40U, 0xbd57ebbd3cff946dU,
  0x3d391334bccab382U, 0x3db6df2bbdda1fc7U, 0xbca772e6bd84324aU, 0xbd8ace673cb0430dU,
  0x3dbd7b483d889a5dU, 0x3cb91334bdb91334U, 0xbdabdafa3debc015U, 0xbd2772e6bdbfaf52U,
  0xbd30430dbda772e6U, 0x3d15d2983c0d0271U, 0xbb8d0271bd1ea2bfU, 0x3d15d2983d2772e6U,
  0xbd725c323dae0f03U, 0xbdb0430dbd1ea2bfU, 0xbdbd7b483dc41765U, 0x3db27717bdf4903cU,
  0x3d089a5dbdd7ebbdU, 0x3da30ad33d30430dU, 0x3da30ad3bb0d0271U, 0x3d2772e63c5383aaU,
  0x3e00e43b3e01fe40U, 0x3cb913343c6523f8U, 0xbbb0430d3b8d0271U, 0xbd04324a3c0d0271U,
  0xbd9806a2bde98c0bU, 0xbc76c446bdc41765U, 0xbcedf41fbda0d6c9U, 0x3c41e35b3db6df2bU,
  0x3d84324a3d889a5dU, 0x3c9ea2bf3d2772e6U, 0xbd2772e6bdc1e35bU, 0xbc9ea2bf3da772e6U,
  0x3cb0430d3cd383aaU, 0x3d34ab21bbd383aaU, 0xbd698c0bbd84324aU, 0xbdf4903cbd57ebbdU,
  0x3c0d02713d1ea2bfU, 0xbdb6df2b3c76c446U, 0x3dbfaf523c0d0271U, 0x3cb0430d3d2bdafaU,
  0xbd9ea2bf3de2efeeU, 0xbd2bdafabd9ea2bfU, 0xbd57ebbdbdbb473eU, 0xbc5383aa3d391334U,
  0xbd4ab382bd6df41fU, 0x3d6523f8bd60bbe4U, 0xbd76c446bdc64b6fU, 0x3b8d02713df4903cU,
  0xbb0d02713d8f367bU, 0xbd230ad3bdb27717U, 0x3db277173dbb473eU, 0x3d04324abc5383aaU,
  0xbce523f8bc6523f8U, 0x3dd383aa3d4ab382U, 0x3e0318453c76c446U, 0xbd76c4463dbb473eU,
  0xbda9a6f03de98c0bU, 0xbce523f8bde523f8U, 0xbdd383aabde2efeeU, 0x3d6523f83c0d0271U,
  0x3dcab3823c6523f8U, 0x3d3913343d84324aU, 0xbe066654bda30ad3U, 0x3d9806a2bd8d0271U,
  0xbdebc015bdedf41fU, 0x3d84324abdd5b7b3U, 0x3df8f8503d866654U, 0xbcf6c446bd725c32U,
  0x3c30430d3c84324aU, 0x3db277173d1ea2bfU, 0xbd2772e63db6df2bU, 0xbdae0f03bc41e35bU,
  0x3d8ace673df02828U, 0x3e054c4f3d2772e6U, 0x3dbb473e3de2efeeU, 0x3a8d0271bdcab382U,
  0xbbf6c446bd34ab21U, 0xbda0d6c93dda1fc7U, 0x3c0d02713dcf1b96U, 0x3c5383aabdf02828U,
  0xbdedf41fbd57ebbdU, 0x3ce523f83a8d0271U, 0xbd866654bd9806a2U, 0xbd4ab3823df25c32U,
  0xbdabdafa3d2bdafaU, 0xbb0d02713bf6c446U, 0xbb8d0271bd5383aaU, 0x3b5383aabc30430dU,
  0xbd1bf2e6bd2b8b31U, 0x3d0c5a9c3d4abbc5U, 0xbd3b237b3e622035U, 0xbbf984a4bc3b237bU,
  0xbd1bf2e63e048e77U, 0xbd7984a43d1bf2e6U, 0x3d2b8b31bc9bf2e6U, 0xbd1bf2e63d5a5410U,
  0xbd9bf2e63d8c5a9cU, 0xbd2b8b313dc2efa0U, 0x3e2f7143bd2b8b31U, 0x3e23bf0c3e8e4da6U,
  0xbe27a51ebc9bf2e6U, 0xbe5a5410be7984a4U, 0xbe46d5b3bea5b215U, 0xbdc2efa0be08748aU,
  0x3d0c5a9c3e42efa0U, 0xbc3b237b3e048e77U, 0xbda3bf0cbde22035U, 0xbbf984a43dda5410U,
  0x3e00a865be848e77U, 0x3df1b87f3e2f7143U, 0xbee22035bd5a5410U, 0xbe335756be759e91U,
  0x3ea998273d1bf2e6U, 0xbebd1684bd1bf2e6U, 0xbd9bf2e6bdcabbc5U, 0xbd0c5a9cbd848e77U,
  0xbdcabbc53de22035U, 0x3df1b87fbde22035U, 0xbe27a51ebea7a51eU, 0xbe42efa0be2b8b31U,
  0x3d848e773e1fd8f9U, 0xbe23bf0cbd4abbc5U, 0xbef7919bbe27a51eU, 0xbe9bf2e6bed66dfdU,
  0x3db357563e3b237bU, 0xbbf984a43bf984a4U, 0x3bf984a43de22035U, 0xbd8c5a9cbd8c5a9cU,
  0x3da3bf0c3dbb237bU, 0xbe3f098ebdcabbc5U, 0xbd2b8b31be9426c1U, 0x3e048e773d2b8b31U,
  0x3e1426c1bde9ec5aU, 0x3ea7a51e3e1bf2e6U, 0x3e08748a3e048e77U, 0x3e23bf0c3e9bf2e6U,
  0x3e00a8653d8c5a9cU, 0xbcda5410bd1bf2e6U, 0x3e2f71433da3bf0cU, 0xbd2b8b313e566dfdU,
  0xbe622035be4abbc5U, 0xbed094e1be048e77U, 0xbd848e77be7984a4U, 0x3ec4e2a9bd2b8b31U,
  0x3d5a54103e8c5a9cU, 0xbe566dfd3df1b87fU, 0x3d9bf2e6bd0c5a9cU, 0x3d1bf2e6bc7984a4U,
  0x3c7984a43d0c5a9cU, 0xbe42efa0be23bf0cU, 0x3de220353c9bf2e6U, 0x3e0c5a9c3e759e91U,
  0xbe373d68be00a865U, 0xbcbb237bbdcabbc5U, 0xbe2f7143bdb35756U, 0x3dda54103c7984a4U,
  0x3dc2efa0bd69ec5aU, 0xbd1bf2e63de9ec5aU, 0xbe71b87fbe5287eaU, 0xbde9ec5abe180cd4U,
  0x3dc2efa0bd9426c1U, 0xbe27a51e3bf984a4U, 0x3e4abbc5bd1bf2e6U, 0xbd0c5a9c3d9426c1U,
  0x3d5a54103d8c5a9cU, 0x3e46d5b33e1fd8f9U, 0x3df1b87f3d1bf2e6U, 0x3d1bf2e6bdbb237bU,
  0xbe1fd8f9bd69ec5aU, 0x3e88748abd3b237bU, 0x3b7984a43d7984a4U, 0xbde9ec5a3da3bf0cU,
  0xbd4abbc5be9040afU, 0x3eb73d683e00a865U, 0x3dc2efa03dbb237bU, 0x3e46d5b33de9ec5aU,
  0x3cf984a43dda5410U, 0x3de9ec5a3df984a4U, 0x3cf984a43e23bf0cU, 0x3ea998273e71b87fU,
  0x3dd287ea3e5287eaU, 0x3e9fd8f93e9fd8f9U, 0xbe3f098ebe2b8b31U, 0xbee22035bec0fc97U,
  0xbd3b237bbeb73d68U, 0x3e3357563d7984a4U, 0x3df1b87f3dab8b31U, 0x3d3b237bbda3bf0cU,
  0x3d8c5a9cbec6d5b3U, 0xbd848e77bbf984a4U, 0x3e180cd43e0c5a9cU, 0x3dc2efa03d848e77U,
  0x3eb54a5f3ead7e3aU, 0x3e71b87f3ebf098eU, 0xbda3bf0cbea7a51eU, 0x3e4abbc53cda5410U,
  0x3c9bf2e63df1b87fU, 0x3bf984a43dc2efa0U, 0x3ec6d5b33c3b237bU, 0x3df984a43ed47af4U,
  0x3d4abbc5bc7984a4U, 0x3eefc5763ecabbc5U, 0xbd7984a43e6dd26cU, 0xbead7e3abe5287eaU,
  0x3db35756bdab8b31U, 0x3b7984a4U, 0xbdbb237bbdc2efa0U, 0xbdd287eabdcabbc5U,
  0x3e8e4da63ee9ec5aU, 0x3e71b87f3e1bf2e6U, 0x3cbb237b3e4ea1d8U, 0xbd4abbc5be180cd4U,
  0x3e46d5b33c3b237bU, 0x3e99ffdd3e848e77U, 0xbd8c5a9cbdf1b87fU, 0x3e566dfd3e048e77U,
  0xbc7984a4bde22035U, 0xbd5a541000000000U, 0xbd81143ebe0b021bU, 0x3d5a71063d0b021bU,
  0x3d6e4cc1bd8b021bU, 0xbcee4cc1bc9eddd6U, 0x3cc6954c3d0b021bU, 0xbd32b9913d0b021bU,
  0xbd0b021b3cc6954cU, 0x3d0b021b3dbca76eU, 0x3df83a9ebdd08329U, 0xbdc6954c3c6e4cc1U,
  0x3cc6954c3de45ee4U, 0x3ea3d4c53d5a7106U, 0x3da8cbb33eb7b07fU, 0xbd6e4cc13dbca76eU,
  0xbe23d4c5be23d4c5U, 0x3d6e4cc1bdda7106U, 0xbd81143e3dd08329U, 0x3d0b021b3d6e4cc1U,
  0xbd32b9913d5a7106U, 0x3dee4cc1bc9eddd6U, 0xbd46954cbdb2b991U, 0x3e419e5d3d8b021bU,
  0xbe419e5dbe060b2dU, 0xbe838fb5bdf83a9eU, 0x3da8cbb3bd0b021bU, 0xbe94eff9bd9eddd6U,
  0xbea3d4c5be23d4c5U, 0xbd5a7106bd81143eU, 0x3dc6954cbd32b991U, 0x3d1eddd6be01143eU,
  0xbe2dc2a2be14eff9U, 0xbe19e6e73c9eddd6U, 0xbe4b8c3a3d5a7106U, 0xbec419d4befab616U,
  0xbeee4cc1bf04cd71U, 0xbeab472bbe927481U, 0xbd1eddd63de45ee4U, 0xbdbca76ebd6e4cc1U,
  0xbd6e4cc1bd9eddd6U, 0x3d46954c3da8cbb3U, 0xbda8cbb3bd6e4cc1U, 0xbe7d318d3cee4cc1U,
  0xbe32b991be8d7d93U, 0x3dbca76e3d8b021bU, 0xbd0b021b3d0b021bU, 0xbc1eddd6bd94eff9U,
  0x3c9eddd6bd1eddd6U, 0x3e783a9e3e3ca76eU, 0xbdb2b991bd32b991U, 0x3dc6954c3df83a9eU,
  0x3e23d4c5bd46954cU, 0xbe2dc2a23e508329U, 0xbec6954cbe81143eU, 0x3cc6954cbe7343b0U,
  0x3e5a71063e557a18U, 0x3e81143e3e2dc2a2U, 0x3cee4cc13f01143eU, 0x3e0ff90a3c6e4cc1U,
  0xbd8b021bbda8cbb3U, 0x3d81143e3c9eddd6U, 0x3db2b9913d46954cU, 0x3ea3d4c53ea8cbb3U,
  0x3e976b703e8b021bU, 0x3eab472b3e6e4cc1U, 0x3c6e4cc13e14eff9U, 0xbd81143ebd1eddd6U,
  0xbdd08329bec6954cU, 0x3eab472b3e419e5dU, 0xbc1eddd6bdc6954cU, 0xbd46954cbdc6954cU,
  0x3dbca76e3cc6954cU, 0xbde45ee43d81143eU, 0x3d46954cbe645ee4U, 0x3e19e6e73e557a18U,
